{
  "<pad>": 0,
  "<s>": 1,
  "</s>": 2,
  "<mask>": 3,
  "<unk>": 4,
  "<0x00>": 5,
  "<0x01>": 6,
  "<0x02>": 7,
  "<0x03>": 8,
  "<0x04>": 9,
  "<0x05>": 10,
  "<0x06>": 11,
  "<0x07>": 12,
  "<0x08>": 13,
  "<0x09>": 14,
  "<0x0A>": 15,
  "<0x0B>": 16,
  "<0x0C>": 17,
  "<0x0D>": 18,
  "<0x0E>": 19,
  "<0x0F>": 20,
  "<0x10>": 21,
  "<0x11>": 22,
  "<0x12>": 23,
  "<0x13>": 24,
  "<0x14>": 25,
  "<0x15>": 26,
  "<0x16>": 27,
  "<0x17>": 28,
  "<0x18>": 29,
  "<0x19>": 30,
  "<0x1A>": 31,
  "<0x1B>": 32,
  "<0x1C>": 33,
  "<0x1D>": 34,
  "<0x1E>": 35,
  "<0x1F>": 36,
  "<0x20>": 37,
  "<0x21>": 38,
  "<0x22>": 39,
  "<0x23>": 40,
  "<0x24>": 41,
  "<0x25>": 42,
  "<0x26>": 43,
  "<0x27>": 44,
  "<0x28>": 45,
  "<0x29>": 46,
  "<0x2A>": 47,
  "<0x2B>": 48,
  "<0x2C>": 49,
  "<0x2D>": 50,
  "<0x2E>": 51,
  "<0x2F>": 52,
  "<0x30>": 53,
  "<0x31>": 54,
  "<0x32>": 55,
  "<0x33>": 56,
  "<0x34>": 57,
  "<0x35>": 58,
  "<0x36>": 59,
  "<0x37>": 60,
  "<0x38>": 61,
  "<0x39>": 62,
  "<0x3A>": 63,
  "<0x3B>": 64,
  "<0x3C>": 65,
  "<0x3D>": 66,
  "<0x3E>": 67,
  "<0x3F>": 68,
  "<0x40>": 69,
  "<0x41>": 70,
  "<0x42>": 71,
  "<0x43>": 72,
  "<0x44>": 73,
  "<0x45>": 74,
  "<0x46>": 75,
  "<0x47>": 76,
  "<0x48>": 77,
  "<0x49>": 78,
  "<0x4A>": 79,
  "<0x4B>": 80,
  "<0x4C>": 81,
  "<0x4D>": 82,
  "<0x4E>": 83,
  "<0x4F>": 84,
  "<0x50>": 85,
  "<0x51>": 86,
  "<0x52>": 87,
  "<0x53>": 88,
  "<0x54>": 89,
  "<0x55>": 90,
  "<0x56>": 91,
  "<0x57>": 92,
  "<0x58>": 93,
  "<0x59>": 94,
  "<0x5A>": 95,
  "<0x5B>": 96,
  "<0x5C>": 97,
  "<0x5D>": 98,
  "<0x5E>": 99,
  "<0x5F>": 100,
  "<0x60>": 101,
  "<0x61>": 102,
  "<0x62>": 103,
  "<0x63>": 104,
  "<0x64>": 105,
  "<0x65>": 106,
  "<0x66>": 107,
  "<0x67>": 108,
  "<0x68>": 109,
  "<0x69>": 110,
  "<0x6A>": 111,
  "<0x6B>": 112,
  "<0x6C>": 113,
  "<0x6D>": 114,
  "<0x6E>": 115,
  "<0x6F>": 116,
  "<0x70>": 117,
  "<0x71>": 118,
  "<0x72>": 119,
  "<0x73>": 120,
  "<0x74>": 121,
  "<0x75>": 122,
  "<0x76>": 123,
  "<0x77>": 124,
  "<0x78>": 125,
  "<0x79>": 126,
  "<0x7A>": 127,
  "<0x7B>": 128,
  "<0x7C>": 129,
  "<0x7D>": 130,
  "<0x7E>": 131,
  "<0x7F>": 132,
  "<0x80>": 133,
  "<0x81>": 134,
  "<0x82>": 135,
  "<0x83>": 136,
  "<0x84>": 137,
  "<0x85>": 138,
  "<0x86>": 139,
  "<0x87>": 140,
  "<0x88>": 141,
  "<0x89>": 142,
  "<0x8A>": 143,
  "<0x8B>": 144,
  "<0x8C>": 145,
  "<0x8D>": 146,
  "<0x8E>": 147,
  "<0x8F>": 148,
  "<0x90>": 149,
  "<0x91>": 150,
  "<0x92>": 151,
  "<0x93>": 152,
  "<0x94>": 153,
  "<0x95>": 154,
  "<0x96>": 155,
  "<0x97>": 156,
  "<0x98>": 157,
  "<0x99>": 158,
  "<0x9A>": 159,
  "<0x9B>": 160,
  "<0x9C>": 161,
  "<0x9D>": 162,
  "<0x9E>": 163,
  "<0x9F>": 164,
  "<0xA0>": 165,
  "<0xA1>": 166,
  "<0xA2>": 167,
  "<0xA3>": 168,
  "<0xA4>": 169,
  "<0xA5>": 170,
  "<0xA6>": 171,
  "<0xA7>": 172,
  "<0xA8>": 173,
  "<0xA9>": 174,
  "<0xAA>": 175,
  "<0xAB>": 176,
  "<0xAC>": 177,
  "<0xAD>": 178,
  "<0xAE>": 179,
  "<0xAF>": 180,
  "<0xB0>": 181,
  "<0xB1>": 182,
  "<0xB2>": 183,
  "<0xB3>": 184,
  "<0xB4>": 185,
  "<0xB5>": 186,
  "<0xB6>": 187,
  "<0xB7>": 188,
  "<0xB8>": 189,
  "<0xB9>": 190,
  "<0xBA>": 191,
  "<0xBB>": 192,
  "<0xBC>": 193,
  "<0xBD>": 194,
  "<0xBE>": 195,
  "<0xBF>": 196,
  "<0xC0>": 197,
  "<0xC1>": 198,
  "<0xC2>": 199,
  "<0xC3>": 200,
  "<0xC4>": 201,
  "<0xC5>": 202,
  "<0xC6>": 203,
  "<0xC7>": 204,
  "<0xC8>": 205,
  "<0xC9>": 206,
  "<0xCA>": 207,
  "<0xCB>": 208,
  "<0xCC>": 209,
  "<0xCD>": 210,
  "<0xCE>": 211,
  "<0xCF>": 212,
  "<0xD0>": 213,
  "<0xD1>": 214,
  "<0xD2>": 215,
  "<0xD3>": 216,
  "<0xD4>": 217,
  "<0xD5>": 218,
  "<0xD6>": 219,
  "<0xD7>": 220,
  "<0xD8>": 221,
  "<0xD9>": 222,
  "<0xDA>": 223,
  "<0xDB>": 224,
  "<0xDC>": 225,
  "<0xDD>": 226,
  "<0xDE>": 227,
  "<0xDF>": 228,
  "<0xE0>": 229,
  "<0xE1>": 230,
  "<0xE2>": 231,
  "<0xE3>": 232,
  "<0xE4>": 233,
  "<0xE5>": 234,
  "<0xE6>": 235,
  "<0xE7>": 236,
  "<0xE8>": 237,
  "<0xE9>": 238,
  "<0xEA>": 239,
  "<0xEB>": 240,
  "<0xEC>": 241,
  "<0xED>": 242,
  "<0xEE>": 243,
  "<0xEF>": 244,
  "<0xF0>": 245,
  "<0xF1>": 246,
  "<0xF2>": 247,
  "<0xF3>": 248,
  "<0xF4>": 249,
  "<0xF5>": 250,
  "<0xF6>": 251,
  "<0xF7>": 252,
  "<0xF8>": 253,
  "<0xF9>": 254,
  "<0xFA>": 255,
  "<0xFB>": 256,
  "<0xFC>": 257,
  "<0xFD>": 258,
  "<0xFE>": 259,
  "<0xFF>": 260,
  " क": 261,
  "क": 262,
  "்க": 263,
  "்த": 264,
  " स": 265,
  "स": 266,
  "য়": 267,
  "ம்": 268,
  " म": 269,
  "म": 270,
  " ह": 271,
  "ह": 272,
  "ার": 273,
  " प": 274,
  "प": 275,
  "ல்": 276,
  " ప": 277,
  "ప": 278,
  " ক": 279,
  "ক": 280,
  "ార": 281,
  "ன்": 282,
  " ப": 283,
  "ப": 284,
  "ని": 285,
  " স": 286,
  "স": 287,
  "్ర": 288,
  " ব": 289,
  "ব": 290,
  " క": 291,
  "క": 292,
  "న్": 293,
  "க்க": 294,
  " க": 295,
  "க": 296,
  "்ட": 297,
  "ের": 298,
  " প": 299,
  "প": 300,
  " వ": 301,
  "వ": 302,
  " ம": 303,
  "ம": 304,
  "స్": 305,
  "்ப": 306,
  " வ": 307,
  "வ": 308,
  "த்த": 309,
  "ार": 310,
  "ें": 311,
  "্র": 312,
  "ర్": 313,
  " అ": 314,
  "అ": 315,
  " के": 316,
  "के": 317,
  "ने": 318,
  "ంద": 319,
  " మ": 320,
  "మ": 321,
  " த": 322,
  "த": 323,
  " ब": 324,
  "ब": 325,
  "्र": 326,
  "ர்": 327,
  "্য": 328,
  " அ": 329,
  "அ": 330,
  "ும்": 331,
  "ிய": 332,
  "లు": 333,
  " ச": 334,
  "ச": 335,
  "ள்": 336,
  " స": 337,
  "స": 338,
  "లో": 339,
  "ান": 340,
  " है": 341,
  "है": 342,
  "या": 343,
  " చ": 344,
  "చ": 345,
  " ज": 346,
  "ज": 347,
  " এ": 348,
  "এ": 349,
  " இ": 350,
  "இ": 351,
  "ப்ப": 352,
  " আ": 353,
  "আ": 354,
  " ম": 355,
  "ম": 356,
  "ரு": 357,
  "ந்த": 358,
  "ட்ட": 359,
  " द": 360,
  "द": 361,
  "து": 362,
  "ில்": 363,
  " में": 364,
  "में": 365,
  " হ": 366,
  "হ": 367,
  " र": 368,
  "र": 369,
  " ந": 370,
  "ந": 371,
  "కు": 372,
  " ন": 373,
  "ন": 374,
  "్య": 375,
  " व": 376,
  "व": 377,
  " త": 378,
  "త": 379,
  " ल": 380,
  "ल": 381,
  " अ": 382,
  "अ": 383,
  "ों": 384,
  " দ": 385,
  "দ": 386,
  "న్న": 387,
  " की": 388,
  "की": 389,
  "ల్": 390,
  "্ত": 391,
  "గా": 392,
  "ంచ": 393,
  " কর": 394,
  "কর": 395,
  "ట్": 396,
  " ত": 397,
  "ত": 398,
  "েন": 399,
  " न": 400,
  "न": 401,
  "క్": 402,
  " को": 403,
  "को": 404,
  "ారు": 405,
  "য়ে": 406,
  "ను": 407,
  "ங்க": 408,
  " ర": 409,
  "ర": 410,
  " எ": 411,
  "எ": 412,
  " ग": 413,
  "ग": 414,
  "ைய": 415,
  "ంది": 416,
  " অ": 417,
  "অ": 418,
  "र्": 419,
  "ान": 420,
  " জ": 421,
  "জ": 422,
  " ప్ర": 423,
  "ప్ర": 424,
  " से": 425,
  "से": 426,
  " आ": 427,
  "आ": 428,
  "తు": 429,
  " कि": 430,
  "कि": 431,
  " ఆ": 432,
  "ఆ": 433,
  "ాల": 434,
  "িক": 435,
  "రి": 436,
  "ாக": 437,
  "ता": 438,
  "াল": 439,
  " इ": 440,
  "इ": 441,
  " का": 442,
  "का": 443,
  " कर": 444,
  "कर": 445,
  "িন": 446,
  " भ": 447,
  "भ": 448,
  " त": 449,
  "त": 450,
  "ায়": 451,
  " उ": 452,
  "उ": 453,
  "డు": 454,
  "ின்": 455,
  " প্র": 456,
  "প্র": 457,
  "டு": 458,
  "ிற": 459,
  "టి": 460,
  " ने": 461,
  "డి": 462,
  "তে": 463,
  " ఉ": 464,
  "ఉ": 465,
  " చే": 466,
  "చే": 467,
  " உ": 468,
  "உ": 469,
  "কে": 470,
  " র": 471,
  "র": 472,
  " শ": 473,
  "শ": 474,
  "ना": 475,
  " ఇ": 476,
  "ఇ": 477,
  "..": 478,
  "தி": 479,
  " న": 480,
  "న": 481,
  "াম": 482,
  "िक": 483,
  "க்கு": 484,
  " पर": 485,
  "पर": 486,
  "्य": 487,
  "ற்": 488,
  "র্": 489,
  "కి": 490,
  " ద": 491,
  "ద": 492,
  " బ": 493,
  "బ": 494,
  "ছে": 495,
  "টি": 496,
  "ाल": 497,
  "ள்ள": 498,
  "ற்ற": 499,
  "்ச": 500,
  "ంత": 501,
  " য": 502,
  "য": 503,
  "ண்ட": 504,
  "िल": 505,
  "యి": 506,
  " श": 507,
  "श": 508,
  " వి": 509,
  "వి": 510,
  "বে": 511,
  " ஆ": 512,
  "ஆ": 513,
  " বি": 514,
  "বি": 515,
  " গ": 516,
  "গ": 517,
  "లి": 518,
  "ார": 519,
  "ிர": 520,
  "লে": 521,
  "త్": 522,
  "ప్": 523,
  " च": 524,
  "च": 525,
  "स्": 526,
  " औ": 527,
  "औ": 528,
  "ড়": 529,
  " प्र": 530,
  "प्र": 531,
  "த்து": 532,
  " और": 533,
  "और": 534,
  "రు": 535,
  "ంట": 536,
  "লা": 537,
  " జ": 538,
  "జ": 539,
  " ఎ": 540,
  "ఎ": 541,
  "ன்ற": 542,
  " ए": 543,
  "ए": 544,
  " চ": 545,
  "চ": 546,
  "ான": 547,
  " గ": 548,
  "గ": 549,
  "क्": 550,
  "டி": 551,
  "ில": 552,
  " மு": 553,
  "மு": 554,
  " इस": 555,
  "इस": 556,
  "ही": 557,
  "ిన": 558,
  "্ব": 559,
  " নি": 560,
  "নি": 561,
  " செ": 562,
  "செ": 563,
  "हा": 564,
  "্ট": 565,
  "ார்": 566,
  "ించ": 567,
  "াস": 568,
  " ও": 569,
  "ও": 570,
  " हो": 571,
  "हो": 572,
  " ভ": 573,
  "ভ": 574,
  "ార్": 575,
  "మా": 576,
  "িত": 577,
  "తి": 578,
  "ிக": 579,
  " উ": 580,
  "উ": 581,
  "లా": 582,
  "ంలో": 583,
  "ர்க": 584,
  " थ": 585,
  "थ": 586,
  "াক": 587,
  "ంగా": 588,
  "ाम": 589,
  "ండ": 590,
  "ित": 591,
  " हैं": 592,
  "हैं": 593,
  " পর": 594,
  "পর": 595,
  "సు": 596,
  "্ষ": 597,
  "టు": 598,
  " '": 599,
  "'": 600,
  "िया": 601,
  "லை": 602,
  " ఈ": 603,
  "ఈ": 604,
  " जा": 605,
  "जा": 606,
  " य": 607,
  "य": 608,
  "তি": 609,
  "ప్ప": 610,
  "वा": 611,
  "াদ": 612,
  "িল": 613,
  "ুর": 614,
  "াই": 615,
  " (": 616,
  "(": 617,
  " ని": 618,
  "ட்டு": 619,
  " வி": 620,
  "வி": 621,
  "ரி": 622,
  "िए": 623,
  "াজ": 624,
  "िय": 625,
  " থ": 626,
  "থ": 627,
  " এক": 628,
  "এক": 629,
  "స్తు": 630,
  " করে": 631,
  "করে": 632,
  " ஒ": 633,
  "ஒ": 634,
  " ख": 635,
  "ख": 636,
  "ద్": 637,
  "తో": 638,
  "ंग": 639,
  "చ్": 640,
  "ந்து": 641,
  " फ": 642,
  "फ": 643,
  " भी": 644,
  "भी": 645,
  "ంగ": 646,
  "াত": 647,
  "ুল": 648,
  "ப்": 649,
  "యా": 650,
  " बा": 651,
  "बा": 652,
  " கு": 653,
  "கு": 654,
  "ला": 655,
  "েশ": 656,
  " రా": 657,
  "రా": 658,
  "ते": 659,
  "வு": 660,
  "్యా": 661,
  "ளை": 662,
  "ష్": 663,
  "సి": 664,
  "त्र": 665,
  "ির": 666,
  " स्": 667,
  "ेश": 668,
  "వా": 669,
  "నే": 670,
  "ন্": 671,
  " वि": 672,
  "वि": 673,
  " కా": 674,
  "కా": 675,
  "ால்": 676,
  "ది": 677,
  "డా": 678,
  "री": 679,
  "లే": 680,
  "ிரு": 681,
  "టీ": 682,
  " বা": 683,
  "বা": 684,
  "িয়ে": 685,
  "డ్": 686,
  "ले": 687,
  " స్": 688,
  "నా": 689,
  " সম": 690,
  "সম": 691,
  "্যা": 692,
  "చ్చ": 693,
  " హ": 694,
  "హ": 695,
  "न्": 696,
  "న్ని": 697,
  " ফ": 698,
  "ফ": 699,
  "న్నారు": 700,
  " இரு": 701,
  "இரு": 702,
  "हीं": 703,
  "க்": 704,
  "্থ": 705,
  " తె": 706,
  "తె": 707,
  " செய": 708,
  "செய": 709,
  " ই": 710,
  "ই": 711,
  " భ": 712,
  "భ": 713,
  "ச்ச": 714,
  "रा": 715,
  "దు": 716,
  "ती": 717,
  " रा": 718,
  " கொ": 719,
  "கொ": 720,
  " போ": 721,
  "போ": 722,
  "য়া": 723,
  " ছ": 724,
  "ছ": 725,
  " सा": 726,
  "सा": 727,
  " খ": 728,
  "খ": 729,
  "िस": 730,
  "ின": 731,
  " लिए": 732,
  "लिए": 733,
  "ல்ல": 734,
  "ాయి": 735,
  " శ": 736,
  "శ": 737,
  " ट": 738,
  "ट": 739,
  "று": 740,
  "ारी": 741,
  "స్త": 742,
  " एक": 743,
  "एक": 744,
  " सं": 745,
  "सं": 746,
  " மா": 747,
  "மா": 748,
  "గు": 749,
  "নে": 750,
  "ందు": 751,
  "िन": 752,
  "गा": 753,
  "রা": 754,
  "ुर": 755,
  "सी": 756,
  "த்": 757,
  " ১": 758,
  "১": 759,
  "াব": 760,
  " கா": 761,
  "கா": 762,
  "ిక": 763,
  " அவ": 764,
  "அவ": 765,
  " হয়ে": 766,
  "হয়ে": 767,
  "नी": 768,
  "త్ర": 769,
  "্প": 770,
  "த்தில்": 771,
  "ति": 772,
  "ন্ত": 773,
  "రో": 774,
  "ன்ன": 775,
  " సి": 776,
  "्या": 777,
  "క్ష": 778,
  "ப்பு": 779,
  " আম": 780,
  "আম": 781,
  "மை": 782,
  "ঙ্": 783,
  "িস": 784,
  " नहीं": 785,
  "नहीं": 786,
  " చె": 787,
  "చె": 788,
  " பெ": 789,
  "பெ": 790,
  "మ్": 791,
  "ोग": 792,
  "ளு": 793,
  " हु": 794,
  "हु": 795,
  "పు": 796,
  " ఏ": 797,
  "ఏ": 798,
  " ২": 799,
  "২": 800,
  "ছেন": 801,
  "বার": 802,
  "నికి": 803,
  " দে": 804,
  "দে": 805,
  " ले": 806,
  "వు": 807,
  "েল": 808,
  "দের": 809,
  "ళ్": 810,
  "ক্ষ": 811,
  "ां": 812,
  "ரா": 813,
  "वार": 814,
  "ంచి": 815,
  " இந்த": 816,
  "இந்த": 817,
  "ేశ": 818,
  " ड": 819,
  "ड": 820,
  "றி": 821,
  "োন": 822,
  " किया": 823,
  "किया": 824,
  "ையில்": 825,
  " தொ": 826,
  "தொ": 827,
  " सम": 828,
  "सम": 829,
  " না": 830,
  "না": 831,
  "য়ার": 832,
  " अप": 833,
  "अप": 834,
  "ஸ்": 835,
  "েকে": 836,
  "क्ष": 837,
  " জন": 838,
  "জন": 839,
  "ली": 840,
  "ன்று": 841,
  " ஒரு": 842,
  "ஒரு": 843,
  " ఫ": 844,
  "ఫ": 845,
  " வே": 846,
  "வே": 847,
  " కో": 848,
  "కో": 849,
  " दे": 850,
  "दे": 851,
  " मु": 852,
  "मु": 853,
  "ான்": 854,
  " रह": 855,
  "रह": 856,
  " కొ": 857,
  "కొ": 858,
  "ंद": 859,
  "ாய": 860,
  "க்கும்": 861,
  " మా": 862,
  " ఒ": 863,
  "ఒ": 864,
  "டை": 865,
  " ট": 866,
  "ট": 867,
  " ही": 868,
  " থেকে": 869,
  "থেকে": 870,
  "ారి": 871,
  "ुल": 872,
  "ுவ": 873,
  " সে": 874,
  "সে": 875,
  "ங்கள்": 876,
  " ను": 877,
  "ाय": 878,
  "াহ": 879,
  " गया": 880,
  "गया": 881,
  " नि": 882,
  "नि": 883,
  " పా": 884,
  "పా": 885,
  "ம்ப": 886,
  "్రా": 887,
  "কার": 888,
  " ল": 889,
  "ল": 890,
  "ঙ্গ": 891,
  "त्": 892,
  " పె": 893,
  "పె": 894,
  "ண்டு": 895,
  "োগ": 896,
  " సం": 897,
  "సం": 898,
  " पह": 899,
  "पह": 900,
  " కూ": 901,
  "కూ": 902,
  " হয়": 903,
  "হয়": 904,
  "ற்க": 905,
  "িনি": 906,
  " ము": 907,
  "ము": 908,
  "క్క": 909,
  " তার": 910,
  "তার": 911,
  "పై": 912,
  " కే": 913,
  "కే": 914,
  " এই": 915,
  "এই": 916,
  "ల్లో": 917,
  "দ্": 918,
  " कार": 919,
  "कार": 920,
  "ారం": 921,
  "கள்": 922,
  "्ट": 923,
  "াপ": 924,
  "ாவ": 925,
  " వె": 926,
  "వె": 927,
  "మి": 928,
  "ர்கள்": 929,
  "ियों": 930,
  "ক্ত": 931,
  "ண்": 932,
  " \"": 933,
  "\"": 934,
  "னர்": 935,
  "চ্": 936,
  "ிக்க": 937,
  "ంతో": 938,
  " था": 939,
  "था": 940,
  " ড": 941,
  "ড": 942,
  " -": 943,
  "-": 944,
  "िला": 945,
  " வெ": 946,
  "வெ": 947,
  "పో": 948,
  "లీ": 949,
  "্ম": 950,
  "னை": 951,
  " ঘ": 952,
  "ঘ": 953,
  "ப்பட்ட": 954,
  "యం": 955,
  " এব": 956,
  "এব": 957,
  "ால": 958,
  "ধ্য": 959,
  " জান": 960,
  "জান": 961,
  " घ": 962,
  "घ": 963,
  " कहा": 964,
  "कहा": 965,
  "ైన": 966,
  " এবং": 967,
  "এবং": 968,
  "లకు": 969,
  "ாள": 970,
  "ன்ப": 971,
  "மி": 972,
  "টা": 973,
  " ஏ": 974,
  "ஏ": 975,
  " పో": 976,
  "নের": 977,
  " সং": 978,
  "সং": 979,
  " অন": 980,
  "অন": 981,
  " மற்ற": 982,
  "மற்ற": 983,
  "మె": 984,
  " ఉన్న": 985,
  "ఉన్న": 986,
  " பு": 987,
  "பு": 988,
  "లను": 989,
  "டிய": 990,
  " తీ": 991,
  "తీ": 992,
  " தே": 993,
  "தே": 994,
  "యు": 995,
  "ীর": 996,
  " আর": 997,
  "আর": 998,
  "్రి": 999,
  " உள்ள": 1000,
  "உள்ள": 1001,
  "ష్ట": 1002,
  " என": 1003,
  "என": 1004,
  " তা": 1005,
  "তা": 1006,
  "ండి": 1007,
  " ধ": 1008,
  "ধ": 1009,
  "न्ह": 1010,
  "ளில்": 1011,
  " করা": 1012,
  "করা": 1013,
  " கூ": 1014,
  "கூ": 1015,
  " करने": 1016,
  "करने": 1017,
  "ட்ச": 1018,
  "मा": 1019,
  "றை": 1020,
  "ాడు": 1021,
  "ிறது": 1022,
  " లే": 1023,
  "ரை": 1024,
  " కూడా": 1025,
  "కూడా": 1026,
  " ట": 1027,
  "ట": 1028,
  "ంగ్": 1029,
  "ंड": 1030,
  "...": 1031,
  "ास": 1032,
  " பிர": 1033,
  "பிர": 1034,
  "ాలు": 1035,
  "న్‌": 1036,
  " ர": 1037,
  "ர": 1038,
  "மாக": 1039,
  " साथ": 1040,
  "साथ": 1041,
  "ச்": 1042,
  "ंच": 1043,
  " बाद": 1044,
  "बाद": 1045,
  " পার": 1046,
  "পার": 1047,
  "रो": 1048,
  "াবে": 1049,
  "াদের": 1050,
  "పీ": 1051,
  " सि": 1052,
  "सि": 1053,
  " చి": 1054,
  "చి": 1055,
  "ীয়": 1056,
  "గి": 1057,
  "িশ": 1058,
  " లో": 1059,
  "్వ": 1060,
  " மற்றும்": 1061,
  "மற்றும்": 1062,
  " பா": 1063,
  "பா": 1064,
  " বল": 1065,
  "বল": 1066,
  "త్త": 1067,
  "ద్ద": 1068,
  "्म": 1069,
  "నీ": 1070,
  "திய": 1071,
  "ற்ப": 1072,
  "ুন": 1073,
  " तो": 1074,
  "तो": 1075,
  "ప్పు": 1076,
  " நா": 1077,
  "நா": 1078,
  " தெ": 1079,
  "தெ": 1080,
  "்கள்": 1081,
  " మీ": 1082,
  "మీ": 1083,
  " अध": 1084,
  "अध": 1085,
  "పి": 1086,
  " ఒక": 1087,
  "ఒక": 1088,
  "ర్‌": 1089,
  " उन्ह": 1090,
  "उन्ह": 1091,
  "డం": 1092,
  "மான": 1093,
  " பொ": 1094,
  "பொ": 1095,
  " रहे": 1096,
  "रहे": 1097,
  " যে": 1098,
  "যে": 1099,
  "ట్ట": 1100,
  " দু": 1101,
  "দু": 1102,
  "స్తున్న": 1103,
  "भा": 1104,
  "டுத்த": 1105,
  "తే": 1106,
  " উপ": 1107,
  "উপ": 1108,
  " लोग": 1109,
  "लोग": 1110,
  " নে": 1111,
  "गी": 1112,
  "রে": 1113,
  " ల": 1114,
  "ల": 1115,
  "బ్": 1116,
  " సా": 1117,
  "సా": 1118,
  "வர்": 1119,
  "দ্ধ": 1120,
  "ষ্": 1121,
  "াশ": 1122,
  " నిర్": 1123,
  "నిర్": 1124,
  "ளுக்கு": 1125,
  " மே": 1126,
  "மே": 1127,
  "ழு": 1128,
  " कु": 1129,
  "कु": 1130,
  " पू": 1131,
  "पू": 1132,
  " यह": 1133,
  "यह": 1134,
  "ாத": 1135,
  "த்தை": 1136,
  " পরি": 1137,
  "পরি": 1138,
  "স্থ": 1139,
  "ரிய": 1140,
  " వే": 1141,
  "వే": 1142,
  "திக": 1143,
  "दी": 1144,
  "స్‌": 1145,
  " वाल": 1146,
  "वाल": 1147,
  " பே": 1148,
  "பே": 1149,
  " గు": 1150,
  " उन": 1151,
  "उन": 1152,
  " ব্য": 1153,
  "ব্য": 1154,
  " राज": 1155,
  "राज": 1156,
  "্ড": 1157,
  " सु": 1158,
  "सु": 1159,
  "ిల్": 1160,
  "బా": 1161,
  " కు": 1162,
  " அத": 1163,
  "அத": 1164,
  "দেশ": 1165,
  " సిని": 1166,
  "సిని": 1167,
  "ाह": 1168,
  " दो": 1169,
  "दो": 1170,
  "సీ": 1171,
  "रे": 1172,
  "దా": 1173,
  "ানে": 1174,
  " డ": 1175,
  "డ": 1176,
  "ிட": 1177,
  " তিনি": 1178,
  "তিনি": 1179,
  "ంటు": 1180,
  " दिया": 1181,
  "दिया": 1182,
  " छ": 1183,
  "छ": 1184,
  "देश": 1185,
  " நீ": 1186,
  "நீ": 1187,
  "ంటి": 1188,
  "லா": 1189,
  "ரச": 1190,
  "జు": 1191,
  "గ్": 1192,
  " সা": 1193,
  "সা": 1194,
  " अन": 1195,
  "अन": 1196,
  " రె": 1197,
  "రె": 1198,
  "வும்": 1199,
  "సిన": 1200,
  " জন্য": 1201,
  "জন্য": 1202,
  "வை": 1203,
  "ছিল": 1204,
  " వా": 1205,
  "సుకు": 1206,
  " సమ": 1207,
  "సమ": 1208,
  " হয়েছে": 1209,
  "হয়েছে": 1210,
  "ரும்": 1211,
  " வழ": 1212,
  "வழ": 1213,
  "ंत्र": 1214,
  "ற்று": 1215,
  " কি": 1216,
  "কি": 1217,
  "्री": 1218,
  " মু": 1219,
  "মু": 1220,
  "తం": 1221,
  " गई": 1222,
  "गई": 1223,
  " প্রতি": 1224,
  "প্রতি": 1225,
  " নিয়ে": 1226,
  "নিয়ে": 1227,
  " நட": 1228,
  "நட": 1229,
  " మరి": 1230,
  "మరి": 1231,
  "जी": 1232,
  "ట్లు": 1233,
  " মা": 1234,
  "মা": 1235,
  "ంద్ర": 1236,
  " వ్య": 1237,
  "వ్య": 1238,
  "்த்த": 1239,
  " సినిమా": 1240,
  "సినిమా": 1241,
  "टी": 1242,
  "ষ্ট": 1243,
  " இத": 1244,
  "இத": 1245,
  " ২০": 1246,
  "২০": 1247,
  "पी": 1248,
  "ంటే": 1249,
  "ப்பட": 1250,
  "ल्": 1251,
  " నా": 1252,
  " तक": 1253,
  "तक": 1254,
  " పరి": 1255,
  "పరి": 1256,
  "্রে": 1257,
  " கோ": 1258,
  "கோ": 1259,
  "িকে": 1260,
  "दा": 1261,
  "িতে": 1262,
  " কার": 1263,
  "োর": 1264,
  "்ய": 1265,
  "டுக": 1266,
  "యో": 1267,
  "िर": 1268,
  "्रे": 1269,
  "ள்ளது": 1270,
  " बता": 1271,
  "बता": 1272,
  "स्ट": 1273,
  " వై": 1274,
  "వై": 1275,
  " ఓ": 1276,
  "ఓ": 1277,
  " ஜ": 1278,
  "ஜ": 1279,
  "ணி": 1280,
  " అయి": 1281,
  "అయి": 1282,
  " తెలి": 1283,
  "తెలి": 1284,
  "ালে": 1285,
  " నే": 1286,
  "াও": 1287,
  "బు": 1288,
  " வா": 1289,
  "வா": 1290,
  "ట్టు": 1291,
  "ారా": 1292,
  "ின்ற": 1293,
  " చేయ": 1294,
  "చేయ": 1295,
  " ध": 1296,
  "ध": 1297,
  " বিশ": 1298,
  "বিশ": 1299,
  " सी": 1300,
  "டன்": 1301,
  "ட்": 1302,
  "্যান": 1303,
  " रहा": 1304,
  "रहा": 1305,
  "ையும்": 1306,
  " उस": 1307,
  "उस": 1308,
  "స్థ": 1309,
  " এর": 1310,
  "এর": 1311,
  " சு": 1312,
  "சு": 1313,
  " पुल": 1314,
  "पुल": 1315,
  " सर": 1316,
  "सर": 1317,
  "வில்": 1318,
  "্ন": 1319,
  " என்ற": 1320,
  "என்ற": 1321,
  "মান": 1322,
  " या": 1323,
  " బా": 1324,
  " हुए": 1325,
  "हुए": 1326,
  " ప్రభ": 1327,
  "ప్రభ": 1328,
  "वी": 1329,
  "தாக": 1330,
  " தொட": 1331,
  "தொட": 1332,
  " थी": 1333,
  "थी": 1334,
  "্দ": 1335,
  " হবে": 1336,
  "হবে": 1337,
  " అధ": 1338,
  "అధ": 1339,
  "తున్న": 1340,
  " रही": 1341,
  "रही": 1342,
  "నం": 1343,
  "गे": 1344,
  "খন": 1345,
  "త్వ": 1346,
  "র্ত": 1347,
  "ন্ত্র": 1348,
  "ண்டும்": 1349,
  " বলে": 1350,
  "বলে": 1351,
  " দেখ": 1352,
  "দেখ": 1353,
  "্স": 1354,
  " తన": 1355,
  "తన": 1356,
  "েম": 1357,
  " আগ": 1358,
  "আগ": 1359,
  "ঞ্": 1360,
  "्ष": 1361,
  " আস": 1362,
  "আস": 1363,
  "गर": 1364,
  " मिल": 1365,
  "मिल": 1366,
  " రో": 1367,
  "్రీ": 1368,
  "ளின்": 1369,
  " मह": 1370,
  "मह": 1371,
  " ला": 1372,
  "ண்ண": 1373,
  " অভ": 1374,
  "অভ": 1375,
  " என்று": 1376,
  "என்று": 1377,
  "ளி": 1378,
  " पुलिस": 1379,
  "पुलिस": 1380,
  "ிட்ட": 1381,
  " அரச": 1382,
  "அரச": 1383,
  "ओं": 1384,
  " মো": 1385,
  "মো": 1386,
  "ौर": 1387,
  " చేశ": 1388,
  "చేశ": 1389,
  "ందుకు": 1390,
  " दी": 1391,
  " சே": 1392,
  "சே": 1393,
  "टर": 1394,
  " வரு": 1395,
  "வரு": 1396,
  " बी": 1397,
  "बी": 1398,
  " செய்த": 1399,
  "செய்த": 1400,
  " వచ్చ": 1401,
  "వచ్చ": 1402,
  "ন্দ": 1403,
  "ৃত": 1404,
  "రీ": 1405,
  " স্ব": 1406,
  "স্ব": 1407,
  " आप": 1408,
  "आप": 1409,
  " सक": 1410,
  "सक": 1411,
  "యన": 1412,
  " একটি": 1413,
  "একটি": 1414,
  "ाना": 1415,
  "াড়": 1416,
  "ोंने": 1417,
  " चु": 1418,
  "चु": 1419,
  "ப்பட்டு": 1420,
  " নির্": 1421,
  "নির্": 1422,
  " সু": 1423,
  "সু": 1424,
  "ानी": 1425,
  "ार्": 1426,
  "াগ": 1427,
  "ர்ப": 1428,
  "ట్టి": 1429,
  "িয়": 1430,
  " অব": 1431,
  "অব": 1432,
  " முத": 1433,
  "முத": 1434,
  "జ్": 1435,
  "মে": 1436,
  "টে": 1437,
  "্ক": 1438,
  "स्त": 1439,
  " நில": 1440,
  "நில": 1441,
  "ంధ": 1442,
  "ల్ల": 1443,
  "ாம": 1444,
  "ద్య": 1445,
  " ছিল": 1446,
  " మొ": 1447,
  "మొ": 1448,
  " అవ": 1449,
  "అవ": 1450,
  "ాలని": 1451,
  " मा": 1452,
  "ेल": 1453,
  "రం": 1454,
  "ोज": 1455,
  " দিয়ে": 1456,
  "দিয়ে": 1457,
  "తా": 1458,
  "श्": 1459,
  " जो": 1460,
  "जो": 1461,
  "லி": 1462,
  "ழ்": 1463,
  "னு": 1464,
  "ందని": 1465,
  " কোন": 1466,
  "কোন": 1467,
  "যোগ": 1468,
  " করতে": 1469,
  "করতে": 1470,
  "িক্ষ": 1471,
  "త్య": 1472,
  " నుంచి": 1473,
  "నుంచి": 1474,
  "िव": 1475,
  " করেন": 1476,
  "করেন": 1477,
  "జా": 1478,
  " भार": 1479,
  "भार": 1480,
  "पा": 1481,
  " থাক": 1482,
  "থাক": 1483,
  "स्थ": 1484,
  " அமை": 1485,
  "அமை": 1486,
  "तर": 1487,
  " मौ": 1488,
  "मौ": 1489,
  "द्": 1490,
  "మైన": 1491,
  " மூ": 1492,
  "மூ": 1493,
  " বাং": 1494,
  "বাং": 1495,
  " కి": 1496,
  " భార": 1497,
  "భార": 1498,
  " अपने": 1499,
  "अपने": 1500,
  "च्": 1501,
  " కార": 1502,
  "కార": 1503,
  "ధా": 1504,
  "্ল": 1505,
  " उन्होंने": 1506,
  "उन्होंने": 1507,
  " செய்ய": 1508,
  "செய்ய": 1509,
  " মান": 1510,
  "স্ত": 1511,
  " কা": 1512,
  "কা": 1513,
  "িম": 1514,
  " చూ": 1515,
  "చూ": 1516,
  "ीन": 1517,
  " जिस": 1518,
  "जिस": 1519,
  " దా": 1520,
  " దీ": 1521,
  "దీ": 1522,
  " :": 1523,
  ":": 1524,
  " அதிக": 1525,
  "அதிக": 1526,
  "మే": 1527,
  "ाई": 1528,
  "ড়ে": 1529,
  " చెప్ప": 1530,
  "చెప్ప": 1531,
  " வை": 1532,
  " लगा": 1533,
  "लगा": 1534,
  "ూర్": 1535,
  " जाए": 1536,
  "जाए": 1537,
  " लोगों": 1538,
  "लोगों": 1539,
  " பய": 1540,
  "பய": 1541,
  "జీ": 1542,
  " बार": 1543,
  "बार": 1544,
  "ோது": 1545,
  "ষ্ঠ": 1546,
  " মধ্য": 1547,
  "মধ্য": 1548,
  "ান্ত": 1549,
  " సీ": 1550,
  " வீ": 1551,
  "வீ": 1552,
  "னி": 1553,
  " अधिक": 1554,
  "अधिक": 1555,
  " పార్": 1556,
  "పార్": 1557,
  " நிற": 1558,
  "நிற": 1559,
  "ক্র": 1560,
  "्त": 1561,
  " ప్రా": 1562,
  "ప్రా": 1563,
  " து": 1564,
  "சி": 1565,
  " মে": 1566,
  " ఆయన": 1567,
  "ఆయన": 1568,
  "किन": 1569,
  " রা": 1570,
  "ेट": 1571,
  " थे": 1572,
  "थे": 1573,
  " ప్రభు": 1574,
  "ప్రభు": 1575,
  " தமி": 1576,
  "தமி": 1577,
  " हम": 1578,
  "हम": 1579,
  " লা": 1580,
  "ంట్": 1581,
  " என்ப": 1582,
  "என்ப": 1583,
  "ాలి": 1584,
  "తోంది": 1585,
  "்கு": 1586,
  " আপ": 1587,
  "আপ": 1588,
  " বাংলা": 1589,
  "বাংলা": 1590,
  "शन": 1591,
  " स्थ": 1592,
  "द्र": 1593,
  "ধান": 1594,
  "ैं": 1595,
  " ட": 1596,
  "ட": 1597,
  " అని": 1598,
  "అని": 1599,
  " শে": 1600,
  "শে": 1601,
  " மீ": 1602,
  "மீ": 1603,
  " பல": 1604,
  "பல": 1605,
  "জে": 1606,
  "టర్": 1607,
  "ंह": 1608,
  " పే": 1609,
  "పే": 1610,
  " पा": 1611,
  "क्र": 1612,
  "हर": 1613,
  "ెస్": 1614,
  " రూ": 1615,
  "రూ": 1616,
  "ையை": 1617,
  "வத": 1618,
  " लेकिन": 1619,
  "लेकिन": 1620,
  "ிகள்": 1621,
  "ర్శ": 1622,
  " দেশ": 1623,
  " অনু": 1624,
  "অনু": 1625,
  " கட": 1626,
  "கட": 1627,
  "नों": 1628,
  " রাজ": 1629,
  "রাজ": 1630,
  "িব": 1631,
  "ুরু": 1632,
  "থা": 1633,
  " गए": 1634,
  "गए": 1635,
  "ंत्री": 1636,
  " తా": 1637,
  " குறி": 1638,
  "குறி": 1639,
  "हां": 1640,
  " আল": 1641,
  "আল": 1642,
  "बर": 1643,
  "ங்கு": 1644,
  " সর": 1645,
  "সর": 1646,
  "ించి": 1647,
  " কো": 1648,
  "কো": 1649,
  " இது": 1650,
  "இது": 1651,
  "னால்": 1652,
  " சிற": 1653,
  "சிற": 1654,
  "र्म": 1655,
  " बना": 1656,
  "बना": 1657,
  " সব": 1658,
  "সব": 1659,
  "కీ": 1660,
  " सरकार": 1661,
  "सरकार": 1662,
  "களை": 1663,
  "য়ের": 1664,
  " होने": 1665,
  "होने": 1666,
  "চ্ছে": 1667,
  " య": 1668,
  "య": 1669,
  "ும்ப": 1670,
  "ड़ी": 1671,
  " మరియు": 1672,
  "మరియు": 1673,
  " ऐ": 1674,
  "ऐ": 1675,
  "ధి": 1676,
  "ెక్": 1677,
  " ஆக": 1678,
  "ஆக": 1679,
  "েস": 1680,
  " நே": 1681,
  "நே": 1682,
  " বলেন": 1683,
  "বলেন": 1684,
  "ల్‌": 1685,
  " கே": 1686,
  "கே": 1687,
  " ఉంది": 1688,
  "ఉంది": 1689,
  " சொ": 1690,
  "சொ": 1691,
  "িজ": 1692,
  "ঙ্গে": 1693,
  "டுத்து": 1694,
  "వీ": 1695,
  "రణ": 1696,
  "িয়া": 1697,
  " విష": 1698,
  "విష": 1699,
  "த்திய": 1700,
  "पुर": 1701,
  " इसके": 1702,
  "इसके": 1703,
  "దే": 1704,
  " రాష్ట": 1705,
  "రాష్ట": 1706,
  "ప్పుడు": 1707,
  " தெரி": 1708,
  "தெரி": 1709,
  "ারা": 1710,
  "ాలను": 1711,
  " வேண்டும்": 1712,
  "வேண்டும்": 1713,
  "াত্র": 1714,
  "ంబ": 1715,
  " कम": 1716,
  "कम": 1717,
  "్‌": 1718,
  " पहले": 1719,
  "पहले": 1720,
  " दिन": 1721,
  "दिन": 1722,
  " ఉండ": 1723,
  "ఉండ": 1724,
  "రే": 1725,
  " ష": 1726,
  "ష": 1727,
  " टी": 1728,
  " గా": 1729,
  " बताया": 1730,
  "बताया": 1731,
  "ెట్": 1732,
  " తెలు": 1733,
  "తెలు": 1734,
  "াকা": 1735,
  "ఖ్య": 1736,
  "াঁ": 1737,
  "ించారు": 1738,
  "య్య": 1739,
  "த்தின்": 1740,
  "ष्ट": 1741,
  " मो": 1742,
  "मो": 1743,
  "కోవ": 1744,
  " মধ্যে": 1745,
  "মধ্যে": 1746,
  " టీ": 1747,
  "্যাল": 1748,
  "দিন": 1749,
  "డీ": 1750,
  " अब": 1751,
  "अब": 1752,
  " கி": 1753,
  "கி": 1754,
  " தலை": 1755,
  "தலை": 1756,
  " सिंह": 1757,
  "सिंह": 1758,
  "ंध": 1759,
  "ड़ा": 1760,
  " সম্প": 1761,
  "সম্প": 1762,
  "পুর": 1763,
  "গুল": 1764,
  "ంచారు": 1765,
  "షన్": 1766,
  " వీ": 1767,
  " అను": 1768,
  "అను": 1769,
  " ప్రభుత్వ": 1770,
  "ప్రభుత్వ": 1771,
  "ணை": 1772,
  "ूर": 1773,
  "క్కు": 1774,
  " ஊ": 1775,
  "ஊ": 1776,
  "ండా": 1777,
  " ব্যব": 1778,
  "ব্যব": 1779,
  "ய்": 1780,
  "సే": 1781,
  "ुप": 1782,
  " শিক্ষ": 1783,
  "শিক্ষ": 1784,
  "রের": 1785,
  " చేశారు": 1786,
  "చేశారు": 1787,
  " పార్టీ": 1788,
  "పార్టీ": 1789,
  " திரு": 1790,
  "திரு": 1791,
  "ত্ত": 1792,
  " అభ": 1793,
  "అభ": 1794,
  " कार्य": 1795,
  "कार्य": 1796,
  "சிய": 1797,
  " বাংলাদেশ": 1798,
  "বাংলাদেশ": 1799,
  "வர": 1800,
  " নাম": 1801,
  "নাম": 1802,
  "ించిన": 1803,
  "ప్పటి": 1804,
  "தை": 1805,
  " माम": 1806,
  "माम": 1807,
  "మని": 1808,
  " भा": 1809,
  "ాలా": 1810,
  " जब": 1811,
  "जब": 1812,
  "ரோ": 1813,
  "రుగు": 1814,
  "ంప": 1815,
  " उप": 1816,
  "उप": 1817,
  "ন্ধ": 1818,
  " কিন": 1819,
  "কিন": 1820,
  " কম": 1821,
  "কম": 1822,
  " இட": 1823,
  "இட": 1824,
  "ధ్య": 1825,
  "వాత": 1826,
  "டிக்க": 1827,
  " বিশ্ব": 1828,
  "বিশ্ব": 1829,
  "ులు": 1830,
  "र्ट": 1831,
  " பார": 1832,
  "பார": 1833,
  " இருந்த": 1834,
  "இருந்த": 1835,
  " భా": 1836,
  "భా": 1837,
  " वह": 1838,
  "वह": 1839,
  "िंग": 1840,
  " ய": 1841,
  "ய": 1842,
  "াজার": 1843,
  "खा": 1844,
  "ছু": 1845,
  "னா": 1846,
  " हि": 1847,
  "हि": 1848,
  " গ্র": 1849,
  "গ্র": 1850,
  " लेकर": 1851,
  "लेकर": 1852,
  " वर्": 1853,
  "वर्": 1854,
  " రాజ": 1855,
  "రాజ": 1856,
  "ஞ்ச": 1857,
  " వ్యా": 1858,
  "వ్యా": 1859,
  " மக்க": 1860,
  "மக்க": 1861,
  "మ్మ": 1862,
  "హి": 1863,
  "ভাবে": 1864,
  " అయితే": 1865,
  "అయితే": 1866,
  "ிருந்த": 1867,
  " అధిక": 1868,
  "అధిక": 1869,
  " శా": 1870,
  "శా": 1871,
  " वाले": 1872,
  "वाले": 1873,
  " पी": 1874,
  "्यू": 1875,
  "নার": 1876,
  " সি": 1877,
  "সি": 1878,
  " సు": 1879,
  " तर": 1880,
  " சி": 1881,
  "मार": 1882,
  " मे": 1883,
  "मे": 1884,
  " যায়": 1885,
  "যায়": 1886,
  "ুক্ত": 1887,
  " কাজ": 1888,
  "কাজ": 1889,
  "ளிய": 1890,
  "ুম": 1891,
  " निर्": 1892,
  "निर्": 1893,
  " நி": 1894,
  "நி": 1895,
  "লের": 1896,
  "வ்": 1897,
  " बि": 1898,
  "बि": 1899,
  " सो": 1900,
  "सो": 1901,
  " তাঁ": 1902,
  "তাঁ": 1903,
  " इन": 1904,
  "इन": 1905,
  " সঙ্গে": 1906,
  "সঙ্গে": 1907,
  "ంత్రి": 1908,
  " जी": 1909,
  "वे": 1910,
  "ார்கள்": 1911,
  " அறி": 1912,
  "அறி": 1913,
  " கொண்ட": 1914,
  "கொண்ட": 1915,
  " पहु": 1916,
  "पहु": 1917,
  " గ్రా": 1918,
  "గ్రా": 1919,
  "ారని": 1920,
  " அந்த": 1921,
  "அந்த": 1922,
  " बात": 1923,
  "बात": 1924,
  "ங்கள": 1925,
  "कों": 1926,
  " స్థ": 1927,
  "মন": 1928,
  "డానికి": 1929,
  "వర్": 1930,
  "దేశ": 1931,
  "రకు": 1932,
  " বিভ": 1933,
  "বিভ": 1934,
  " వారి": 1935,
  "వారి": 1936,
  " जान": 1937,
  "जान": 1938,
  "ற்கு": 1939,
  " தெரிவி": 1940,
  "தெரிவி": 1941,
  "பி": 1942,
  " সময়": 1943,
  "সময়": 1944,
  "কের": 1945,
  " बे": 1946,
  "बे": 1947,
  "চার": 1948,
  " இருக்க": 1949,
  "இருக்க": 1950,
  " ৩": 1951,
  "৩": 1952,
  " రాష్ట్ర": 1953,
  "రాష్ట్ర": 1954,
  " చేసి": 1955,
  "చేసి": 1956,
  " कुछ": 1957,
  "कुछ": 1958,
  "స్తున్నారు": 1959,
  " డి": 1960,
  "ये": 1961,
  "డ్డి": 1962,
  "রি": 1963,
  " पहुंच": 1964,
  "पहुंच": 1965,
  " ভার": 1966,
  "ভার": 1967,
  "ళ్ల": 1968,
  " எதி": 1969,
  "எதி": 1970,
  " বছ": 1971,
  "বছ": 1972,
  " ।": 1973,
  "।": 1974,
  " যা": 1975,
  "যা": 1976,
  " జరి": 1977,
  "జరి": 1978,
  " మార్": 1979,
  "మార్": 1980,
  "యంలో": 1981,
  " ओ": 1982,
  "ओ": 1983,
  "ుకు": 1984,
  " তাদের": 1985,
  "তাদের": 1986,
  " రోజు": 1987,
  "రోజు": 1988,
  "க்கிய": 1989,
  " ప్రక": 1990,
  "ప్రక": 1991,
  " స్ట": 1992,
  "స్ట": 1993,
  " కోసం": 1994,
  "కోసం": 1995,
  " பி": 1996,
  "िल्": 1997,
  "மைய": 1998,
  "క్ర": 1999,
  " ధ": 2000,
  "ధ": 2001,
  " বে": 2002,
  "ंप": 2003,
  "ండ్": 2004,
  "তো": 2005,
  " నె": 2006,
  "నె": 2007,
  " क्ष": 2008,
  "िश": 2009,
  " చేసిన": 2010,
  "చేసిన": 2011,
  "চিত": 2012,
  " ஏற்ப": 2013,
  "ஏற்ப": 2014,
  "ியில்": 2015,
  " साम": 2016,
  "साम": 2017,
  "ाप": 2018,
  "ாய்": 2019,
  "टे": 2020,
  "మో": 2021,
  "্লা": 2022,
  " অনে": 2023,
  "অনে": 2024,
  "পি": 2025,
  "ওয়া": 2026,
  "హా": 2027,
  "্তু": 2028,
  " உட": 2029,
  "உட": 2030,
  " কিছু": 2031,
  "কিছু": 2032,
  " बढ़": 2033,
  "बढ़": 2034,
  "కుండా": 2035,
  "োল": 2036,
  " हुई": 2037,
  "हुई": 2038,
  " సమా": 2039,
  "సమా": 2040,
  " বেশ": 2041,
  "বেশ": 2042,
  " పు": 2043,
  " మె": 2044,
  "ாட்ட": 2045,
  " ব্যা": 2046,
  "ব্যা": 2047,
  "ীন": 2048,
  " మూ": 2049,
  "మూ": 2050,
  "లతో": 2051,
  " शुर": 2052,
  "शुर": 2053,
  "ంటూ": 2054,
  "টার": 2055,
  "जे": 2056,
  "থে": 2057,
  " இந்திய": 2058,
  "இந்திய": 2059,
  " साल": 2060,
  "साल": 2061,
  " చిత్ర": 2062,
  "చిత్ర": 2063,
  "జి": 2064,
  " परि": 2065,
  "परि": 2066,
  " সরকার": 2067,
  "সরকার": 2068,
  "ুষ": 2069,
  " ல": 2070,
  "ல": 2071,
  "ানের": 2072,
  "েয়ে": 2073,
  "ங்களை": 2074,
  " কর্ম": 2075,
  "কর্ম": 2076,
  " నుండి": 2077,
  "నుండి": 2078,
  "ாம்": 2079,
  " இர": 2080,
  "இர": 2081,
  " करते": 2082,
  "करते": 2083,
  " చాలా": 2084,
  "చాలా": 2085,
  "धान": 2086,
  "ழக": 2087,
  "ाइ": 2088,
  "ड़े": 2089,
  " సె": 2090,
  "సె": 2091,
  "থম": 2092,
  "क्षा": 2093,
  " ஓ": 2094,
  "ஓ": 2095,
  " कई": 2096,
  "कई": 2097,
  " শু": 2098,
  "শু": 2099,
  " देश": 2100,
  "्स": 2101,
  "ியு": 2102,
  "ஸ்ட": 2103,
  " বিষ": 2104,
  "বিষ": 2105,
  " కలి": 2106,
  "కలి": 2107,
  " अनु": 2108,
  "अनु": 2109,
  " దేశ": 2110,
  "ండు": 2111,
  " অভি": 2112,
  "অভি": 2113,
  " দিন": 2114,
  "సులు": 2115,
  " सब": 2116,
  "सब": 2117,
  "ிருக்க": 2118,
  "ள்ளார்": 2119,
  " दौर": 2120,
  "दौर": 2121,
  "ர்ந்த": 2122,
  " আই": 2123,
  "আই": 2124,
  " అనే": 2125,
  "అనే": 2126,
  "్యూ": 2127,
  "ছি": 2128,
  " కేంద్ర": 2129,
  "కేంద్ర": 2130,
  "లంగా": 2131,
  "টির": 2132,
  " কিন্তু": 2133,
  "কিন্তু": 2134,
  " কে": 2135,
  "েন্ট": 2136,
  "శ్": 2137,
  "லு": 2138,
  " रो": 2139,
  "ட்சி": 2140,
  "र्व": 2141,
  " কথা": 2142,
  "কথা": 2143,
  "ఆర్": 2144,
  "্বর": 2145,
  " প্রক": 2146,
  "প্রক": 2147,
  "స్తా": 2148,
  "াকে": 2149,
  " दु": 2150,
  "दु": 2151,
  "ুব": 2152,
  "ల్లి": 2153,
  "র্ব": 2154,
  "லாம்": 2155,
  " भारत": 2156,
  "भारत": 2157,
  " தீ": 2158,
  "தீ": 2159,
  "ிலும்": 2160,
  " முதல்": 2161,
  "முதல்": 2162,
  "வர்க": 2163,
  " মহ": 2164,
  "মহ": 2165,
  " మే": 2166,
  "ংশ": 2167,
  " ऑ": 2168,
  "ऑ": 2169,
  "லம்": 2170,
  " रू": 2171,
  "रू": 2172,
  " मुख": 2173,
  "मुख": 2174,
  "স্ট": 2175,
  "वर": 2176,
  " கார": 2177,
  "கார": 2178,
  " বাড়": 2179,
  "বাড়": 2180,
  " হাস": 2181,
  "হাস": 2182,
  " అంత": 2183,
  "అంత": 2184,
  "ங்களில்": 2185,
  "कारी": 2186,
  " ரா": 2187,
  " పోలీ": 2188,
  "పోలీ": 2189,
  "ட்டி": 2190,
  "वं": 2191,
  " ক্ষ": 2192,
  " कोई": 2193,
  "कोई": 2194,
  "ర్చ": 2195,
  "ীব": 2196,
  " வெளிய": 2197,
  "வெளிய": 2198,
  "ামী": 2199,
  " ఖ": 2200,
  "ఖ": 2201,
  " ২০১": 2202,
  "২০১": 2203,
  " बै": 2204,
  "बै": 2205,
  " మంది": 2206,
  "మంది": 2207,
  " चाह": 2208,
  "चाह": 2209,
  "ிற்கு": 2210,
  " பண": 2211,
  "பண": 2212,
  "च्च": 2213,
  " வருக": 2214,
  "வருக": 2215,
  " সহ": 2216,
  "সহ": 2217,
  "क्त": 2218,
  " पार": 2219,
  "पार": 2220,
  " वे": 2221,
  "एम": 2222,
  "ेंद्र": 2223,
  " द्": 2224,
  " काम": 2225,
  "काम": 2226,
  " उत्": 2227,
  "उत्": 2228,
  "াতে": 2229,
  " তবে": 2230,
  "তবে": 2231,
  " அவர்": 2232,
  "அவர்": 2233,
  "দি": 2234,
  "िप": 2235,
  "ेत्र": 2236,
  "িং": 2237,
  "டுக்க": 2238,
  " अं": 2239,
  "अं": 2240,
  "డంతో": 2241,
  "डी": 2242,
  "స్తుంది": 2243,
  "ழை": 2244,
  " మాత్ర": 2245,
  "మాత్ర": 2246,
  "ত্র": 2247,
  "வாக": 2248,
  "जार": 2249,
  "తుంది": 2250,
  "ப்படுக": 2251,
  "ிக்": 2252,
  " সাম": 2253,
  "সাম": 2254,
  "కర్": 2255,
  " வந்த": 2256,
  "வந்த": 2257,
  "రోనా": 2258,
  " अपनी": 2259,
  "अपनी": 2260,
  " गां": 2261,
  "गां": 2262,
  " হিস": 2263,
  "হিস": 2264,
  " పొ": 2265,
  "పొ": 2266,
  " రి": 2267,
  "ூர்": 2268,
  " পা": 2269,
  "পা": 2270,
  " ఎన్ని": 2271,
  "ఎన్ని": 2272,
  "ूल": 2273,
  " सभी": 2274,
  "सभी": 2275,
  "லக": 2276,
  "ोल": 2277,
  "వారం": 2278,
  " ఇది": 2279,
  "ఇది": 2280,
  " உய": 2281,
  "உய": 2282,
  " পুল": 2283,
  "পুল": 2284,
  "्ल": 2285,
  "ర్థ": 2286,
  "ர்த்த": 2287,
  " பட": 2288,
  "பட": 2289,
  " ప్రతి": 2290,
  "ప్రతి": 2291,
  " আমি": 2292,
  "আমি": 2293,
  "ুদ্ধ": 2294,
  "্ঞ": 2295,
  " మో": 2296,
  " ঘট": 2297,
  "ঘট": 2298,
  "ேன்": 2299,
  "ట్‌": 2300,
  " মানুষ": 2301,
  "মানুষ": 2302,
  "వ్": 2303,
  " కరోనా": 2304,
  "కరోనా": 2305,
  "বাদ": 2306,
  " ये": 2307,
  " हुआ": 2308,
  "हुआ": 2309,
  "దని": 2310,
  " दू": 2311,
  "दू": 2312,
  " జిల్": 2313,
  "జిల్": 2314,
  "র্থ": 2315,
  " ইউ": 2316,
  "ইউ": 2317,
  " আজ": 2318,
  "আজ": 2319,
  "एस": 2320,
  "ருக்கு": 2321,
  "जन": 2322,
  " হল": 2323,
  "হল": 2324,
  " ఐ": 2325,
  "ఐ": 2326,
  "িড": 2327,
  " গত": 2328,
  "গত": 2329,
  " కార్య": 2330,
  "కార్య": 2331,
  " दौरान": 2332,
  "दौरान": 2333,
  "ரிக்க": 2334,
  " শুরু": 2335,
  "শুরু": 2336,
  "খে": 2337,
  " హై": 2338,
  "హై": 2339,
  " क्षेत्र": 2340,
  "क्षेत्र": 2341,
  " গে": 2342,
  "গে": 2343,
  "லும்": 2344,
  "డే": 2345,
  " లా": 2346,
  " మరో": 2347,
  "మరో": 2348,
  "िम": 2349,
  " சில": 2350,
  "சில": 2351,
  "వరి": 2352,
  "मंत्री": 2353,
  " తీసుకు": 2354,
  "తీసుకు": 2355,
  "ার্থ": 2356,
  " রয়ে": 2357,
  "রয়ে": 2358,
  " ఉన్నాయి": 2359,
  "ఉన్నాయి": 2360,
  "ारा": 2361,
  " স্থ": 2362,
  "প্ত": 2363,
  " पि": 2364,
  "पि": 2365,
  "ারে": 2366,
  "রণ": 2367,
  "োক": 2368,
  "கை": 2369,
  "िका": 2370,
  " फिल": 2371,
  "फिल": 2372,
  "వహ": 2373,
  " आय": 2374,
  "आय": 2375,
  " ఆమె": 2376,
  "ఆమె": 2377,
  "''": 2378,
  " இய": 2379,
  "இய": 2380,
  "்க்க": 2381,
  " प्रति": 2382,
  "प्रति": 2383,
  "బంధ": 2384,
  " এখন": 2385,
  "এখন": 2386,
  "న్నా": 2387,
  " কেন": 2388,
  "কেন": 2389,
  " পুলিশ": 2390,
  "পুলিশ": 2391,
  "्रेस": 2392,
  "గిన": 2393,
  " रुप": 2394,
  "रुप": 2395,
  "ोट": 2396,
  "সল": 2397,
  "वारा": 2398,
  " समय": 2399,
  "समय": 2400,
  " देख": 2401,
  "देख": 2402,
  " शिक": 2403,
  "शिक": 2404,
  "चार": 2405,
  "கள": 2406,
  "োট": 2407,
  "దల": 2408,
  "मान": 2409,
  " आरो": 2410,
  "आरो": 2411,
  "ரம்": 2412,
  " खिला": 2413,
  "खिला": 2414,
  " వ్యక్": 2415,
  "వ్యక్": 2416,
  " সেই": 2417,
  "সেই": 2418,
  " করার": 2419,
  "করার": 2420,
  " कह": 2421,
  "कह": 2422,
  "ற்றி": 2423,
  " ग्र": 2424,
  "ग्र": 2425,
  " পড়": 2426,
  "পড়": 2427,
  " முன்ன": 2428,
  "முன்ன": 2429,
  "லில்": 2430,
  " उनके": 2431,
  "उनके": 2432,
  " আমার": 2433,
  "আমার": 2434,
  "வர்கள்": 2435,
  "ோத": 2436,
  " किसी": 2437,
  "किसी": 2438,
  " मै": 2439,
  "मै": 2440,
  "స్తోంది": 2441,
  "ியை": 2442,
  " ঢ": 2443,
  "ঢ": 2444,
  " ఎన్నిక": 2445,
  "ఎన్నిక": 2446,
  "बंध": 2447,
  " సో": 2448,
  "సో": 2449,
  " ఉంటు": 2450,
  "ఉంటు": 2451,
  " तरह": 2452,
  "तरह": 2453,
  " हर": 2454,
  " सू": 2455,
  "सू": 2456,
  " चल": 2457,
  "चल": 2458,
  "सान": 2459,
  " கரு": 2460,
  "கரு": 2461,
  " பின்": 2462,
  "பின்": 2463,
  " व्य": 2464,
  "व्य": 2465,
  "ূল": 2466,
  " பிற": 2467,
  "பிற": 2468,
  "ার্": 2469,
  " प्रदेश": 2470,
  "प्रदेश": 2471,
  "ঞ্জ": 2472,
  " சா": 2473,
  "சா": 2474,
  " முடிய": 2475,
  "முடிய": 2476,
  " పై": 2477,
  "েক": 2478,
  "ाने": 2479,
  "ত্য": 2480,
  " ,": 2481,
  ",": 2482,
  " ஆண்டு": 2483,
  "ஆண்டு": 2484,
  "చ్చు": 2485,
  "ेंगे": 2486,
  " हाल": 2487,
  "हाल": 2488,
  " జిల్లా": 2489,
  "జిల్లా": 2490,
  " சம": 2491,
  "சம": 2492,
  "ோம்": 2493,
  " కానీ": 2494,
  "కానీ": 2495,
  " என்ன": 2496,
  "என்ன": 2497,
  "ালের": 2498,
  "లోని": 2499,
  " बह": 2500,
  "बह": 2501,
  " மாவ": 2502,
  "மாவ": 2503,
  "ীদের": 2504,
  " दर्": 2505,
  "दर्": 2506,
  "्टी": 2507,
  " అభి": 2508,
  "అభి": 2509,
  "ంచిన": 2510,
  " दिल्": 2511,
  "दिल्": 2512,
  " తర్": 2513,
  "తర్": 2514,
  " ১৯": 2515,
  "১৯": 2516,
  " আগে": 2517,
  "আগে": 2518,
  "ఫ్": 2519,
  "வது": 2520,
  " প্রধান": 2521,
  "প্রধান": 2522,
  "ওয়ার": 2523,
  "లంగాణ": 2524,
  "খানে": 2525,
  " घर": 2526,
  "घर": 2527,
  " অনেক": 2528,
  "অনেক": 2529,
  " తమ": 2530,
  "తమ": 2531,
  " తి": 2532,
  "டைய": 2533,
  " लिया": 2534,
  "लिया": 2535,
  " சந்த": 2536,
  "சந்த": 2537,
  "ন্ত্রী": 2538,
  " బీ": 2539,
  "బీ": 2540,
  " राज्य": 2541,
  "राज्य": 2542,
  " द्वारा": 2543,
  "द्वारा": 2544,
  "বেন": 2545,
  " अम": 2546,
  "अम": 2547,
  " ভাল": 2548,
  "ভাল": 2549,
  "োধ": 2550,
  "ందే": 2551,
  "లం": 2552,
  " వర్": 2553,
  " ది": 2554,
  " পর্য": 2555,
  "পর্য": 2556,
  " பகு": 2557,
  "பகு": 2558,
  "ষণ": 2559,
  " কারণ": 2560,
  "কারণ": 2561,
  "స్తే": 2562,
  "ছিলেন": 2563,
  "ুক": 2564,
  "ிறார்": 2565,
  " জানান": 2566,
  "জানান": 2567,
  " অধ": 2568,
  "অধ": 2569,
  "ியல்": 2570,
  "द्ध": 2571,
  "স্য": 2572,
  " विक": 2573,
  "विक": 2574,
  " लग": 2575,
  "लग": 2576,
  "క్కువ": 2577,
  " தா": 2578,
  "தா": 2579,
  " जन": 2580,
  " மாவட்ட": 2581,
  "மாவட்ட": 2582,
  " दिल्ली": 2583,
  "दिल्ली": 2584,
  " తెలంగాణ": 2585,
  "తెలంగాణ": 2586,
  " शुरू": 2587,
  "शुरू": 2588,
  " வழங்க": 2589,
  "வழங்க": 2590,
  "ట్ల": 2591,
  "ারণ": 2592,
  " ৫": 2593,
  "৫": 2594,
  " रख": 2595,
  "रख": 2596,
  " జా": 2597,
  "িদ": 2598,
  " இருந்து": 2599,
  "இருந்து": 2600,
  "క్‌": 2601,
  " విజ": 2602,
  "విజ": 2603,
  "ృష్": 2604,
  "োম": 2605,
  " शाम": 2606,
  "शाम": 2607,
  " उन्हें": 2608,
  "उन्हें": 2609,
  " అత": 2610,
  "అత": 2611,
  " ஆனால்": 2612,
  "ஆனால்": 2613,
  "ర్య": 2614,
  "ణా": 2615,
  "হার": 2616,
  " बु": 2617,
  "बु": 2618,
  " सह": 2619,
  "सह": 2620,
  "త్స": 2621,
  " महिला": 2622,
  "महिला": 2623,
  "ఎం": 2624,
  "బాద్": 2625,
  "িন্ন": 2626,
  " முடி": 2627,
  "முடி": 2628,
  "ாது": 2629,
  " வர": 2630,
  " नाम": 2631,
  "नाम": 2632,
  " कै": 2633,
  "कै": 2634,
  "గే": 2635,
  " সদ": 2636,
  "সদ": 2637,
  " করোন": 2638,
  "করোন": 2639,
  "ழி": 2640,
  "ப்படும்": 2641,
  " চল": 2642,
  "চল": 2643,
  " আব": 2644,
  "আব": 2645,
  " स्ट": 2646,
  "नाव": 2647,
  " கூற": 2648,
  "கூற": 2649,
  " इं": 2650,
  "इं": 2651,
  "ানা": 2652,
  "िट": 2653,
  " దూ": 2654,
  "దూ": 2655,
  "స్తూ": 2656,
  " మి": 2657,
  " ஹ": 2658,
  "ஹ": 2659,
  "ोर": 2660,
  " मामले": 2661,
  "मामले": 2662,
  " அரசு": 2663,
  "அரசு": 2664,
  "ద్ధ": 2665,
  "ष्": 2666,
  " ৪": 2667,
  "৪": 2668,
  " తెలిప": 2669,
  "తెలిప": 2670,
  " తర్వాత": 2671,
  "తర్వాత": 2672,
  " அல்ல": 2673,
  "அல்ல": 2674,
  " ভারত": 2675,
  "ভারত": 2676,
  " తో": 2677,
  " टीम": 2678,
  "टीम": 2679,
  " বির": 2680,
  "বির": 2681,
  " ప్రభుత్వం": 2682,
  "ప్రభుత్వం": 2683,
  " ''": 2684,
  " అందు": 2685,
  "అందు": 2686,
  "ైనా": 2687,
  " শেষ": 2688,
  "শেষ": 2689,
  " ఇచ్చ": 2690,
  "ఇచ్చ": 2691,
  " அனு": 2692,
  "அனு": 2693,
  " மரு": 2694,
  "மரு": 2695,
  " প্রথম": 2696,
  "প্রথম": 2697,
  "న్స్": 2698,
  "स्प": 2699,
  " পারে": 2700,
  "পারে": 2701,
  "ெய": 2702,
  "क्रम": 2703,
  "బ్బ": 2704,
  " மிக": 2705,
  "மிக": 2706,
  "ওয়": 2707,
  "ोड़": 2708,
  "ঞ্চ": 2709,
  "েবে": 2710,
  "কাল": 2711,
  " হচ্ছে": 2712,
  "হচ্ছে": 2713,
  " जु": 2714,
  "जु": 2715,
  " मुख्य": 2716,
  "मुख्य": 2717,
  " గ్రామ": 2718,
  "గ్రామ": 2719,
  " তারা": 2720,
  "তারা": 2721,
  " यु": 2722,
  "यु": 2723,
  " యా": 2724,
  " పని": 2725,
  "పని": 2726,
  "்பு": 2727,
  " अभ": 2728,
  "अभ": 2729,
  " প্রশ": 2730,
  "প্রশ": 2731,
  "র্ণ": 2732,
  " जाने": 2733,
  "जाने": 2734,
  " ক্র": 2735,
  "েত": 2736,
  " कोरो": 2737,
  "कोरो": 2738,
  " होगा": 2739,
  "होगा": 2740,
  " হাজার": 2741,
  "হাজার": 2742,
  " ஐ": 2743,
  "ஐ": 2744,
  " రెండు": 2745,
  "రెండు": 2746,
  " அம": 2747,
  "அம": 2748,
  " బి": 2749,
  "బి": 2750,
  "తులు": 2751,
  "ాలకు": 2752,
  " వెళ్": 2753,
  "వెళ్": 2754,
  "ிரி": 2755,
  " রয়েছে": 2756,
  "রয়েছে": 2757,
  " జీ": 2758,
  "த்தி": 2759,
  "িকা": 2760,
  "తూ": 2761,
  " कोरोना": 2762,
  "कोरोना": 2763,
  " खु": 2764,
  "खु": 2765,
  "வில்லை": 2766,
  " ముఖ్య": 2767,
  "ముఖ్య": 2768,
  " तीन": 2769,
  "तीन": 2770,
  " করেছেন": 2771,
  "করেছেন": 2772,
  " கை": 2773,
  " தன": 2774,
  "தன": 2775,
  " দুই": 2776,
  "দুই": 2777,
  " ప్రజ": 2778,
  "ప్రజ": 2779,
  "జే": 2780,
  " রাখ": 2781,
  "রাখ": 2782,
  "ून": 2783,
  " रूप": 2784,
  "रूप": 2785,
  "ीड": 2786,
  "जर": 2787,
  " இல": 2788,
  "இல": 2789,
  " పూర్": 2790,
  "పూర్": 2791,
  "టన": 2792,
  "ாளர்": 2793,
  "తంగా": 2794,
  " ఆరో": 2795,
  "ఆరో": 2796,
  " फिल्म": 2797,
  "फिल्म": 2798,
  "க்கி": 2799,
  "ர்த": 2800,
  "ியா": 2801,
  " आई": 2802,
  "आई": 2803,
  " హీ": 2804,
  "హీ": 2805,
  "ின்றன": 2806,
  "।'": 2807,
  " பொரு": 2808,
  "பொரு": 2809,
  "ப்பட்டது": 2810,
  "పోయి": 2811,
  "ట్లా": 2812,
  "ఎస్": 2813,
  "গুলো": 2814,
  " आज": 2815,
  "आज": 2816,
  " আমরা": 2817,
  "আমরা": 2818,
  "ందిన": 2819,
  "த்துவ": 2820,
  " दि": 2821,
  "दि": 2822,
  " पु": 2823,
  "पु": 2824,
  "भाग": 2825,
  "ল্প": 2826,
  "ंस": 2827,
  " நிறுவ": 2828,
  "நிறுவ": 2829,
  "दार": 2830,
  "ராக": 2831,
  "িট": 2832,
  "ிருந்து": 2833,
  " ஆகிய": 2834,
  "ஆகிய": 2835,
  " கால": 2836,
  "கால": 2837,
  "फी": 2838,
  " ना": 2839,
  "కులు": 2840,
  "ताल": 2841,
  " নিজ": 2842,
  "নিজ": 2843,
  "ப்பா": 2844,
  "గ్ర": 2845,
  "हत": 2846,
  " శ్రీ": 2847,
  "శ్రీ": 2848,
  "ர்ந்து": 2849,
  "ொரு": 2850,
  "াওয়া": 2851,
  " সাথে": 2852,
  "সাথে": 2853,
  "சார": 2854,
  "ుల": 2855,
  " క్ర": 2856,
  "ింది": 2857,
  "्यक्ष": 2858,
  " কোনো": 2859,
  "কোনো": 2860,
  " कुमार": 2861,
  "कुमार": 2862,
  "ாமல்": 2863,
  "నూ": 2864,
  " செய்து": 2865,
  "செய்து": 2866,
  " அள": 2867,
  "அள": 2868,
  " ఇప్పటి": 2869,
  "ఇప్పటి": 2870,
  " ద్వ": 2871,
  "ద్వ": 2872,
  " করেছে": 2873,
  "করেছে": 2874,
  "ंट": 2875,
  " আমাদের": 2876,
  "আমাদের": 2877,
  "ப்பி": 2878,
  "यर": 2879,
  " बीच": 2880,
  "बीच": 2881,
  "),": 2882,
  " తే": 2883,
  "ரில்": 2884,
  " రై": 2885,
  "రై": 2886,
  "োপ": 2887,
  "కాశ": 2888,
  " హీరో": 2889,
  "హీరో": 2890,
  "రించి": 2891,
  " ఏర్": 2892,
  "ఏర్": 2893,
  " బ్యా": 2894,
  "బ్యా": 2895,
  "र्स": 2896,
  " हा": 2897,
  "மன்ற": 2898,
  "चा": 2899,
  "ணம்": 2900,
  "বর": 2901,
  " లక్ష": 2902,
  "లక్ష": 2903,
  " एवं": 2904,
  "एवं": 2905,
  "పించ": 2906,
  "ல்லை": 2907,
  "एं": 2908,
  "তির": 2909,
  "ாலும்": 2910,
  "రంలో": 2911,
  " আহ": 2912,
  "আহ": 2913,
  "తలు": 2914,
  "র্ম": 2915,
  " রে": 2916,
  " நோ": 2917,
  "நோ": 2918,
  " పాటు": 2919,
  "పాటు": 2920,
  " আছে": 2921,
  "আছে": 2922,
  " হিসেবে": 2923,
  "হিসেবে": 2924,
  " சட்ட": 2925,
  "சட்ட": 2926,
  " చేసుకు": 2927,
  "చేసుకు": 2928,
  "েলা": 2929,
  " जै": 2930,
  "जै": 2931,
  "ক্তি": 2932,
  "ல்க": 2933,
  " অন্য": 2934,
  "অন্য": 2935,
  " पास": 2936,
  "पास": 2937,
  " అంద": 2938,
  "అంద": 2939,
  " চে": 2940,
  "চে": 2941,
  " ஈ": 2942,
  "ஈ": 2943,
  "तीय": 2944,
  "ক্ষে": 2945,
  " कांग": 2946,
  "कांग": 2947,
  "দ্যাল": 2948,
  "టా": 2949,
  "ोक": 2950,
  " போல": 2951,
  "போல": 2952,
  " నీ": 2953,
  " సూ": 2954,
  "సూ": 2955,
  " झ": 2956,
  "झ": 2957,
  "ினை": 2958,
  "వ్వ": 2959,
  " అలా": 2960,
  "అలా": 2961,
  " गु": 2962,
  "गु": 2963,
  "टना": 2964,
  " స్ప": 2965,
  "స్ప": 2966,
  "িকার": 2967,
  " বু": 2968,
  "বু": 2969,
  " మాట్లా": 2970,
  "మాట్లా": 2971,
  "ர்கள": 2972,
  "जू": 2973,
  " குழ": 2974,
  "குழ": 2975,
  "తున్నారు": 2976,
  " जर": 2977,
  " बन": 2978,
  "बन": 2979,
  " సంద": 2980,
  "సంద": 2981,
  " ठ": 2982,
  "ठ": 2983,
  "లలో": 2984,
  " तै": 2985,
  "तै": 2986,
  " বছর": 2987,
  "বছর": 2988,
  "శాల": 2989,
  " निक": 2990,
  "निक": 2991,
  "াড়া": 2992,
  " বাস": 2993,
  "বাস": 2994,
  "தும்": 2995,
  " মৃত": 2996,
  "মৃত": 2997,
  "‌లో": 2998,
  " తెలిపారు": 2999,
  "తెలిపారు": 3000,
  " கண": 3001,
  "கண": 3002,
  "ருக": 3003,
  " మంత్రి": 3004,
  "మంత్రి": 3005,
  " वर्ष": 3006,
  "वर्ष": 3007,
  " கட்ட": 3008,
  "கட்ட": 3009,
  " यहां": 3010,
  "यहां": 3011,
  " সালে": 3012,
  "সালে": 3013,
  "লেখ": 3014,
  " बच्च": 3015,
  "बच्च": 3016,
  " कारण": 3017,
  "कारण": 3018,
  "ানি": 3019,
  "लय": 3020,
  "क्ट": 3021,
  " ওই": 3022,
  "ওই": 3023,
  "वाई": 3024,
  "েলার": 3025,
  "োস": 3026,
  " दूस": 3027,
  "दूस": 3028,
  "ంపు": 3029,
  " తర": 3030,
  "తర": 3031,
  " এমন": 3032,
  "এমন": 3033,
  " ఉప": 3034,
  "ఉప": 3035,
  " எழு": 3036,
  "எழு": 3037,
  " वहीं": 3038,
  "वहीं": 3039,
  " करना": 3040,
  "करना": 3041,
  " கல": 3042,
  "கல": 3043,
  " திர": 3044,
  "திர": 3045,
  "ியின்": 3046,
  " লি": 3047,
  "লি": 3048,
  "ন্ড": 3049,
  " स्थित": 3050,
  "स्थित": 3051,
  "వేశ": 3052,
  " తీసు": 3053,
  "తీసు": 3054,
  " चुनाव": 3055,
  "चुनाव": 3056,
  "திக்க": 3057,
  " पै": 3058,
  "पै": 3059,
  " தி": 3060,
  "েম্বর": 3061,
  " दोनों": 3062,
  "दोनों": 3063,
  " সভ": 3064,
  "সভ": 3065,
  " ద్వారా": 3066,
  "ద్వారా": 3067,
  " சீ": 3068,
  "சீ": 3069,
  " বৃ": 3070,
  "বৃ": 3071,
  "তুন": 3072,
  " এলা": 3073,
  "এলা": 3074,
  " நிறுவன": 3075,
  "நிறுவன": 3076,
  "టో": 3077,
  "েষ": 3078,
  " चौ": 3079,
  "चौ": 3080,
  " தோ": 3081,
  "தோ": 3082,
  " அது": 3083,
  "அது": 3084,
  " జగ": 3085,
  "జగ": 3086,
  "ন্ন": 3087,
  " गांव": 3088,
  "गांव": 3089,
  "शी": 3090,
  " పి": 3091,
  "ஷ்": 3092,
  " మన": 3093,
  "మన": 3094,
  " कांग्रेस": 3095,
  "कांग्रेस": 3096,
  "ेर": 3097,
  "োর্": 3098,
  " தொடர்ப": 3099,
  "தொடர்ப": 3100,
  " প্রকাশ": 3101,
  "প্রকাশ": 3102,
  " जाता": 3103,
  "जाता": 3104,
  "धार": 3105,
  "விட்ட": 3106,
  " ప్రధా": 3107,
  "ప్రధా": 3108,
  "மும்": 3109,
  "ేక": 3110,
  " ఫో": 3111,
  "ఫో": 3112,
  "मी": 3113,
  " సంబంధ": 3114,
  "సంబంధ": 3115,
  "ुत": 3116,
  " অবস্থ": 3117,
  "অবস্থ": 3118,
  " తొ": 3119,
  "తొ": 3120,
  " হতে": 3121,
  "হতে": 3122,
  " కొత్త": 3123,
  "కొత్త": 3124,
  " உள்ளது": 3125,
  "உள்ளது": 3126,
  "वन": 3127,
  " ఎలా": 3128,
  "ఎలా": 3129,
  "தம்": 3130,
  " বিভিন্ন": 3131,
  "বিভিন্ন": 3132,
  "ட்க": 3133,
  " মাস": 3134,
  "মাস": 3135,
  "ப்படி": 3136,
  " পর্যন্ত": 3137,
  "পর্যন্ত": 3138,
  " जिला": 3139,
  "जिला": 3140,
  "రించ": 3141,
  " ১০": 3142,
  "১০": 3143,
  "த்திர": 3144,
  "म्म": 3145,
  " নির্বা": 3146,
  "নির্বা": 3147,
  " ரூ": 3148,
  "ரூ": 3149,
  " নতুন": 3150,
  "নতুন": 3151,
  " உறு": 3152,
  "உறு": 3153,
  "த்துக்கு": 3154,
  " கொண்டு": 3155,
  "கொண்டு": 3156,
  "యోగ": 3157,
  " மேலும்": 3158,
  "மேலும்": 3159,
  "েই": 3160,
  " নয়": 3161,
  "নয়": 3162,
  "ங்கி": 3163,
  " आरोप": 3164,
  "आरोप": 3165,
  " হলে": 3166,
  "হলে": 3167,
  "டும்": 3168,
  "గ్గ": 3169,
  "ళ్లు": 3170,
  ".,": 3171,
  " দ্ব": 3172,
  "দ্ব": 3173,
  " ఇక": 3174,
  "ఇక": 3175,
  "र्थ": 3176,
  "డిన": 3177,
  "ర్భ": 3178,
  " जांच": 3179,
  "जांच": 3180,
  " మధ్య": 3181,
  "మధ్య": 3182,
  " চাল": 3183,
  "চাল": 3184,
  " फै": 3185,
  "फै": 3186,
  " एस": 3187,
  " పెద్ద": 3188,
  "పెద్ద": 3189,
  "ীগ": 3190,
  " ప్రస్తు": 3191,
  "ప్రస్తు": 3192,
  "న్య": 3193,
  " बैठ": 3194,
  "बैठ": 3195,
  " फिर": 3196,
  "फिर": 3197,
  " জানিয়ে": 3198,
  "জানিয়ে": 3199,
  "ாவது": 3200,
  " குறை": 3201,
  "குறை": 3202,
  " তাঁর": 3203,
  "তাঁর": 3204,
  "ানো": 3205,
  "्रीय": 3206,
  "ేవ": 3207,
  " చంద్ర": 3208,
  "చంద్ర": 3209,
  " చేస్తున్న": 3210,
  "చేస్తున్న": 3211,
  " ఇప్పుడు": 3212,
  "ఇప్పుడు": 3213,
  " క్": 3214,
  "্দ্র": 3215,
  " जाएगा": 3216,
  "जाएगा": 3217,
  " అస": 3218,
  "అస": 3219,
  " மக்கள்": 3220,
  "மக்கள்": 3221,
  " सकता": 3222,
  "सकता": 3223,
  " खिलाफ": 3224,
  "खिलाफ": 3225,
  "களில்": 3226,
  " डॉ": 3227,
  "डॉ": 3228,
  "्यों": 3229,
  "ரே": 3230,
  "র্শ": 3231,
  "ினார்": 3232,
  " அனை": 3233,
  "அனை": 3234,
  " কাছে": 3235,
  "কাছে": 3236,
  " கிர": 3237,
  "கிர": 3238,
  " আদ": 3239,
  "আদ": 3240,
  "ிடம்": 3241,
  "ினர்": 3242,
  " विभाग": 3243,
  "विभाग": 3244,
  "িউ": 3245,
  " பூ": 3246,
  "பூ": 3247,
  "బాబు": 3248,
  "য়ো": 3249,
  " హా": 3250,
  "िले": 3251,
  "নায়": 3252,
  "क्स": 3253,
  " కారణ": 3254,
  "కారణ": 3255,
  "্যু": 3256,
  " ट्र": 3257,
  "ट्र": 3258,
  " చెందిన": 3259,
  "చెందిన": 3260,
  " ছবি": 3261,
  "ছবি": 3262,
  " இருக்கும்": 3263,
  "இருக்கும்": 3264,
  "ியாக": 3265,
  " உரு": 3266,
  "உரு": 3267,
  " సాధ": 3268,
  "సాధ": 3269,
  " जारी": 3270,
  "जारी": 3271,
  " अव": 3272,
  "अव": 3273,
  " సై": 3274,
  "సై": 3275,
  " মাধ্য": 3276,
  "মাধ্য": 3277,
  " కె": 3278,
  "కె": 3279,
  " আশ": 3280,
  "আশ": 3281,
  " ছিলেন": 3282,
  "মন্ত্রী": 3283,
  " నటి": 3284,
  "నటి": 3285,
  " అవకాశ": 3286,
  "అవకాశ": 3287,
  " ప్రత్య": 3288,
  "ప్రత్య": 3289,
  "స్థి": 3290,
  "త్తి": 3291,
  " பயன்ப": 3292,
  "பயன்ப": 3293,
  " என்பது": 3294,
  "என்பது": 3295,
  " స్థా": 3296,
  "స్థా": 3297,
  " मान": 3298,
  " நடை": 3299,
  "நடை": 3300,
  " जानकारी": 3301,
  "जानकारी": 3302,
  " அல்லது": 3303,
  "அல்லது": 3304,
  "सार": 3305,
  "ின்றனர்": 3306,
  "নী": 3307,
  " ইসল": 3308,
  "ইসল": 3309,
  "க்கொ": 3310,
  " சூ": 3311,
  "சூ": 3312,
  " अन्य": 3313,
  "अन्य": 3314,
  " దీంతో": 3315,
  "దీంతో": 3316,
  "ంగ్ర": 3317,
  "ించింది": 3318,
  "தால்": 3319,
  "ారణ": 3320,
  " ఘ": 3321,
  "ఘ": 3322,
  "నని": 3323,
  " গিয়ে": 3324,
  "গিয়ে": 3325,
  " টাকা": 3326,
  "টাকা": 3327,
  " দেখা": 3328,
  "দেখা": 3329,
  "దరా": 3330,
  " मांग": 3331,
  "मांग": 3332,
  "টের": 3333,
  " కార్": 3334,
  "కార్": 3335,
  " பொது": 3336,
  "பொது": 3337,
  "షి": 3338,
  " लि": 3339,
  "लि": 3340,
  " பதி": 3341,
  "பதி": 3342,
  " ता": 3343,
  "చారం": 3344,
  " அதி": 3345,
  "அதி": 3346,
  "ப்பட்டுள்ளது": 3347,
  "ोर्ट": 3348,
  " అన్నారు": 3349,
  "అన్నారు": 3350,
  " অভিযোগ": 3351,
  "অভিযোগ": 3352,
  "ষ্ট্র": 3353,
  " ৬": 3354,
  "৬": 3355,
  "యని": 3356,
  "தவ": 3357,
  "জ্ঞ": 3358,
  " নেই": 3359,
  "নেই": 3360,
  " உண": 3361,
  "உண": 3362,
  "డ్డ": 3363,
  " वाली": 3364,
  "वाली": 3365,
  " பர": 3366,
  "பர": 3367,
  " శి": 3368,
  "శి": 3369,
  " యు": 3370,
  "ட்டை": 3371,
  "्यादा": 3372,
  "ুলে": 3373,
  "தியில்": 3374,
  " ऐसे": 3375,
  "ऐसे": 3376,
  " তিন": 3377,
  "তিন": 3378,
  "కపో": 3379,
  "ेज": 3380,
  "च्छ": 3381,
  " মাম": 3382,
  "মাম": 3383,
  " నిర్ణ": 3384,
  "నిర్ణ": 3385,
  "তিক": 3386,
  " మహ": 3387,
  "మహ": 3388,
  " அமைச்ச": 3389,
  "அமைச்ச": 3390,
  "த்திற்கு": 3391,
  " क्र": 3392,
  "ாவில்": 3393,
  "ப்படுத்த": 3394,
  "ायत": 3395,
  "क्टर": 3396,
  "టం": 3397,
  "ையின்": 3398,
  " দল": 3399,
  "দল": 3400,
  "సారి": 3401,
  "ங்": 3402,
  "தான்": 3403,
  " দেওয়া": 3404,
  "দেওয়া": 3405,
  "త్రి": 3406,
  "క్కడ": 3407,
  "கவ": 3408,
  "वाद": 3409,
  "িপ": 3410,
  "த்தார்": 3411,
  "धी": 3412,
  " దర్శ": 3413,
  "దర్శ": 3414,
  " अग": 3415,
  "अग": 3416,
  " किए": 3417,
  "किए": 3418,
  "हार": 3419,
  "ారులు": 3420,
  "শ্": 3421,
  " అంది": 3422,
  "అంది": 3423,
  " సర్": 3424,
  "సర్": 3425,
  "ब्": 3426,
  "కాల": 3427,
  "লার": 3428,
  " कंप": 3429,
  "कंप": 3430,
  " కాంగ్ర": 3431,
  "కాంగ్ర": 3432,
  "ियां": 3433,
  " గుర్": 3434,
  "గుర్": 3435,
  " கடந்த": 3436,
  "கடந்த": 3437,
  " వరకు": 3438,
  "వరకు": 3439,
  " गो": 3440,
  "गो": 3441,
  " টি": 3442,
  " बद": 3443,
  "बद": 3444,
  " कॉ": 3445,
  "कॉ": 3446,
  " অপ": 3447,
  "অপ": 3448,
  " पार्टी": 3449,
  "पार्टी": 3450,
  " మీరు": 3451,
  "మీరు": 3452,
  " বেশি": 3453,
  "বেশি": 3454,
  "ப்படுகிறது": 3455,
  " ఉంటుంది": 3456,
  "ఉంటుంది": 3457,
  "পাত": 3458,
  "க்கம்": 3459,
  " గత": 3460,
  "గత": 3461,
  "িয়ার": 3462,
  " उनकी": 3463,
  "उनकी": 3464,
  " తెలుగు": 3465,
  "తెలుగు": 3466,
  " కని": 3467,
  "కని": 3468,
  " விள": 3469,
  "விள": 3470,
  " নিয়": 3471,
  "নিয়": 3472,
  "గొ": 3473,
  "্যান্ড": 3474,
  " किसान": 3475,
  "किसान": 3476,
  " सबसे": 3477,
  "सबसे": 3478,
  "்தான்": 3479,
  "ారంభ": 3480,
  "ধারণ": 3481,
  " திட்ட": 3482,
  "திட்ட": 3483,
  " ఎక్కువ": 3484,
  "ఎక్కువ": 3485,
  " సంస్థ": 3486,
  "సంస్థ": 3487,
  " పూర్తి": 3488,
  "పూర్తి": 3489,
  "ভাব": 3490,
  "ள்ளனர்": 3491,
  " కల": 3492,
  "కల": 3493,
  "বর্ত": 3494,
  "க்கான": 3495,
  "ங்களுக்கு": 3496,
  " విడు": 3497,
  "విడు": 3498,
  " सुर": 3499,
  "सुर": 3500,
  " ఇలా": 3501,
  "ఇలా": 3502,
  " இருப்ப": 3503,
  "இருப்ப": 3504,
  " ముందు": 3505,
  "ముందు": 3506,
  " উত্ত": 3507,
  "উত্ত": 3508,
  "ंब": 3509,
  " छा": 3510,
  "छा": 3511,
  " ট্র": 3512,
  "ট্র": 3513,
  " ప్రాంత": 3514,
  "ప్రాంత": 3515,
  " शामिल": 3516,
  "शामिल": 3517,
  " যদি": 3518,
  "যদি": 3519,
  "கம்": 3520,
  "ज्": 3521,
  " भारतीय": 3522,
  "भारतीय": 3523,
  " హైదరా": 3524,
  "హైదరా": 3525,
  "ర్కొ": 3526,
  " మంచి": 3527,
  "మంచి": 3528,
  " पूर्व": 3529,
  "पूर्व": 3530,
  "ొక్క": 3531,
  " ప్రారంభ": 3532,
  "ప్రారంభ": 3533,
  " అన": 3534,
  "అన": 3535,
  "வுக்கு": 3536,
  "गत": 3537,
  "ణి": 3538,
  " లేదు": 3539,
  "లేదు": 3540,
  " রহ": 3541,
  "রহ": 3542,
  " சேர்ந்த": 3543,
  "சேர்ந்த": 3544,
  " शु": 3545,
  "शु": 3546,
  " তাই": 3547,
  "তাই": 3548,
  "ড়া": 3549,
  "ামের": 3550,
  "தில்": 3551,
  " ভালো": 3552,
  "ভালো": 3553,
  " పరిస్థి": 3554,
  "పరిస్థి": 3555,
  " தொழ": 3556,
  "தொழ": 3557,
  " মনে": 3558,
  "মনে": 3559,
  "త్తు": 3560,
  " বিষয়": 3561,
  "বিষয়": 3562,
  " ఆర్": 3563,
  " उसके": 3564,
  "उसके": 3565,
  " देने": 3566,
  "देने": 3567,
  " বন্ধ": 3568,
  "বন্ধ": 3569,
  "ర్టు": 3570,
  "ையா": 3571,
  " கூட்ட": 3572,
  "கூட்ட": 3573,
  "ாரி": 3574,
  " স্ট": 3575,
  "ীক্ষ": 3576,
  "బో": 3577,
  " వారు": 3578,
  "వారు": 3579,
  "ச்சி": 3580,
  "தல்": 3581,
  " బె": 3582,
  "బె": 3583,
  " ज्यादा": 3584,
  "ज्यादा": 3585,
  " করোনা": 3586,
  "করোনা": 3587,
  "दान": 3588,
  " தய": 3589,
  "தய": 3590,
  "लों": 3591,
  " நெ": 3592,
  "நெ": 3593,
  "ன்னை": 3594,
  " சொல்ல": 3595,
  "சொல்ல": 3596,
  " చేసింది": 3597,
  "చేసింది": 3598,
  " நக": 3599,
  "நக": 3600,
  " ঠ": 3601,
  "ঠ": 3602,
  "ర్యా": 3603,
  " वै": 3604,
  "वै": 3605,
  " पां": 3606,
  "पां": 3607,
  " তো": 3608,
  " ప్రే": 3609,
  "ప్రే": 3610,
  " மொ": 3611,
  "மொ": 3612,
  " स्क": 3613,
  "स्क": 3614,
  " পরিচ": 3615,
  "পরিচ": 3616,
  " लाख": 3617,
  "लाख": 3618,
  "জি": 3619,
  " నెల": 3620,
  "నెల": 3621,
  "డియా": 3622,
  " అవు": 3623,
  "అవు": 3624,
  "লাই": 3625,
  "ந்திர": 3626,
  "भाव": 3627,
  "टा": 3628,
  " కాల": 3629,
  " அடி": 3630,
  "அடி": 3631,
  " একটা": 3632,
  "একটা": 3633,
  "ించే": 3634,
  "ুদ্ধে": 3635,
  "ேய": 3636,
  "ীরা": 3637,
  " राष्ट": 3638,
  "राष्ट": 3639,
  " ম্যা": 3640,
  "ম্যা": 3641,
  " सकते": 3642,
  "सकते": 3643,
  "స్య": 3644,
  "ந்தை": 3645,
  " தமிழக": 3646,
  "தமிழக": 3647,
  " ओर": 3648,
  "ओर": 3649,
  "్లా": 3650,
  "जपा": 3651,
  "டுப்ப": 3652,
  " வள": 3653,
  "வள": 3654,
  " আরও": 3655,
  "আরও": 3656,
  " इससे": 3657,
  "इससे": 3658,
  " ছে": 3659,
  "ोजना": 3660,
  "ताओं": 3661,
  "ायर": 3662,
  " সদস্য": 3663,
  "সদস্য": 3664,
  "्यालय": 3665,
  "కం": 3666,
  " ৭": 3667,
  "৭": 3668,
  " కొన్ని": 3669,
  "కొన్ని": 3670,
  "ारे": 3671,
  "ेशन": 3672,
  " கிடை": 3673,
  "கிடை": 3674,
  " தமிழ்": 3675,
  "தமிழ்": 3676,
  "ந்": 3677,
  "ারের": 3678,
  "నాలు": 3679,
  " தேர்த": 3680,
  "தேர்த": 3681,
  "ুয়ার": 3682,
  "ंक": 3683,
  " অনুষ্ঠ": 3684,
  "অনুষ্ঠ": 3685,
  "ृत": 3686,
  " পুর": 3687,
  "యే": 3688,
  " నిర్వహ": 3689,
  "నిర్వహ": 3690,
  " விர": 3691,
  "விர": 3692,
  " విడుదల": 3693,
  "విడుదల": 3694,
  "ঠে": 3695,
  "এস": 3696,
  " বড়": 3697,
  "বড়": 3698,
  " చేసే": 3699,
  "చేసే": 3700,
  " নির্বাচ": 3701,
  "নির্বাচ": 3702,
  "णा": 3703,
  " काफी": 3704,
  "काफी": 3705,
  " కేసు": 3706,
  "కేసు": 3707,
  " महा": 3708,
  "महा": 3709,
  "र्ड": 3710,
  " సభ": 3711,
  "సభ": 3712,
  " दर्ज": 3713,
  "दर्ज": 3714,
  " चाहिए": 3715,
  "चाहिए": 3716,
  " குறிப்ப": 3717,
  "குறிப்ப": 3718,
  " प्रत": 3719,
  "प्रत": 3720,
  "ामी": 3721,
  "ाज": 3722,
  "లోకి": 3723,
  "ர்வு": 3724,
  " स्व": 3725,
  "स्व": 3726,
  " வரை": 3727,
  "வரை": 3728,
  " అన్ని": 3729,
  "అన్ని": 3730,
  "లపై": 3731,
  " राम": 3732,
  "राम": 3733,
  " नी": 3734,
  " ఒక్క": 3735,
  "ఒక్క": 3736,
  " পড়ে": 3737,
  "পড়ে": 3738,
  " చెప్పారు": 3739,
  "చెప్పారు": 3740,
  " मंत्री": 3741,
  "ப்போது": 3742,
  " उसे": 3743,
  "उसे": 3744,
  " गिर": 3745,
  "गिर": 3746,
  " நடி": 3747,
  "நடி": 3748,
  " तैय": 3749,
  "तैय": 3750,
  " करी": 3751,
  "करी": 3752,
  "వం": 3753,
  "్యం": 3754,
  " भाजपा": 3755,
  "भाजपा": 3756,
  "क्ति": 3757,
  " పోలీసులు": 3758,
  "పోలీసులు": 3759,
  "ாவின்": 3760,
  " நீங்கள்": 3761,
  "நீங்கள்": 3762,
  " రే": 3763,
  " సమయంలో": 3764,
  "సమయంలో": 3765,
  " போன்ற": 3766,
  "போன்ற": 3767,
  " మొద": 3768,
  "మొద": 3769,
  " পরে": 3770,
  "পরে": 3771,
  "ूम": 3772,
  " তৈ": 3773,
  "তৈ": 3774,
  " রো": 3775,
  "রো": 3776,
  " পাশ": 3777,
  "পাশ": 3778,
  "ंदी": 3779,
  "ণ্ড": 3780,
  "்ச்ச": 3781,
  " ఇం": 3782,
  "ఇం": 3783,
  "श्व": 3784,
  " பெற்ற": 3785,
  "பெற்ற": 3786,
  " रुपये": 3787,
  "रुपये": 3788,
  " দেশের": 3789,
  "দেশের": 3790,
  "ிறார்கள்": 3791,
  " ভাই": 3792,
  "ভাই": 3793,
  " హైదరాబాద్": 3794,
  "హైదరాబాద్": 3795,
  "வ்வ": 3796,
  "an": 3797,
  " मौत": 3798,
  "मौत": 3799,
  " बो": 3800,
  "बो": 3801,
  " நிலையில்": 3802,
  "நிலையில்": 3803,
  "ரின்": 3804,
  " ఉద్య": 3805,
  "ఉద్య": 3806,
  " कप": 3807,
  "कप": 3808,
  " போட்ட": 3809,
  "போட்ட": 3810,
  " मैं": 3811,
  "मैं": 3812,
  "্যাপ": 3813,
  " পূ": 3814,
  "পূ": 3815,
  " प्रश": 3816,
  "प्रश": 3817,
  "वान": 3818,
  " ली": 3819,
  " পে": 3820,
  "পে": 3821,
  " হার": 3822,
  " জাত": 3823,
  "জাত": 3824,
  "বেদ": 3825,
  " पिछ": 3826,
  "पिछ": 3827,
  " अस्प": 3828,
  "अस्प": 3829,
  "चना": 3830,
  "ाली": 3831,
  " వచ్చిన": 3832,
  "వచ్చిన": 3833,
  " ప్రస్తుతం": 3834,
  "ప్రస్తుతం": 3835,
  "సిందే": 3836,
  " అది": 3837,
  "అది": 3838,
  " উদ": 3839,
  "উদ": 3840,
  "ారీ": 3841,
  "ையாக": 3842,
  "योग": 3843,
  " இல்லை": 3844,
  "இல்லை": 3845,
  " மாநில": 3846,
  "மாநில": 3847,
  "सभा": 3848,
  " अध्यक्ष": 3849,
  "अध्यक्ष": 3850,
  " अस्पताल": 3851,
  "अस्पताल": 3852,
  " காண": 3853,
  "காண": 3854,
  "స్తారు": 3855,
  " అవస": 3856,
  "అవస": 3857,
  "াস্থ": 3858,
  " விவ": 3859,
  "விவ": 3860,
  " आए": 3861,
  "आए": 3862,
  "এন": 3863,
  "न्न": 3864,
  "গর": 3865,
  " এসে": 3866,
  "এসে": 3867,
  "ंबर": 3868,
  "ूर्": 3869,
  "ரோனா": 3870,
  "ச்சு": 3871,
  " প্রা": 3872,
  "প্রা": 3873,
  "য়ন": 3874,
  " మాత్రం": 3875,
  "మాత్రం": 3876,
  " மோ": 3877,
  "மோ": 3878,
  " বার": 3879,
  " বিক": 3880,
  "বিক": 3881,
  " మీడియా": 3882,
  "మీడియా": 3883,
  "ிலிருந்து": 3884,
  " యొక్క": 3885,
  "యొక్క": 3886,
  " जिले": 3887,
  "जिले": 3888,
  "ारियों": 3889,
  " ঝ": 3890,
  "ঝ": 3891,
  "ர்க்க": 3892,
  "டம்": 3893,
  "టింగ్": 3894,
  " যোগ": 3895,
  "కర": 3896,
  "स्था": 3897,
  "சை": 3898,
  " యూ": 3899,
  "యూ": 3900,
  " தவ": 3901,
  " కావ": 3902,
  "కావ": 3903,
  "ందో": 3904,
  " नई": 3905,
  "नई": 3906,
  " দাব": 3907,
  "দাব": 3908,
  " होता": 3909,
  "होता": 3910,
  "ोष": 3911,
  "্যে": 3912,
  "ళ్ళ": 3913,
  " জীব": 3914,
  "জীব": 3915,
  " அல": 3916,
  "அல": 3917,
  " మొత్త": 3918,
  "మొత్త": 3919,
  " শহ": 3920,
  "শহ": 3921,
  " शिक्ष": 3922,
  "शिक्ष": 3923,
  " ఉంట": 3924,
  "ఉంట": 3925,
  " இல்ல": 3926,
  "இல்ல": 3927,
  " करा": 3928,
  "करा": 3929,
  " విధ": 3930,
  "విధ": 3931,
  "పంచ": 3932,
  " প্রতিষ্ঠ": 3933,
  "প্রতিষ্ঠ": 3934,
  " ఫి": 3935,
  "ఫి": 3936,
  "ासन": 3937,
  " নার": 3938,
  " గురించి": 3939,
  "గురించి": 3940,
  " यू": 3941,
  "यू": 3942,
  " গেছে": 3943,
  "গেছে": 3944,
  " ৮": 3945,
  "৮": 3946,
  " బాల": 3947,
  "బాల": 3948,
  " তাকে": 3949,
  "তাকে": 3950,
  "म्": 3951,
  " అన్న": 3952,
  "అన్న": 3953,
  " பெய": 3954,
  "பெய": 3955,
  " இன்று": 3956,
  "இன்று": 3957,
  "বিদ্যাল": 3958,
  "ोन": 3959,
  " আন": 3960,
  "আন": 3961,
  " ইসলাম": 3962,
  "ইসলাম": 3963,
  " చంద్రబాబు": 3964,
  "చంద్రబాబు": 3965,
  " நீதி": 3966,
  "நீதி": 3967,
  "హ్": 3968,
  "য়েক": 3969,
  " రెడ్డి": 3970,
  "రెడ్డి": 3971,
  " इला": 3972,
  "इला": 3973,
  "চ্চ": 3974,
  " வில": 3975,
  "வில": 3976,
  "ैन": 3977,
  " வய": 3978,
  "வய": 3979,
  " గో": 3980,
  "గో": 3981,
  " প্রায়": 3982,
  "প্রায়": 3983,
  " সক": 3984,
  "সক": 3985,
  "पाल": 3986,
  " चार": 3987,
  " மத்திய": 3988,
  "மத்திய": 3989,
  " মি": 3990,
  "মি": 3991,
  " ব্র": 3992,
  "ব্র": 3993,
  " अल": 3994,
  "अल": 3995,
  " ஒன்ற": 3996,
  "ஒன்ற": 3997,
  " करें": 3998,
  "करें": 3999,
  " যাবে": 4000,
  "যাবে": 4001,
  " একজন": 4002,
  "একজন": 4003,
  " स्वा": 4004,
  "स्वा": 4005,
  "াধ": 4006,
  " ప్రత్యేక": 4007,
  "ప్రత్యేక": 4008,
  "్రే": 4009,
  " জু": 4010,
  "জু": 4011,
  " மூலம்": 4012,
  "மூலம்": 4013,
  " দায়": 4014,
  "দায়": 4015,
  " అమ": 4016,
  "అమ": 4017,
  " सद": 4018,
  "सद": 4019,
  " পরীক্ষ": 4020,
  "পরীক্ষ": 4021,
  "িও": 4022,
  " తాజా": 4023,
  "తాజా": 4024,
  "র্জ": 4025,
  "মাণ": 4026,
  " मोदी": 4027,
  "मोदी": 4028,
  " విషయం": 4029,
  "విషయం": 4030,
  "ந்தது": 4031,
  " आने": 4032,
  "आने": 4033,
  "ோர்": 4034,
  "మ్మె": 4035,
  " बहुत": 4036,
  "बहुत": 4037,
  "স্থা": 4038,
  " मार्": 4039,
  "मार्": 4040,
  " सामने": 4041,
  "सामने": 4042,
  " జరుగు": 4043,
  "జరుగు": 4044,
  " থাকে": 4045,
  "থাকে": 4046,
  " होगी": 4047,
  "होगी": 4048,
  "ीस": 4049,
  "ாங்க": 4050,
  "னம்": 4051,
  " वो": 4052,
  "वो": 4053,
  " न्यू": 4054,
  "न्यू": 4055,
  " உலக": 4056,
  "உலக": 4057,
  " छात्र": 4058,
  "छात्र": 4059,
  " పేరు": 4060,
  "పేరు": 4061,
  "முறை": 4062,
  " বিরুদ্ধে": 4063,
  "বিরুদ্ধে": 4064,
  " ఎం": 4065,
  "ुरु": 4066,
  " মতো": 4067,
  "মতো": 4068,
  " முக்கிய": 4069,
  "முக்கிய": 4070,
  " দিকে": 4071,
  "দিকে": 4072,
  " విద్య": 4073,
  "విద్య": 4074,
  " বিশ্ববিদ্যাল": 4075,
  "বিশ্ববিদ্যাল": 4076,
  " రాజకీ": 4077,
  "రాజకీ": 4078,
  " పాల్": 4079,
  "పాల్": 4080,
  " घटना": 4081,
  "घटना": 4082,
  " हजार": 4083,
  "हजार": 4084,
  "वास": 4085,
  "றிய": 4086,
  " ইউনি": 4087,
  "ইউনি": 4088,
  "ంచు": 4089,
  " डी": 4090,
  "ளும்": 4091,
  " தெரிவித்து": 4092,
  "தெரிவித்து": 4093,
  "ियो": 4094,
  "క్తి": 4095,
  " సందర్భ": 4096,
  "సందర్భ": 4097,
  " करोड़": 4098,
  "करोड़": 4099,
  " நிக": 4100,
  "நிக": 4101,
  " মন": 4102,
  " অংশ": 4103,
  "অংশ": 4104,
  " కళ": 4105,
  "కళ": 4106,
  " டி": 4107,
  " வரும்": 4108,
  "வரும்": 4109,
  " కుటు": 4110,
  "కుటు": 4111,
  " தான்": 4112,
  " স্ক": 4113,
  "স্ক": 4114,
  "முக": 4115,
  " পাল": 4116,
  "পাল": 4117,
  "స్ట్": 4118,
  " అం": 4119,
  "అం": 4120,
  "యర్": 4121,
  "িৎ": 4122,
  " ई": 4123,
  "ई": 4124,
  " মার": 4125,
  "মার": 4126,
  " கொள்ள": 4127,
  "கொள்ள": 4128,
  "ীত": 4129,
  "య్": 4130,
  " நேர": 4131,
  "நேர": 4132,
  "ద్ర": 4133,
  " प्रधान": 4134,
  "प्रधान": 4135,
  "जूद": 4136,
  " மாண": 4137,
  "மாண": 4138,
  "ेंद": 4139,
  " হাসপাত": 4140,
  "হাসপাত": 4141,
  "ুদ": 4142,
  "ంచింది": 4143,
  " মাধ্যমে": 4144,
  "মাধ্যমে": 4145,
  " హి": 4146,
  " நான்": 4147,
  "நான்": 4148,
  "িস্ত": 4149,
  " শ্র": 4150,
  "শ্র": 4151,
  "র্ষ": 4152,
  "గం": 4153,
  "టె": 4154,
  "ல்ப": 4155,
  " జగన్": 4156,
  "జగన్": 4157,
  " ప్రకటి": 4158,
  "ప్రకటి": 4159,
  " சம்ப": 4160,
  "சம்ப": 4161,
  " निय": 4162,
  "निय": 4163,
  " करीब": 4164,
  "करीब": 4165,
  "கிறது": 4166,
  "হণ": 4167,
  "ீர்": 4168,
  " దు": 4169,
  "ంత్ర": 4170,
  "ிகளை": 4171,
  " வேலை": 4172,
  "வேலை": 4173,
  " কয়েক": 4174,
  "কয়েক": 4175,
  " కథ": 4176,
  "కథ": 4177,
  "্যের": 4178,
  " மருத்துவ": 4179,
  "மருத்துவ": 4180,
  " సమీ": 4181,
  "సమీ": 4182,
  "াউ": 4183,
  "య్యా": 4184,
  " इसी": 4185,
  "इसी": 4186,
  "्ड": 4187,
  " ধর": 4188,
  "ধর": 4189,
  "फ्त": 4190,
  " ব্যবহার": 4191,
  "ব্যবহার": 4192,
  "వ్ర": 4193,
  " পেয়ে": 4194,
  "পেয়ে": 4195,
  "धिक": 4196,
  "வடிக்க": 4197,
  " பரி": 4198,
  "பரி": 4199,
  " లేదా": 4200,
  "లేదా": 4201,
  "వచ్చు": 4202,
  " केंद्र": 4203,
  "केंद्र": 4204,
  " জাতীয়": 4205,
  "জাতীয়": 4206,
  " ফে": 4207,
  "ফে": 4208,
  "০০": 4209,
  " எந்த": 4210,
  "எந்த": 4211,
  "ாதார": 4212,
  "ेंट": 4213,
  "धा": 4214,
  " ইন": 4215,
  "ইন": 4216,
  " কেন্দ্র": 4217,
  "কেন্দ্র": 4218,
  " संबंध": 4219,
  "संबंध": 4220,
  "ुक": 4221,
  "సింది": 4222,
  " রহমান": 4223,
  "রহমান": 4224,
  " விசார": 4225,
  "விசார": 4226,
  " ঘো": 4227,
  "ঘো": 4228,
  " ধরে": 4229,
  "ধরে": 4230,
  " शा": 4231,
  "शा": 4232,
  "జేపీ": 4233,
  " डि": 4234,
  "डि": 4235,
  " উদ্": 4236,
  "উদ্": 4237,
  " దీని": 4238,
  "దీని": 4239,
  " श्री": 4240,
  "श्री": 4241,
  "ध्य": 4242,
  " நடவடிக்க": 4243,
  "நடவடிக்க": 4244,
  " எல்ல": 4245,
  "எல்ல": 4246,
  "ర్మ": 4247,
  " शहर": 4248,
  "शहर": 4249,
  "ாள்": 4250,
  " দিতে": 4251,
  "দিতে": 4252,
  "प्": 4253,
  "निया": 4254,
  " భారీ": 4255,
  "భారీ": 4256,
  " कर्म": 4257,
  "कर्म": 4258,
  " .": 4259,
  ".": 4260,
  " ఏపీ": 4261,
  "ఏపీ": 4262,
  "మై": 4263,
  " খুব": 4264,
  "খুব": 4265,
  " মুখ": 4266,
  "মুখ": 4267,
  "द्य": 4268,
  " ৯": 4269,
  "৯": 4270,
  " తీవ్ర": 4271,
  "తీవ్ర": 4272,
  " తప్ప": 4273,
  "తప్ప": 4274,
  " బయ": 4275,
  "బయ": 4276,
  " பாது": 4277,
  "பாது": 4278,
  " போது": 4279,
  "போது": 4280,
  " పేర్కొ": 4281,
  "పేర్కొ": 4282,
  " జన": 4283,
  "జన": 4284,
  "க்காக": 4285,
  " தற்ப": 4286,
  "தற்ப": 4287,
  "ত্ব": 4288,
  "िता": 4289,
  " पूरी": 4290,
  "पूरी": 4291,
  "తీయ": 4292,
  "্টি": 4293,
  "యత్": 4294,
  "ణం": 4295,
  " याद": 4296,
  "याद": 4297,
  "ত্যা": 4298,
  " अपना": 4299,
  "अपना": 4300,
  " కాదు": 4301,
  "కాదు": 4302,
  " গো": 4303,
  "গো": 4304,
  " வெளி": 4305,
  "வெளி": 4306,
  " আপনার": 4307,
  "আপনার": 4308,
  " अनुसार": 4309,
  "अनुसार": 4310,
  " তথ": 4311,
  "তথ": 4312,
  "ార్థ": 4313,
  " போலீ": 4314,
  "போலீ": 4315,
  "ক্রান্ত": 4316,
  " அறிவி": 4317,
  "அறிவி": 4318,
  "शे": 4319,
  "ம்ம": 4320,
  "మెంట్": 4321,
  " బీజేపీ": 4322,
  "బీజేపీ": 4323,
  "ర్లు": 4324,
  " நடைபெ": 4325,
  "நடைபெ": 4326,
  " எண்ண": 4327,
  "எண்ண": 4328,
  "ట్టుకు": 4329,
  " সালের": 4330,
  "সালের": 4331,
  "ையே": 4332,
  " పలు": 4333,
  "పలు": 4334,
  "ంచే": 4335,
  " அதிகார": 4336,
  "அதிகார": 4337,
  " அவர்கள்": 4338,
  "அவர்கள்": 4339,
  " ভা": 4340,
  "ভা": 4341,
  " బు": 4342,
  " मन": 4343,
  "मन": 4344,
  "నున్న": 4345,
  "in": 4346,
  "గింది": 4347,
  "హం": 4348,
  "্যাম": 4349,
  "तार": 4350,
  " आर": 4351,
  "आर": 4352,
  "িটি": 4353,
  "கர்": 4354,
  " ২০২": 4355,
  "২০২": 4356,
  " পারেন": 4357,
  "পারেন": 4358,
  " కేంద్రం": 4359,
  "కేంద్రం": 4360,
  " தூ": 4361,
  "தூ": 4362,
  " সর্ব": 4363,
  "সর্ব": 4364,
  "ेत": 4365,
  "াদক": 4366,
  "মিক": 4367,
  " தர": 4368,
  "தர": 4369,
  "ோடு": 4370,
  " परिवार": 4371,
  "परिवार": 4372,
  " பாதுகா": 4373,
  "பாதுகா": 4374,
  " স্থান": 4375,
  "স্থান": 4376,
  "ப்பை": 4377,
  " क्यों": 4378,
  "क्यों": 4379,
  "ட்ப": 4380,
  "োচ": 4381,
  " সাধারণ": 4382,
  "সাধারণ": 4383,
  " ছাত্র": 4384,
  "ছাত্র": 4385,
  "्रा": 4386,
  "লেন": 4387,
  " तथा": 4388,
  "तथा": 4389,
  " విని": 4390,
  "విని": 4391,
  " এটি": 4392,
  "এটি": 4393,
  "ूं": 4394,
  " पद": 4395,
  "पद": 4396,
  " मुख्यमंत्री": 4397,
  "मुख्यमंत्री": 4398,
  " ఆధ": 4399,
  "ఆధ": 4400,
  " नगर": 4401,
  "नगर": 4402,
  "ட்டில்": 4403,
  " दिए": 4404,
  "दिए": 4405,
  "డ్‌": 4406,
  " अगर": 4407,
  "अगर": 4408,
  " अला": 4409,
  "अला": 4410,
  "लो": 4411,
  " बारे": 4412,
  "बारे": 4413,
  "ద్ధి": 4414,
  "ষ্টি": 4415,
  " কারণে": 4416,
  "কারণে": 4417,
  " योजना": 4418,
  "योजना": 4419,
  "ர்களை": 4420,
  " হোস": 4421,
  "হোস": 4422,
  " अभी": 4423,
  "अभी": 4424,
  " காரண": 4425,
  "காரண": 4426,
  " बंद": 4427,
  "बंद": 4428,
  " বলেছেন": 4429,
  "বলেছেন": 4430,
  "్యంలో": 4431,
  " వ్యవ": 4432,
  "వ్యవ": 4433,
  " ఎదు": 4434,
  "ఎదు": 4435,
  " অভিন": 4436,
  "অভিন": 4437,
  "రాలు": 4438,
  " வந்து": 4439,
  "வந்து": 4440,
  " హె": 4441,
  "హె": 4442,
  " বিভাগ": 4443,
  "বিভাগ": 4444,
  " पिछले": 4445,
  "पिछले": 4446,
  " अधिकारी": 4447,
  "अधिकारी": 4448,
  "ద్దు": 4449,
  " সংস": 4450,
  "সংস": 4451,
  "র্ক": 4452,
  " ఎమ్మె": 4453,
  "ఎమ్మె": 4454,
  "ুজ": 4455,
  " వద్ద": 4456,
  "వద్ద": 4457,
  "ంక": 4458,
  " ప్రపంచ": 4459,
  "ప్రపంచ": 4460,
  "जय": 4461,
  " চিক": 4462,
  "চিক": 4463,
  "কর্ত": 4464,
  "ற்கொ": 4465,
  "ाला": 4466,
  "ায়ী": 4467,
  " आयोज": 4468,
  "आयोज": 4469,
  " চার": 4470,
  " నమో": 4471,
  "నమో": 4472,
  " మాత్రమే": 4473,
  "మాత్రమే": 4474,
  "ড়িয়ে": 4475,
  "रण": 4476,
  " এবার": 4477,
  "এবার": 4478,
  " மட்டு": 4479,
  "மட்டு": 4480,
  " నిర్మా": 4481,
  "నిర్మా": 4482,
  " మహి": 4483,
  "మహి": 4484,
  " उठ": 4485,
  "उठ": 4486,
  "కెట్": 4487,
  " నేప": 4488,
  "నేప": 4489,
  " পরিচাল": 4490,
  "পরিচাল": 4491,
  " వైర": 4492,
  "వైర": 4493,
  " தனது": 4494,
  "தனது": 4495,
  "रीज": 4496,
  " रिप": 4497,
  "रिप": 4498,
  "వల": 4499,
  " উল": 4500,
  "উল": 4501,
  " বৈ": 4502,
  "বৈ": 4503,
  " కాంగ్రెస్": 4504,
  "కాంగ్రెస్": 4505,
  "माण": 4506,
  "మిక": 4507,
  " विध": 4508,
  "विध": 4509,
  " टे": 4510,
  " పద": 4511,
  "పద": 4512,
  "स्तान": 4513,
  " பிரி": 4514,
  "பிரி": 4515,
  " অর্থ": 4516,
  "অর্থ": 4517,
  "விட": 4518,
  " வாழ": 4519,
  "வாழ": 4520,
  "గ్య": 4521,
  " मिले": 4522,
  "मिले": 4523,
  " கொரோனா": 4524,
  "கொரோனா": 4525,
  " భూ": 4526,
  "భూ": 4527,
  "ிகி": 4528,
  " জেলা": 4529,
  "জেলা": 4530,
  "ंत": 4531,
  " దూరంలో": 4532,
  "దూరంలో": 4533,
  " বিশেষ": 4534,
  "বিশেষ": 4535,
  "ंगल": 4536,
  "రుకు": 4537,
  " వైద్య": 4538,
  "వైద్య": 4539,
  " సీఎం": 4540,
  "సీఎం": 4541,
  " पढ़": 4542,
  "पढ़": 4543,
  " సంగ": 4544,
  "సంగ": 4545,
  "ুয়ারি": 4546,
  " परी": 4547,
  "परी": 4548,
  " पांच": 4549,
  "पांच": 4550,
  " பார்த்த": 4551,
  "பார்த்த": 4552,
  " পাঠ": 4553,
  "পাঠ": 4554,
  " इसमें": 4555,
  "इसमें": 4556,
  " ఇవ్వ": 4557,
  "ఇవ్వ": 4558,
  " పరిశ": 4559,
  "పరిశ": 4560,
  "রাস": 4561,
  " பட்ட": 4562,
  "பட்ட": 4563,
  " অফ": 4564,
  "অফ": 4565,
  " தகவ": 4566,
  "தகவ": 4567,
  "ஸ்த": 4568,
  "ெல்ல": 4569,
  "ক্রম": 4570,
  " స్వ": 4571,
  "స్వ": 4572,
  "ென": 4573,
  "ానికి": 4574,
  " వార్": 4575,
  "వార్": 4576,
  "ఫీ": 4577,
  " నగ": 4578,
  "నగ": 4579,
  "ుడు": 4580,
  "க்கூ": 4581,
  "ताब": 4582,
  " क्या": 4583,
  "क्या": 4584,
  " జరిగిన": 4585,
  "జరిగిన": 4586,
  "वासी": 4587,
  " জানা": 4588,
  "জানা": 4589,
  "ష్టం": 4590,
  " উপজ": 4591,
  "উপজ": 4592,
  "க்கள்": 4593,
  "ুত": 4594,
  "त्म": 4595,
  "াইল": 4596,
  " తరు": 4597,
  "తరు": 4598,
  " দেন": 4599,
  "দেন": 4600,
  "క్రమ": 4601,
  " अलावा": 4602,
  "अलावा": 4603,
  "ন্ম": 4604,
  "కుడు": 4605,
  " எடுத்து": 4606,
  "எடுத்து": 4607,
  " ஆர": 4608,
  "ஆர": 4609,
  "ুঁ": 4610,
  "চ্ছ": 4611,
  " সভাপ": 4612,
  "সভাপ": 4613,
  " தெரிய": 4614,
  "தெரிய": 4615,
  " முதல": 4616,
  "முதல": 4617,
  "ையான": 4618,
  " ஆய": 4619,
  "ஆய": 4620,
  " ప్రధాన": 4621,
  "ప్రధాన": 4622,
  " மக": 4623,
  "மக": 4624,
  "ীতে": 4625,
  "वल": 4626,
  " வேண்ட": 4627,
  "வேண்ட": 4628,
  " வாய": 4629,
  "வாய": 4630,
  " మహిళ": 4631,
  "మహిళ": 4632,
  "ர்ப்ப": 4633,
  " पड़": 4634,
  "पड़": 4635,
  "ज्ञ": 4636,
  "্যাক": 4637,
  " కీ": 4638,
  " रे": 4639,
  " నేత": 4640,
  "నేత": 4641,
  "্টার": 4642,
  "বাহ": 4643,
  " আবার": 4644,
  "আবার": 4645,
  "కంగా": 4646,
  "ెం": 4647,
  " தொகு": 4648,
  "தொகு": 4649,
  "ন্ত্রণ": 4650,
  " जग": 4651,
  "जग": 4652,
  " विकास": 4653,
  "विकास": 4654,
  " மன": 4655,
  "மன": 4656,
  " தமிழ": 4657,
  "தமிழ": 4658,
  "াস্ত": 4659,
  " வார": 4660,
  "வார": 4661,
  " কর্মকর্ত": 4662,
  "কর্মকর্ত": 4663,
  " సమస్య": 4664,
  "సమస్య": 4665,
  " सफ": 4666,
  "सफ": 4667,
  " তখন": 4668,
  "তখন": 4669,
  " এম": 4670,
  "এম": 4671,
  "లై": 4672,
  "లుగా": 4673,
  " వచ్చే": 4674,
  "వచ్చే": 4675,
  " భారత": 4676,
  "భారత": 4677,
  " বলা": 4678,
  "বলা": 4679,
  " आपको": 4680,
  "आपको": 4681,
  " நல்ல": 4682,
  "நல்ல": 4683,
  " इसे": 4684,
  "इसे": 4685,
  " వర": 4686,
  "వర": 4687,
  " बैं": 4688,
  "बैं": 4689,
  " அதை": 4690,
  "அதை": 4691,
  " இரண்டு": 4692,
  "இரண்டு": 4693,
  " పాత్ర": 4694,
  "పాత్ర": 4695,
  "ंगे": 4696,
  "ங்கை": 4697,
  "ల్య": 4698,
  " ప్రయత్": 4699,
  "ప్రయత్": 4700,
  "ड़क": 4701,
  " কল": 4702,
  "কল": 4703,
  " दा": 4704,
  "ినే": 4705,
  "ীল": 4706,
  "ெரிக்க": 4707,
  " மணி": 4708,
  "மணி": 4709,
  "ख्या": 4710,
  " মূল": 4711,
  "মূল": 4712,
  " ఏర్పాటు": 4713,
  "ఏర్పాటు": 4714,
  "্বে": 4715,
  " स्कूल": 4716,
  "स्कूल": 4717,
  "ాన్ని": 4718,
  " புதிய": 4719,
  "புதிய": 4720,
  "कान": 4721,
  "ట్టిన": 4722,
  " সূ": 4723,
  "সূ": 4724,
  " వల్ల": 4725,
  "వల్ల": 4726,
  "াট": 4727,
  " তথ্য": 4728,
  "তথ্য": 4729,
  " కుటుంబ": 4730,
  "కుటుంబ": 4731,
  "er": 4732,
  " চলে": 4733,
  "চলে": 4734,
  " టి": 4735,
  " వాటి": 4736,
  "వాటి": 4737,
  " बजे": 4738,
  "बजे": 4739,
  " ফির": 4740,
  "ফির": 4741,
  "ச்சை": 4742,
  " உத": 4743,
  "உத": 4744,
  " கவ": 4745,
  " వ్యక్తి": 4746,
  "వ్యక్తి": 4747,
  "ুট": 4748,
  " युव": 4749,
  "युव": 4750,
  "ரீ": 4751,
  " நிலை": 4752,
  "நிலை": 4753,
  " ஆம்": 4754,
  "ஆம்": 4755,
  "ిల్లీ": 4756,
  " అధ్య": 4757,
  "అధ్య": 4758,
  "యాన్ని": 4759,
  "তম": 4760,
  " అవకాశం": 4761,
  "అవకాశం": 4762,
  "తున్నాయి": 4763,
  "ুণ": 4764,
  " যুক্ত": 4765,
  "যুক্ত": 4766,
  " குறித்து": 4767,
  "குறித்து": 4768,
  " হোসেন": 4769,
  "হোসেন": 4770,
  " హో": 4771,
  "హో": 4772,
  "దం": 4773,
  " கட்ச": 4774,
  "கட்ச": 4775,
  " கல்": 4776,
  "கல்": 4777,
  " পরিবার": 4778,
  "পরিবার": 4779,
  " நேற்று": 4780,
  "நேற்று": 4781,
  " తెలిసిందే": 4782,
  "తెలిసిందే": 4783,
  " கட்டு": 4784,
  "கட்டு": 4785,
  " व्यव": 4786,
  "व्यव": 4787,
  " সাহ": 4788,
  "সাহ": 4789,
  " ராஜ": 4790,
  "ராஜ": 4791,
  " సరి": 4792,
  "సరి": 4793,
  "ంలోని": 4794,
  "।\"": 4795,
  " இற": 4796,
  "இற": 4797,
  " செல்ல": 4798,
  "செல்ல": 4799,
  " जबकि": 4800,
  "जबकि": 4801,
  " रि": 4802,
  "रि": 4803,
  "లోనే": 4804,
  "ংস": 4805,
  "ంటున్నారు": 4806,
  " నేపథ": 4807,
  "నేపథ": 4808,
  " பழ": 4809,
  "பழ": 4810,
  "వన్": 4811,
  " குட": 4812,
  "குட": 4813,
  "িতা": 4814,
  " जहां": 4815,
  "जहां": 4816,
  "డియో": 4817,
  " পৌ": 4818,
  "পৌ": 4819,
  " उत्तर": 4820,
  "उत्तर": 4821,
  " লক্ষ": 4822,
  "লক্ষ": 4823,
  " చెబు": 4824,
  "చెబు": 4825,
  "्ला": 4826,
  " इंड": 4827,
  "इंड": 4828,
  "ியது": 4829,
  "ూరు": 4830,
  "त्व": 4831,
  "ीर": 4832,
  " பெரிய": 4833,
  "பெரிய": 4834,
  " संग": 4835,
  "संग": 4836,
  " கீ": 4837,
  "கீ": 4838,
  "ূর্ণ": 4839,
  " ঢাকা": 4840,
  "ঢাকা": 4841,
  "কারী": 4842,
  "ांकि": 4843,
  " चे": 4844,
  "चे": 4845,
  " అంటూ": 4846,
  "అంటూ": 4847,
  " క్రి": 4848,
  "క్రి": 4849,
  " మీద": 4850,
  "మీద": 4851,
  "াওয়ার": 4852,
  "யில்": 4853,
  " ఉద్యో": 4854,
  "ఉద్యో": 4855,
  "యాలు": 4856,
  "্জ": 4857,
  " సౌ": 4858,
  "సౌ": 4859,
  " மீது": 4860,
  "மீது": 4861,
  "িত্ব": 4862,
  "ృష్టి": 4863,
  " अच्छ": 4864,
  "अच्छ": 4865,
  " চিকিৎ": 4866,
  "চিকিৎ": 4867,
  " रिपोर्ट": 4868,
  "रिपोर्ट": 4869,
  " మూడు": 4870,
  "మూడు": 4871,
  " दर": 4872,
  "दर": 4873,
  " చిన్న": 4874,
  "చిన్న": 4875,
  " শেখ": 4876,
  "শেখ": 4877,
  "పడు": 4878,
  " இணை": 4879,
  "இணை": 4880,
  " তৈরি": 4881,
  "তৈরি": 4882,
  " দি": 4883,
  " కొన": 4884,
  "కొన": 4885,
  " அமெரிக்க": 4886,
  "அமெரிக்க": 4887,
  " பயன்படுத்த": 4888,
  "பயன்படுத்த": 4889,
  "டுப": 4890,
  "্লাহ": 4891,
  " हालांकि": 4892,
  "हालांकि": 4893,
  " చేసు": 4894,
  "చేసు": 4895,
  "েট": 4896,
  " గంట": 4897,
  "గంట": 4898,
  "ूट": 4899,
  " प्रा": 4900,
  "प्रा": 4901,
  " बैठक": 4902,
  "बैठक": 4903,
  " సర": 4904,
  "సర": 4905,
  " குழந்தை": 4906,
  "குழந்தை": 4907,
  " আট": 4908,
  "আট": 4909,
  " কী": 4910,
  "কী": 4911,
  " நடவடிக்கை": 4912,
  "நடவடிக்கை": 4913,
  "ची": 4914,
  "வற்ற": 4915,
  "ப்போ": 4916,
  " நினை": 4917,
  "நினை": 4918,
  "ர்களின்": 4919,
  "యన్": 4920,
  " रात": 4921,
  "रात": 4922,
  " গণ": 4923,
  "গণ": 4924,
  "करण": 4925,
  " திற": 4926,
  "திற": 4927,
  "য়োজন": 4928,
  " जिसमें": 4929,
  "जिसमें": 4930,
  " ஆத": 4931,
  "ஆத": 4932,
  " पत्र": 4933,
  "पत्र": 4934,
  "শন": 4935,
  "सल": 4936,
  " दिनों": 4937,
  "दिनों": 4938,
  " কলে": 4939,
  "কলে": 4940,
  " தொடர்ந்து": 4941,
  "தொடர்ந்து": 4942,
  " அண": 4943,
  "அண": 4944,
  "ர்களுக்கு": 4945,
  " ట్ర": 4946,
  "ట్ర": 4947,
  " অর্": 4948,
  "অর্": 4949,
  " আইন": 4950,
  "আইন": 4951,
  " নিজের": 4952,
  "নিজের": 4953,
  " पानी": 4954,
  "पानी": 4955,
  "மர்": 4956,
  " போரா": 4957,
  "போரா": 4958,
  " হয়েছিল": 4959,
  "হয়েছিল": 4960,
  " होती": 4961,
  "होती": 4962,
  " खा": 4963,
  " বিষয়ে": 4964,
  "বিষয়ে": 4965,
  " కలిసి": 4966,
  "కలిసి": 4967,
  " পো": 4968,
  "পো": 4969,
  " ১২": 4970,
  "১২": 4971,
  "্যার": 4972,
  " নেত": 4973,
  "নেত": 4974,
  " గె": 4975,
  "గె": 4976,
  " అదే": 4977,
  "అదే": 4978,
  " உங்கள்": 4979,
  "உங்கள்": 4980,
  "ிற்க": 4981,
  " कंपनी": 4982,
  "कंपनी": 4983,
  "जह": 4984,
  " படி": 4985,
  "படி": 4986,
  "త్మ": 4987,
  " భాగ": 4988,
  "భాగ": 4989,
  "ப்பட்டுள்ள": 4990,
  " అమె": 4991,
  "అమె": 4992,
  "ar": 4993,
  " चला": 4994,
  "चला": 4995,
  "దన": 4996,
  " ক্রিকে": 4997,
  "ক্রিকে": 4998,
  " ధర": 4999,
  "ధర": 5000,
  "ంటున్న": 5001,
  " বাংলাদেশের": 5002,
  "বাংলাদেশের": 5003,
  "క్స్": 5004,
  " నాయ": 5005,
  "నాయ": 5006,
  "ాం": 5007,
  " பெரும்": 5008,
  "பெரும்": 5009,
  "மார்": 5010,
  " பேர்": 5011,
  "பேர்": 5012,
  " சென்னை": 5013,
  "சென்னை": 5014,
  "ேயே": 5015,
  "களுக்கு": 5016,
  "ంటర్": 5017,
  " ऐसा": 5018,
  "ऐसा": 5019,
  " স্প": 5020,
  "স্প": 5021,
  "খ্যা": 5022,
  "டா": 5023,
  " ముఖ్యమంత్రి": 5024,
  "ముఖ్యమంత్రి": 5025,
  "েত্রে": 5026,
  " লেখ": 5027,
  " பால": 5028,
  "பால": 5029,
  "ட்டும்": 5030,
  "்ப்ப": 5031,
  "தான": 5032,
  " দলের": 5033,
  "দলের": 5034,
  "ంటారు": 5035,
  "दन": 5036,
  "র্ঘ": 5037,
  "र्फ": 5038,
  " मैच": 5039,
  "मैच": 5040,
  " বিপ": 5041,
  "বিপ": 5042,
  " மாற்ற": 5043,
  "மாற்ற": 5044,
  " கூட": 5045,
  "கூட": 5046,
  " నేపథ్యంలో": 5047,
  "నేపథ్యంలో": 5048,
  " తాజాగా": 5049,
  "తాజాగా": 5050,
  " நிர்": 5051,
  "நிர்": 5052,
  " দিল": 5053,
  "দিল": 5054,
  "తుల": 5055,
  "హు": 5056,
  " थाना": 5057,
  "थाना": 5058,
  " சென்ற": 5059,
  "சென்ற": 5060,
  " టా": 5061,
  " ఇప్పటికే": 5062,
  "ఇప్పటికే": 5063,
  "াস্থ্য": 5064,
  " ఖా": 5065,
  "ఖా": 5066,
  " మ్యా": 5067,
  "మ్యా": 5068,
  " కేసీ": 5069,
  "కేసీ": 5070,
  " గ్రామం": 5071,
  "గ్రామం": 5072,
  " नेता": 5073,
  "नेता": 5074,
  " দেয়": 5075,
  "দেয়": 5076,
  " అత్య": 5077,
  "అత్య": 5078,
  " वा": 5079,
  " பேச": 5080,
  "பேச": 5081,
  "க்கப்பட்ட": 5082,
  "షన్‌": 5083,
  " పెట్ట": 5084,
  "పెట్ట": 5085,
  "గానే": 5086,
  " భారత్": 5087,
  "భారత్": 5088,
  "ुक्त": 5089,
  " என்": 5090,
  "என்": 5091,
  "कर्": 5092,
  " అధికారులు": 5093,
  "అధికారులు": 5094,
  " दें": 5095,
  "दें": 5096,
  " तहत": 5097,
  "तहत": 5098,
  " வைத்து": 5099,
  "வைத்து": 5100,
  "ধু": 5101,
  " செய்": 5102,
  "செய்": 5103,
  " অস": 5104,
  "অস": 5105,
  ")।": 5106,
  " బో": 5107,
  "ায়ের": 5108,
  " कार्यक्रम": 5109,
  "कार्यक्रम": 5110,
  " వంటి": 5111,
  "వంటి": 5112,
  " தற்போது": 5113,
  "தற்போது": 5114,
  " పూ": 5115,
  "పూ": 5116,
  " কেউ": 5117,
  "কেউ": 5118,
  " ১১": 5119,
  "১১": 5120,
  " ఉత్త": 5121,
  "ఉత్త": 5122,
  "ாளர்கள்": 5123,
  " মানুষের": 5124,
  "মানুষের": 5125,
  " వెల్ల": 5126,
  "వెల్ల": 5127,
  " ரூப": 5128,
  "ரூப": 5129,
  "ষণা": 5130,
  " விடு": 5131,
  "விடு": 5132,
  " শিশ": 5133,
  "শিশ": 5134,
  " वजह": 5135,
  "वजह": 5136,
  " దాని": 5137,
  "దాని": 5138,
  " ప్రభా": 5139,
  "ప్రభా": 5140,
  " করছে": 5141,
  "করছে": 5142,
  " कहना": 5143,
  "कहना": 5144,
  "ఢిల్లీ": 5145,
  "ృతి": 5146,
  " मंद": 5147,
  "मंद": 5148,
  " सकती": 5149,
  "सकती": 5150,
  " कार्र": 5151,
  "कार्र": 5152,
  "ாண": 5153,
  "లక": 5154,
  " రెండ": 5155,
  "రెండ": 5156,
  " पंच": 5157,
  "पंच": 5158,
  "ற்காக": 5159,
  " गिरफ्त": 5160,
  "गिरफ्त": 5161,
  "ंज": 5162,
  "ரவ": 5163,
  " பெண": 5164,
  "பெண": 5165,
  " షా": 5166,
  "షా": 5167,
  " हों": 5168,
  "हों": 5169,
  " ডি": 5170,
  "ডি": 5171,
  "ियर": 5172,
  " ప్రమా": 5173,
  "ప్రమా": 5174,
  " శాఖ": 5175,
  "శాఖ": 5176,
  "डा": 5177,
  "యారు": 5178,
  " सुबह": 5179,
  "सुबह": 5180,
  "్వర": 5181,
  " నో": 5182,
  "నో": 5183,
  "ండియా": 5184,
  "ள்ளி": 5185,
  " మండ": 5186,
  "మండ": 5187,
  "ক্স": 5188,
  "றும்": 5189,
  "াকার": 5190,
  "লেও": 5191,
  " कार्रवाई": 5192,
  "कार्रवाई": 5193,
  " ప్రశ్": 5194,
  "ప్రశ్": 5195,
  " శు": 5196,
  "శు": 5197,
  " निर्देश": 5198,
  "निर्देश": 5199,
  "ভব": 5200,
  "ப்பில்": 5201,
  "క్షణ": 5202,
  " লাখ": 5203,
  "লাখ": 5204,
  " இவர்": 5205,
  "இவர்": 5206,
  " கண்ட": 5207,
  "கண்ட": 5208,
  " మాట్లాడు": 5209,
  "మాట్లాడు": 5210,
  " पाकि": 5211,
  "पाकि": 5212,
  " యువ": 5213,
  "యువ": 5214,
  "స్టు": 5215,
  " ఊ": 5216,
  "ఊ": 5217,
  " आग": 5218,
  "आग": 5219,
  "ఆర్‌": 5220,
  "ళ్లి": 5221,
  " मज": 5222,
  "मज": 5223,
  " இந்": 5224,
  "இந்": 5225,
  "వత్స": 5226,
  " రంగ": 5227,
  "రంగ": 5228,
  "ల్యే": 5229,
  "হত": 5230,
  " उनका": 5231,
  "उनका": 5232,
  "ణ్": 5233,
  "ামে": 5234,
  " উৎ": 5235,
  "উৎ": 5236,
  " ஸ்ட": 5237,
  " बल्": 5238,
  "बल्": 5239,
  "డీపీ": 5240,
  " அழை": 5241,
  "அழை": 5242,
  " సందర్భంగా": 5243,
  "సందర్భంగా": 5244,
  "వృ": 5245,
  " मीड": 5246,
  "मीड": 5247,
  "मेंट": 5248,
  " नजर": 5249,
  "नजर": 5250,
  "क्षण": 5251,
  "त्रा": 5252,
  "ोध": 5253,
  " मुताब": 5254,
  "मुताब": 5255,
  "स्ता": 5256,
  " সেখানে": 5257,
  "সেখানে": 5258,
  "েশন": 5259,
  " लोक": 5260,
  "लोक": 5261,
  " গ্রে": 5262,
  "গ্রে": 5263,
  " సహా": 5264,
  "సహా": 5265,
  " కంప": 5266,
  "కంప": 5267,
  "న్యా": 5268,
  " চাই": 5269,
  "চাই": 5270,
  " সম্": 5271,
  "সম্": 5272,
  "त्या": 5273,
  "బడి": 5274,
  " సభ్య": 5275,
  "సభ్య": 5276,
  " సమావేశ": 5277,
  "సమావేశ": 5278,
  " आम": 5279,
  "आम": 5280,
  "িন্দ": 5281,
  " ఛ": 5282,
  "ఛ": 5283,
  " बनाने": 5284,
  "बनाने": 5285,
  " দাবি": 5286,
  "দাবি": 5287,
  " উই": 5288,
  "উই": 5289,
  " కొనసా": 5290,
  "కొనసా": 5291,
  "ेंस": 5292,
  " వు": 5293,
  " পাক": 5294,
  "পাক": 5295,
  "লো": 5296,
  " அதன்": 5297,
  "அதன்": 5298,
  "সের": 5299,
  " मौके": 5300,
  "मौके": 5301,
  "वरी": 5302,
  "வம்": 5303,
  " পদ": 5304,
  "পদ": 5305,
  "ষ্টা": 5306,
  " আওয়": 5307,
  "আওয়": 5308,
  " தேசிய": 5309,
  "தேசிய": 5310,
  " শিক্ষার্থ": 5311,
  "শিক্ষার্থ": 5312,
  " குடும்ப": 5313,
  "குடும்ப": 5314,
  " विश्व": 5315,
  "विश्व": 5316,
  " शर्": 5317,
  "शर्": 5318,
  " বর": 5319,
  " बाहर": 5320,
  "बाहर": 5321,
  " खेल": 5322,
  "खेल": 5323,
  " மெ": 5324,
  "மெ": 5325,
  " ఎమ్మెల్యే": 5326,
  "ఎమ్మెల్యే": 5327,
  "ాలతో": 5328,
  " দেশে": 5329,
  "দেশে": 5330,
  " చో": 5331,
  "చో": 5332,
  " बॉ": 5333,
  "बॉ": 5334,
  " উন্ন": 5335,
  "উন্ন": 5336,
  "on": 5337,
  " ఇతర": 5338,
  "ఇతర": 5339,
  " அவர": 5340,
  "அவர": 5341,
  " என்றும்": 5342,
  "என்றும்": 5343,
  "ంతా": 5344,
  "ங்கே": 5345,
  " जाएगी": 5346,
  "जाएगी": 5347,
  "কায়": 5348,
  "ायक": 5349,
  " இன்ன": 5350,
  "இன்ன": 5351,
  " मत": 5352,
  "मत": 5353,
  " मीडिया": 5354,
  "मीडिया": 5355,
  " बेह": 5356,
  "बेह": 5357,
  " तैयार": 5358,
  "तैयार": 5359,
  " রাত": 5360,
  "রাত": 5361,
  " बस": 5362,
  "बस": 5363,
  "ంచుకు": 5364,
  " रवि": 5365,
  "रवि": 5366,
  " भर": 5367,
  "भर": 5368,
  " ஆரம்ப": 5369,
  "ஆரம்ப": 5370,
  " చర్య": 5371,
  "చర్య": 5372,
  "स्थ्य": 5373,
  "ஜி": 5374,
  " தின": 5375,
  "தின": 5376,
  " ஸ்": 5377,
  " సంవత్స": 5378,
  "సంవత్స": 5379,
  " इस्": 5380,
  "इस्": 5381,
  "నర్": 5382,
  " मिला": 5383,
  "मिला": 5384,
  " লীগ": 5385,
  "লীগ": 5386,
  " संख्या": 5387,
  "संख्या": 5388,
  "யம்": 5389,
  " बर": 5390,
  " আরো": 5391,
  "আরো": 5392,
  "ழ்ச்ச": 5393,
  "चित": 5394,
  " बड़ी": 5395,
  "बड़ी": 5396,
  " मुताबिक": 5397,
  "मुताबिक": 5398,
  "ளுடன்": 5399,
  " आगे": 5400,
  "आगे": 5401,
  "చ్చి": 5402,
  " సమాచారం": 5403,
  "సమాచారం": 5404,
  " प्रधानमंत्री": 5405,
  "प्रधानमंत्री": 5406,
  "खंड": 5407,
  " வச": 5408,
  "வச": 5409,
  " कान": 5410,
  " தனி": 5411,
  "தனி": 5412,
  "రిగి": 5413,
  "క్కి": 5414,
  "லாக": 5415,
  " ভূ": 5416,
  "ভূ": 5417,
  "பர்": 5418,
  " सुरक्षा": 5419,
  "सुरक्षा": 5420,
  " చర్చ": 5421,
  "చర్చ": 5422,
  " పాఠ": 5423,
  "పాఠ": 5424,
  " வக": 5425,
  "வக": 5426,
  " আপনি": 5427,
  "আপনি": 5428,
  "্যাস": 5429,
  " পাওয়া": 5430,
  "পাওয়া": 5431,
  "మ్‌": 5432,
  " খেল": 5433,
  "খেল": 5434,
  "వాల్": 5435,
  " అయ్య": 5436,
  "అయ్య": 5437,
  " शे": 5438,
  "యోజ": 5439,
  " అంటే": 5440,
  "అంటే": 5441,
  "at": 5442,
  " పిల్": 5443,
  "పిల్": 5444,
  " मद": 5445,
  "मद": 5446,
  " मंदिर": 5447,
  "मंदिर": 5448,
  "ஸ்ப": 5449,
  "দা": 5450,
  " সম্ম": 5451,
  "সম্ম": 5452,
  " జో": 5453,
  "జో": 5454,
  " দক্ষ": 5455,
  "দক্ষ": 5456,
  " బయట": 5457,
  "బయట": 5458,
  "্রি": 5459,
  " স্বাস্থ্য": 5460,
  "স্বাস্থ্য": 5461,
  " மேற்கொ": 5462,
  "மேற்கொ": 5463,
  " ঘটনা": 5464,
  "ঘটনা": 5465,
  "వడం": 5466,
  " আদাল": 5467,
  "আদাল": 5468,
  " মৃত্যু": 5469,
  "মৃত্যু": 5470,
  " మొత్తం": 5471,
  "మొత్తం": 5472,
  " தலைவர்": 5473,
  "தலைவர்": 5474,
  "ంగ్‌": 5475,
  "ళి": 5476,
  " విజయ": 5477,
  "విజయ": 5478,
  "్రో": 5479,
  " చిత్రం": 5480,
  "చిత్రం": 5481,
  "ோக": 5482,
  " రాజకీయ": 5483,
  "రాజకీయ": 5484,
  "మర్శ": 5485,
  " संक्रम": 5486,
  "संक्रम": 5487,
  "చు": 5488,
  " मिली": 5489,
  "मिली": 5490,
  "வன்": 5491,
  " मार": 5492,
  " হন": 5493,
  "হন": 5494,
  " బ్యాం": 5495,
  "బ్యాం": 5496,
  "ারি": 5497,
  "शेष": 5498,
  "ள்க": 5499,
  " టీడీపీ": 5500,
  "టీడీపీ": 5501,
  " ডিস": 5502,
  "ডিস": 5503,
  "న్యూ": 5504,
  " आदि": 5505,
  "आदि": 5506,
  " डे": 5507,
  "डे": 5508,
  " డా": 5509,
  "ক্ট": 5510,
  " చేస్తున్నారు": 5511,
  "చేస్తున్నారు": 5512,
  " जिन": 5513,
  "जिन": 5514,
  "ிருக்கும்": 5515,
  "డాది": 5516,
  "வேறு": 5517,
  " తాను": 5518,
  "తాను": 5519,
  " स्वास्थ्य": 5520,
  "स्वास्थ्य": 5521,
  " மிகவும்": 5522,
  "மிகவும்": 5523,
  "சாய": 5524,
  "ంతి": 5525,
  " விரு": 5526,
  "விரு": 5527,
  "াফ": 5528,
  " सच": 5529,
  "सच": 5530,
  " থান": 5531,
  "থান": 5532,
  " స్టార్": 5533,
  "స్టార్": 5534,
  "गढ़": 5535,
  "ஸ்க": 5536,
  "यी": 5537,
  " `": 5538,
  "`": 5539,
  " గొ": 5540,
  " বছরের": 5541,
  "বছরের": 5542,
  " योग": 5543,
  " సంఘ": 5544,
  "సంఘ": 5545,
  " আক্রান্ত": 5546,
  "আক্রান্ত": 5547,
  "ాల్లో": 5548,
  "னித": 5549,
  " सदस": 5550,
  "सदस": 5551,
  " খবর": 5552,
  "খবর": 5553,
  "ানোর": 5554,
  " ब्र": 5555,
  "ब्र": 5556,
  " यादव": 5557,
  "यादव": 5558,
  "ম্যান": 5559,
  "ুখ": 5560,
  " అమెరి": 5561,
  "అమెరి": 5562,
  " அக": 5563,
  "அக": 5564,
  "ృష్ణ": 5565,
  " दिख": 5566,
  "दिख": 5567,
  "দান": 5568,
  "ప్‌": 5569,
  " একই": 5570,
  "একই": 5571,
  " முறை": 5572,
  " குற்ற": 5573,
  "குற்ற": 5574,
  " हिंदी": 5575,
  "हिंदी": 5576,
  " শিক্ষক": 5577,
  "শিক্ষক": 5578,
  " মার্": 5579,
  "মার্": 5580,
  " ఇద్ద": 5581,
  "ఇద్ద": 5582,
  " হলো": 5583,
  "হলো": 5584,
  " ঠিক": 5585,
  "ঠিক": 5586,
  " তাহ": 5587,
  "তাহ": 5588,
  " వెళ్లి": 5589,
  "వెళ్లి": 5590,
  " হওয়ার": 5591,
  "হওয়ার": 5592,
  " காவ": 5593,
  "காவ": 5594,
  " நிலைய": 5595,
  "நிலைய": 5596,
  " நடத்த": 5597,
  "நடத்த": 5598,
  " এটা": 5599,
  "এটা": 5600,
  " వెల్లడి": 5601,
  "వెల్లడి": 5602,
  "ार्थ": 5603,
  " दूसरे": 5604,
  "दूसरे": 5605,
  " আওয়ামী": 5606,
  "আওয়ামী": 5607,
  " जीत": 5608,
  "जीत": 5609,
  " பிறகு": 5610,
  "பிறகு": 5611,
  " সির": 5612,
  "সির": 5613,
  " কার্য": 5614,
  "কার্য": 5615,
  " அனும": 5616,
  "அனும": 5617,
  " అధికార": 5618,
  "అధికార": 5619,
  " বর্ত": 5620,
  "बू": 5621,
  " முடியும்": 5622,
  "முடியும்": 5623,
  " लड़": 5624,
  "लड़": 5625,
  " ফের": 5626,
  "ফের": 5627,
  "ன்க": 5628,
  "ष्ठ": 5629,
  " மர": 5630,
  "மர": 5631,
  " মত": 5632,
  "মত": 5633,
  "డ్డు": 5634,
  "தாகவும்": 5635,
  " পরিস": 5636,
  "পরিস": 5637,
  "న్నీ": 5638,
  " எம்": 5639,
  "எம்": 5640,
  "வான": 5641,
  " లై": 5642,
  "িস্ট": 5643,
  " முன்": 5644,
  "முன்": 5645,
  " ఉత్": 5646,
  "ఉత్": 5647,
  "राब": 5648,
  "াক্ত": 5649,
  "సన": 5650,
  " উপজেলার": 5651,
  "উপজেলার": 5652,
  " పరిస్థితి": 5653,
  "పరిస్థితి": 5654,
  " আত": 5655,
  "আত": 5656,
  "म्मी": 5657,
  " সম্পাদক": 5658,
  "সম্পাদক": 5659,
  " అర": 5660,
  "అర": 5661,
  "వులు": 5662,
  " परीक्षा": 5663,
  "परीक्षा": 5664,
  "పడి": 5665,
  " అధ్యక్ష": 5666,
  "అధ్యక్ష": 5667,
  "ीय": 5668,
  " अधिकारियों": 5669,
  "अधिकारियों": 5670,
  " रहने": 5671,
  "रहने": 5672,
  " பல்": 5673,
  "பல்": 5674,
  " ছেলে": 5675,
  "ছেলে": 5676,
  "ীকে": 5677,
  " అర్": 5678,
  "అర్": 5679,
  " নামে": 5680,
  "নামে": 5681,
  " చూడ": 5682,
  "చూడ": 5683,
  "த்தர": 5684,
  " सौ": 5685,
  "सौ": 5686,
  "োয়া": 5687,
  " முய": 5688,
  "முய": 5689,
  "గ్గు": 5690,
  " মাঝ": 5691,
  "মাঝ": 5692,
  " উত্তর": 5693,
  "উত্তর": 5694,
  "গঞ্জ": 5695,
  "াইন": 5696,
  "ల్స్": 5697,
  " மாத": 5698,
  "மாத": 5699,
  " কলেজ": 5700,
  "কলেজ": 5701,
  " नौ": 5702,
  "नौ": 5703,
  " அரசியல்": 5704,
  "அரசியல்": 5705,
  "्‍": 5706,
  " वहां": 5707,
  "वहां": 5708,
  " कुल": 5709,
  "कुल": 5710,
  " जैसे": 5711,
  "जैसे": 5712,
  " கலந்து": 5713,
  "கலந்து": 5714,
  " ১৫": 5715,
  "১৫": 5716,
  " శాతం": 5717,
  "శాతం": 5718,
  " फैस": 5719,
  "फैस": 5720,
  " बच्चों": 5721,
  "बच्चों": 5722,
  " C": 5723,
  "C": 5724,
  " వ్యవహ": 5725,
  "వ్యవహ": 5726,
  " মিল": 5727,
  "মিল": 5728,
  " वायर": 5729,
  "वायर": 5730,
  " పీ": 5731,
  "ీవు": 5732,
  "ற்கான": 5733,
  " பெரு": 5734,
  "பெரு": 5735,
  " *": 5736,
  "*": 5737,
  " শাহ": 5738,
  "শাহ": 5739,
  " कोर्ट": 5740,
  "कोर्ट": 5741,
  " जि": 5742,
  "जि": 5743,
  " వెంట": 5744,
  "వెంట": 5745,
  " పోలీసు": 5746,
  "పోలీసు": 5747,
  "दर्शन": 5748,
  " லட்ச": 5749,
  "லட்ச": 5750,
  " சமூ": 5751,
  "சமூ": 5752,
  " লাগ": 5753,
  "লাগ": 5754,
  " नए": 5755,
  "नए": 5756,
  " स्प": 5757,
  "েনে": 5758,
  " বহ": 5759,
  "বহ": 5760,
  "ैंड": 5761,
  " உருவா": 5762,
  "உருவா": 5763,
  " வருகிறது": 5764,
  "வருகிறது": 5765,
  " विशेष": 5766,
  "विशेष": 5767,
  " जम": 5768,
  "जम": 5769,
  "ிருப்ப": 5770,
  "కుల": 5771,
  " எதிர்ப": 5772,
  "எதிர்ப": 5773,
  " நம்ப": 5774,
  "நம்ப": 5775,
  " जगह": 5776,
  "जगह": 5777,
  " পি": 5778,
  " आया": 5779,
  "आया": 5780,
  " ஃ": 5781,
  "ஃ": 5782,
  " सूचना": 5783,
  "सूचना": 5784,
  "ామని": 5785,
  " செயல": 5786,
  "செயல": 5787,
  "ంధ్ర": 5788,
  " చేప": 5789,
  "చేప": 5790,
  " S": 5791,
  "S": 5792,
  " |": 5793,
  "|": 5794,
  "జర్": 5795,
  " வழி": 5796,
  "வழி": 5797,
  " ஆண்ட": 5798,
  "ஆண்ட": 5799,
  "र्क": 5800,
  "ालय": 5801,
  " ऑफ": 5802,
  "ऑफ": 5803,
  " அனைத்து": 5804,
  "அனைத்து": 5805,
  " ट्रे": 5806,
  "ट्रे": 5807,
  " मही": 5808,
  "मही": 5809,
  "ముఖ": 5810,
  " তুলে": 5811,
  "তুলে": 5812,
  " एन": 5813,
  "एन": 5814,
  " पो": 5815,
  "पो": 5816,
  " జీవి": 5817,
  "జీవి": 5818,
  "ளம்": 5819,
  " উপস্থ": 5820,
  "উপস্থ": 5821,
  "বেদন": 5822,
  " দেখে": 5823,
  "দেখে": 5824,
  " দূ": 5825,
  "দূ": 5826,
  " பாட": 5827,
  "பாட": 5828,
  "াতা": 5829,
  " தேதி": 5830,
  "தேதி": 5831,
  "న్నాడు": 5832,
  " উপজেলা": 5833,
  "উপজেলা": 5834,
  " ఇంటి": 5835,
  "ఇంటి": 5836,
  " লোক": 5837,
  "লোক": 5838,
  " करता": 5839,
  "करता": 5840,
  " वीड": 5841,
  "वीड": 5842,
  "লায়": 5843,
  " किसानों": 5844,
  "किसानों": 5845,
  " அவரது": 5846,
  "அவரது": 5847,
  " गुरु": 5848,
  "गुरु": 5849,
  " হাম": 5850,
  "হাম": 5851,
  "ேச": 5852,
  "ৃতি": 5853,
  " డై": 5854,
  "డై": 5855,
  "க்கோ": 5856,
  " తరువాత": 5857,
  "తరువాత": 5858,
  " पं": 5859,
  "पं": 5860,
  "मारी": 5861,
  " उम्मी": 5862,
  "उम्मी": 5863,
  " విషయంలో": 5864,
  "విషయంలో": 5865,
  "हन": 5866,
  " முக": 5867,
  " பின்னர்": 5868,
  "பின்னர்": 5869,
  " A": 5870,
  "A": 5871,
  " রোগ": 5872,
  "রোগ": 5873,
  " प्रशासन": 5874,
  "प्रशासन": 5875,
  " रुपए": 5876,
  "रुपए": 5877,
  " సమీప": 5878,
  "సమీప": 5879,
  " విశ": 5880,
  "విశ": 5881,
  " అలాగే": 5882,
  "అలాగే": 5883,
  " आधार": 5884,
  "आधार": 5885,
  " அருக": 5886,
  "அருக": 5887,
  " விட": 5888,
  " उम्मीद": 5889,
  "उम्मीद": 5890,
  " সভাপতি": 5891,
  "সভাপতি": 5892,
  "ॉक": 5893,
  "নিক": 5894,
  "மையான": 5895,
  " রান": 5896,
  "রান": 5897,
  " తెర": 5898,
  "తెర": 5899,
  "োজ": 5900,
  " নিশ্": 5901,
  "নিশ্": 5902,
  " उसकी": 5903,
  "उसकी": 5904,
  " मौजूद": 5905,
  "मौजूद": 5906,
  " కాగా": 5907,
  "కాగా": 5908,
  "జె": 5909,
  " అభ్య": 5910,
  "అభ్య": 5911,
  " సహ": 5912,
  "సహ": 5913,
  "నంలో": 5914,
  "ুপ": 5915,
  " पत्": 5916,
  "पत्": 5917,
  "िये": 5918,
  " ఉన్నారు": 5919,
  "ఉన్నారు": 5920,
  " সিদ্ধ": 5921,
  "সিদ্ধ": 5922,
  "సీపీ": 5923,
  " வழக்க": 5924,
  "வழக்க": 5925,
  " సూచ": 5926,
  "సూచ": 5927,
  "ড়ি": 5928,
  "த்தம்": 5929,
  " ఉండే": 5930,
  "ఉండే": 5931,
  " करे": 5932,
  "करे": 5933,
  " విమర్శ": 5934,
  "విమర్శ": 5935,
  " सोम": 5936,
  "सोम": 5937,
  "ల్లు": 5938,
  " ఎన్నికల": 5939,
  "ఎన్నికల": 5940,
  "தற்கு": 5941,
  " বাই": 5942,
  "বাই": 5943,
  "িনা": 5944,
  " निवासी": 5945,
  "निवासी": 5946,
  " कृ": 5947,
  "कृ": 5948,
  " அடுத்த": 5949,
  "அடுத்த": 5950,
  " স্থানীয়": 5951,
  "স্থানীয়": 5952,
  " बैंक": 5953,
  "बैंक": 5954,
  " முற": 5955,
  "முற": 5956,
  "்ட்": 5957,
  " যান": 5958,
  "যান": 5959,
  "ినీ": 5960,
  "দার": 5961,
  " தன்": 5962,
  "தன்": 5963,
  "விட்டு": 5964,
  " বয়": 5965,
  "বয়": 5966,
  "ல்கள்": 5967,
  " అయిన": 5968,
  "అయిన": 5969,
  "शि": 5970,
  " विधान": 5971,
  "विधान": 5972,
  " பொறு": 5973,
  "பொறு": 5974,
  " স্ত": 5975,
  "ूरत": 5976,
  " తొలి": 5977,
  "తొలి": 5978,
  " मरीज": 5979,
  "मरीज": 5980,
  "ुआ": 5981,
  "ார்ப": 5982,
  " जाती": 5983,
  "जाती": 5984,
  " పాల": 5985,
  "పాల": 5986,
  " வட": 5987,
  "வட": 5988,
  " শিক্ষা": 5989,
  "শিক্ষা": 5990,
  "లుగు": 5991,
  "மது": 5992,
  " हाथ": 5993,
  "हाथ": 5994,
  " शर्मा": 5995,
  "शर्मा": 5996,
  "டுகள்": 5997,
  " पूरा": 5998,
  "पूरा": 5999,
  "த்தது": 6000,
  "న్ను": 6001,
  "రగ": 6002,
  " ফলে": 6003,
  "ফলে": 6004,
  " अलग": 6005,
  "अलग": 6006,
  " वाह": 6007,
  "वाह": 6008,
  " इसलिए": 6009,
  "इसलिए": 6010,
  "শ্য": 6011,
  " ভারতের": 6012,
  "ভারতের": 6013,
  "ల్ని": 6014,
  " इसकी": 6015,
  "इसकी": 6016,
  "দন্ত": 6017,
  "ियन": 6018,
  " ఉందని": 6019,
  "ఉందని": 6020,
  " वीडियो": 6021,
  "वीडियो": 6022,
  "or": 6023,
  " व्या": 6024,
  "व्या": 6025,
  " সংবাদ": 6026,
  "সংবাদ": 6027,
  "ুগ": 6028,
  "జన్": 6029,
  "రికి": 6030,
  " इसका": 6031,
  "इसका": 6032,
  " विरो": 6033,
  "विरो": 6034,
  "शल": 6035,
  " तब": 6036,
  "तब": 6037,
  " పాల్గొ": 6038,
  "పాల్గొ": 6039,
  "ెనీ": 6040,
  "क्सी": 6041,
  " गा": 6042,
  " பிரத": 6043,
  "பிரத": 6044,
  " প্রধানমন্ত্রী": 6045,
  "প্রধানমন্ত্রী": 6046,
  " মুক্তি": 6047,
  "মুক্তি": 6048,
  " விவசாய": 6049,
  "விவசாய": 6050,
  "ায়ক": 6051,
  " मदद": 6052,
  "मदद": 6053,
  " முழு": 6054,
  "முழு": 6055,
  " தேவ": 6056,
  "தேவ": 6057,
  " ఎంత": 6058,
  "ఎంత": 6059,
  "ঙ্গল": 6060,
  " ఎన్": 6061,
  "ఎన్": 6062,
  " మరింత": 6063,
  "మరింత": 6064,
  "కొని": 6065,
  " உறுப்ப": 6066,
  "உறுப்ப": 6067,
  " వీడియో": 6068,
  "వీడియో": 6069,
  " দ্বিত": 6070,
  "দ্বিত": 6071,
  " খান": 6072,
  "খান": 6073,
  "రీక్ష": 6074,
  " निर्माण": 6075,
  "निर्माण": 6076,
  " গুরু": 6077,
  "গুরু": 6078,
  "al": 6079,
  "াঁচ": 6080,
  "எஸ்": 6081,
  " పిల్ల": 6082,
  "పిల్ల": 6083,
  " என்பதை": 6084,
  "என்பதை": 6085,
  " சென்று": 6086,
  "சென்று": 6087,
  "ণের": 6088,
  " వ్యక్తం": 6089,
  "వ్యక్తం": 6090,
  " রেখে": 6091,
  "রেখে": 6092,
  "జ్‌": 6093,
  "నిక": 6094,
  " కమి": 6095,
  "కమి": 6096,
  " घोष": 6097,
  "घोष": 6098,
  "ট্ট": 6099,
  " ఆరోగ్య": 6100,
  "ఆరోగ్య": 6101,
  "ங்கிய": 6102,
  "ர்ம": 6103,
  " அதே": 6104,
  "அதே": 6105,
  " ట్": 6106,
  "वेश": 6107,
  "ाप्त": 6108,
  " গেল": 6109,
  "গেল": 6110,
  "టే": 6111,
  " ০": 6112,
  "০": 6113,
  " கைது": 6114,
  "கைது": 6115,
  " क्योंकि": 6116,
  "क्योंकि": 6117,
  " ஈடுப": 6118,
  "ஈடுப": 6119,
  " তাল": 6120,
  "তাল": 6121,
  "ளுக்கும்": 6122,
  " பெற்று": 6123,
  "பெற்று": 6124,
  " ম্যাচ": 6125,
  "ম্যাচ": 6126,
  " మొదటి": 6127,
  "మొదటి": 6128,
  "ற்றிய": 6129,
  "झे": 6130,
  " পান": 6131,
  "পান": 6132,
  "ர்த்து": 6133,
  " கடை": 6134,
  "கடை": 6135,
  "াপ্ত": 6136,
  " పాఠశాల": 6137,
  "పాఠశాల": 6138,
  " মোট": 6139,
  "মোট": 6140,
  "তায়": 6141,
  "పత్రి": 6142,
  "వృద్ధి": 6143,
  " அமைச்சர்": 6144,
  "அமைச்சர்": 6145,
  "রাষ্ট্র": 6146,
  " करेंगे": 6147,
  "करेंगे": 6148,
  " स्थिति": 6149,
  "स्थिति": 6150,
  " मंगल": 6151,
  "मंगल": 6152,
  "விய": 6153,
  " అమెరికా": 6154,
  "అమెరికా": 6155,
  "ரான": 6156,
  " কোনও": 6157,
  "কোনও": 6158,
  " P": 6159,
  "P": 6160,
  "িত্র": 6161,
  " நிய": 6162,
  "நிய": 6163,
  "र्य": 6164,
  " अफ": 6165,
  "अफ": 6166,
  " सहित": 6167,
  "सहित": 6168,
  " खान": 6169,
  "खान": 6170,
  " মাল": 6171,
  "মাল": 6172,
  " ఉంటే": 6173,
  "ఉంటే": 6174,
  " ऊ": 6175,
  "ऊ": 6176,
  "డుగు": 6177,
  " పవన్": 6178,
  "పవన్": 6179,
  " আগামী": 6180,
  "আগামী": 6181,
  " కంపెనీ": 6182,
  "కంపెనీ": 6183,
  " சக": 6184,
  "சக": 6185,
  " రు": 6186,
  "ారె": 6187,
  " వారికి": 6188,
  "వారికి": 6189,
  " কোটি": 6190,
  "কোটি": 6191,
  "ழுவ": 6192,
  " এসব": 6193,
  "এসব": 6194,
  " যখন": 6195,
  "যখন": 6196,
  " এলাকায়": 6197,
  "এলাকায়": 6198,
  "షల్": 6199,
  " रेल": 6200,
  "रेल": 6201,
  "ிரிய": 6202,
  " ఉపయోగ": 6203,
  "ఉపయోగ": 6204,
  " जिसके": 6205,
  "जिसके": 6206,
  "ফল": 6207,
  " প্রার্থ": 6208,
  "প্রার্থ": 6209,
  " పోటీ": 6210,
  "పోటీ": 6211,
  " নিজে": 6212,
  "নিজে": 6213,
  "டியாக": 6214,
  "ளா": 6215,
  "வாறு": 6216,
  " न्या": 6217,
  "न्या": 6218,
  "ைக்": 6219,
  " திரும": 6220,
  "திரும": 6221,
  " অফিস": 6222,
  "অফিস": 6223,
  " అవసరం": 6224,
  "అవసరం": 6225,
  " চেয়ার": 6226,
  "চেয়ার": 6227,
  " విచ": 6228,
  "విచ": 6229,
  " सेवा": 6230,
  "सेवा": 6231,
  "నులు": 6232,
  "ांत": 6233,
  "ূপ": 6234,
  " डा": 6235,
  " మారి": 6236,
  "మారి": 6237,
  "ளவு": 6238,
  " புது": 6239,
  "புது": 6240,
  " जल्": 6241,
  "जल्": 6242,
  "களின்": 6243,
  " बाजार": 6244,
  "बाजार": 6245,
  "దిక": 6246,
  " புக": 6247,
  "புக": 6248,
  "ৈতিক": 6249,
  " பார்க்க": 6250,
  "பார்க்க": 6251,
  " প্রস্ত": 6252,
  "প্রস্ত": 6253,
  " రీ": 6254,
  " ...": 6255,
  " సొ": 6256,
  "సొ": 6257,
  "ంబర్": 6258,
  " ఉద": 6259,
  "ఉద": 6260,
  "ायल": 6261,
  "....": 6262,
  " స్థాయి": 6263,
  "స్థాయి": 6264,
  " श्र": 6265,
  "श्र": 6266,
  "ీవుడ్": 6267,
  " बिहार": 6268,
  "बिहार": 6269,
  " వివా": 6270,
  "వివా": 6271,
  " अमेर": 6272,
  "अमेर": 6273,
  "క్షి": 6274,
  "र्चा": 6275,
  " দী": 6276,
  "দী": 6277,
  " শুধু": 6278,
  "শুধু": 6279,
  "డికి": 6280,
  " समझ": 6281,
  "समझ": 6282,
  "েরে": 6283,
  " சிறு": 6284,
  "சிறு": 6285,
  "లె": 6286,
  " లేదని": 6287,
  "లేదని": 6288,
  " শতা": 6289,
  "শতা": 6290,
  "েস্ট": 6291,
  "నలు": 6292,
  "ंदर": 6293,
  " சங்க": 6294,
  "சங்க": 6295,
  "ুই": 6296,
  " लगे": 6297,
  "लगे": 6298,
  "స్క": 6299,
  "పతి": 6300,
  "ामीण": 6301,
  " स्थान": 6302,
  "स्थान": 6303,
  " ছোট": 6304,
  "ছোট": 6305,
  "ణాలు": 6306,
  " ক্ষেত্রে": 6307,
  "ক্ষেত্রে": 6308,
  " பல்வேறு": 6309,
  "பல்வேறு": 6310,
  "்து": 6311,
  " கிராம": 6312,
  "கிராம": 6313,
  " कल": 6314,
  "कल": 6315,
  " ఫోన్": 6316,
  "ఫోన్": 6317,
  "स्या": 6318,
  "িণ": 6319,
  "ினால்": 6320,
  " पता": 6321,
  "पता": 6322,
  " गिरफ्तार": 6323,
  "गिरफ्तार": 6324,
  " எடுக்க": 6325,
  "எடுக்க": 6326,
  "ష్క": 6327,
  " ১৮": 6328,
  "১৮": 6329,
  " নির্দেশ": 6330,
  "নির্দেশ": 6331,
  "ంతరం": 6332,
  " কর্ত": 6333,
  " शुक्र": 6334,
  "शुक्र": 6335,
  " சந்தி": 6336,
  "சந்தி": 6337,
  " पहुंचे": 6338,
  "पहुंचे": 6339,
  " ఆర్థ": 6340,
  "ఆర్థ": 6341,
  "িল্প": 6342,
  " சமூக": 6343,
  "சமூக": 6344,
  " जे": 6345,
  " R": 6346,
  "R": 6347,
  " দ্বিতীয়": 6348,
  "দ্বিতীয়": 6349,
  " ஷ": 6350,
  "ஷ": 6351,
  " ढ": 6352,
  "ढ": 6353,
  "ేశారు": 6354,
  " সিদ্ধান্ত": 6355,
  "সিদ্ধান্ত": 6356,
  "భి": 6357,
  " [": 6358,
  "[": 6359,
  " शिव": 6360,
  "शिव": 6361,
  "ிற்ச": 6362,
  " কাল": 6363,
  " বিদ": 6364,
  "বিদ": 6365,
  "াক্ষ": 6366,
  " বিজ্ঞ": 6367,
  "বিজ্ঞ": 6368,
  " এরপর": 6369,
  "এরপর": 6370,
  " पाकिस्तान": 6371,
  "पाकिस्तान": 6372,
  "वीर": 6373,
  " ग्रामीण": 6374,
  "ग्रामीण": 6375,
  "ধা": 6376,
  "িয়ান": 6377,
  " मामला": 6378,
  "मामला": 6379,
  "லிய": 6380,
  "ंगा": 6381,
  "ைப்": 6382,
  " తెలియ": 6383,
  "తెలియ": 6384,
  " క్రమ": 6385,
  "র্য": 6386,
  "தியாக": 6387,
  "சார்": 6388,
  " జూ": 6389,
  "జూ": 6390,
  "ணைய": 6391,
  "ராட்சி": 6392,
  " பாதி": 6393,
  "பாதி": 6394,
  " মিনি": 6395,
  "মিনি": 6396,
  "చ్‌": 6397,
  " మాట": 6398,
  "మాట": 6399,
  "ैल": 6400,
  " టై": 6401,
  "టై": 6402,
  "வதற்கு": 6403,
  "ர்ச்ச": 6404,
  "ிகள": 6405,
  " నాలు": 6406,
  " పరీక్ష": 6407,
  "పరీక్ష": 6408,
  " সেন": 6409,
  "সেন": 6410,
  " కళా": 6411,
  "కళా": 6412,
  " लेने": 6413,
  "लेने": 6414,
  " যেতে": 6415,
  "যেতে": 6416,
  " இதனால்": 6417,
  "இதனால்": 6418,
  "लेज": 6419,
  " বৃহ": 6420,
  "বৃহ": 6421,
  " शिकायत": 6422,
  "शिकायत": 6423,
  " सोमवार": 6424,
  "सोमवार": 6425,
  " फीस": 6426,
  "फीस": 6427,
  "ெட்": 6428,
  " व्यक्ति": 6429,
  "व्यक्ति": 6430,
  " స్టే": 6431,
  "స్టే": 6432,
  "तन": 6433,
  " ছাড়": 6434,
  "ছাড়": 6435,
  "্লেখ": 6436,
  "ப்படு": 6437,
  "ఎస్‌": 6438,
  " செல்": 6439,
  "செல்": 6440,
  "णी": 6441,
  " হাতে": 6442,
  "হাতে": 6443,
  " நீதிமன்ற": 6444,
  "நீதிமன்ற": 6445,
  " पे": 6446,
  "पे": 6447,
  " पहली": 6448,
  "पहली": 6449,
  " ఘటన": 6450,
  "ఘటన": 6451,
  " দাঁ": 6452,
  "দাঁ": 6453,
  " বিচার": 6454,
  "বিচার": 6455,
  " చేయడం": 6456,
  "చేయడం": 6457,
  " అభిమా": 6458,
  "అభిమా": 6459,
  " ২০০": 6460,
  "২০০": 6461,
  " ఇందు": 6462,
  "ఇందు": 6463,
  "एल": 6464,
  "यान": 6465,
  "வின்": 6466,
  "াম্ম": 6467,
  " இருக்கிறது": 6468,
  "இருக்கிறது": 6469,
  "पति": 6470,
  " প্রত": 6471,
  "প্রত": 6472,
  " ఏడాది": 6473,
  "ఏడాది": 6474,
  " सीट": 6475,
  "सीट": 6476,
  "शत": 6477,
  "தேச": 6478,
  " இதில்": 6479,
  "இதில்": 6480,
  " ఇటీ": 6481,
  "ఇటీ": 6482,
  " সামনে": 6483,
  "সামনে": 6484,
  " प्रदर्शन": 6485,
  "प्रदर्शन": 6486,
  "লাম": 6487,
  " ప్లా": 6488,
  "ప్లా": 6489,
  "బ్బంది": 6490,
  " மீண்டும்": 6491,
  "மீண்டும்": 6492,
  " కారణంగా": 6493,
  "కారణంగా": 6494,
  " সার": 6495,
  "সার": 6496,
  " উল্লেখ": 6497,
  "উল্লেখ": 6498,
  " পাকিস্ত": 6499,
  "পাকিস্ত": 6500,
  " আন্ত": 6501,
  "আন্ত": 6502,
  " खरी": 6503,
  "खरी": 6504,
  " জানিয়েছেন": 6505,
  "জানিয়েছেন": 6506,
  " বিএন": 6507,
  "বিএন": 6508,
  " এতে": 6509,
  "এতে": 6510,
  "টিতে": 6511,
  " உரி": 6512,
  "உரி": 6513,
  "ங்களின்": 6514,
  " रोक": 6515,
  "रोक": 6516,
  " সাং": 6517,
  "সাং": 6518,
  " వార": 6519,
  "వార": 6520,
  " కల్": 6521,
  "కల్": 6522,
  " मां": 6523,
  "मां": 6524,
  " సిద్ధ": 6525,
  "సిద్ధ": 6526,
  " पंचायत": 6527,
  "पंचायत": 6528,
  " உள்ளிட்ட": 6529,
  "உள்ளிட்ட": 6530,
  " কৃ": 6531,
  "কৃ": 6532,
  "லோ": 6533,
  "ম্ব": 6534,
  " ఆర్థిక": 6535,
  "ఆర్థిక": 6536,
  " సంఖ్య": 6537,
  "సంఖ్య": 6538,
  " লে": 6539,
  " ஆய்": 6540,
  "ஆய்": 6541,
  " হাসপাতালে": 6542,
  "হাসপাতালে": 6543,
  " நூ": 6544,
  "நூ": 6545,
  " राष्ट्र": 6546,
  "राष्ट्र": 6547,
  "द्यालय": 6548,
  "ాల్": 6549,
  "न्द्र": 6550,
  "ினி": 6551,
  "దో": 6552,
  " మాజీ": 6553,
  "మాజీ": 6554,
  " కేసులు": 6555,
  "కేసులు": 6556,
  " కేసీఆర్": 6557,
  "కేసీఆర్": 6558,
  " शनि": 6559,
  "शनि": 6560,
  "பை": 6561,
  "పోయింది": 6562,
  " खुद": 6563,
  "खुद": 6564,
  " நு": 6565,
  "நு": 6566,
  "ప్రదేశ": 6567,
  "ात": 6568,
  "िति": 6569,
  " అనేక": 6570,
  "అనేక": 6571,
  "స్తున్నాయి": 6572,
  " সংখ্যা": 6573,
  "সংখ্যা": 6574,
  " एम": 6575,
  " এস": 6576,
  " চেয়ে": 6577,
  "চেয়ে": 6578,
  " కుమార్": 6579,
  "కుమార్": 6580,
  " மறு": 6581,
  "மறு": 6582,
  " সাই": 6583,
  "সাই": 6584,
  " प्रो": 6585,
  "प्रो": 6586,
  " শর": 6587,
  "শর": 6588,
  " समाज": 6589,
  "समाज": 6590,
  " উদ্ধ": 6591,
  "উদ্ধ": 6592,
  " பணி": 6593,
  "பணி": 6594,
  " செயல்ப": 6595,
  "செயல்ப": 6596,
  " ఉన్నా": 6597,
  "ఉన్నా": 6598,
  "नाथ": 6599,
  " நான": 6600,
  "நான": 6601,
  " పనిచే": 6602,
  "పనిచే": 6603,
  "াশি": 6604,
  " தேர்தல்": 6605,
  "தேர்தல்": 6606,
  " అక్క": 6607,
  "అక్క": 6608,
  " துறை": 6609,
  "துறை": 6610,
  "వో": 6611,
  " दिव": 6612,
  "दिव": 6613,
  "డని": 6614,
  " लगातार": 6615,
  "लगातार": 6616,
  " होते": 6617,
  "होते": 6618,
  " ব্যবস্থা": 6619,
  "ব্যবস্থা": 6620,
  " ধরনের": 6621,
  "ধরনের": 6622,
  " व्यवस्था": 6623,
  "व्यवस्था": 6624,
  " अर": 6625,
  "अर": 6626,
  " সাল": 6627,
  "সাল": 6628,
  "धि": 6629,
  " ওপর": 6630,
  "ওপর": 6631,
  " যাচ্ছে": 6632,
  "যাচ্ছে": 6633,
  " మరణ": 6634,
  "మరణ": 6635,
  " पूछ": 6636,
  "पूछ": 6637,
  " চেষ্টা": 6638,
  "চেষ্টা": 6639,
  " ঘোষণা": 6640,
  "ঘোষণা": 6641,
  "इट": 6642,
  "నుంది": 6643,
  " பற்றி": 6644,
  "பற்றி": 6645,
  "ியுள்ளது": 6646,
  " वित": 6647,
  "वित": 6648,
  " জন্ম": 6649,
  "জন্ম": 6650,
  " அலுவ": 6651,
  "அலுவ": 6652,
  "కత్వ": 6653,
  "ग्": 6654,
  "த்துடன்": 6655,
  " সরকারি": 6656,
  "সরকারি": 6657,
  "োহ": 6658,
  "োভ": 6659,
  " மது": 6660,
  " लगाया": 6661,
  "लगाया": 6662,
  " ची": 6663,
  "ாகி": 6664,
  " ஆகும்": 6665,
  "ஆகும்": 6666,
  " রাষ্ট্র": 6667,
  "யில": 6668,
  " வடி": 6669,
  "வடி": 6670,
  " அப்ப": 6671,
  "அப்ப": 6672,
  "పర్": 6673,
  " পাঁচ": 6674,
  "পাঁচ": 6675,
  " हत्या": 6676,
  "हत्या": 6677,
  " ఆరోప": 6678,
  "ఆరోప": 6679,
  " विधानसभा": 6680,
  "विधानसभा": 6681,
  " কর্মকর্তা": 6682,
  "কর্মকর্তা": 6683,
  " அளி": 6684,
  "அளி": 6685,
  "ार्ड": 6686,
  " ప్రజలు": 6687,
  "ప్రజలు": 6688,
  " మాట్లాడుతూ": 6689,
  "మాట్లాడుతూ": 6690,
  " हिस्": 6691,
  "हिस्": 6692,
  " மட்டுமே": 6693,
  "மட்டுமே": 6694,
  " নিতে": 6695,
  "নিতে": 6696,
  " சிகி": 6697,
  "சிகி": 6698,
  " நாம்": 6699,
  "நாம்": 6700,
  " উঠে": 6701,
  "উঠে": 6702,
  " माह": 6703,
  "माह": 6704,
  " ఫలి": 6705,
  "ఫలి": 6706,
  " దగ్గ": 6707,
  "దగ్గ": 6708,
  " गांधी": 6709,
  "गांधी": 6710,
  " মাহ": 6711,
  "মাহ": 6712,
  "জা": 6713,
  " बुध": 6714,
  "बुध": 6715,
  " நிறை": 6716,
  "நிறை": 6717,
  " నమోదు": 6718,
  "నమోదు": 6719,
  " चलते": 6720,
  "चलते": 6721,
  "త్వా": 6722,
  " ব্যাপ": 6723,
  "ব্যাপ": 6724,
  " அணி": 6725,
  "அணி": 6726,
  " হয়েছেন": 6727,
  "হয়েছেন": 6728,
  " மூன்று": 6729,
  "மூன்று": 6730,
  " డీ": 6731,
  " வழக்கு": 6732,
  "வழக்கு": 6733,
  " யா": 6734,
  "யா": 6735,
  "டைந்த": 6736,
  " फर": 6737,
  "फर": 6738,
  "కోవడం": 6739,
  " ছাড়া": 6740,
  "ছাড়া": 6741,
  " ১৪": 6742,
  "১৪": 6743,
  " चुके": 6744,
  "चुके": 6745,
  " ইতি": 6746,
  "ইতি": 6747,
  " థ": 6748,
  "థ": 6749,
  "ंटे": 6750,
  "ிறேன்": 6751,
  "স্": 6752,
  "డిగా": 6753,
  " ఎవ": 6754,
  "ఎవ": 6755,
  "క్షన్": 6756,
  " জয়": 6757,
  "জয়": 6758,
  " விற": 6759,
  "விற": 6760,
  " లి": 6761,
  "गम": 6762,
  " ஒன்று": 6763,
  "ஒன்று": 6764,
  "es": 6765,
  " हे": 6766,
  "हे": 6767,
  "ধি": 6768,
  "ప్తంగా": 6769,
  " ঐ": 6770,
  "ঐ": 6771,
  " राष्ट्रीय": 6772,
  "राष्ट्रीय": 6773,
  " সংগ": 6774,
  "সংগ": 6775,
  " ఇదే": 6776,
  "ఇదే": 6777,
  "తారు": 6778,
  " ఢిల్లీ": 6779,
  " போராட்ட": 6780,
  "போராட்ட": 6781,
  " ஏற்படுத்த": 6782,
  "ஏற்படுத்த": 6783,
  " खबर": 6784,
  "खबर": 6785,
  " समस्या": 6786,
  "समस्या": 6787,
  " आस": 6788,
  "आस": 6789,
  " ওয়": 6790,
  " காரணமாக": 6791,
  "காரணமாக": 6792,
  " నేను": 6793,
  "నేను": 6794,
  "त्री": 6795,
  "চ্ছেন": 6796,
  " తెలుస్తోంది": 6797,
  "తెలుస్తోంది": 6798,
  " నిలి": 6799,
  "నిలి": 6800,
  "ద్ది": 6801,
  "मिक": 6802,
  " করছেন": 6803,
  "করছেন": 6804,
  " मंत्र": 6805,
  "मंत्र": 6806,
  "ிலேயே": 6807,
  " এন": 6808,
  " सड़क": 6809,
  "सड़क": 6810,
  " বাঁ": 6811,
  "বাঁ": 6812,
  " বক্ত": 6813,
  "বক্ত": 6814,
  " తల్లి": 6815,
  "తల్లి": 6816,
  " हूं": 6817,
  "हूं": 6818,
  " সবাই": 6819,
  "সবাই": 6820,
  " கல்ல": 6821,
  "கல்ல": 6822,
  "ंका": 6823,
  "రంగా": 6824,
  " அதிகரி": 6825,
  "அதிகரி": 6826,
  "নৈতিক": 6827,
  "னின்": 6828,
  " వచ్చి": 6829,
  "వచ్చి": 6830,
  " বের": 6831,
  "বের": 6832,
  " वाला": 6833,
  "वाला": 6834,
  "ल्ड": 6835,
  " করবে": 6836,
  "করবে": 6837,
  "तिक": 6838,
  " সুযোগ": 6839,
  "সুযোগ": 6840,
  " மனித": 6841,
  "மனித": 6842,
  " ప్రకారం": 6843,
  "ప్రకారం": 6844,
  "টাই": 6845,
  " అంతే": 6846,
  "అంతే": 6847,
  " তর": 6848,
  "তর": 6849,
  " করি": 6850,
  "করি": 6851,
  " இலங்கை": 6852,
  "இலங்கை": 6853,
  "টু": 6854,
  " सर्": 6855,
  "सर्": 6856,
  " जिससे": 6857,
  "जिससे": 6858,
  " న్యూ": 6859,
  " হাত": 6860,
  "হাত": 6861,
  "ঙ্ক": 6862,
  " టె": 6863,
  " কু": 6864,
  "কু": 6865,
  "னே": 6866,
  "డె": 6867,
  "काल": 6868,
  " అభివృద్ధి": 6869,
  "అభివృద్ధి": 6870,
  " விஷ": 6871,
  "விஷ": 6872,
  "ార్డు": 6873,
  " উপর": 6874,
  "উপর": 6875,
  " गं": 6876,
  "गं": 6877,
  "ట్స్": 6878,
  " தொழில்": 6879,
  "தொழில்": 6880,
  "কেট": 6881,
  " উপস্থিত": 6882,
  "উপস্থিত": 6883,
  " M": 6884,
  "M": 6885,
  " ঘটে": 6886,
  "ঘটে": 6887,
  " வைத்த": 6888,
  "வைத்த": 6889,
  " नर": 6890,
  "नर": 6891,
  " भाग": 6892,
  " প্রশাস": 6893,
  "প্রশাস": 6894,
  "ন্য": 6895,
  " शुक्रवार": 6896,
  "शुक्रवार": 6897,
  " न्यूज़": 6898,
  "न्यूज़": 6899,
  " వచ్చింది": 6900,
  "వచ్చింది": 6901,
  " உள்ளன": 6902,
  "உள்ளன": 6903,
  " আক": 6904,
  "আক": 6905,
  " ఆదేశ": 6906,
  "ఆదేశ": 6907,
  " కొంత": 6908,
  "కొంత": 6909,
  " মেয়ে": 6910,
  "মেয়ে": 6911,
  " செலு": 6912,
  "செலு": 6913,
  " জাম": 6914,
  "জাম": 6915,
  " সরকারের": 6916,
  "সরকারের": 6917,
  " অন্ত": 6918,
  "অন্ত": 6919,
  " जल": 6920,
  "जल": 6921,
  " చేయాలని": 6922,
  "చేయాలని": 6923,
  "పడ": 6924,
  "ிகளில்": 6925,
  "ভি": 6926,
  " सम्म": 6927,
  "सम्म": 6928,
  " থাকা": 6929,
  "থাকা": 6930,
  "ंबई": 6931,
  "యిన్": 6932,
  "িত্ত": 6933,
  " ఆలో": 6934,
  "ఆలో": 6935,
  "इक": 6936,
  "క్సి": 6937,
  "लाई": 6938,
  "ন্দর": 6939,
  " వైసీపీ": 6940,
  "వైసీపీ": 6941,
  " শিশু": 6942,
  "শিশু": 6943,
  " पूरे": 6944,
  "पूरे": 6945,
  "்ப்பு": 6946,
  " சோ": 6947,
  "சோ": 6948,
  "డ్డారు": 6949,
  "यास": 6950,
  " பகுதியில்": 6951,
  "பகுதியில்": 6952,
  " உத்தர": 6953,
  "உத்தர": 6954,
  "బ్బు": 6955,
  "ிக்கை": 6956,
  " ఆస": 6957,
  "ఆస": 6958,
  " देते": 6959,
  "देते": 6960,
  " ஒவ்வ": 6961,
  "ஒவ்வ": 6962,
  " கட்சி": 6963,
  "கட்சி": 6964,
  "ర్చు": 6965,
  " वाप": 6966,
  "वाप": 6967,
  " पाल": 6968,
  "াকি": 6969,
  " তাহলে": 6970,
  "তাহলে": 6971,
  " పట్ట": 6972,
  "పట్ట": 6973,
  " ভোট": 6974,
  "ভোট": 6975,
  " बड़े": 6976,
  "बड़े": 6977,
  " रन": 6978,
  "रन": 6979,
  " দশ": 6980,
  "দশ": 6981,
  " तरफ": 6982,
  "तरफ": 6983,
  " বঙ্গ": 6984,
  "বঙ্গ": 6985,
  " शिक्षा": 6986,
  "शिक्षा": 6987,
  " सुन": 6988,
  "सुन": 6989,
  "থায়": 6990,
  " দক্ষিণ": 6991,
  "দক্ষিণ": 6992,
  "వలం": 6993,
  " হয়নি": 6994,
  "হয়নি": 6995,
  "্থিত": 6996,
  " చా": 6997,
  "చా": 6998,
  " நாள": 6999,
  "நாள": 7000,
  " आत": 7001,
  "आत": 7002,
  " কাম": 7003,
  "কাম": 7004,
  "ம்பெ": 7005,
  " பாதிக்க": 7006,
  "பாதிக்க": 7007,
  "ాలలో": 7008,
  "পির": 7009,
  " పం": 7010,
  "పం": 7011,
  " வாங்க": 7012,
  "வாங்க": 7013,
  " बिज": 7014,
  "बिज": 7015,
  "ందా": 7016,
  " मि": 7017,
  "मि": 7018,
  " என்க": 7019,
  "என்க": 7020,
  " महीने": 7021,
  "महीने": 7022,
  " দুপুর": 7023,
  "দুপুর": 7024,
  " मंगलवार": 7025,
  "मंगलवार": 7026,
  " வல": 7027,
  "வல": 7028,
  " आदेश": 7029,
  "आदेश": 7030,
  " కలిగి": 7031,
  "కలిగి": 7032,
  " সকাল": 7033,
  "সকাল": 7034,
  " కోర్టు": 7035,
  "కోర్టు": 7036,
  "ாட்டு": 7037,
  "श्य": 7038,
  " परेश": 7039,
  "परेश": 7040,
  " গ্রহণ": 7041,
  "গ্রহণ": 7042,
  " मिलने": 7043,
  "मिलने": 7044,
  "েন্স": 7045,
  " मंड": 7046,
  "मंड": 7047,
  "లువ": 7048,
  "జెక్": 7049,
  " లేకుండా": 7050,
  "లేకుండా": 7051,
  "en": 7052,
  "दारी": 7053,
  "ம்பு": 7054,
  "వరణ": 7055,
  " शादी": 7056,
  "शादी": 7057,
  " மதி": 7058,
  "மதி": 7059,
  " గ్ర": 7060,
  " আলোচ": 7061,
  "আলোচ": 7062,
  " জায়": 7063,
  "জায়": 7064,
  " பாதுகாப்பு": 7065,
  "பாதுகாப்பு": 7066,
  " बुधवार": 7067,
  "बुधवार": 7068,
  "पूर्": 7069,
  " মাত্র": 7070,
  "মাত্র": 7071,
  "లన": 7072,
  " মামলা": 7073,
  "মামলা": 7074,
  "ஸ்ட்": 7075,
  "స్సు": 7076,
  " కోట్ల": 7077,
  "కోట్ల": 7078,
  "ండ్‌": 7079,
  "ధిక": 7080,
  "ారో": 7081,
  "పింది": 7082,
  " विधायक": 7083,
  "विधायक": 7084,
  " சுவ": 7085,
  "சுவ": 7086,
  "వడంతో": 7087,
  "ালি": 7088,
  " ২৪": 7089,
  "২৪": 7090,
  " নিহত": 7091,
  "নিহত": 7092,
  "స్తామని": 7093,
  " পরিস্থিত": 7094,
  "পরিস্থিত": 7095,
  " ఎస్": 7096,
  " కేవలం": 7097,
  "కేవలం": 7098,
  " న్యా": 7099,
  " जनता": 7100,
  "जनता": 7101,
  "ிலான": 7102,
  " বাহ": 7103,
  " ఎన్నికల్లో": 7104,
  "ఎన్నికల్లో": 7105,
  " ওয়ে": 7106,
  "ওয়ে": 7107,
  " இந்நிலையில்": 7108,
  "இந்நிலையில்": 7109,
  " সিন": 7110,
  "সিন": 7111,
  " গুল": 7112,
  "சிரிய": 7113,
  " कराया": 7114,
  "कराया": 7115,
  " राजनी": 7116,
  "राजनी": 7117,
  " குறித்த": 7118,
  "குறித்த": 7119,
  " సంబంధించిన": 7120,
  "సంబంధించిన": 7121,
  "्यान": 7122,
  " বুঝ": 7123,
  "বুঝ": 7124,
  " दूर": 7125,
  "दूर": 7126,
  " త్వర": 7127,
  "త్వర": 7128,
  "यन": 7129,
  " ভাব": 7130,
  " দিয়েছে": 7131,
  "দিয়েছে": 7132,
  "ম্প": 7133,
  " দুর্": 7134,
  "দুর্": 7135,
  " মোহ": 7136,
  "মোহ": 7137,
  " राह": 7138,
  "राह": 7139,
  " ஜெய": 7140,
  "ஜெய": 7141,
  "ంత్": 7142,
  " নভ": 7143,
  "নভ": 7144,
  "ियान": 7145,
  "ின்றது": 7146,
  " থেকেই": 7147,
  "থেকেই": 7148,
  " తమి": 7149,
  "తమి": 7150,
  "స్వా": 7151,
  " কন": 7152,
  "কন": 7153,
  " সম্প্র": 7154,
  "সম্প্র": 7155,
  "हरा": 7156,
  " নিউ": 7157,
  "নিউ": 7158,
  " শতাংশ": 7159,
  "শতাংশ": 7160,
  " যেন": 7161,
  "যেন": 7162,
  " চৌ": 7163,
  "চৌ": 7164,
  "াতিক": 7165,
  " এখানে": 7166,
  "এখানে": 7167,
  " రాష్ట్రంలో": 7168,
  "రాష్ట్రంలో": 7169,
  " दुकान": 7170,
  "दुकान": 7171,
  " விசாரணை": 7172,
  "விசாரணை": 7173,
  " भे": 7174,
  "भे": 7175,
  " నియ": 7176,
  "నియ": 7177,
  "బాటు": 7178,
  " रविवार": 7179,
  "रविवार": 7180,
  " স্ম": 7181,
  "স্ম": 7182,
  " उसने": 7183,
  "उसने": 7184,
  "మవు": 7185,
  "ுடன்": 7186,
  " बाल": 7187,
  "बाल": 7188,
  "லுக்கு": 7189,
  " ব্যক্তি": 7190,
  "ব্যক্তি": 7191,
  " வீர": 7192,
  "வீர": 7193,
  " పడి": 7194,
  "றைய": 7195,
  " పెళ్లి": 7196,
  "పెళ్లి": 7197,
  " আফ": 7198,
  "আফ": 7199,
  " ব্ল": 7200,
  "ব্ল": 7201,
  "ாகும்": 7202,
  " अभि": 7203,
  "अभि": 7204,
  " रखा": 7205,
  "रखा": 7206,
  " విద్యార్థ": 7207,
  "విద్యార్థ": 7208,
  "পক্ষ": 7209,
  " माल": 7210,
  "माल": 7211,
  "ంగళ": 7212,
  " B": 7213,
  "B": 7214,
  " వస్తు": 7215,
  "వస్తు": 7216,
  " సంగతి": 7217,
  "సంగతి": 7218,
  " వెంటనే": 7219,
  "వెంటనే": 7220,
  "र्ती": 7221,
  " প্রয়োজন": 7222,
  "প্রয়োজন": 7223,
  "চিত্র": 7224,
  " प्रमुख": 7225,
  "प्रमुख": 7226,
  " ఎలాంటి": 7227,
  "ఎలాంటి": 7228,
  " క్యా": 7229,
  "క్యా": 7230,
  "তেই": 7231,
  " शनिवार": 7232,
  "शनिवार": 7233,
  " కార్యక్రమ": 7234,
  "కార్యక్రమ": 7235,
  " ক্লা": 7236,
  "ক্লা": 7237,
  " గుర్త": 7238,
  "గుర్త": 7239,
  " சர்": 7240,
  "சர்": 7241,
  "ிருக்கிறது": 7242,
  "యుడు": 7243,
  " కీలక": 7244,
  "కీలక": 7245,
  " दूसरी": 7246,
  "दूसरी": 7247,
  " வெற்றி": 7248,
  "வெற்றி": 7249,
  "প্ট": 7250,
  "ிட்டு": 7251,
  " নিশ্চিত": 7252,
  "নিশ্চিত": 7253,
  " ఆల": 7254,
  "ఆల": 7255,
  " కనిపి": 7256,
  "కనిపి": 7257,
  " வைக்க": 7258,
  "வைக்க": 7259,
  " प्रभाव": 7260,
  "प्रभाव": 7261,
  " সৌ": 7262,
  "সৌ": 7263,
  "ுள்ள": 7264,
  " ఆది": 7265,
  "ఆది": 7266,
  " எனவே": 7267,
  "எனவே": 7268,
  "తుందని": 7269,
  "దాపు": 7270,
  "ౌన్": 7271,
  "మానికి": 7272,
  "ந்தி": 7273,
  " मुंबई": 7274,
  "मुंबई": 7275,
  "টিং": 7276,
  "றுக": 7277,
  " आरोपी": 7278,
  "आरोपी": 7279,
  "মিত": 7280,
  "కున్న": 7281,
  "্যাম্প": 7282,
  " দায়িত্ব": 7283,
  "দায়িত্ব": 7284,
  " విధంగా": 7285,
  "విధంగా": 7286,
  "த்தான்": 7287,
  "னும்": 7288,
  " আত্ম": 7289,
  "আত্ম": 7290,
  " दुनिया": 7291,
  "दुनिया": 7292,
  "িফ": 7293,
  "తాయి": 7294,
  "క్టర్": 7295,
  " चि": 7296,
  "चि": 7297,
  "तरा": 7298,
  " வெளியே": 7299,
  "வெளியே": 7300,
  "శం": 7301,
  " ரூபாய்": 7302,
  "ரூபாய்": 7303,
  " সচ": 7304,
  "সচ": 7305,
  " উচ্চ": 7306,
  "উচ্চ": 7307,
  " முயற்": 7308,
  "முயற்": 7309,
  " அதில்": 7310,
  "அதில்": 7311,
  " குறிப்பிட": 7312,
  "குறிப்பிட": 7313,
  " டெ": 7314,
  "டெ": 7315,
  " बच": 7316,
  "बच": 7317,
  " গতকাল": 7318,
  "গতকাল": 7319,
  "चाल": 7320,
  "ালী": 7321,
  "லைக்க": 7322,
  " विरोध": 7323,
  "विरोध": 7324,
  "டக": 7325,
  "కాలు": 7326,
  "ీక": 7327,
  " தேவை": 7328,
  "தேவை": 7329,
  "িলা": 7330,
  "भि": 7331,
  " सके": 7332,
  "सके": 7333,
  "நாட்ட": 7334,
  " இரண்ட": 7335,
  "இரண்ட": 7336,
  " N": 7337,
  "N": 7338,
  " அங்கு": 7339,
  "அங்கு": 7340,
  "ందోళ": 7341,
  " இவ்": 7342,
  "இவ்": 7343,
  " প্রেস": 7344,
  "প্রেস": 7345,
  "డో": 7346,
  " நோய": 7347,
  "நோய": 7348,
  " চো": 7349,
  "চো": 7350,
  " बड़ा": 7351,
  "बड़ा": 7352,
  " ২০২১": 7353,
  "২০২১": 7354,
  " ఆంధ్ర": 7355,
  "ఆంధ్ర": 7356,
  " నిర్ణయం": 7357,
  "నిర్ణయం": 7358,
  " দিয়েছেন": 7359,
  "দিয়েছেন": 7360,
  " खे": 7361,
  "खे": 7362,
  " गै": 7363,
  "गै": 7364,
  " चुकी": 7365,
  "चुकी": 7366,
  " ২১": 7367,
  "২১": 7368,
  " সোম": 7369,
  "সোম": 7370,
  " சிவ": 7371,
  "சிவ": 7372,
  "మ్ము": 7373,
  " பிடி": 7374,
  "பிடி": 7375,
  "திகள்": 7376,
  " চেয়ারম্যান": 7377,
  "চেয়ারম্যান": 7378,
  "तम": 7379,
  "ेंड": 7380,
  "িষ্ট": 7381,
  " युवक": 7382,
  "युवक": 7383,
  " பெண்": 7384,
  "பெண்": 7385,
  " முடிவு": 7386,
  "முடிவு": 7387,
  " தவிர": 7388,
  "தவிர": 7389,
  " इत": 7390,
  "इत": 7391,
  "நாய": 7392,
  "्व": 7393,
  "श्म": 7394,
  " ఉత్ప": 7395,
  "ఉత్ప": 7396,
  "রাপ": 7397,
  "త్‌": 7398,
  " లు": 7399,
  " இதன்": 7400,
  "இதன்": 7401,
  " ఇండియా": 7402,
  "ఇండియా": 7403,
  "గర్": 7404,
  " सिर्फ": 7405,
  "सिर्फ": 7406,
  " পরিষ": 7407,
  "পরিষ": 7408,
  "్రమ": 7409,
  "শ্চ": 7410,
  " মঙ্গল": 7411,
  "মঙ্গল": 7412,
  "ாவை": 7413,
  "ழிய": 7414,
  "াতি": 7415,
  " এছ": 7416,
  "এছ": 7417,
  "ప్పటికీ": 7418,
  "জার": 7419,
  " ప్రై": 7420,
  "ప్రై": 7421,
  " ব্যাং": 7422,
  "ব্যাং": 7423,
  "రావు": 7424,
  " চট্ট": 7425,
  "চট্ট": 7426,
  " పరుగు": 7427,
  "పరుగు": 7428,
  " மி": 7429,
  "ணுவ": 7430,
  "দুল": 7431,
  " ஆயிர": 7432,
  "ஆயிர": 7433,
  " தயாரி": 7434,
  "தயாரி": 7435,
  " వ్యాఖ్య": 7436,
  "వ్యాఖ్య": 7437,
  " ప్రముఖ": 7438,
  "ప్రముఖ": 7439,
  "তের": 7440,
  " డే": 7441,
  " కర్": 7442,
  " सवाल": 7443,
  "सवाल": 7444,
  "রকার": 7445,
  "వంత": 7446,
  " వ్యాప": 7447,
  "వ్యాప": 7448,
  " উঠ": 7449,
  "উঠ": 7450,
  " লাই": 7451,
  " उठा": 7452,
  "उठा": 7453,
  " উদ্ধার": 7454,
  "উদ্ধার": 7455,
  " పేర్కొన్నారు": 7456,
  "పేర్కొన్నారు": 7457,
  "নীতি": 7458,
  "াপাশি": 7459,
  " प्रे": 7460,
  "प्रे": 7461,
  " নির্বাচন": 7462,
  "নির্বাচন": 7463,
  " விமான": 7464,
  "விமான": 7465,
  " ডিসেম্বর": 7466,
  "ডিসেম্বর": 7467,
  " मी": 7468,
  " ஆர்": 7469,
  "ஆர்": 7470,
  " ఎంపీ": 7471,
  "ఎంపీ": 7472,
  " దాదాపు": 7473,
  "దాదాపు": 7474,
  " పడు": 7475,
  " জায়গ": 7476,
  "জায়গ": 7477,
  "ண்டி": 7478,
  " கேள்": 7479,
  "கேள்": 7480,
  "াধীন": 7481,
  " जवा": 7482,
  "जवा": 7483,
  " இருந்தது": 7484,
  "இருந்தது": 7485,
  " కంటే": 7486,
  "కంటే": 7487,
  " उपल": 7488,
  "उपल": 7489,
  " ప్రేక్ష": 7490,
  "ప్రేక్ష": 7491,
  "োয়": 7492,
  " ভারতীয়": 7493,
  "ভারতীয়": 7494,
  "विड": 7495,
  " गि": 7496,
  "गि": 7497,
  "வதாக": 7498,
  "োঁ": 7499,
  " জীবন": 7500,
  "জীবন": 7501,
  " পাশাপাশি": 7502,
  "পাশাপাশি": 7503,
  " लाल": 7504,
  "लाल": 7505,
  " যুব": 7506,
  "যুব": 7507,
  "ந்துள்ளது": 7508,
  " बढ़ा": 7509,
  "बढ़ा": 7510,
  "चान": 7511,
  " নিরাপ": 7512,
  "নিরাপ": 7513,
  " যারা": 7514,
  "যারা": 7515,
  "ियम": 7516,
  " स्तर": 7517,
  "स्तर": 7518,
  " விட்ட": 7519,
  "काश": 7520,
  " पक": 7521,
  "पक": 7522,
  "పల్లి": 7523,
  " স্কুল": 7524,
  "স্কুল": 7525,
  " ১৬": 7526,
  "১৬": 7527,
  " ఆసక్తి": 7528,
  "ఆసక్తి": 7529,
  " क्रिक": 7530,
  "क्रिक": 7531,
  " ఇందులో": 7532,
  "ఇందులో": 7533,
  " থাকবে": 7534,
  "থাকবে": 7535,
  " స్పంది": 7536,
  "స్పంది": 7537,
  " ఎంతో": 7538,
  "ఎంతో": 7539,
  " అక్కడ": 7540,
  "అక్కడ": 7541,
  " जीवन": 7542,
  "जीवन": 7543,
  " যার": 7544,
  "যার": 7545,
  " পরীক্ষা": 7546,
  "পরীক্ষা": 7547,
  "ிறோம்": 7548,
  "த்தால்": 7549,
  "కోవాలని": 7550,
  " ఇంకా": 7551,
  "ఇంకా": 7552,
  " বাড়ি": 7553,
  "বাড়ি": 7554,
  " పెరుగు": 7555,
  "పెరుగు": 7556,
  " సోషల్": 7557,
  "సోషల్": 7558,
  " బాగా": 7559,
  "బాగా": 7560,
  " సినిమాలో": 7561,
  "సినిమాలో": 7562,
  " மட்டும்": 7563,
  "மட்டும்": 7564,
  "ెస్టు": 7565,
  " ১৩": 7566,
  "১৩": 7567,
  "র্তি": 7568,
  " உண்": 7569,
  "உண்": 7570,
  " बयान": 7571,
  "बयान": 7572,
  " సౌకర్": 7573,
  "సౌకర్": 7574,
  " மின்": 7575,
  "மின்": 7576,
  " তুল": 7577,
  "তুল": 7578,
  " జరిగింది": 7579,
  "జరిగింది": 7580,
  " షూ": 7581,
  "షూ": 7582,
  "াখ": 7583,
  " பத": 7584,
  "பத": 7585,
  " விட்டு": 7586,
  " T": 7587,
  "T": 7588,
  " দেয়া": 7589,
  "দেয়া": 7590,
  " महिलाओं": 7591,
  "महिलाओं": 7592,
  " বই": 7593,
  "বই": 7594,
  " అతి": 7595,
  "అతి": 7596,
  " पेश": 7597,
  "पेश": 7598,
  " भूम": 7599,
  "भूम": 7600,
  " व्याप": 7601,
  "व्याप": 7602,
  " सरकारी": 7603,
  "सरकारी": 7604,
  "',": 7605,
  "నంద": 7606,
  " తక్కువ": 7607,
  "తక్కువ": 7608,
  " जाते": 7609,
  "जाते": 7610,
  " जल्द": 7611,
  "जल्द": 7612,
  " ধর্ম": 7613,
  "ধর্ম": 7614,
  "িসি": 7615,
  " வேறு": 7616,
  " প্রশ্ন": 7617,
  "প্রশ্ন": 7618,
  "ెస్ట్": 7619,
  " জানুয়ারি": 7620,
  "জানুয়ারি": 7621,
  " বুধ": 7622,
  "বুধ": 7623,
  "ுக்கு": 7624,
  "சிக": 7625,
  " குழு": 7626,
  "குழு": 7627,
  " விஜ": 7628,
  "விஜ": 7629,
  " নম": 7630,
  "নম": 7631,
  "ிக்கொ": 7632,
  "षा": 7633,
  " होंगे": 7634,
  "होंगे": 7635,
  "ক্ষা": 7636,
  " लाभ": 7637,
  "लाभ": 7638,
  " বিষয়টি": 7639,
  "বিষয়টি": 7640,
  " திரை": 7641,
  "திரை": 7642,
  " తగ్గ": 7643,
  "తగ్గ": 7644,
  "ించడం": 7645,
  "గాలు": 7646,
  " মার্চ": 7647,
  "মার্চ": 7648,
  " எப்படி": 7649,
  "எப்படி": 7650,
  " நிர்வாக": 7651,
  "நிர்வாக": 7652,
  " पिता": 7653,
  "पिता": 7654,
  "వైపు": 7655,
  " அரசாங்க": 7656,
  "அரசாங்க": 7657,
  " நடந்த": 7658,
  "நடந்த": 7659,
  " రోజుల": 7660,
  "రోజుల": 7661,
  "ில்லை": 7662,
  " বিজে": 7663,
  "বিজে": 7664,
  " ஒவ்வொரு": 7665,
  "ஒவ்வொரு": 7666,
  " భాగంగా": 7667,
  "భాగంగా": 7668,
  " నిజ": 7669,
  "నిజ": 7670,
  "ধুর": 7671,
  " செய்யப்பட்ட": 7672,
  "செய்யப்பட்ட": 7673,
  "भीर": 7674,
  " छो": 7675,
  "छो": 7676,
  " कोश": 7677,
  "कोश": 7678,
  " நிர": 7679,
  "நிர": 7680,
  " లక్షల": 7681,
  "లక్షల": 7682,
  " ইং": 7683,
  "ইং": 7684,
  " అందుకు": 7685,
  "అందుకు": 7686,
  " !": 7687,
  "!": 7688,
  " प्रतिशत": 7689,
  "प्रतिशत": 7690,
  " ఇచ్చిన": 7691,
  "ఇచ్చిన": 7692,
  " তদন্ত": 7693,
  "তদন্ত": 7694,
  " বস": 7695,
  "বস": 7696,
  "ठन": 7697,
  " পৃ": 7698,
  "পৃ": 7699,
  " সময়ে": 7700,
  "সময়ে": 7701,
  "లుపు": 7702,
  "ப்பது": 7703,
  " నీటి": 7704,
  "నీటి": 7705,
  " हाई": 7706,
  "हाई": 7707,
  "చిన": 7708,
  " செல": 7709,
  "செல": 7710,
  " உணவு": 7711,
  "உணவு": 7712,
  "ৃণ": 7713,
  " సామా": 7714,
  "సామా": 7715,
  " খে": 7716,
  "దారు": 7717,
  "র্জাতিক": 7718,
  "సార్": 7719,
  " पुर": 7720,
  " पोस्ट": 7721,
  "पोस्ट": 7722,
  " முன்ப": 7723,
  "முன்ப": 7724,
  " దేశంలో": 7725,
  "దేశంలో": 7726,
  " সেপ্ট": 7727,
  "সেপ্ট": 7728,
  " சிகிச்சை": 7729,
  "சிகிச்சை": 7730,
  "দর্শ": 7731,
  " స్వా": 7732,
  " బల": 7733,
  "బల": 7734,
  "ॉल": 7735,
  "నున్నారు": 7736,
  "ক্ষণ": 7737,
  " নেওয়া": 7738,
  "নেওয়া": 7739,
  "మారు": 7740,
  "কদের": 7741,
  " மல": 7742,
  "மல": 7743,
  " கோடி": 7744,
  "கோடி": 7745,
  "రాల": 7746,
  " उपलब्": 7747,
  "उपलब्": 7748,
  "పోయిన": 7749,
  " నేతలు": 7750,
  "నేతలు": 7751,
  " வாழ்": 7752,
  "வாழ்": 7753,
  "ద్యా": 7754,
  " చర్యలు": 7755,
  "చర్యలు": 7756,
  "ెక్టర్": 7757,
  "र्ष": 7758,
  "াম্মদ": 7759,
  "ंद्र": 7760,
  " दल": 7761,
  "दल": 7762,
  " இதை": 7763,
  "இதை": 7764,
  "पूर्ण": 7765,
  " చు": 7766,
  " নেতা": 7767,
  "নেতা": 7768,
  " சொன்ன": 7769,
  "சொன்ன": 7770,
  "ார்க": 7771,
  "am": 7772,
  " ग्राम": 7773,
  "ग्राम": 7774,
  "বর্তী": 7775,
  " తమిళ": 7776,
  "తమిళ": 7777,
  "ोरी": 7778,
  " திரும்ப": 7779,
  "திரும்ப": 7780,
  "ధు": 7781,
  " संघ": 7782,
  "संघ": 7783,
  " చట్ట": 7784,
  "చట్ట": 7785,
  " छोड़": 7786,
  "छोड़": 7787,
  " ভিড": 7788,
  "ভিড": 7789,
  " চর": 7790,
  "চর": 7791,
  "க்கை": 7792,
  " తరలి": 7793,
  "తరలి": 7794,
  " ?": 7795,
  "?": 7796,
  " వైరస్": 7797,
  "వైరస్": 7798,
  "মের": 7799,
  "স্পতি": 7800,
  " मुझे": 7801,
  "मुझे": 7802,
  " जय": 7803,
  " వృ": 7804,
  "গ্রাম": 7805,
  " কমিশ": 7806,
  "কমিশ": 7807,
  "ुट": 7808,
  "ন্স": 7809,
  " మై": 7810,
  " অন্যান": 7811,
  "অন্যান": 7812,
  "న్‌లో": 7813,
  " ప్రాజెక్": 7814,
  "ప్రాజెక్": 7815,
  "ங்கிர": 7816,
  " ভাষ": 7817,
  "ভাষ": 7818,
  " மருத்துவம": 7819,
  "மருத்துவம": 7820,
  "స్‌లో": 7821,
  " ఆశ": 7822,
  "ఆశ": 7823,
  "ప్టె": 7824,
  " सांस": 7825,
  "सांस": 7826,
  " तौर": 7827,
  "तौर": 7828,
  " ఇంత": 7829,
  "ఇంత": 7830,
  " మొదల": 7831,
  "మొదల": 7832,
  " ध्यान": 7833,
  "ध्यान": 7834,
  " বুধবার": 7835,
  "বুধবার": 7836,
  " బాబు": 7837,
  " কৃষ": 7838,
  "কৃষ": 7839,
  "লেই": 7840,
  "िकल": 7841,
  " গোল": 7842,
  "গোল": 7843,
  " আন্তর্জাতিক": 7844,
  "আন্তর্জাতিক": 7845,
  " ट्": 7846,
  "ट्": 7847,
  " शाह": 7848,
  "शाह": 7849,
  " இந்தியா": 7850,
  "இந்தியா": 7851,
  " কখন": 7852,
  "কখন": 7853,
  " பெற": 7854,
  "பெற": 7855,
  "வர்களுக்கு": 7856,
  " అభ్యర్థ": 7857,
  "అభ్యర్థ": 7858,
  "ুরি": 7859,
  " করেছিলেন": 7860,
  "করেছিলেন": 7861,
  "াপন": 7862,
  "াবেক": 7863,
  " கருத்து": 7864,
  "கருத்து": 7865,
  " కళాశాల": 7866,
  "కళాశాల": 7867,
  "బ్లీ": 7868,
  "ক্টো": 7869,
  "ட்கள்": 7870,
  " మార్కెట్": 7871,
  "మార్కెట్": 7872,
  " ঘটনায়": 7873,
  "ঘটনায়": 7874,
  " সোমবার": 7875,
  "সোমবার": 7876,
  " तेज": 7877,
  "तेज": 7878,
  " দেওয়ার": 7879,
  "দেওয়ার": 7880,
  " राय": 7881,
  "राय": 7882,
  "స్తాయి": 7883,
  "ধার": 7884,
  " प्रभ": 7885,
  "प्रभ": 7886,
  " கண்டு": 7887,
  "கண்டு": 7888,
  "दों": 7889,
  "ங்கும்": 7890,
  "నాల": 7891,
  " বিশ্ববিদ্যালয়ের": 7892,
  "বিশ্ববিদ্যালয়ের": 7893,
  " দ্র": 7894,
  "দ্র": 7895,
  "ளாக": 7896,
  " अभियान": 7897,
  "अभियान": 7898,
  "ஷ்ட": 7899,
  " मध्य": 7900,
  "मध्य": 7901,
  " সম্পর্": 7902,
  "সম্পর্": 7903,
  " వెంక": 7904,
  "వెంక": 7905,
  "বায়": 7906,
  " ఆందోళ": 7907,
  "ఆందోళ": 7908,
  " ఇంటర్": 7909,
  "ఇంటర్": 7910,
  " డ్ర": 7911,
  "డ్ర": 7912,
  "एफ": 7913,
  " सदस्य": 7914,
  "सदस्य": 7915,
  "স্পতিবার": 7916,
  " শিল্প": 7917,
  "শিল্প": 7918,
  " গুরুত্ব": 7919,
  "গুরুত্ব": 7920,
  "য়নের": 7921,
  "भग": 7922,
  "టర్‌": 7923,
  " వేల": 7924,
  "వేల": 7925,
  " వినియోగ": 7926,
  "వినియోగ": 7927,
  " అమ్మ": 7928,
  "అమ్మ": 7929,
  "ంతు": 7930,
  "नल": 7931,
  " జి": 7932,
  " करती": 7933,
  "करती": 7934,
  " గ్రామంలో": 7935,
  "గ్రామంలో": 7936,
  "ৃষ্টি": 7937,
  " సే": 7938,
  " सोशल": 7939,
  "सोशल": 7940,
  " চা": 7941,
  "চা": 7942,
  "लाइन": 7943,
  " বাজার": 7944,
  "বাজার": 7945,
  " அப்போது": 7946,
  "அப்போது": 7947,
  " దొ": 7948,
  "దొ": 7949,
  " खास": 7950,
  "खास": 7951,
  " गेंद": 7952,
  "गेंद": 7953,
  " সেটা": 7954,
  "সেটা": 7955,
  " এগ": 7956,
  "এগ": 7957,
  "తున్నా": 7958,
  " చేస్తూ": 7959,
  "చేస్తూ": 7960,
  "చుకు": 7961,
  "னாதி": 7962,
  " வைர": 7963,
  "வைர": 7964,
  " করবেন": 7965,
  "করবেন": 7966,
  " टेस्ट": 7967,
  "टेस्ट": 7968,
  "ঠন": 7969,
  "மையில்": 7970,
  " गंभीर": 7971,
  "गंभीर": 7972,
  " बेट": 7973,
  "बेट": 7974,
  " ஏற்பட்ட": 7975,
  "ஏற்பட்ட": 7976,
  "ృత": 7977,
  " কুম": 7978,
  "কুম": 7979,
  " प्रयास": 7980,
  "प्रयास": 7981,
  " సాధారణ": 7982,
  "సాధారణ": 7983,
  "স্যা": 7984,
  " ఫ్యా": 7985,
  "ఫ్యా": 7986,
  " অক্টো": 7987,
  "অক্টো": 7988,
  " నాగ": 7989,
  "నాగ": 7990,
  " तस्": 7991,
  "तस्": 7992,
  " কর্তৃ": 7993,
  "কর্তৃ": 7994,
  "ించుకు": 7995,
  "নিবার": 7996,
  " ফেব্র": 7997,
  "ফেব্র": 7998,
  "క్ష్": 7999,
  "বী": 8000,
  " चीन": 8001,
  "चीन": 8002,
  "ப்பெ": 8003,
  " நாள்": 8004,
  "நாள்": 8005,
  "र्च": 8006,
  "ர்ச்சி": 8007,
  "రారు": 8008,
  "बल": 8009,
  " शि": 8010,
  "ప్తి": 8011,
  " ప్రేమ": 8012,
  "ప్రేమ": 8013,
  "ట్టే": 8014,
  "োর্ড": 8015,
  "యానికి": 8016,
  " चर्चा": 8017,
  "चर्चा": 8018,
  "ल्प": 8019,
  " సేవ": 8020,
  "సేవ": 8021,
  " பிரச்ச": 8022,
  "பிரச்ச": 8023,
  " অনুষ্ঠিত": 8024,
  "অনুষ্ঠিত": 8025,
  " कोशिश": 8026,
  "कोशिश": 8027,
  " মার্ক": 8028,
  "মার্ক": 8029,
  " ప్రి": 8030,
  "ప్రి": 8031,
  " முடியாது": 8032,
  "முடியாது": 8033,
  " कभी": 8034,
  "कभी": 8035,
  " पट": 8036,
  "पट": 8037,
  " அரு": 8038,
  "அரு": 8039,
  " தெரிவித்தார்": 8040,
  "தெரிவித்தார்": 8041,
  "োর্ট": 8042,
  " விரும்ப": 8043,
  "விரும்ப": 8044,
  " இரா": 8045,
  "இரா": 8046,
  " সম্ভব": 8047,
  "সম্ভব": 8048,
  " தெரிவித்துள்ளார்": 8049,
  "தெரிவித்துள்ளார்": 8050,
  " வகையில்": 8051,
  "வகையில்": 8052,
  "ரன்": 8053,
  "టీఆర్": 8054,
  "যায়ী": 8055,
  " అనుమ": 8056,
  "అనుమ": 8057,
  " கேட்ட": 8058,
  "கேட்ட": 8059,
  "ায়ে": 8060,
  " जाना": 8061,
  "जाना": 8062,
  " युवा": 8063,
  "युवा": 8064,
  "ండగా": 8065,
  " విచారణ": 8066,
  "విచారణ": 8067,
  "బట్టి": 8068,
  "డ్డా": 8069,
  "ீடு": 8070,
  " विभि": 8071,
  "विभि": 8072,
  " உட்ப": 8073,
  "உட்ப": 8074,
  "த்துறை": 8075,
  " ১৭": 8076,
  "১৭": 8077,
  " అందరి": 8078,
  "అందరి": 8079,
  " সবচেয়ে": 8080,
  "সবচেয়ে": 8081,
  "क्शन": 8082,
  " இறு": 8083,
  "இறு": 8084,
  "মানে": 8085,
  "্যাট": 8086,
  " நம்": 8087,
  "நம்": 8088,
  " उम": 8089,
  "उम": 8090,
  " হাই": 8091,
  "হাই": 8092,
  " ప్రధాని": 8093,
  "ప్రధాని": 8094,
  " संप": 8095,
  "संप": 8096,
  " অন্যান্য": 8097,
  "অন্যান্য": 8098,
  " দুটি": 8099,
  "দুটি": 8100,
  " চিন": 8101,
  "চিন": 8102,
  "तों": 8103,
  "పోయా": 8104,
  " जरूरत": 8105,
  "जरूरत": 8106,
  "த்தனர்": 8107,
  " বৃহস্পতিবার": 8108,
  "বৃহস্পতিবার": 8109,
  " রাতে": 8110,
  "রাতে": 8111,
  " மண": 8112,
  "மண": 8113,
  "েলায়": 8114,
  " ఎక్కువగా": 8115,
  "ఎక్కువగా": 8116,
  "াড়ি": 8117,
  " सचिव": 8118,
  "सचिव": 8119,
  " మేరకు": 8120,
  "మేరకు": 8121,
  " ఆలోచ": 8122,
  "ఆలోచ": 8123,
  " মঙ্গলবার": 8124,
  "মঙ্গলবার": 8125,
  "నించారు": 8126,
  "నియర్": 8127,
  ".\"": 8128,
  " எனக்கு": 8129,
  "எனக்கு": 8130,
  " ஒருவர்": 8131,
  "ஒருவர்": 8132,
  "య్యాయి": 8133,
  " समेत": 8134,
  "समेत": 8135,
  " రాష్ట్రా": 8136,
  "రాష్ట్రా": 8137,
  " கொடுத்த": 8138,
  "கொடுத்த": 8139,
  " சுக": 8140,
  "சுக": 8141,
  " விற்ப": 8142,
  "விற்ப": 8143,
  " ఇలాంటి": 8144,
  "ఇలాంటి": 8145,
  "ారెడ్డి": 8146,
  " ते": 8147,
  " राशि": 8148,
  "राशि": 8149,
  "ad": 8150,
  " ఒకటి": 8151,
  "ఒకటి": 8152,
  " कराने": 8153,
  "कराने": 8154,
  " पत्नी": 8155,
  "पत्नी": 8156,
  " விளையா": 8157,
  "விளையா": 8158,
  " చెల్లి": 8159,
  "చెల్లి": 8160,
  "हरी": 8161,
  " দীর্ঘ": 8162,
  "দীর্ঘ": 8163,
  " কাউ": 8164,
  "কাউ": 8165,
  "োদ": 8166,
  " நாடுக": 8167,
  "நாடுக": 8168,
  " மாதம்": 8169,
  "மாதம்": 8170,
  " मना": 8171,
  "मना": 8172,
  "్రియ": 8173,
  " प्राप्त": 8174,
  "प्राप्त": 8175,
  " दिखा": 8176,
  "दिखा": 8177,
  " தொழில": 8178,
  "தொழில": 8179,
  "েরা": 8180,
  " తనకు": 8181,
  "తనకు": 8182,
  " பெரும்ப": 8183,
  "பெரும்ப": 8184,
  " টেস্ট": 8185,
  "টেস্ট": 8186,
  " গান": 8187,
  "গান": 8188,
  "బడిన": 8189,
  " விலை": 8190,
  "விலை": 8191,
  " इंडिया": 8192,
  "इंडिया": 8193,
  "िज": 8194,
  " শুক্র": 8195,
  "শুক্র": 8196,
  " మూవీ": 8197,
  "మూవీ": 8198,
  " காங்கிர": 8199,
  "காங்கிர": 8200,
  "ूप": 8201,
  " স্ত্র": 8202,
  "স্ত্র": 8203,
  " దృష్టి": 8204,
  "దృష్టి": 8205,
  "মতা": 8206,
  "తిరే": 8207,
  " ফুট": 8208,
  "ফুট": 8209,
  " शव": 8210,
  "शव": 8211,
  " క్రిక": 8212,
  "క్రిక": 8213,
  "বান": 8214,
  "ண்ட்": 8215,
  " लगी": 8216,
  "लगी": 8217,
  " చేశాడు": 8218,
  "చేశాడు": 8219,
  " అనంతరం": 8220,
  "అనంతరం": 8221,
  "ாச": 8222,
  " অথ": 8223,
  "অথ": 8224,
  "வார்": 8225,
  " தெரிவிக்க": 8226,
  "தெரிவிக்க": 8227,
  " அங்க": 8228,
  "அங்க": 8229,
  "लर": 8230,
  "తిలో": 8231,
  " I": 8232,
  "I": 8233,
  " अर्": 8234,
  "अर्": 8235,
  "िली": 8236,
  "த்தையும்": 8237,
  "స్తో": 8238,
  " భర్": 8239,
  "భర్": 8240,
  "ళ్లీ": 8241,
  " सामान": 8242,
  "सामान": 8243,
  " ৩০": 8244,
  "৩০": 8245,
  " రిక": 8246,
  "రిక": 8247,
  "க்கல்": 8248,
  " ప్రయా": 8249,
  "ప్రయా": 8250,
  "மையாக": 8251,
  "षण": 8252,
  "களும்": 8253,
  " డబ్బు": 8254,
  "డబ్బు": 8255,
  "ందరు": 8256,
  " बने": 8257,
  "बने": 8258,
  " बनाया": 8259,
  "बनाया": 8260,
  "য়র": 8261,
  " নারী": 8262,
  "নারী": 8263,
  " జట్టు": 8264,
  "జట్టు": 8265,
  " वालों": 8266,
  "वालों": 8267,
  " अंतर": 8268,
  "अंतर": 8269,
  " నిర్మ": 8270,
  "నిర్మ": 8271,
  "னைய": 8272,
  "னுக்கு": 8273,
  "াবার": 8274,
  " নভেম্বর": 8275,
  "নভেম্বর": 8276,
  " పథ": 8277,
  "పథ": 8278,
  "నుక": 8279,
  "నల్": 8280,
  "जेपी": 8281,
  " পরিবর্ত": 8282,
  "পরিবর্ত": 8283,
  " लगभग": 8284,
  "लगभग": 8285,
  " केवल": 8286,
  "केवल": 8287,
  " বো": 8288,
  "বো": 8289,
  " करके": 8290,
  "करके": 8291,
  " உடல்": 8292,
  "உடல்": 8293,
  " দেখতে": 8294,
  "দেখতে": 8295,
  "বাদিক": 8296,
  " সন্ত": 8297,
  "সন্ত": 8298,
  "্তা": 8299,
  " జై": 8300,
  "జై": 8301,
  "ெல்லாம்": 8302,
  " बिना": 8303,
  "बिना": 8304,
  "పాయ": 8305,
  " অতি": 8306,
  "অতি": 8307,
  "वेदन": 8308,
  "కిత్స": 8309,
  " आयोजित": 8310,
  "आयोजित": 8311,
  " করুন": 8312,
  "করুন": 8313,
  " అల": 8314,
  "అల": 8315,
  "పక్ష": 8316,
  " భావి": 8317,
  "భావి": 8318,
  " உறுப்பின": 8319,
  "உறுப்பின": 8320,
  " తిరిగి": 8321,
  "తిరిగి": 8322,
  " গবে": 8323,
  "গবে": 8324,
  " बारिश": 8325,
  "बारिश": 8326,
  " மூல": 8327,
  "மூல": 8328,
  " போலீசார்": 8329,
  "போலீசார்": 8330,
  "కొచ్చ": 8331,
  " గతంలో": 8332,
  "గతంలో": 8333,
  " వరు": 8334,
  "వరు": 8335,
  " समर्थ": 8336,
  "समर्थ": 8337,
  " ஜனாதி": 8338,
  "ஜனாதி": 8339,
  " প্রতিষ্ঠান": 8340,
  "প্রতিষ্ঠান": 8341,
  " चाल": 8342,
  " फैसला": 8343,
  "फैसला": 8344,
  "ன்னு": 8345,
  " ওয়ার": 8346,
  " শনিবার": 8347,
  "শনিবার": 8348,
  "రువు": 8349,
  " நிறு": 8350,
  "நிறு": 8351,
  "చార": 8352,
  " వ్యతిరే": 8353,
  "వ్యతిరే": 8354,
  " डाल": 8355,
  "डाल": 8356,
  "फा": 8357,
  " మార": 8358,
  "మార": 8359,
  "পূর্ণ": 8360,
  " கல்வி": 8361,
  "கல்வி": 8362,
  " தேர்வு": 8363,
  "தேர்வு": 8364,
  "ैक": 8365,
  " பொலி": 8366,
  "பொலி": 8367,
  "ிகளுக்கு": 8368,
  " मृत": 8369,
  "मृत": 8370,
  " தண்ண": 8371,
  "தண்ண": 8372,
  " সমস্যা": 8373,
  "সমস্যা": 8374,
  " नियम": 8375,
  "नियम": 8376,
  " হওয়া": 8377,
  "হওয়া": 8378,
  " కనిపించ": 8379,
  "కనిపించ": 8380,
  " మళ్లీ": 8381,
  "మళ్లీ": 8382,
  "কেই": 8383,
  " రైతు": 8384,
  "రైతు": 8385,
  " வாழ்க்க": 8386,
  "வாழ்க்க": 8387,
  "ரிச": 8388,
  " विभिन्न": 8389,
  "विभिन्न": 8390,
  " లె": 8391,
  " ভিডিও": 8392,
  "ভিডিও": 8393,
  " /": 8394,
  "/": 8395,
  "యల్": 8396,
  "জনের": 8397,
  " वन": 8398,
  " జాతీయ": 8399,
  "జాతీయ": 8400,
  " விழ": 8401,
  "விழ": 8402,
  " இப்போது": 8403,
  "இப்போது": 8404,
  " తు": 8405,
  " பிரதமர்": 8406,
  "பிரதமர்": 8407,
  "த்தக": 8408,
  " காய": 8409,
  "காய": 8410,
  "ப்புகள்": 8411,
  "த்தக்க": 8412,
  "্লে": 8413,
  "ளுமன்ற": 8414,
  " সী": 8415,
  "সী": 8416,
  " అందుకే": 8417,
  "అందుకే": 8418,
  " இன்னும்": 8419,
  "இன்னும்": 8420,
  " বক্তব্য": 8421,
  "বক্তব্য": 8422,
  " దర్శకత్వ": 8423,
  "దర్శకత్వ": 8424,
  " नोट": 8425,
  "नोट": 8426,
  " దే": 8427,
  " క్ష": 8428,
  " बनाए": 8429,
  "बनाए": 8430,
  " सफल": 8431,
  "सफल": 8432,
  " ফিরে": 8433,
  "ফিরে": 8434,
  " बिजली": 8435,
  "बिजली": 8436,
  " கொடுக்க": 8437,
  "கொடுக்க": 8438,
  " সাবেক": 8439,
  "সাবেক": 8440,
  "विधा": 8441,
  " সাংবাদিক": 8442,
  "সাংবাদিক": 8443,
  "ెంబ్లీ": 8444,
  " এত": 8445,
  "এত": 8446,
  " সেপ্টেম্বর": 8447,
  "সেপ্টেম্বর": 8448,
  " চলচ্": 8449,
  "চলচ্": 8450,
  " యూని": 8451,
  "యూని": 8452,
  " पक्ष": 8453,
  "पक्ष": 8454,
  " తేదీ": 8455,
  "తేదీ": 8456,
  " লীগের": 8457,
  "লীগের": 8458,
  " মৌ": 8459,
  "মৌ": 8460,
  " घंटे": 8461,
  "घंटे": 8462,
  " பிரதேச": 8463,
  "பிரதேச": 8464,
  " ఇటీవల": 8465,
  "ఇటీవల": 8466,
  " வாக": 8467,
  " పర్య": 8468,
  "పర్య": 8469,
  "िस्ट": 8470,
  "గల": 8471,
  " रोड": 8472,
  "रोड": 8473,
  " உயர்": 8474,
  "உயர்": 8475,
  " பகுதிக": 8476,
  "பகுதிக": 8477,
  " दौ": 8478,
  "दौ": 8479,
  "इल": 8480,
  " கன": 8481,
  "கன": 8482,
  " लिखा": 8483,
  "लिखा": 8484,
  " আন্দ": 8485,
  "আন্দ": 8486,
  " అతని": 8487,
  "అతని": 8488,
  "िटी": 8489,
  "রস": 8490,
  "रिक": 8491,
  "టివ్": 8492,
  " కాకుండా": 8493,
  "కాకుండా": 8494,
  " డిమా": 8495,
  "డిమా": 8496,
  " বান": 8497,
  " భావ": 8498,
  "భావ": 8499,
  " గుర్తు": 8500,
  "గుర్తు": 8501,
  " அட": 8502,
  "அட": 8503,
  " রায়": 8504,
  "রায়": 8505,
  "ண்ப": 8506,
  " उपलब्ध": 8507,
  "उपलब्ध": 8508,
  "స్తున్నా": 8509,
  " ఆసు": 8510,
  "ఆసు": 8511,
  " மேல்": 8512,
  "மேல்": 8513,
  " कोविड": 8514,
  "कोविड": 8515,
  " உற": 8516,
  "உற": 8517,
  "ம்மா": 8518,
  " होना": 8519,
  "होना": 8520,
  "तेमाल": 8521,
  " नंबर": 8522,
  "नंबर": 8523,
  "ేష్": 8524,
  " বঙ্গবন্ধ": 8525,
  "বঙ্গবন্ধ": 8526,
  " வாய்ப்பு": 8527,
  "வாய்ப்பு": 8528,
  " అంచ": 8529,
  "అంచ": 8530,
  " அதற்கு": 8531,
  "அதற்கு": 8532,
  " कॉलेज": 8533,
  "कॉलेज": 8534,
  " शुरुआ": 8535,
  "शुरुआ": 8536,
  " వెళ్ల": 8537,
  "వెళ్ల": 8538,
  " தங்க": 8539,
  "தங்க": 8540,
  " రెండో": 8541,
  "రెండో": 8542,
  " শুক্রবার": 8543,
  "শুক্রবার": 8544,
  " అసెంబ్లీ": 8545,
  "అసెంబ్లీ": 8546,
  " ఇక్కడ": 8547,
  "ఇక్కడ": 8548,
  " கடி": 8549,
  "கடி": 8550,
  " இழ": 8551,
  "இழ": 8552,
  " ఆట": 8553,
  "ఆట": 8554,
  " इंटर": 8555,
  "इंटर": 8556,
  " வெள்ள": 8557,
  "வெள்ள": 8558,
  "ளுக்கான": 8559,
  " চৌধুর": 8560,
  "চৌধুর": 8561,
  " धन": 8562,
  "धन": 8563,
  " ஒரே": 8564,
  "ஒரே": 8565,
  " वायरस": 8566,
  "वायरस": 8567,
  "పడ్డారు": 8568,
  " আসে": 8569,
  "আসে": 8570,
  " মাঝে": 8571,
  "মাঝে": 8572,
  " కింద": 8573,
  "కింద": 8574,
  " முதல்வர்": 8575,
  "முதல்வர்": 8576,
  " இடம்பெ": 8577,
  "இடம்பெ": 8578,
  " என்றார்": 8579,
  "என்றார்": 8580,
  "்டர்": 8581,
  " সার্": 8582,
  "সার্": 8583,
  " బాధ్య": 8584,
  "బాధ్య": 8585,
  "ोह": 8586,
  " অবশ্য": 8587,
  "অবশ্য": 8588,
  " భార్య": 8589,
  "భార్య": 8590,
  " গ্রামের": 8591,
  "গ্রামের": 8592,
  " सीएम": 8593,
  "सीएम": 8594,
  " ప్రభుత్వా": 8595,
  "ప్రభుత్వా": 8596,
  " माध्य": 8597,
  "माध्य": 8598,
  "াঙ্গ": 8599,
  "தியை": 8600,
  " आद": 8601,
  "आद": 8602,
  " जवाब": 8603,
  "जवाब": 8604,
  "ந்துள்ள": 8605,
  " राहुल": 8606,
  "राहुल": 8607,
  " निगम": 8608,
  "निगम": 8609,
  "ார்த்த": 8610,
  " குடி": 8611,
  "குடி": 8612,
  " পাব": 8613,
  "পাব": 8614,
  "टन": 8615,
  " लौ": 8616,
  "लौ": 8617,
  " রাজধান": 8618,
  "রাজধান": 8619,
  " छह": 8620,
  "छह": 8621,
  " রু": 8622,
  "রু": 8623,
  " भर्ती": 8624,
  "भर्ती": 8625,
  " வேண்டிய": 8626,
  "வேண்டிய": 8627,
  " हमारे": 8628,
  "हमारे": 8629,
  "టువంటి": 8630,
  " వివిధ": 8631,
  "వివిధ": 8632,
  "ించాలని": 8633,
  " বিভাগের": 8634,
  "বিভাগের": 8635,
  "னிய": 8636,
  " కొను": 8637,
  "కొను": 8638,
  " चिक": 8639,
  "चिक": 8640,
  " தகவல்": 8641,
  "தகவல்": 8642,
  " சரிய": 8643,
  "சரிய": 8644,
  " గౌ": 8645,
  "గౌ": 8646,
  " பார்": 8647,
  "பார்": 8648,
  "టికి": 8649,
  " বৃদ্ধ": 8650,
  "বৃদ্ধ": 8651,
  " সত্য": 8652,
  "সত্য": 8653,
  " முழுவ": 8654,
  "முழுவ": 8655,
  " சார்ப": 8656,
  "சார்ப": 8657,
  " कट": 8658,
  "कट": 8659,
  "ாடு": 8660,
  " শ্রে": 8661,
  "শ্রে": 8662,
  " மேற்ப": 8663,
  "மேற்ப": 8664,
  "க்கில்": 8665,
  " বাবা": 8666,
  "বাবা": 8667,
  "ப்பாக": 8668,
  "ెక్కి": 8669,
  "ীক": 8670,
  "োনা": 8671,
  " క్రమంలో": 8672,
  "క్రమంలో": 8673,
  "্ধ": 8674,
  " आपके": 8675,
  "आपके": 8676,
  " நிகழ்": 8677,
  "நிகழ்": 8678,
  " समिति": 8679,
  "समिति": 8680,
  "খ্য": 8681,
  " यदि": 8682,
  "यदि": 8683,
  " தொடங்க": 8684,
  "தொடங்க": 8685,
  "রত": 8686,
  " पूर्": 8687,
  " অক্টোবর": 8688,
  "অক্টোবর": 8689,
  "ন্ট": 8690,
  " இன்": 8691,
  "இன்": 8692,
  " फीसदी": 8693,
  "फीसदी": 8694,
  " அற": 8695,
  "அற": 8696,
  " थीं": 8697,
  "थीं": 8698,
  " வயது": 8699,
  "வயது": 8700,
  " అర్థ": 8701,
  "అర్థ": 8702,
  " এপ্র": 8703,
  "এপ্র": 8704,
  " পুলিশের": 8705,
  "পুলিশের": 8706,
  " सात": 8707,
  "सात": 8708,
  " చోటు": 8709,
  "చోటు": 8710,
  " ఫీ": 8711,
  " ఇద్దరు": 8712,
  "ఇద్దరు": 8713,
  " రూపొ": 8714,
  "రూపొ": 8715,
  " లీ": 8716,
  " ఆధార": 8717,
  "ఆధార": 8718,
  "ప్పుడ": 8719,
  " বিদ্যাল": 8720,
  " చెప్పు": 8721,
  "చెప్పు": 8722,
  " মারা": 8723,
  "মারা": 8724,
  " முன்னாள்": 8725,
  "முன்னாள்": 8726,
  "ஜ்": 8727,
  "ோதனை": 8728,
  "న్నాయి": 8729,
  " क्": 8730,
  " மனை": 8731,
  "மனை": 8732,
  " ప్రైవే": 8733,
  "ప్రైవే": 8734,
  " డైర": 8735,
  "డైర": 8736,
  " শেষে": 8737,
  "শেষে": 8738,
  " बीजेपी": 8739,
  "बीजेपी": 8740,
  " उसका": 8741,
  "उसका": 8742,
  " आयोजन": 8743,
  "आयोजन": 8744,
  " गुरुवार": 8745,
  "गुरुवार": 8746,
  " பதிவு": 8747,
  "பதிவு": 8748,
  "भव": 8749,
  "ాలే": 8750,
  " துவ": 8751,
  "துவ": 8752,
  " घायल": 8753,
  "घायल": 8754,
  "యంగా": 8755,
  "িনী": 8756,
  "టంతో": 8757,
  " பள்ள": 8758,
  "பள்ள": 8759,
  " इस्तेमाल": 8760,
  "इस्तेमाल": 8761,
  " చైనా": 8762,
  "చైనా": 8763,
  " చికిత్స": 8764,
  "చికిత్స": 8765,
  "ic": 8766,
  " ఉంటాయి": 8767,
  "ఉంటాయి": 8768,
  " बज": 8769,
  "बज": 8770,
  " শুভ": 8771,
  "শুভ": 8772,
  "om": 8773,
  " সাত": 8774,
  "সাত": 8775,
  " విద్యా": 8776,
  "విద్యా": 8777,
  " বাদ": 8778,
  " ২৫": 8779,
  "২৫": 8780,
  " जेल": 8781,
  "जेल": 8782,
  "ర్‌లో": 8783,
  " ప్రజా": 8784,
  "ప్రజా": 8785,
  " অনুযায়ী": 8786,
  "অনুযায়ী": 8787,
  " करवा": 8788,
  "करवा": 8789,
  "ருக்க": 8790,
  " சிக்க": 8791,
  "சிக்க": 8792,
  "ांस": 8793,
  " రామ": 8794,
  "రామ": 8795,
  " বিমান": 8796,
  "বিমান": 8797,
  "!!": 8798,
  " நடைபெற்ற": 8799,
  "நடைபெற்ற": 8800,
  " क्रिकेट": 8801,
  "क्रिकेट": 8802,
  " रिक": 8803,
  " गयी": 8804,
  "गयी": 8805,
  " সকালে": 8806,
  "সকালে": 8807,
  " চি": 8808,
  "চি": 8809,
  "ন্ত্রণাল": 8810,
  " ஒப்ப": 8811,
  "ஒப்ப": 8812,
  " ఆందోళన": 8813,
  "ఆందోళన": 8814,
  " পৌঁ": 8815,
  "পৌঁ": 8816,
  " মাদ": 8817,
  "মাদ": 8818,
  " তৃণ": 8819,
  "তৃণ": 8820,
  " கலை": 8821,
  "கலை": 8822,
  " উদ্য": 8823,
  "উদ্য": 8824,
  " তাঁদের": 8825,
  "তাঁদের": 8826,
  " ముందుకు": 8827,
  "ముందుకు": 8828,
  " অভিনে": 8829,
  "অভিনে": 8830,
  " வருகின்றனர்": 8831,
  "வருகின்றனர்": 8832,
  " পূর্ব": 8833,
  "পূর্ব": 8834,
  " వ్యవసా": 8835,
  "వ్యవసా": 8836,
  " சிறப்பு": 8837,
  "சிறப்பு": 8838,
  " ஆன": 8839,
  "ஆன": 8840,
  " জাহ": 8841,
  "জাহ": 8842,
  " సంచ": 8843,
  "సంచ": 8844,
  " शेयर": 8845,
  "शेयर": 8846,
  "ட்டின்": 8847,
  " फोन": 8848,
  "फोन": 8849,
  " भेज": 8850,
  "भेज": 8851,
  " পরিবারের": 8852,
  "পরিবারের": 8853,
  " மாவட்டம்": 8854,
  "மாவட்டம்": 8855,
  " வீட்டு": 8856,
  "வீட்டு": 8857,
  "हाय": 8858,
  " যাত্র": 8859,
  "যাত্র": 8860,
  "ானது": 8861,
  "ஷன்": 8862,
  " विदेश": 8863,
  "विदेश": 8864,
  " వాహ": 8865,
  "వాహ": 8866,
  " সকল": 8867,
  "সকল": 8868,
  " పాట": 8869,
  "పాట": 8870,
  "ంజ": 8871,
  "த்திற்க": 8872,
  "खन": 8873,
  " হলেও": 8874,
  "হলেও": 8875,
  " संचाल": 8876,
  "संचाल": 8877,
  "த்துள்ளது": 8878,
  " కాబట్టి": 8879,
  "కాబట్టి": 8880,
  " சதவ": 8881,
  "சதவ": 8882,
  " यात्रा": 8883,
  "यात्रा": 8884,
  " चुका": 8885,
  "चुका": 8886,
  "गू": 8887,
  "జిక": 8888,
  " போக": 8889,
  "போக": 8890,
  "ங்கில": 8891,
  " தலைமை": 8892,
  "தலைமை": 8893,
  " அலுவலக": 8894,
  "அலுவலக": 8895,
  " ঘণ": 8896,
  "ঘণ": 8897,
  "ডেট": 8898,
  "ించడానికి": 8899,
  " साह": 8900,
  "साह": 8901,
  " रखने": 8902,
  "रखने": 8903,
  "থমিক": 8904,
  "ించు": 8905,
  " ऐसी": 8906,
  "ऐसी": 8907,
  " सेना": 8908,
  "सेना": 8909,
  " संय": 8910,
  "संय": 8911,
  " যাওয়ার": 8912,
  "যাওয়ার": 8913,
  " জুলাই": 8914,
  "জুলাই": 8915,
  " దేవ": 8916,
  "దేవ": 8917,
  " இப்ப": 8918,
  "இப்ப": 8919,
  " फे": 8920,
  "फे": 8921,
  " படை": 8922,
  "படை": 8923,
  " বিশ্ববিদ্যালয়": 8924,
  "বিশ্ববিদ্যালয়": 8925,
  " शो": 8926,
  "शो": 8927,
  "াযোগ": 8928,
  " अहम": 8929,
  "अहम": 8930,
  " అతను": 8931,
  "అతను": 8932,
  " থাকতে": 8933,
  "থাকতে": 8934,
  " जिम": 8935,
  "जिम": 8936,
  "లింగ్": 8937,
  "మర్": 8938,
  "बाज": 8939,
  "షం": 8940,
  " सुविधा": 8941,
  "सुविधा": 8942,
  "ங்களும்": 8943,
  " ঈ": 8944,
  "ঈ": 8945,
  "ఫ్‌": 8946,
  " गल": 8947,
  "गल": 8948,
  " அப": 8949,
  "அப": 8950,
  " আলম": 8951,
  "আলম": 8952,
  " बोर्ड": 8953,
  "बोर्ड": 8954,
  "োপা": 8955,
  " అమలు": 8956,
  "అమలు": 8957,
  " ట్రా": 8958,
  "ట్రా": 8959,
  " धर्म": 8960,
  "धर्म": 8961,
  " সপ্ত": 8962,
  "সপ্ত": 8963,
  " প্রস": 8964,
  "প্রস": 8965,
  " पीछ": 8966,
  "पीछ": 8967,
  " भग": 8968,
  "षि": 8969,
  " जमा": 8970,
  "जमा": 8971,
  " సొంత": 8972,
  "సొంత": 8973,
  "ிருந்தது": 8974,
  "श्च": 8975,
  "ினும்": 8976,
  " உறுதி": 8977,
  "உறுதி": 8978,
  "భు": 8979,
  " মন্ত্রণাল": 8980,
  "মন্ত্রণাল": 8981,
  " বিত": 8982,
  "বিত": 8983,
  " রাখা": 8984,
  "রাখা": 8985,
  "య్యారు": 8986,
  " केंद": 8987,
  "केंद": 8988,
  "మ్మా": 8989,
  " কত": 8990,
  "কত": 8991,
  " మీడియాలో": 8992,
  "మీడియాలో": 8993,
  " மாக": 8994,
  " যেমন": 8995,
  "যেমন": 8996,
  "ীরে": 8997,
  "லின்": 8998,
  "వ్‌": 8999,
  "ீர்கள்": 9000,
  " பொருள": 9001,
  "பொருள": 9002,
  " शी": 9003,
  "జ్ఞ": 9004,
  " బ్ర": 9005,
  "బ్ర": 9006,
  "ीक": 9007,
  " তোম": 9008,
  "তোম": 9009,
  "बंधन": 9010,
  "িজ্ঞ": 9011,
  " রাস্ত": 9012,
  "রাস্ত": 9013,
  " लिख": 9014,
  "लिख": 9015,
  "তেন": 9016,
  " কলক": 9017,
  "কলক": 9018,
  " একে": 9019,
  "একে": 9020,
  "బడు": 9021,
  " কেন্দ্রীয়": 9022,
  "কেন্দ্রীয়": 9023,
  " కారు": 9024,
  "కారు": 9025,
  "ूरी": 9026,
  "েমন": 9027,
  "ியுள்ள": 9028,
  " থানার": 9029,
  "থানার": 9030,
  " স্বাধীন": 9031,
  "স্বাধীন": 9032,
  "ிருந்தார்": 9033,
  " ప్": 9034,
  "ধ্যায়": 9035,
  "కోవాలి": 9036,
  " ভে": 9037,
  "ভে": 9038,
  " நாட்க": 9039,
  "நாட்க": 9040,
  " జరగ": 9041,
  "జరగ": 9042,
  "ులకు": 9043,
  "स्‍": 9044,
  " ఆక": 9045,
  "ఆక": 9046,
  " প্রাথমিক": 9047,
  "প্রাথমিক": 9048,
  "ించాడు": 9049,
  " कार्यकर्": 9050,
  "कार्यकर्": 9051,
  "నాన్ని": 9052,
  " জেলার": 9053,
  "জেলার": 9054,
  " సినిమ": 9055,
  "సినిమ": 9056,
  "ुड": 9057,
  " মুহ": 9058,
  "মুহ": 9059,
  " मार्च": 9060,
  "मार्च": 9061,
  " मोह": 9062,
  "मोह": 9063,
  " சுகாதார": 9064,
  "சுகாதார": 9065,
  " பங்கு": 9066,
  "பங்கு": 9067,
  " నిర్ణయి": 9068,
  "నిర్ణయి": 9069,
  " संक्रमण": 9070,
  "संक्रमण": 9071,
  " రహ": 9072,
  "రహ": 9073,
  "র্ষণ": 9074,
  " பயண": 9075,
  "பயண": 9076,
  " மைய": 9077,
  " भाई": 9078,
  "भाई": 9079,
  " আটক": 9080,
  "আটক": 9081,
  " தாக்கு": 9082,
  "தாக்கு": 9083,
  "ंदा": 9084,
  " বয়স": 9085,
  "বয়স": 9086,
  "গুলি": 9087,
  "াজিক": 9088,
  " সম্পর্কে": 9089,
  "সম্পর্কে": 9090,
  "ంలోకి": 9091,
  " लक्ष": 9092,
  "लक्ष": 9093,
  " সফ": 9094,
  "সফ": 9095,
  " ఎన్న": 9096,
  "ఎన్న": 9097,
  " ডে": 9098,
  "ডে": 9099,
  "த்தா": 9100,
  "ியுள்ளார்": 9101,
  "कत": 9102,
  " తెలిపింది": 9103,
  "తెలిపింది": 9104,
  " ఆస్": 9105,
  "ఆస్": 9106,
  "ध्यक्ष": 9107,
  " న్యాయ": 9108,
  "న్యాయ": 9109,
  " பெண்கள்": 9110,
  "பெண்கள்": 9111,
  " केंद्रीय": 9112,
  "केंद्रीय": 9113,
  "బర్": 9114,
  " தள": 9115,
  "தள": 9116,
  " స్పష్టం": 9117,
  "స్పష్టం": 9118,
  "த்துக்": 9119,
  "లర్": 9120,
  " ভর্তি": 9121,
  "ভর্তি": 9122,
  " తగ్": 9123,
  "తగ్": 9124,
  " আমাকে": 9125,
  "আমাকে": 9126,
  " ఆత్మ": 9127,
  "ఆత్మ": 9128,
  " தடுப்ப": 9129,
  "தடுப்ப": 9130,
  "ुन": 9131,
  " పడ": 9132,
  " চলছে": 9133,
  "চলছে": 9134,
  "रिया": 9135,
  " মেড": 9136,
  "মেড": 9137,
  " পৃথ": 9138,
  "পৃথ": 9139,
  "ুস": 9140,
  " लगाने": 9141,
  "लगाने": 9142,
  " నాలుగు": 9143,
  "నాలుగు": 9144,
  "শ্ব": 9145,
  " सें": 9146,
  "सें": 9147,
  " ধার": 9148,
  " কিং": 9149,
  "কিং": 9150,
  "ంద్రా": 9151,
  " உதவ": 9152,
  "உதவ": 9153,
  " காலை": 9154,
  "காலை": 9155,
  "গুলোর": 9156,
  " देर": 9157,
  "देर": 9158,
  "ష్య": 9159,
  "ட்டிய": 9160,
  " रेलवे": 9161,
  "रेलवे": 9162,
  " सहयोग": 9163,
  "सहयोग": 9164,
  "ஷ்ண": 9165,
  " দিব": 9166,
  "দিব": 9167,
  " बच्चे": 9168,
  "बच्चे": 9169,
  "ండ్ర": 9170,
  " अति": 9171,
  "अति": 9172,
  " మద్ద": 9173,
  "మద్ద": 9174,
  "తిని": 9175,
  " రాజధా": 9176,
  "రాజధా": 9177,
  "்களை": 9178,
  "స్టర్": 9179,
  " इलाज": 9180,
  "इलाज": 9181,
  "க்குள்": 9182,
  "ார்க்க": 9183,
  " చై": 9184,
  "చై": 9185,
  " एज": 9186,
  "एज": 9187,
  " আগস্ট": 9188,
  "আগস্ট": 9189,
  " మాట్లాడ": 9190,
  "మాట్లాడ": 9191,
  " रोज": 9192,
  "रोज": 9193,
  " மேல": 9194,
  "மேல": 9195,
  "ட்சிய": 9196,
  " ஏற்க": 9197,
  "ஏற்க": 9198,
  "र्जी": 9199,
  " కొనుగో": 9200,
  "కొనుగో": 9201,
  " చేరుకు": 9202,
  "చేరుకు": 9203,
  " देखने": 9204,
  "देखने": 9205,
  "ृह": 9206,
  " தயார": 9207,
  "தயார": 9208,
  " আবেদন": 9209,
  "আবেদন": 9210,
  " అధికారు": 9211,
  "అధికారు": 9212,
  " पड़ा": 9213,
  "पड़ा": 9214,
  "నివా": 9215,
  " ट्रेन": 9216,
  "ट्रेन": 9217,
  "ীতি": 9218,
  " ప్రచారం": 9219,
  "ప్రచారం": 9220,
  "ైంది": 9221,
  " আপডেট": 9222,
  "আপডেট": 9223,
  " এপ্রিল": 9224,
  "এপ্রিল": 9225,
  " ఇన్": 9226,
  "ఇన్": 9227,
  " कीमत": 9228,
  "कीमत": 9229,
  " అభిప్రా": 9230,
  "అభిప్రా": 9231,
  " ஸ்ரீ": 9232,
  "ஸ்ரீ": 9233,
  "టానికి": 9234,
  " பார்த்து": 9235,
  "பார்த்து": 9236,
  "लब": 9237,
  "ராய": 9238,
  " देखा": 9239,
  "देखा": 9240,
  "ক্রমণ": 9241,
  " ఎందుకు": 9242,
  "ఎందుకు": 9243,
  " বেড়ে": 9244,
  "বেড়ে": 9245,
  "ర్యాదు": 9246,
  " ప్రొ": 9247,
  "ప్రొ": 9248,
  " আহমে": 9249,
  "আহমে": 9250,
  " ক্রিকেট": 9251,
  "ক্রিকেট": 9252,
  " துணை": 9253,
  "துணை": 9254,
  " అధ్యక్షుడు": 9255,
  "అధ్యక్షుడు": 9256,
  " বিস্ত": 9257,
  "বিস্ত": 9258,
  " আন্দোল": 9259,
  "আন্দোল": 9260,
  " கண்ண": 9261,
  "கண்ண": 9262,
  " विवाद": 9263,
  "विवाद": 9264,
  " जन्": 9265,
  "जन्": 9266,
  "त्ता": 9267,
  " ఆంధ్రప్రదేశ": 9268,
  "ఆంధ్రప్రదేశ": 9269,
  " হক": 9270,
  "হক": 9271,
  " मेड": 9272,
  "मेड": 9273,
  " করলে": 9274,
  "করলে": 9275,
  " পারবেন": 9276,
  "পারবেন": 9277,
  " रु": 9278,
  "रु": 9279,
  "ரல்": 9280,
  " ప్రకటన": 9281,
  "ప్రకటన": 9282,
  "it": 9283,
  "తను": 9284,
  " अद": 9285,
  "अद": 9286,
  " सर्व": 9287,
  "सर्व": 9288,
  " বলতে": 9289,
  "বলতে": 9290,
  "ভাইরাস": 9291,
  " டிர": 9292,
  "டிர": 9293,
  "ம்பர்": 9294,
  " அடிப்பட": 9295,
  "அடிப்பட": 9296,
  " পরিচালক": 9297,
  "পরিচালক": 9298,
  "புரம்": 9299,
  " পালন": 9300,
  "পালন": 9301,
  " షూటింగ్": 9302,
  "షూటింగ్": 9303,
  "రమైన": 9304,
  " విమా": 9305,
  "విమా": 9306,
  " सप्": 9307,
  "सप्": 9308,
  " कार्यालय": 9309,
  "कार्यालय": 9310,
  " তাঁকে": 9311,
  "তাঁকে": 9312,
  " वापस": 9313,
  "वापस": 9314,
  "ందన్నారు": 9315,
  "্রম": 9316,
  " హీరోయిన్": 9317,
  "హీరోయిన్": 9318,
  " देखते": 9319,
  "देखते": 9320,
  "ুটি": 9321,
  "ப்பின்": 9322,
  "রুল": 9323,
  " దగ్గర": 9324,
  "దగ్గర": 9325,
  "्रम": 9326,
  " বাড়িতে": 9327,
  "বাড়িতে": 9328,
  "హార": 9329,
  " రిలీ": 9330,
  "రిలీ": 9331,
  " चिकित": 9332,
  "चिकित": 9333,
  " பயிற்ச": 9334,
  "பயிற்ச": 9335,
  " ब्ल": 9336,
  "ब्ल": 9337,
  " मुद्": 9338,
  "मुद्": 9339,
  " విధా": 9340,
  "విధా": 9341,
  "ల్లా": 9342,
  " एक्स": 9343,
  "एक्स": 9344,
  " পোস্ট": 9345,
  "পোস্ট": 9346,
  " সুপার": 9347,
  "সুপার": 9348,
  " ব্যবস": 9349,
  "ব্যবস": 9350,
  "হে": 9351,
  " নাই": 9352,
  "নাই": 9353,
  "गार": 9354,
  " সড়": 9355,
  "সড়": 9356,
  "मार्ट": 9357,
  " জনের": 9358,
  " आव": 9359,
  "आव": 9360,
  " ফেব্রুয়ারি": 9361,
  "ফেব্রুয়ারি": 9362,
  " ज़": 9363,
  "ज़": 9364,
  " অ্যা": 9365,
  "অ্যা": 9366,
  " প্রাণ": 9367,
  "প্রাণ": 9368,
  "दम": 9369,
  "ிகளின்": 9370,
  "థమిక": 9371,
  "డిని": 9372,
  "ణీ": 9373,
  " বন্দ": 9374,
  "বন্দ": 9375,
  "எல்": 9376,
  "एच": 9377,
  " డె": 9378,
  " হাসান": 9379,
  "হাসান": 9380,
  " குடிய": 9381,
  "குடிய": 9382,
  " నియోజ": 9383,
  "నియోజ": 9384,
  " వివరి": 9385,
  "వివరి": 9386,
  " সংশ": 9387,
  "সংশ": 9388,
  " सित": 9389,
  "सित": 9390,
  "ন্তব্য": 9391,
  " ఎవరి": 9392,
  "ఎవరి": 9393,
  " নেতৃত": 9394,
  "নেতৃত": 9395,
  " এলাকার": 9396,
  "এলাকার": 9397,
  " அடை": 9398,
  "அடை": 9399,
  " तस्वीर": 9400,
  "तस्वीर": 9401,
  " বসে": 9402,
  "বসে": 9403,
  " అడుగు": 9404,
  "అడుగు": 9405,
  " திரைப்பட": 9406,
  "திரைப்பட": 9407,
  " तीस": 9408,
  "तीस": 9409,
  " பரிச": 9410,
  "பரிச": 9411,
  "किंग": 9412,
  " ఫిర్యాదు": 9413,
  "ఫిర్యాదు": 9414,
  " మాన": 9415,
  "మాన": 9416,
  "னையில்": 9417,
  " వాటిని": 9418,
  "వాటిని": 9419,
  " யார": 9420,
  "யார": 9421,
  " பிரப": 9422,
  "பிரப": 9423,
  "ங்கா": 9424,
  " இயக்கு": 9425,
  "இயக்கு": 9426,
  "ట్టారు": 9427,
  " ప్రవేశ": 9428,
  "ప్రవేశ": 9429,
  " కోల్": 9430,
  "కోల్": 9431,
  " మృతి": 9432,
  "మృతి": 9433,
  " সদর": 9434,
  "সদর": 9435,
  " এগিয়ে": 9436,
  "এগিয়ে": 9437,
  "ैंप": 9438,
  " তারপর": 9439,
  "তারপর": 9440,
  " பக": 9441,
  "பக": 9442,
  " ডিজ": 9443,
  "ডিজ": 9444,
  " पंजा": 9445,
  "पंजा": 9446,
  "ল্যান্ড": 9447,
  "తమైన": 9448,
  "ामा": 9449,
  "త్యా": 9450,
  " অভিয": 9451,
  "অভিয": 9452,
  " చివరి": 9453,
  "చివరి": 9454,
  "ন্দ্র": 9455,
  " పెట్టు": 9456,
  "పెట్టు": 9457,
  "ரிடம்": 9458,
  " பல்க": 9459,
  "பல்க": 9460,
  " అనుకు": 9461,
  "అనుకు": 9462,
  " செய்யும்": 9463,
  "செய்யும்": 9464,
  " প্রতিনি": 9465,
  "প্রতিনি": 9466,
  " আলী": 9467,
  "আলী": 9468,
  "ర్ర": 9469,
  " একটু": 9470,
  "একটু": 9471,
  " தீவிர": 9472,
  "தீவிர": 9473,
  " ভাগ": 9474,
  "ভাগ": 9475,
  " కష్ట": 9476,
  "కష్ట": 9477,
  "धर": 9478,
  " জল": 9479,
  "জল": 9480,
  "ండ్రి": 9481,
  " সমাজ": 9482,
  "সমাজ": 9483,
  " पीएम": 9484,
  "पीएम": 9485,
  " सीमा": 9486,
  "सीमा": 9487,
  " সুর": 9488,
  "সুর": 9489,
  " দ্রুত": 9490,
  "দ্রুত": 9491,
  "னில்": 9492,
  " மாதி": 9493,
  "மாதி": 9494,
  " कौ": 9495,
  "कौ": 9496,
  " ஆய்வு": 9497,
  "ஆய்வு": 9498,
  "ड़ों": 9499,
  " திக": 9500,
  "শ্চিম": 9501,
  " வகை": 9502,
  "வகை": 9503,
  " இங்கு": 9504,
  "இங்கு": 9505,
  " నియోజక": 9506,
  "నియోజక": 9507,
  " पाए": 9508,
  "पाए": 9509,
  " जाएंगे": 9510,
  "जाएंगे": 9511,
  "फ्": 9512,
  " పెరి": 9513,
  "పెరి": 9514,
  " महारा": 9515,
  "महारा": 9516,
  " జిల్లాలో": 9517,
  "జిల్లాలో": 9518,
  "ట్లుగా": 9519,
  " চিকিৎস": 9520,
  "চিকিৎস": 9521,
  " শী": 9522,
  "শী": 9523,
  "బ్‌": 9524,
  "बाजी": 9525,
  " নজ": 9526,
  "নজ": 9527,
  " বিশ্বাস": 9528,
  "বিশ্বাস": 9529,
  " निकल": 9530,
  "निकल": 9531,
  "क्षक": 9532,
  " हमें": 9533,
  "हमें": 9534,
  " নানা": 9535,
  "নানা": 9536,
  "यों": 9537,
  "িরা": 9538,
  " কাছ": 9539,
  "কাছ": 9540,
  " தொற்று": 9541,
  "தொற்று": 9542,
  " ..": 9543,
  " अमेरिका": 9544,
  "अमेरिका": 9545,
  " సిబ్బంది": 9546,
  "సిబ్బంది": 9547,
  " అయినా": 9548,
  "అయినా": 9549,
  " చేయడానికి": 9550,
  "చేయడానికి": 9551,
  "மல்": 9552,
  "மையை": 9553,
  "তু": 9554,
  " तरी": 9555,
  "तरी": 9556,
  " నిల": 9557,
  "నిల": 9558,
  " நிகழ்ச்ச": 9559,
  "நிகழ்ச்ச": 9560,
  "க்குப்": 9561,
  "रों": 9562,
  " தொடர்பாக": 9563,
  "தொடர்பாக": 9564,
  "जनों": 9565,
  "जिट": 9566,
  "க்கொண்ட": 9567,
  " ఆఫ్": 9568,
  "ఆఫ్": 9569,
  " அவரை": 9570,
  "அவரை": 9571,
  " பக்க": 9572,
  "பக்க": 9573,
  " दुर्": 9574,
  "दुर्": 9575,
  "ும்போது": 9576,
  " যাওয়া": 9577,
  "যাওয়া": 9578,
  "క్త": 9579,
  " ప్రాథమిక": 9580,
  "ప్రాథమిక": 9581,
  " वाहन": 9582,
  "वाहन": 9583,
  "ूब": 9584,
  "ড়াই": 9585,
  "য়োজ": 9586,
  "ுக": 9587,
  " बदल": 9588,
  "बदल": 9589,
  "टक": 9590,
  " यून": 9591,
  "यून": 9592,
  " जून": 9593,
  "जून": 9594,
  "st": 9595,
  "ரிக்கை": 9596,
  "ালা": 9597,
  " বৈঠ": 9598,
  "বৈঠ": 9599,
  " பேர": 9600,
  "பேர": 9601,
  " అద్": 9602,
  "అద్": 9603,
  " বর্তমানে": 9604,
  "বর্তমানে": 9605,
  " যোগাযোগ": 9606,
  "যোগাযোগ": 9607,
  " फोट": 9608,
  "फोट": 9609,
  " শত": 9610,
  "শত": 9611,
  " মার্কিন": 9612,
  "মার্কিন": 9613,
  " सहाय": 9614,
  "सहाय": 9615,
  "'।": 9616,
  "ூட": 9617,
  " बल्कि": 9618,
  "बल्कि": 9619,
  " सम्मान": 9620,
  "सम्मान": 9621,
  " கிழ": 9622,
  "கிழ": 9623,
  " জানিয়েছে": 9624,
  "জানিয়েছে": 9625,
  "श्मीर": 9626,
  " বাইরে": 9627,
  "বাইরে": 9628,
  "గిలి": 9629,
  " ব্যক্ত": 9630,
  "ব্যক্ত": 9631,
  "িকল্প": 9632,
  " মোহাম্মদ": 9633,
  "মোহাম্মদ": 9634,
  "পত্র": 9635,
  " అందుబాటు": 9636,
  "అందుబాటు": 9637,
  " বিল": 9638,
  "বিল": 9639,
  " अप्र": 9640,
  "अप्र": 9641,
  "గాల": 9642,
  " पति": 9643,
  " অপর": 9644,
  "অপর": 9645,
  " అత్యంత": 9646,
  "అత్యంత": 9647,
  " পু": 9648,
  "পু": 9649,
  " ఏం": 9650,
  "ఏం": 9651,
  " நகர": 9652,
  "நகர": 9653,
  "चारियों": 9654,
  "িটির": 9655,
  " వీరి": 9656,
  "వీరి": 9657,
  " కార్యాల": 9658,
  "కార్యాల": 9659,
  " அர": 9660,
  "அர": 9661,
  "మం": 9662,
  " तय": 9663,
  "तय": 9664,
  "ोस": 9665,
  "ग्री": 9666,
  "काब": 9667,
  " আহত": 9668,
  "আহত": 9669,
  " पीड़": 9670,
  "पीड़": 9671,
  " வங்க": 9672,
  "வங்க": 9673,
  " আব্দ": 9674,
  "আব্দ": 9675,
  " వీటి": 9676,
  "వీటి": 9677,
  " அடைய": 9678,
  "அடைய": 9679,
  " एक्ट": 9680,
  "एक्ट": 9681,
  " అందులో": 9682,
  "అందులో": 9683,
  " சுற்று": 9684,
  "சுற்று": 9685,
  " விரை": 9686,
  "விரை": 9687,
  "ப்பத": 9688,
  " ఉదయం": 9689,
  "ఉదయం": 9690,
  "िकी": 9691,
  " দিনের": 9692,
  "দিনের": 9693,
  "ानीय": 9694,
  " नरेंद्र": 9695,
  "नरेंद्र": 9696,
  " விழு": 9697,
  "விழு": 9698,
  " চাক": 9699,
  "চাক": 9700,
  " அவ்": 9701,
  "அவ்": 9702,
  "्ले": 9703,
  " होकर": 9704,
  "होकर": 9705,
  " तला": 9706,
  "तला": 9707,
  " తెలుసు": 9708,
  "తెలుసు": 9709,
  "ल्स": 9710,
  "నేందుకు": 9711,
  " করোনাভাইরাস": 9712,
  "করোনাভাইরাস": 9713,
  " అప్ప": 9714,
  "అప్ప": 9715,
  " கெ": 9716,
  "கெ": 9717,
  " দাম": 9718,
  "দাম": 9719,
  "िनि": 9720,
  "చర్": 9721,
  " মুসল": 9722,
  "মুসল": 9723,
  "మైంది": 9724,
  " லட்சம்": 9725,
  "லட்சம்": 9726,
  " పైగా": 9727,
  "పైగా": 9728,
  " कमी": 9729,
  "कमी": 9730,
  " हास": 9731,
  "हास": 9732,
  " অঞ্চ": 9733,
  "অঞ্চ": 9734,
  " ম্যাচে": 9735,
  "ম্যাচে": 9736,
  "ॉप": 9737,
  " సోమ": 9738,
  "సోమ": 9739,
  "ंभ": 9740,
  "தாவது": 9741,
  " విషయాన్ని": 9742,
  "విషయాన్ని": 9743,
  " கொள்க": 9744,
  "கொள்க": 9745,
  "क्षित": 9746,
  "்தி": 9747,
  "ాలంటే": 9748,
  "్యాణ్": 9749,
  " పట్టి": 9750,
  "పట్టి": 9751,
  " वृ": 9752,
  "वृ": 9753,
  "ణు": 9754,
  " ஊராட்சி": 9755,
  "ஊராட்சி": 9756,
  "িয়ন": 9757,
  "వాడ": 9758,
  " தடை": 9759,
  "தடை": 9760,
  " మ్యాచ్": 9761,
  "మ్యాచ్": 9762,
  "్యు": 9763,
  "డంలో": 9764,
  " उत्पा": 9765,
  "उत्पा": 9766,
  " চলচ্চিত্র": 9767,
  "চলচ্চিত্র": 9768,
  " పోరా": 9769,
  "పోరా": 9770,
  " ప్రజల": 9771,
  "ప్రజల": 9772,
  " मरीजों": 9773,
  "मरीजों": 9774,
  " রাজনৈতিক": 9775,
  "রাজনৈতিক": 9776,
  "க்கள": 9777,
  " ஜன": 9778,
  "ஜன": 9779,
  " ड्र": 9780,
  "ड्र": 9781,
  " कर्": 9782,
  " अंत": 9783,
  "अंत": 9784,
  " మోదీ": 9785,
  "మోదీ": 9786,
  " হিসাবে": 9787,
  "হিসাবে": 9788,
  " పంప": 9789,
  "పంప": 9790,
  " చెప్పిన": 9791,
  "చెప్పిన": 9792,
  "द्योग": 9793,
  " অবস্থায়": 9794,
  "অবস্থায়": 9795,
  "িখ": 9796,
  "மிட": 9797,
  " வண": 9798,
  "வண": 9799,
  "ెట్‌": 9800,
  " देव": 9801,
  "देव": 9802,
  "ांड": 9803,
  " ধারণ": 9804,
  " अस": 9805,
  "अस": 9806,
  " గురు": 9807,
  "గురు": 9808,
  " মিনিটে": 9809,
  "মিনিটে": 9810,
  " మార్పు": 9811,
  "మార్పు": 9812,
  " ప్రాజెక్టు": 9813,
  "ప్రాజెక్టు": 9814,
  " বদ": 9815,
  "বদ": 9816,
  " கல்லூ": 9817,
  "கல்லூ": 9818,
  " মুক্তিয": 9819,
  "মুক্তিয": 9820,
  " পক্ষ": 9821,
  " নিরাপত্ত": 9822,
  "নিরাপত্ত": 9823,
  " ஜனாதிபதி": 9824,
  "ஜனாதிபதி": 9825,
  " प्रभारी": 9826,
  "प्रभारी": 9827,
  "ায": 9828,
  " చీ": 9829,
  "చీ": 9830,
  " प्रकार": 9831,
  "प्रकार": 9832,
  "కృష్ణ": 9833,
  " মানব": 9834,
  "মানব": 9835,
  "ज्ञान": 9836,
  " ఆసుపత్రి": 9837,
  "ఆసుపత్రి": 9838,
  " यही": 9839,
  "यही": 9840,
  " आठ": 9841,
  "आठ": 9842,
  " కొనసాగు": 9843,
  "కొనసాగు": 9844,
  " आतंक": 9845,
  "आतंक": 9846,
  "రావ": 9847,
  "ன்றி": 9848,
  " जमीन": 9849,
  "जमीन": 9850,
  " சார்": 9851,
  "ంధీ": 9852,
  "த்திலும்": 9853,
  " தீர்": 9854,
  "தீர்": 9855,
  "రించారు": 9856,
  " केस": 9857,
  "केस": 9858,
  " भारी": 9859,
  "भारी": 9860,
  " తల": 9861,
  "తల": 9862,
  " జారీ": 9863,
  "జారీ": 9864,
  "बाइल": 9865,
  "तिम": 9866,
  " ফোন": 9867,
  "ফোন": 9868,
  " সম্পর্ক": 9869,
  "সম্পর্ক": 9870,
  " অনুষ্ঠানে": 9871,
  "অনুষ্ঠানে": 9872,
  " மை": 9873,
  " తప్పు": 9874,
  "తప్పు": 9875,
  "िशा": 9876,
  " శ్రీనివా": 9877,
  "శ్రీనివా": 9878,
  " स्थानीय": 9879,
  "स्थानीय": 9880,
  "াছ": 9881,
  " H": 9882,
  "H": 9883,
  "ாக்": 9884,
  "র্ড": 9885,
  " வாக்கு": 9886,
  "வாக்கு": 9887,
  " நேரம்": 9888,
  "நேரம்": 9889,
  " डॉक्टर": 9890,
  "डॉक्टर": 9891,
  "হের": 9892,
  " இள": 9893,
  "இள": 9894,
  " మారింది": 9895,
  "మారింది": 9896,
  " చేరి": 9897,
  "చేరి": 9898,
  " पहुंची": 9899,
  "पहुंची": 9900,
  "खिल": 9901,
  " আলোচনা": 9902,
  "আলোচনা": 9903,
  "మాలు": 9904,
  "ப்ட": 9905,
  " தொடர்பு": 9906,
  "தொடர்பு": 9907,
  " कर्मचारियों": 9908,
  "कर्मचारियों": 9909,
  " மாவட்டத்தில்": 9910,
  "மாவட்டத்தில்": 9911,
  " पीछे": 9912,
  "पीछे": 9913,
  " తీర్": 9914,
  "తీర్": 9915,
  "ব্দ": 9916,
  "শা": 9917,
  " बल": 9918,
  " নির্মাণ": 9919,
  "নির্মাণ": 9920,
  " লাভ": 9921,
  "লাভ": 9922,
  " బొ": 9923,
  "బొ": 9924,
  "িয়ায়": 9925,
  "ெய்": 9926,
  " बचा": 9927,
  "बचा": 9928,
  " ফ্র": 9929,
  "ফ্র": 9930,
  "ெக": 9931,
  "গু": 9932,
  " சாத": 9933,
  "சாத": 9934,
  "ठी": 9935,
  "ైల్": 9936,
  " கூறினார்": 9937,
  "கூறினார்": 9938,
  "க்கொள்ள": 9939,
  " महत्व": 9940,
  "महत्व": 9941,
  "রাধ": 9942,
  "ந்தார்": 9943,
  " సృష్టి": 9944,
  "సృష్టి": 9945,
  "्ता": 9946,
  " சிறந்த": 9947,
  "சிறந்த": 9948,
  " यूपी": 9949,
  "यूपी": 9950,
  " পরিবেশ": 9951,
  "পরিবেশ": 9952,
  " शुरुआत": 9953,
  "शुरुआत": 9954,
  "वीं": 9955,
  " విజయం": 9956,
  "విజయం": 9957,
  " গ্রেপ্ত": 9958,
  "গ্রেপ্ত": 9959,
  " నియోజకవర్": 9960,
  "నియోజకవర్": 9961,
  " माध्यम": 9962,
  "माध्यम": 9963,
  " জে": 9964,
  "লেট": 9965,
  " వివ": 9966,
  "వివ": 9967,
  " దర్శకుడు": 9968,
  "దర్శకుడు": 9969,
  " அளிக்க": 9970,
  "அளிக்க": 9971,
  " মৃত্য": 9972,
  "মৃত্য": 9973,
  " রাজ্য": 9974,
  "রাজ্য": 9975,
  " నిర్వ": 9976,
  "నిర్వ": 9977,
  "োয়ার": 9978,
  " కొందరు": 9979,
  "కొందరు": 9980,
  "ல்களை": 9981,
  " తెరక": 9982,
  "తెరక": 9983,
  " हासिल": 9984,
  "हासिल": 9985,
  " కొనుగోలు": 9986,
  "కొనుగోలు": 9987,
  " खरीद": 9988,
  "खरीद": 9989,
  " వ్యవస్థ": 9990,
  "వ్యవస్థ": 9991,
  " சேர்த்து": 9992,
  "சேர்த்து": 9993,
  " పరిశీ": 9994,
  "పరిశీ": 9995,
  " வடிவ": 9996,
  "வடிவ": 9997,
  "ంట్లో": 9998,
  " আয়": 9999,
  "আয়": 10000,
  "த்தும்": 10001,
  " இந்தப்": 10002,
  "இந்தப்": 10003,
  " என்றால்": 10004,
  "என்றால்": 10005,
  "ूक": 10006,
  " உயிரி": 10007,
  "உயிரி": 10008,
  "வதை": 10009,
  " ఎందు": 10010,
  "ఎందు": 10011,
  " ప్రో": 10012,
  "ప్రో": 10013,
  " వారిని": 10014,
  "వారిని": 10015,
  "वुड": 10016,
  " अवसर": 10017,
  "अवसर": 10018,
  " புல": 10019,
  "புல": 10020,
  "ంటుంది": 10021,
  " बेहतर": 10022,
  "बेहतर": 10023,
  "ুশ": 10024,
  " ২২": 10025,
  "২২": 10026,
  " తాము": 10027,
  "తాము": 10028,
  " డిమాండ్": 10029,
  "డిమాండ్": 10030,
  " அதிகாரிகள்": 10031,
  "அதிகாரிகள்": 10032,
  " অনুম": 10033,
  "অনুম": 10034,
  "्मे": 10035,
  " ज्": 10036,
  " షే": 10037,
  "షే": 10038,
  "நாடு": 10039,
  " আপন": 10040,
  "আপন": 10041,
  " மக்கள": 10042,
  "மக்கள": 10043,
  "मता": 10044,
  "சம்": 10045,
  " நிறுவனம்": 10046,
  "நிறுவனம்": 10047,
  "மானது": 10048,
  " साफ": 10049,
  "साफ": 10050,
  " ஆரம்பி": 10051,
  "ஆரம்பி": 10052,
  " கீழ்": 10053,
  "கீழ்": 10054,
  " అసలు": 10055,
  "అసలు": 10056,
  " సినిమాలు": 10057,
  "సినిమాలు": 10058,
  " ফেস": 10059,
  "ফেস": 10060,
  " அருகே": 10061,
  "அருகே": 10062,
  " இயக்க": 10063,
  "இயக்க": 10064,
  " నిర": 10065,
  "నిర": 10066,
  " రావ": 10067,
  " ముంబ": 10068,
  "ముంబ": 10069,
  "चर": 10070,
  " வேண்டு": 10071,
  "வேண்டு": 10072,
  " ব্যাপারে": 10073,
  "ব্যাপারে": 10074,
  "ியும்": 10075,
  " জানতে": 10076,
  "জানতে": 10077,
  "வர்களின்": 10078,
  " తిరు": 10079,
  "తిరు": 10080,
  " घोषणा": 10081,
  "घोषणा": 10082,
  " न्याया": 10083,
  "न्याया": 10084,
  "దాలు": 10085,
  " विकेट": 10086,
  "विकेट": 10087,
  " कानून": 10088,
  "कानून": 10089,
  " হে": 10090,
  " கிடைக்க": 10091,
  "கிடைக்க": 10092,
  " जागर": 10093,
  "जागर": 10094,
  " আহমেদ": 10095,
  "আহমেদ": 10096,
  " আরেক": 10097,
  "আরেক": 10098,
  "పోయారు": 10099,
  " உற்ப": 10100,
  "உற்ப": 10101,
  " அவருக்கு": 10102,
  "அவருக்கு": 10103,
  " D": 10104,
  "D": 10105,
  "ছিলাম": 10106,
  " उच्च": 10107,
  "उच्च": 10108,
  " మోడీ": 10109,
  "మోడీ": 10110,
  " தங்கள்": 10111,
  "தங்கள்": 10112,
  "டியோ": 10113,
  " முழுவதும்": 10114,
  "முழுவதும்": 10115,
  " नव": 10116,
  "नव": 10117,
  " সপ্তাহ": 10118,
  "সপ্তাহ": 10119,
  " ఐదు": 10120,
  "ఐదు": 10121,
  " ప్రయత్ని": 10122,
  "ప్రయత్ని": 10123,
  "क्रिया": 10124,
  " मूल": 10125,
  "मूल": 10126,
  " நீர்": 10127,
  "நீர்": 10128,
  " ఉత్పత్తి": 10129,
  "ఉత్పత్తి": 10130,
  " एयर": 10131,
  "एयर": 10132,
  " జీవిత": 10133,
  "జీవిత": 10134,
  " চৌধুরী": 10135,
  "চৌধুরী": 10136,
  " மேற்கொள்ள": 10137,
  "மேற்கொள்ள": 10138,
  " ఎంప": 10139,
  "ఎంప": 10140,
  " ২০১৯": 10141,
  "২০১৯": 10142,
  " दिल": 10143,
  "दिल": 10144,
  "డమే": 10145,
  "ட்டர்": 10146,
  " மாகாண": 10147,
  "மாகாண": 10148,
  " आवेदन": 10149,
  "आवेदन": 10150,
  " অধ্যাপ": 10151,
  "অধ্যাপ": 10152,
  " সামাজিক": 10153,
  "সামাজিক": 10154,
  " కోట్లు": 10155,
  "కోట్లు": 10156,
  "ారాయ": 10157,
  "న్స్‌": 10158,
  " చేయి": 10159,
  "చేయి": 10160,
  " हमला": 10161,
  "हमला": 10162,
  "ியார்": 10163,
  " थाने": 10164,
  "थाने": 10165,
  " சரி": 10166,
  "சரி": 10167,
  "வோ": 10168,
  "స్టి": 10169,
  "భవ": 10170,
  " মন্তব্য": 10171,
  "মন্তব্য": 10172,
  " अंतिम": 10173,
  "अंतिम": 10174,
  " জনপ্র": 10175,
  "জনপ্র": 10176,
  " ইউনিয়নের": 10177,
  "ইউনিয়নের": 10178,
  " ఏమి": 10179,
  "ఏమి": 10180,
  "ংগ": 10181,
  " বিজ": 10182,
  "বিজ": 10183,
  " भु": 10184,
  "भु": 10185,
  "வராக": 10186,
  " मिश": 10187,
  "मिश": 10188,
  " चाहते": 10189,
  "चाहते": 10190,
  " మహా": 10191,
  "మహా": 10192,
  "ంటో": 10193,
  "श्यक": 10194,
  " नेताओं": 10195,
  "नेताओं": 10196,
  " రాత్రి": 10197,
  "రాత్రి": 10198,
  " विद्य": 10199,
  "विद्य": 10200,
  " இடை": 10201,
  "இடை": 10202,
  "ெடுக்க": 10203,
  " লিখে": 10204,
  "লিখে": 10205,
  " நிதி": 10206,
  "நிதி": 10207,
  " మరోసారి": 10208,
  "మరోసారి": 10209,
  " పెట్టి": 10210,
  "పెట్టి": 10211,
  "াওয়": 10212,
  " मार्ग": 10213,
  "मार्ग": 10214,
  " तम": 10215,
  " मिन": 10216,
  "मिन": 10217,
  " शराब": 10218,
  "शराब": 10219,
  " পায়": 10220,
  "পায়": 10221,
  " ஆசிரிய": 10222,
  "ஆசிரிய": 10223,
  " ఎంపిక": 10224,
  "ఎంపిక": 10225,
  " చెబుతున్నారు": 10226,
  "చెబుతున్నారు": 10227,
  " ভো": 10228,
  "ভো": 10229,
  " गौर": 10230,
  "गौर": 10231,
  " ஆண்டில்": 10232,
  "ஆண்டில்": 10233,
  " বাস্ত": 10234,
  "বাস্ত": 10235,
  " मोबाइल": 10236,
  "मोबाइल": 10237,
  " G": 10238,
  "G": 10239,
  " চিকিৎসা": 10240,
  "চিকিৎসা": 10241,
  " எஸ்": 10242,
  " খেলা": 10243,
  "খেলা": 10244,
  " पंजाब": 10245,
  "पंजाब": 10246,
  " పూర్తిగా": 10247,
  "పూర్తిగా": 10248,
  "ப்படுகின்றன": 10249,
  "ত্রে": 10250,
  "ల్డ్": 10251,
  " पेट": 10252,
  "पेट": 10253,
  " छात्रों": 10254,
  "छात्रों": 10255,
  " తీసుకున్న": 10256,
  "తీసుకున్న": 10257,
  " வாகன": 10258,
  "வாகன": 10259,
  " நேரத்தில்": 10260,
  "நேரத்தில்": 10261,
  "প্রাপ্ত": 10262,
  " கேட்டு": 10263,
  "கேட்டு": 10264,
  " పొంద": 10265,
  "పొంద": 10266,
  " கிட": 10267,
  "கிட": 10268,
  " పక్క": 10269,
  "పక్క": 10270,
  " ডা": 10271,
  "ডা": 10272,
  " बनी": 10273,
  "बनी": 10274,
  " కాంగ్రె": 10275,
  "కాంగ్రె": 10276,
  "र्या": 10277,
  "కపోతే": 10278,
  " మెగా": 10279,
  "మెగా": 10280,
  " সহযোগ": 10281,
  "সহযোগ": 10282,
  "பத்தில்": 10283,
  " প্রচার": 10284,
  "প্রচার": 10285,
  " మర": 10286,
  "మర": 10287,
  " డాక్టర్": 10288,
  "డాక్టర్": 10289,
  " চাপ": 10290,
  "চাপ": 10291,
  " লিখ": 10292,
  "লিখ": 10293,
  " உயிரிழ": 10294,
  "உயிரிழ": 10295,
  "ிருஷ்ண": 10296,
  " రూపాయ": 10297,
  "రూపాయ": 10298,
  "ருக்கும்": 10299,
  " प्रक्रिया": 10300,
  "प्रक्रिया": 10301,
  " विचार": 10302,
  "विचार": 10303,
  " लो": 10304,
  " తయారు": 10305,
  "తయారు": 10306,
  " నూ": 10307,
  "াবাহ": 10308,
  "ிருக்கிறார்": 10309,
  "পতি": 10310,
  "న్సి": 10311,
  " సైతం": 10312,
  "సైతం": 10313,
  " కొద్ది": 10314,
  "కొద్ది": 10315,
  " मंत्रालय": 10316,
  "मंत्रालय": 10317,
  "ிலோ": 10318,
  "టమి": 10319,
  "्यो": 10320,
  " குறிப்பிட்ட": 10321,
  "குறிப்பிட்ட": 10322,
  "மைப்பு": 10323,
  " যত": 10324,
  "যত": 10325,
  " ठीक": 10326,
  "ठीक": 10327,
  " बाइक": 10328,
  "बाइक": 10329,
  " తొల": 10330,
  "తొల": 10331,
  " देवी": 10332,
  "देवी": 10333,
  " মস": 10334,
  "মস": 10335,
  " ঘণ্ট": 10336,
  "ঘণ্ট": 10337,
  " காங்கிரஸ்": 10338,
  "காங்கிரஸ்": 10339,
  " এখনও": 10340,
  "এখনও": 10341,
  "्प": 10342,
  " ముగి": 10343,
  "ముగి": 10344,
  "धिकारी": 10345,
  " రాజధాని": 10346,
  "రాజధాని": 10347,
  "க்கெ": 10348,
  " অনলাই": 10349,
  "অনলাই": 10350,
  " পরিকল্প": 10351,
  "পরিকল্প": 10352,
  " சேவை": 10353,
  "சேவை": 10354,
  "मति": 10355,
  " রিপ": 10356,
  "রিপ": 10357,
  "ோதும்": 10358,
  "வின": 10359,
  "ைகள்": 10360,
  " যেখানে": 10361,
  "যেখানে": 10362,
  " మద్దతు": 10363,
  "మద్దతు": 10364,
  "াৎ": 10365,
  "তন": 10366,
  " पहुंचा": 10367,
  "पहुंचा": 10368,
  "িক্ত": 10369,
  " মেডিক": 10370,
  "মেডিক": 10371,
  " रंग": 10372,
  "रंग": 10373,
  " ফেলে": 10374,
  "ফেলে": 10375,
  " గంటల": 10376,
  "గంటల": 10377,
  "ంటా": 10378,
  " গল্প": 10379,
  "গল্প": 10380,
  " পুরো": 10381,
  "পুরো": 10382,
  " இளை": 10383,
  "இளை": 10384,
  " లేని": 10385,
  "లేని": 10386,
  " संबंधित": 10387,
  "संबंधित": 10388,
  "టక": 10389,
  " फाइ": 10390,
  "फाइ": 10391,
  "యాల": 10392,
  "শীল": 10393,
  " ஆலோ": 10394,
  "ஆலோ": 10395,
  " ரோ": 10396,
  " माना": 10397,
  "माना": 10398,
  " கால்": 10399,
  "கால்": 10400,
  "दीप": 10401,
  " ఆఫీ": 10402,
  "ఆఫీ": 10403,
  " পড়া": 10404,
  "পড়া": 10405,
  "టర్ల": 10406,
  " রবি": 10407,
  "রবি": 10408,
  "क्ता": 10409,
  "्रोल": 10410,
  " मुकाब": 10411,
  "मुकाब": 10412,
  " வருட": 10413,
  "வருட": 10414,
  " রাখতে": 10415,
  "রাখতে": 10416,
  " அமைப்பு": 10417,
  "அமைப்பு": 10418,
  " প্রার্থী": 10419,
  "প্রার্থী": 10420,
  " సంబంధించి": 10421,
  "సంబంధించి": 10422,
  "ின்ன": 10423,
  " শুন": 10424,
  "শুন": 10425,
  " প্রকল্প": 10426,
  "প্রকল্প": 10427,
  " கூறிய": 10428,
  "கூறிய": 10429,
  " निकाल": 10430,
  "निकाल": 10431,
  "गंज": 10432,
  "నాడు": 10433,
  " मश": 10434,
  "मश": 10435,
  " ফার": 10436,
  "ফার": 10437,
  "ருவ": 10438,
  "िकों": 10439,
  " পানি": 10440,
  "পানি": 10441,
  " అంతర్": 10442,
  "అంతర్": 10443,
  "नेट": 10444,
  "ार्म": 10445,
  "পুরের": 10446,
  " आश": 10447,
  "आश": 10448,
  " নিয়োগ": 10449,
  "নিয়োগ": 10450,
  "శారు": 10451,
  "স্ট্র": 10452,
  " संवाद": 10453,
  "संवाद": 10454,
  " निश": 10455,
  "निश": 10456,
  " প্রেম": 10457,
  "প্রেম": 10458,
  "ఎల్": 10459,
  " लिये": 10460,
  "लिये": 10461,
  " पूजा": 10462,
  "पूजा": 10463,
  " ২০২০": 10464,
  "২০২০": 10465,
  " उपयोग": 10466,
  "उपयोग": 10467,
  "ீர": 10468,
  " মিড": 10469,
  "মিড": 10470,
  " బ్యాంకు": 10471,
  "బ్యాంకు": 10472,
  " பிரச்": 10473,
  "பிரச்": 10474,
  "మన్నారు": 10475,
  " लखन": 10476,
  "लखन": 10477,
  "ியான": 10478,
  " வட்ட": 10479,
  "வட்ட": 10480,
  " देशों": 10481,
  "देशों": 10482,
  " எதிராக": 10483,
  "எதிராக": 10484,
  "রিক": 10485,
  " পাশে": 10486,
  "পাশে": 10487,
  "ৃহ": 10488,
  "प्री": 10489,
  " మారు": 10490,
  " কাজে": 10491,
  "কাজে": 10492,
  "ंख": 10493,
  " ఫోటో": 10494,
  "ఫోటో": 10495,
  " విస్త": 10496,
  "విస్త": 10497,
  " గుర": 10498,
  "గుర": 10499,
  " ஊழிய": 10500,
  "ஊழிய": 10501,
  "దేశం": 10502,
  " இன": 10503,
  "இன": 10504,
  " নিজেদের": 10505,
  "নিজেদের": 10506,
  " குறிப்பிடத்தக்க": 10507,
  "குறிப்பிடத்தக்க": 10508,
  " கிள": 10509,
  "கிள": 10510,
  " மறை": 10511,
  "மறை": 10512,
  " आयोग": 10513,
  "आयोग": 10514,
  " आख": 10515,
  "आख": 10516,
  " নিয়ন্ত্রণ": 10517,
  "নিয়ন্ত্রণ": 10518,
  "বাহী": 10519,
  " ইন্ড": 10520,
  "ইন্ড": 10521,
  "ंडी": 10522,
  " পথ": 10523,
  "পথ": 10524,
  " नागर": 10525,
  "नागर": 10526,
  "राव": 10527,
  " ఫా": 10528,
  "ఫా": 10529,
  " পশ্চিম": 10530,
  "পশ্চিম": 10531,
  "ியம்": 10532,
  " এদিকে": 10533,
  "এদিকে": 10534,
  " কমিটির": 10535,
  "কমিটির": 10536,
  " శివ": 10537,
  "శివ": 10538,
  " कृषि": 10539,
  "कृषि": 10540,
  " సమయం": 10541,
  "సమయం": 10542,
  " వెల్లడించారు": 10543,
  "వెల్లడించారు": 10544,
  "ष्ण": 10545,
  " సహాయ": 10546,
  "సహాయ": 10547,
  " जिसे": 10548,
  "जिसे": 10549,
  "லர்": 10550,
  " హాజ": 10551,
  "హాజ": 10552,
  " वक्त": 10553,
  "वक्त": 10554,
  " ভিত্ত": 10555,
  "ভিত্ত": 10556,
  " কঠ": 10557,
  "কঠ": 10558,
  " বিন": 10559,
  "বিন": 10560,
  " అంగ": 10561,
  "అంగ": 10562,
  " সমর্থ": 10563,
  "সমর্থ": 10564,
  " காரணம்": 10565,
  "காரணம்": 10566,
  " చేస్తే": 10567,
  "చేస్తే": 10568,
  " వ్యాఖ్యలు": 10569,
  "వ్యాఖ్యలు": 10570,
  " విలువ": 10571,
  "విలువ": 10572,
  " అంటున్నారు": 10573,
  "అంటున్నారు": 10574,
  " ஆதர": 10575,
  "ஆதர": 10576,
  "గ్రత్త": 10577,
  " সম্মেল": 10578,
  "সম্মেল": 10579,
  " सैन": 10580,
  "सैन": 10581,
  "ంప్": 10582,
  " चा": 10583,
  " रै": 10584,
  "रै": 10585,
  "ুরুষ": 10586,
  " அளவு": 10587,
  "அளவு": 10588,
  "ంచడం": 10589,
  " अच्छा": 10590,
  "अच्छा": 10591,
  " సాగు": 10592,
  "సాగు": 10593,
  " வியா": 10594,
  "வியா": 10595,
  " মহিলা": 10596,
  "মহিলা": 10597,
  " गुप": 10598,
  "गुप": 10599,
  " హైకోర్టు": 10600,
  "హైకోర్టు": 10601,
  " চলা": 10602,
  "চলা": 10603,
  "ల్లోకి": 10604,
  " சொந்த": 10605,
  "சொந்த": 10606,
  "சன்": 10607,
  " অধ্যাপক": 10608,
  "অধ্যাপক": 10609,
  " संत": 10610,
  "संत": 10611,
  " এসেছে": 10612,
  "এসেছে": 10613,
  " राष्ट्रपति": 10614,
  "राष्ट्रपति": 10615,
  " निजी": 10616,
  "निजी": 10617,
  " இதற்கு": 10618,
  "இதற்கு": 10619,
  " কব": 10620,
  "কব": 10621,
  " अगले": 10622,
  "अगले": 10623,
  "কাপ": 10624,
  " बाव": 10625,
  "बाव": 10626,
  " জুন": 10627,
  "জুন": 10628,
  "लीवुड": 10629,
  "ফতার": 10630,
  "மார": 10631,
  " जता": 10632,
  "जता": 10633,
  "சனை": 10634,
  "ील": 10635,
  " উদ্দেশ": 10636,
  "উদ্দেশ": 10637,
  " যুক্তরাষ্ট্র": 10638,
  "যুক্তরাষ্ট্র": 10639,
  " हाद": 10640,
  "हाद": 10641,
  "వ్యాప్తంగా": 10642,
  "साद": 10643,
  " लॉक": 10644,
  "लॉक": 10645,
  " శరీ": 10646,
  "శరీ": 10647,
  " ঘটনার": 10648,
  "ঘটনার": 10649,
  " বিদেশ": 10650,
  "বিদেশ": 10651,
  " టీఆర్": 10652,
  "வர்களை": 10653,
  " நடக்க": 10654,
  "நடக்க": 10655,
  " ఒకే": 10656,
  "ఒకే": 10657,
  " অবস্থান": 10658,
  "অবস্থান": 10659,
  " सांसद": 10660,
  "सांसद": 10661,
  " பேசிய": 10662,
  "பேசிய": 10663,
  " সাক্ষ": 10664,
  "সাক্ষ": 10665,
  "రులు": 10666,
  " कैसे": 10667,
  "कैसे": 10668,
  "ழமை": 10669,
  " জম": 10670,
  "জম": 10671,
  "টায়": 10672,
  " বিরোধ": 10673,
  "বিরোধ": 10674,
  " தடுப்பூ": 10675,
  "தடுப்பூ": 10676,
  " अपरा": 10677,
  "अपरा": 10678,
  " বোর্ড": 10679,
  "বোর্ড": 10680,
  "క్స్‌": 10681,
  " कंपन": 10682,
  "कंपन": 10683,
  " இளைஞ": 10684,
  "இளைஞ": 10685,
  " గ్రామానికి": 10686,
  "గ్రామానికి": 10687,
  " বাজ": 10688,
  "বাজ": 10689,
  " প্রেসিড": 10690,
  "প্রেসিড": 10691,
  " भगवान": 10692,
  "भगवान": 10693,
  " படம்": 10694,
  "படம்": 10695,
  "विद्यालय": 10696,
  " நாங்கள்": 10697,
  "நாங்கள்": 10698,
  " బౌ": 10699,
  "బౌ": 10700,
  " উদ্যোগ": 10701,
  "উদ্যোগ": 10702,
  " লেখা": 10703,
  "লেখা": 10704,
  "ేందుకు": 10705,
  " దీనికి": 10706,
  "దీనికి": 10707,
  " கிடைக்கும்": 10708,
  "கிடைக்கும்": 10709,
  " వరుస": 10710,
  "వరుస": 10711,
  "ंगी": 10712,
  " தல": 10713,
  "தல": 10714,
  " সুন্দর": 10715,
  "সুন্দর": 10716,
  " ప్రదర్శ": 10717,
  "ప్రదర్శ": 10718,
  "शनल": 10719,
  "গার": 10720,
  " கூடு": 10721,
  "கூடு": 10722,
  " হত্যা": 10723,
  "হত্যা": 10724,
  " இப்படி": 10725,
  "இப்படி": 10726,
  " अंदर": 10727,
  "अंदर": 10728,
  " కార్యక్ర": 10729,
  "కార్యక్ర": 10730,
  "টিকে": 10731,
  "ళ్ళు": 10732,
  " প্রত্য": 10733,
  "প্রত্য": 10734,
  "le": 10735,
  " மகி": 10736,
  "மகி": 10737,
  " কর্তৃপক্ষ": 10738,
  "কর্তৃপক্ষ": 10739,
  " মিশ": 10740,
  "মিশ": 10741,
  " కాని": 10742,
  "కాని": 10743,
  " కమిటీ": 10744,
  "కమిటీ": 10745,
  "சாமி": 10746,
  " दिस": 10747,
  "दिस": 10748,
  " మంగళ": 10749,
  "మంగళ": 10750,
  " அவற்ற": 10751,
  "அவற்ற": 10752,
  " আছেন": 10753,
  "আছেন": 10754,
  "ష్‌": 10755,
  " जन्म": 10756,
  "जन्म": 10757,
  " जरूरी": 10758,
  "जरूरी": 10759,
  "ன்மை": 10760,
  " கண்க": 10761,
  "கண்க": 10762,
  "िक्ष": 10763,
  " பணம்": 10764,
  "பணம்": 10765,
  "मर": 10766,
  "র্ধ": 10767,
  " விஷய": 10768,
  "விஷய": 10769,
  " সিনেম": 10770,
  "সিনেম": 10771,
  " পারি": 10772,
  "পারি": 10773,
  " রেল": 10774,
  "রেল": 10775,
  " కాలే": 10776,
  "కాలే": 10777,
  " గెలి": 10778,
  "గెలి": 10779,
  "రించిన": 10780,
  "डाउन": 10781,
  " ప్రస": 10782,
  "ప్రస": 10783,
  " లాంటి": 10784,
  "లాంటి": 10785,
  " బాధి": 10786,
  "బాధి": 10787,
  " निर्ण": 10788,
  "निर्ण": 10789,
  "ुओं": 10790,
  " अदाल": 10791,
  "अदाल": 10792,
  " పర": 10793,
  "పర": 10794,
  " నిర్వహి": 10795,
  "నిర్వహి": 10796,
  " గి": 10797,
  " విశాఖ": 10798,
  "విశాఖ": 10799,
  " దశ": 10800,
  "దశ": 10801,
  "ంచాడు": 10802,
  " যদিও": 10803,
  "যদিও": 10804,
  " నమోద": 10805,
  "నమోద": 10806,
  "तृ": 10807,
  " আশা": 10808,
  "আশা": 10809,
  " যাব": 10810,
  "যাব": 10811,
  "హన్": 10812,
  "నంగా": 10813,
  "जाम": 10814,
  "நாட்டு": 10815,
  " कार्ड": 10816,
  "कार्ड": 10817,
  "களையும்": 10818,
  " சார்பில்": 10819,
  "சார்பில்": 10820,
  "ांति": 10821,
  " మరోవైపు": 10822,
  "మరోవైపు": 10823,
  "चारी": 10824,
  " వైఎస్": 10825,
  "వైఎస్": 10826,
  "ట్రో": 10827,
  " புற": 10828,
  "புற": 10829,
  " বিপক্ষে": 10830,
  "বিপক্ষে": 10831,
  " అంతేకా": 10832,
  "అంతేకా": 10833,
  " যৌ": 10834,
  "যৌ": 10835,
  " হারিয়ে": 10836,
  "হারিয়ে": 10837,
  " वरि": 10838,
  "वरि": 10839,
  " ఇండ": 10840,
  "ఇండ": 10841,
  "াসের": 10842,
  " आवश्यक": 10843,
  "आवश्यक": 10844,
  " संभाव": 10845,
  "संभाव": 10846,
  " ২৩": 10847,
  "২৩": 10848,
  " बदला": 10849,
  "बदला": 10850,
  " బయటకు": 10851,
  "బయటకు": 10852,
  "ధులు": 10853,
  " सही": 10854,
  "सही": 10855,
  " నమ్మ": 10856,
  "నమ్మ": 10857,
  " वैक्सी": 10858,
  "वैक्सी": 10859,
  "ेक": 10860,
  " బై": 10861,
  "బై": 10862,
  " షో": 10863,
  "షో": 10864,
  " ताकि": 10865,
  "ताकि": 10866,
  "বাব": 10867,
  "त्ति": 10868,
  "ையாள": 10869,
  " அனுமதி": 10870,
  "அனுமதி": 10871,
  " వైపు": 10872,
  " থাকার": 10873,
  "থাকার": 10874,
  " ஆறு": 10875,
  "ஆறு": 10876,
  " हिस्सा": 10877,
  "हिस्सा": 10878,
  " போட்டு": 10879,
  "போட்டு": 10880,
  "स्ताव": 10881,
  " வரலா": 10882,
  "வரலா": 10883,
  " అద్భు": 10884,
  "అద్భు": 10885,
  " అలాంటి": 10886,
  "అలాంటి": 10887,
  " প্রকাশিত": 10888,
  "প্রকাশিত": 10889,
  " রি": 10890,
  " আলা": 10891,
  "আলা": 10892,
  " শ্রেণ": 10893,
  "শ্রেণ": 10894,
  "కోవచ్చు": 10895,
  "িকভাবে": 10896,
  ").": 10897,
  "ంటీ": 10898,
  " செய்க": 10899,
  "செய்க": 10900,
  " జాగ్రత్త": 10901,
  "జాగ్రత్త": 10902,
  " जनवरी": 10903,
  "जनवरी": 10904,
  " सूत्र": 10905,
  "सूत्र": 10906,
  "ேக": 10907,
  "েনার": 10908,
  "্রেস": 10909,
  " ऑन": 10910,
  "ऑन": 10911,
  " शरी": 10912,
  "शरी": 10913,
  "वत": 10914,
  "াসে": 10915,
  "वादी": 10916,
  "க்களை": 10917,
  " বাংলাদেশে": 10918,
  "বাংলাদেশে": 10919,
  " அழு": 10920,
  "அழு": 10921,
  " सत": 10922,
  "सत": 10923,
  "..?": 10924,
  " రాజీ": 10925,
  "రాజీ": 10926,
  " తండ్రి": 10927,
  "తండ్రి": 10928,
  "ूबर": 10929,
  " बंग": 10930,
  "बंग": 10931,
  " బాధ": 10932,
  "బాధ": 10933,
  " సింగ్": 10934,
  "సింగ్": 10935,
  "গের": 10936,
  " இல்லாத": 10937,
  "இல்லாத": 10938,
  "సేన": 10939,
  "श्वास": 10940,
  "ఫె": 10941,
  " ராம": 10942,
  "ராம": 10943,
  " নম্বর": 10944,
  "নম্বর": 10945,
  " তাঁরা": 10946,
  "তাঁরা": 10947,
  " ఫై": 10948,
  "ఫై": 10949,
  "రుపు": 10950,
  " உள்ளனர்": 10951,
  "உள்ளனர்": 10952,
  "धे": 10953,
  " परेशान": 10954,
  "परेशान": 10955,
  "রণের": 10956,
  " வகு": 10957,
  "வகு": 10958,
  " எதிர்க": 10959,
  "எதிர்க": 10960,
  "রম": 10961,
  " प्रस्ताव": 10962,
  "प्रस्ताव": 10963,
  "েজ": 10964,
  " మీకు": 10965,
  "మీకు": 10966,
  "ষে": 10967,
  " পয়": 10968,
  "পয়": 10969,
  "दाय": 10970,
  "ొక": 10971,
  " ఆరోపణ": 10972,
  "ఆరోపణ": 10973,
  " వేదిక": 10974,
  "వేదిక": 10975,
  " लॉ": 10976,
  "लॉ": 10977,
  " बल्ले": 10978,
  "बल्ले": 10979,
  "েন্ড": 10980,
  "రుగా": 10981,
  " விளை": 10982,
  "விளை": 10983,
  " সংস্থা": 10984,
  "সংস্থা": 10985,
  " போட்டிய": 10986,
  "போட்டிய": 10987,
  "ित्र": 10988,
  "த்தல்": 10989,
  "জিব": 10990,
  " హత్య": 10991,
  "హత్య": 10992,
  "மாறு": 10993,
  " బిల్": 10994,
  "బిల్": 10995,
  " एल": 10996,
  " மழை": 10997,
  "மழை": 10998,
  " అనుమా": 10999,
  "అనుమా": 11000,
  "க்கூடிய": 11001,
  " ఇచ్చారు": 11002,
  "ఇచ్చారు": 11003,
  " পুন": 11004,
  "পুন": 11005,
  " বেস": 11006,
  "বেস": 11007,
  "த்தின": 11008,
  " జరిగి": 11009,
  "జరిగి": 11010,
  "வருக்கு": 11011,
  " दीप": 11012,
  " ক্ল": 11013,
  "ক্ল": 11014,
  " లభ": 11015,
  "లభ": 11016,
  " उम्मीदवार": 11017,
  "उम्मीदवार": 11018,
  " जिम्मे": 11019,
  "जिम्मे": 11020,
  "ందం": 11021,
  "நாத": 11022,
  " मुला": 11023,
  "मुला": 11024,
  " టాల": 11025,
  "టాల": 11026,
  " సినీ": 11027,
  "సినీ": 11028,
  " बावजूद": 11029,
  "बावजूद": 11030,
  " देकर": 11031,
  "देकर": 11032,
  "टने": 11033,
  "ப்பான": 11034,
  " बेहद": 11035,
  "बेहद": 11036,
  "ামান": 11037,
  " জনগ": 11038,
  "জনগ": 11039,
  " దాడి": 11040,
  "దాడి": 11041,
  " దో": 11042,
  " வேக": 11043,
  "வேக": 11044,
  " నటు": 11045,
  "నటు": 11046,
  "িয়াল": 11047,
  "न्हें": 11048,
  " ఉద్యోగు": 11049,
  "ఉద్యోగు": 11050,
  "ணா": 11051,
  "ুতি": 11052,
  " జె": 11053,
  " पड़े": 11054,
  "पड़े": 11055,
  " संगठन": 11056,
  "संगठन": 11057,
  "িনের": 11058,
  " নাট": 11059,
  "নাট": 11060,
  " लखनऊ": 11061,
  "लखनऊ": 11062,
  "ந்திய": 11063,
  " ஆகியவற்ற": 11064,
  "ஆகியவற்ற": 11065,
  "িনীর": 11066,
  " సహక": 11067,
  "సహక": 11068,
  " জানানো": 11069,
  "জানানো": 11070,
  " குறைந்த": 11071,
  "குறைந்த": 11072,
  "గంలో": 11073,
  " உரிமை": 11074,
  "உரிமை": 11075,
  " ইউনিয়ন": 11076,
  "ইউনিয়ন": 11077,
  " அச": 11078,
  "அச": 11079,
  "க்கே": 11080,
  " சுமார்": 11081,
  "சுமார்": 11082,
  "टल": 11083,
  "ृति": 11084,
  "ారాయణ": 11085,
  " శుక్ర": 11086,
  "శుక్ర": 11087,
  " প্রদান": 11088,
  "প্রদান": 11089,
  "रल": 11090,
  " গেলে": 11091,
  "গেলে": 11092,
  " ఆనంద": 11093,
  "ఆనంద": 11094,
  " ব্যাংক": 11095,
  "ব্যাংক": 11096,
  " হত": 11097,
  " সাহায": 11098,
  "সাহায": 11099,
  "থি": 11100,
  "డవ": 11101,
  "ஞ்சி": 11102,
  " கொடுத்து": 11103,
  "கொடுத்து": 11104,
  " ইতিহাস": 11105,
  "ইতিহাস": 11106,
  " போன": 11107,
  "போன": 11108,
  "వ్వు": 11109,
  "श्चिम": 11110,
  " ట్వి": 11111,
  "ట్వి": 11112,
  "றையில்": 11113,
  "িনার": 11114,
  " वार": 11115,
  " সেল": 11116,
  "সেল": 11117,
  " শান্ত": 11118,
  "শান্ত": 11119,
  "ாயம்": 11120,
  " সংগ্র": 11121,
  "সংগ্র": 11122,
  " নেন": 11123,
  "নেন": 11124,
  " कारो": 11125,
  "कारो": 11126,
  "ूह": 11127,
  " तेजी": 11128,
  "तेजी": 11129,
  "ফিক": 11130,
  " ஆப": 11131,
  "ஆப": 11132,
  "లియా": 11133,
  " লাল": 11134,
  "লাল": 11135,
  " হই": 11136,
  "হই": 11137,
  " கேட்க": 11138,
  "கேட்க": 11139,
  " వయ": 11140,
  "వయ": 11141,
  "धानी": 11142,
  " কাঁ": 11143,
  "কাঁ": 11144,
  " विजय": 11145,
  "विजय": 11146,
  " এছাড়া": 11147,
  "এছাড়া": 11148,
  " संक्रमित": 11149,
  "संक्रमित": 11150,
  " टिक": 11151,
  "टिक": 11152,
  " অন্যতম": 11153,
  "অন্যতম": 11154,
  " రిలీజ్": 11155,
  "రిలీజ్": 11156,
  " বর্তমান": 11157,
  "বর্তমান": 11158,
  " டீ": 11159,
  "டீ": 11160,
  " कदम": 11161,
  "कदम": 11162,
  " ভুল": 11163,
  "ভুল": 11164,
  " கவன": 11165,
  "கவன": 11166,
  " நண்ப": 11167,
  "நண்ப": 11168,
  " वरिष्ठ": 11169,
  "वरिष्ठ": 11170,
  "களாக": 11171,
  " ছয়": 11172,
  "ছয়": 11173,
  " फ्र": 11174,
  "फ्र": 11175,
  "ంచాలని": 11176,
  "ణంలో": 11177,
  "ிலுள்ள": 11178,
  " इलाके": 11179,
  "इलाके": 11180,
  " கேள்வி": 11181,
  "கேள்வி": 11182,
  "वें": 11183,
  " উন্নয়ন": 11184,
  "উন্নয়ন": 11185,
  " సౌకర్యం": 11186,
  "సౌకర్యం": 11187,
  " मई": 11188,
  "मई": 11189,
  " मजबू": 11190,
  "मजबू": 11191,
  "স্কার": 11192,
  " ముఖ్యంగా": 11193,
  "ముఖ్యంగా": 11194,
  "కోవడానికి": 11195,
  " प्रभावित": 11196,
  "प्रभावित": 11197,
  "ாலி": 11198,
  " फोटो": 11199,
  "फोटो": 11200,
  "టల్": 11201,
  " জানায়": 11202,
  "জানায়": 11203,
  "टेड": 11204,
  " ফেল": 11205,
  "ফেল": 11206,
  "হি": 11207,
  " सै": 11208,
  "सै": 11209,
  " ভাবে": 11210,
  "పుణ": 11211,
  "வுகள்": 11212,
  " শ্রমিক": 11213,
  "শ্রমিক": 11214,
  " நான்கு": 11215,
  "நான்கு": 11216,
  " తది": 11217,
  "తది": 11218,
  " तैयारी": 11219,
  "तैयारी": 11220,
  "டுப்பு": 11221,
  " কিংবা": 11222,
  "কিংবা": 11223,
  " বিশ্বকাপ": 11224,
  "বিশ্বকাপ": 11225,
  " সর্বো": 11226,
  "সর্বো": 11227,
  " உதவி": 11228,
  "உதவி": 11229,
  " গড়ে": 11230,
  "গড়ে": 11231,
  " মুখে": 11232,
  "মুখে": 11233,
  " कहते": 11234,
  "कहते": 11235,
  " क्ल": 11236,
  "क्ल": 11237,
  " राज्यों": 11238,
  "राज्यों": 11239,
  "ప్పి": 11240,
  "కింగ్": 11241,
  " உச்ச": 11242,
  "உச்ச": 11243,
  "ন্ত্রীর": 11244,
  " ফল": 11245,
  " হত্য": 11246,
  "হত্য": 11247,
  " मौसम": 11248,
  "मौसम": 11249,
  "ताह": 11250,
  " ইম": 11251,
  "ইম": 11252,
  " போக்கு": 11253,
  "போக்கு": 11254,
  " அனுப்ப": 11255,
  "அனுப்ப": 11256,
  " బాలీవుడ్": 11257,
  "బాలీవుడ్": 11258,
  " मेरे": 11259,
  "मेरे": 11260,
  " ఫే": 11261,
  "ఫే": 11262,
  " সাব": 11263,
  "সাব": 11264,
  " নির্বাচনে": 11265,
  "নির্বাচনে": 11266,
  " মোব": 11267,
  "মোব": 11268,
  " दक्ष": 11269,
  "दक्ष": 11270,
  " कहीं": 11271,
  "कहीं": 11272,
  " पॉ": 11273,
  "पॉ": 11274,
  "েন্দ্র": 11275,
  "ఖ్యా": 11276,
  " ফাঁ": 11277,
  "ফাঁ": 11278,
  " अप्रैल": 11279,
  "अप्रैल": 11280,
  " सल": 11281,
  " வீட்டில்": 11282,
  "வீட்டில்": 11283,
  " ట్వీ": 11284,
  "ట్వీ": 11285,
  " সংসদ": 11286,
  "সংসদ": 11287,
  " जुलाई": 11288,
  "जुलाई": 11289,
  "ிகை": 11290,
  " அளவில்": 11291,
  "அளவில்": 11292,
  " আসাম": 11293,
  "আসাম": 11294,
  " பள்ளி": 11295,
  "பள்ளி": 11296,
  "वीट": 11297,
  " ஏற்று": 11298,
  "ஏற்று": 11299,
  " प्रकाश": 11300,
  "प्रकाश": 11301,
  "ప్రీ": 11302,
  " যুদ্ধ": 11303,
  "যুদ্ধ": 11304,
  " பற்றிய": 11305,
  "பற்றிய": 11306,
  "స్త్ర": 11307,
  " खो": 11308,
  "खो": 11309,
  " রূপ": 11310,
  "রূপ": 11311,
  " மண்ட": 11312,
  "மண்ட": 11313,
  " পক্ষে": 11314,
  "পক্ষে": 11315,
  " விற்பனை": 11316,
  "விற்பனை": 11317,
  " চান": 11318,
  "চান": 11319,
  "లూ": 11320,
  "াবাদ": 11321,
  "ुकसान": 11322,
  " மன்ன": 11323,
  "மன்ன": 11324,
  "ীদ": 11325,
  "ாளி": 11326,
  "న్లు": 11327,
  " आर्थ": 11328,
  "आर्थ": 11329,
  " కాల్": 11330,
  "కాల్": 11331,
  " నిమి": 11332,
  "నిమి": 11333,
  " பணிய": 11334,
  "பணிய": 11335,
  " स्थाप": 11336,
  "स्थाप": 11337,
  "ர்த்தி": 11338,
  " एड": 11339,
  "एड": 11340,
  " ক্ষতি": 11341,
  "ক্ষতি": 11342,
  "రణ్": 11343,
  " नया": 11344,
  "नया": 11345,
  " বঙ্গবন্ধু": 11346,
  "বঙ্গবন্ধু": 11347,
  " தேர்தலில்": 11348,
  "தேர்தலில்": 11349,
  "झा": 11350,
  "हान": 11351,
  "হীন": 11352,
  " रण": 11353,
  " खत्म": 11354,
  "खत्म": 11355,
  " সিরিজ": 11356,
  "সিরিজ": 11357,
  " ஜோ": 11358,
  "ஜோ": 11359,
  " రాహు": 11360,
  "రాహు": 11361,
  " গ্রেপ্তার": 11362,
  "গ্রেপ্তার": 11363,
  " ति": 11364,
  " నాకు": 11365,
  "నాకు": 11366,
  " अदालत": 11367,
  "अदालत": 11368,
  " মহান": 11369,
  "মহান": 11370,
  " স্ত্রী": 11371,
  "স্ত্রী": 11372,
  " हॉ": 11373,
  "हॉ": 11374,
  " পরিচিত": 11375,
  "পরিচিত": 11376,
  " গুরুত্বপূর্ণ": 11377,
  "গুরুত্বপূর্ণ": 11378,
  " नुकसान": 11379,
  "नुकसान": 11380,
  "்டு": 11381,
  " ম্য": 11382,
  "ম্য": 11383,
  " నిజా": 11384,
  "నిజా": 11385,
  " లేద": 11386,
  "లేద": 11387,
  "ান্ড": 11388,
  " কাপ": 11389,
  "పడిన": 11390,
  " కేట": 11391,
  "కేట": 11392,
  "స్ట్రే": 11393,
  "ப்பிர": 11394,
  " நடந்து": 11395,
  "நடந்து": 11396,
  "ফা": 11397,
  " रहते": 11398,
  "रहते": 11399,
  " పాజి": 11400,
  "పాజి": 11401,
  "ur": 11402,
  " अगस्त": 11403,
  "अगस्त": 11404,
  " সবার": 11405,
  "সবার": 11406,
  " సాయ": 11407,
  "సాయ": 11408,
  " சொல்": 11409,
  "சொல்": 11410,
  "த்தைச்": 11411,
  "த்தொ": 11412,
  " எது": 11413,
  "எது": 11414,
  " பரவ": 11415,
  "பரவ": 11416,
  "ियल": 11417,
  "েনের": 11418,
  "విడ్": 11419,
  " கேர": 11420,
  "கேர": 11421,
  " স্বপ": 11422,
  "স্বপ": 11423,
  " எப்ப": 11424,
  "எப்ப": 11425,
  " பீ": 11426,
  "பீ": 11427,
  " வரி": 11428,
  "வரி": 11429,
  "ोलन": 11430,
  "ুরে": 11431,
  "াতের": 11432,
  "ত্রী": 11433,
  " ఎయి": 11434,
  "ఎయి": 11435,
  " பொருளாதார": 11436,
  "பொருளாதார": 11437,
  " கொள்": 11438,
  "கொள்": 11439,
  " প্রেসিডেন্ট": 11440,
  "প্রেসিডেন্ট": 11441,
  " గాంధీ": 11442,
  "గాంధీ": 11443,
  "లేక": 11444,
  " சர": 11445,
  "சர": 11446,
  " செயலாளர்": 11447,
  "செயலாளர்": 11448,
  " చేసుకున్న": 11449,
  "చేసుకున్న": 11450,
  " దె": 11451,
  "దె": 11452,
  " পথে": 11453,
  "পথে": 11454,
  "াণ": 11455,
  " फ़": 11456,
  "फ़": 11457,
  " காலத்தில்": 11458,
  "காலத்தில்": 11459,
  "దులు": 11460,
  "வர்கள": 11461,
  " लागू": 11462,
  "लागू": 11463,
  "ेंसी": 11464,
  "வார்கள்": 11465,
  " రావు": 11466,
  "il": 11467,
  "த்தைப்": 11468,
  " வைரஸ்": 11469,
  "வைரஸ்": 11470,
  "ুমি": 11471,
  " दोप": 11472,
  "दोप": 11473,
  " আদালত": 11474,
  "আদালত": 11475,
  " সচিব": 11476,
  "সচিব": 11477,
  " పాకి": 11478,
  "పాకి": 11479,
  "லைக்கழக": 11480,
  " ভব": 11481,
  " राजस्थान": 11482,
  "राजस्थान": 11483,
  " కార్యకర్": 11484,
  "కార్యకర్": 11485,
  " )": 11486,
  ")": 11487,
  " पहचान": 11488,
  "पहचान": 11489,
  " రూపొంది": 11490,
  "రూపొంది": 11491,
  " আধ": 11492,
  "আধ": 11493,
  " பத்திர": 11494,
  "பத்திர": 11495,
  " समा": 11496,
  "समा": 11497,
  " బంగ": 11498,
  "బంగ": 11499,
  " செயல்": 11500,
  "செயல்": 11501,
  "ாரா": 11502,
  "శ్చ": 11503,
  "ष्ट्र": 11504,
  " ఎత్తు": 11505,
  "ఎత్తు": 11506,
  " গিয়েছে": 11507,
  "গিয়েছে": 11508,
  " సభ్యులు": 11509,
  "సభ్యులు": 11510,
  "மிக்க": 11511,
  " సామాజిక": 11512,
  "సామాజిక": 11513,
  " নৌ": 11514,
  "নৌ": 11515,
  " উদ্ব": 11516,
  "উদ্ব": 11517,
  " বন্ধু": 11518,
  "বন্ধু": 11519,
  "ர்களும்": 11520,
  " ৫০": 11521,
  "৫০": 11522,
  " ইন্টার": 11523,
  "ইন্টার": 11524,
  " స్థాయిలో": 11525,
  "స్థాయిలో": 11526,
  " বিয়ে": 11527,
  "বিয়ে": 11528,
  " కృష్ణ": 11529,
  "?\"": 11530,
  " মর": 11531,
  "মর": 11532,
  " जुड़े": 11533,
  "जुड़े": 11534,
  " মাসে": 11535,
  "মাসে": 11536,
  " মালিক": 11537,
  "মালিক": 11538,
  " সাড়ে": 11539,
  "সাড়ে": 11540,
  " रहेगा": 11541,
  "रहेगा": 11542,
  "ழல்": 11543,
  " लोकसभा": 11544,
  "लोकसभा": 11545,
  " অভিনয়": 11546,
  "অভিনয়": 11547,
  "ాయ": 11548,
  " సోమవారం": 11549,
  "సోమవారం": 11550,
  " ব্যাট": 11551,
  "ব্যাট": 11552,
  " ছেড়ে": 11553,
  "ছেড়ে": 11554,
  " वोट": 11555,
  "वोट": 11556,
  " आंद": 11557,
  "आंद": 11558,
  " ఆగ": 11559,
  "ఆగ": 11560,
  " परिजनों": 11561,
  "परिजनों": 11562,
  "এফ": 11563,
  " கடு": 11564,
  "கடு": 11565,
  " আগেই": 11566,
  "আগেই": 11567,
  " गति": 11568,
  "गति": 11569,
  "ুয়া": 11570,
  " இடம்": 11571,
  "இடம்": 11572,
  "জ্জ": 11573,
  " स्टेशन": 11574,
  "स्टेशन": 11575,
  " পুরস্কার": 11576,
  "পুরস্কার": 11577,
  " पस": 11578,
  "पस": 11579,
  "घा": 11580,
  " मेडिकल": 11581,
  "मेडिकल": 11582,
  " উইকেট": 11583,
  "উইকেট": 11584,
  " இலங்க": 11585,
  "இலங்க": 11586,
  " প্রত্যা": 11587,
  "প্রত্যা": 11588,
  " வந்தது": 11589,
  "வந்தது": 11590,
  " ఔ": 11591,
  "ఔ": 11592,
  " বিস্তার": 11593,
  "বিস্তার": 11594,
  "ாகு": 11595,
  " मामलों": 11596,
  "मामलों": 11597,
  "శ్వ": 11598,
  " அழக": 11599,
  "அழக": 11600,
  " భద్ర": 11601,
  "భద్ర": 11602,
  "াদি": 11603,
  " प्रतिनि": 11604,
  "प्रतिनि": 11605,
  " ఎన్నో": 11606,
  "ఎన్నో": 11607,
  " இன்ற": 11608,
  "இன்ற": 11609,
  " পৃথিব": 11610,
  "পৃথিব": 11611,
  "ారట": 11612,
  " అమ్మా": 11613,
  "అమ్మా": 11614,
  " కారణం": 11615,
  "కారణం": 11616,
  "రియా": 11617,
  " সৃষ্টি": 11618,
  "সৃষ্টি": 11619,
  "खी": 11620,
  "द्धि": 11621,
  "விட்டது": 11622,
  " புரி": 11623,
  "புரி": 11624,
  " आर्थिक": 11625,
  "आर्थिक": 11626,
  " প্রভাব": 11627,
  "প্রভাব": 11628,
  " শীর্ষ": 11629,
  "শীর্ষ": 11630,
  " গ্রেফতার": 11631,
  "গ্রেফতার": 11632,
  "ிற்": 11633,
  " யோ": 11634,
  "யோ": 11635,
  "ch": 11636,
  "க்கிர": 11637,
  " বিশ্বের": 11638,
  "বিশ্বের": 11639,
  " উপল": 11640,
  "উপল": 11641,
  " కమ": 11642,
  "కమ": 11643,
  "క్షే": 11644,
  " నడు": 11645,
  "నడు": 11646,
  " தொலை": 11647,
  "தொலை": 11648,
  " సీనియర్": 11649,
  "సీనియర్": 11650,
  " परिव": 11651,
  "परिव": 11652,
  " लाइन": 11653,
  "लू": 11654,
  " बेटी": 11655,
  "बेटी": 11656,
  "र्ग": 11657,
  "ండె": 11658,
  " उल्": 11659,
  "उल्": 11660,
  " இவர": 11661,
  "இவர": 11662,
  " మంత్ర": 11663,
  "మంత్ర": 11664,
  "ष्टि": 11665,
  "மாகும்": 11666,
  " నింది": 11667,
  "నింది": 11668,
  " समर्थन": 11669,
  "समर्थन": 11670,
  "তিরিক্ত": 11671,
  "ன்கள்": 11672,
  " पाया": 11673,
  "पाया": 11674,
  " వాయి": 11675,
  "వాయి": 11676,
  " రద్దు": 11677,
  "రద్దు": 11678,
  "ండే": 11679,
  " ठा": 11680,
  "ठा": 11681,
  " चुन": 11682,
  "चुन": 11683,
  "ட்டா": 11684,
  " మహేష్": 11685,
  "మహేష్": 11686,
  "க்கார": 11687,
  "ীপ": 11688,
  "ডার": 11689,
  " অধিকার": 11690,
  "অধিকার": 11691,
  " சேர்க்க": 11692,
  "சேர்க்க": 11693,
  "ंता": 11694,
  " நப": 11695,
  "நப": 11696,
  " সংঘ": 11697,
  "সংঘ": 11698,
  "ंसा": 11699,
  " స్వీ": 11700,
  "స్వీ": 11701,
  " निर्णय": 11702,
  "निर्णय": 11703,
  "ौल": 11704,
  "ூன்": 11705,
  "ట్లో": 11706,
  "తులను": 11707,
  " तु": 11708,
  "तु": 11709,
  " গ্রাম": 11710,
  " भाव": 11711,
  "तियों": 11712,
  "केट": 11713,
  " কোম্প": 11714,
  "কোম্প": 11715,
  "த்தான": 11716,
  " கொலை": 11717,
  "கொலை": 11718,
  " பெயர்": 11719,
  "பெயர்": 11720,
  " घा": 11721,
  "ওয়ায়": 11722,
  " দর্শ": 11723,
  " কার্যক্রম": 11724,
  "কার্যক্রম": 11725,
  " कर्मचारी": 11726,
  "कर्मचारी": 11727,
  " శక్తి": 11728,
  "శక్తి": 11729,
  "ப்படை": 11730,
  " সুবি": 11731,
  "সুবি": 11732,
  "উট": 11733,
  " சொல்லி": 11734,
  "சொல்லி": 11735,
  "డర్": 11736,
  "తికి": 11737,
  " இதனை": 11738,
  "இதனை": 11739,
  " சென்ன": 11740,
  "சென்ன": 11741,
  "पन": 11742,
  " பிரபல": 11743,
  "பிரபல": 11744,
  " శుక్రవారం": 11745,
  "శుక్రవారం": 11746,
  " মাঠে": 11747,
  "মাঠে": 11748,
  " విశ్వ": 11749,
  "విశ్వ": 11750,
  "ారాన్ని": 11751,
  "ఫర్": 11752,
  " পরিস্থিতি": 11753,
  "পরিস্থিতি": 11754,
  " এল": 11755,
  "এল": 11756,
  " ওয়েব": 11757,
  "ওয়েব": 11758,
  " వ్యాక్సి": 11759,
  "వ్యాక్సి": 11760,
  " பெண்க": 11761,
  "பெண்க": 11762,
  " நீண்ட": 11763,
  "நீண்ட": 11764,
  " అక్కడి": 11765,
  "అక్కడి": 11766,
  " எல்லாம்": 11767,
  "எல்லாம்": 11768,
  " भू": 11769,
  "भू": 11770,
  " বন": 11771,
  "বন": 11772,
  " கர": 11773,
  "கர": 11774,
  " করছি": 11775,
  "করছি": 11776,
  " అనేది": 11777,
  "అనేది": 11778,
  "ডের": 11779,
  " দূর": 11780,
  "দূর": 11781,
  " अच्छी": 11782,
  "अच्छी": 11783,
  "క్స": 11784,
  " నవ": 11785,
  "నవ": 11786,
  " পর্যা": 11787,
  "পর্যা": 11788,
  " रज": 11789,
  "रज": 11790,
  " ఏళ్ల": 11791,
  "ఏళ్ల": 11792,
  " శని": 11793,
  "శని": 11794,
  " இரவு": 11795,
  "இரவு": 11796,
  "ட்டம்": 11797,
  " தீர்மான": 11798,
  "தீர்மான": 11799,
  "తాలు": 11800,
  " पुत्र": 11801,
  "पुत्र": 11802,
  "el": 11803,
  " ఆప": 11804,
  "ఆప": 11805,
  " పరిధి": 11806,
  "పరిధి": 11807,
  " वी": 11808,
  "டுக்கும்": 11809,
  " అప్పటి": 11810,
  "అప్పటి": 11811,
  " ప్రయోజ": 11812,
  "ప్రయోజ": 11813,
  " అధినే": 11814,
  "అధినే": 11815,
  " హెచ్చ": 11816,
  "హెచ్చ": 11817,
  " కన": 11818,
  "కన": 11819,
  "ड़ियों": 11820,
  "ৌশ": 11821,
  "టరీ": 11822,
  "য়াল": 11823,
  " খুল": 11824,
  "খুল": 11825,
  " রক্ত": 11826,
  "রক্ত": 11827,
  " দৃ": 11828,
  "দৃ": 11829,
  " पश्चिम": 11830,
  "पश्चिम": 11831,
  " কর্মসূ": 11832,
  "কর্মসূ": 11833,
  "ేఖ": 11834,
  "ित्य": 11835,
  " टीका": 11836,
  "टीका": 11837,
  " কথ": 11838,
  "কথ": 11839,
  " সাজ": 11840,
  "সাজ": 11841,
  " ভাইরাস": 11842,
  "ந்த்": 11843,
  "வதேச": 11844,
  " வேல": 11845,
  "வேல": 11846,
  " పంపి": 11847,
  "పంపి": 11848,
  " స్నే": 11849,
  "స్నే": 11850,
  "வுடன்": 11851,
  " சிறிய": 11852,
  "சிறிய": 11853,
  " রোব": 11854,
  "রোব": 11855,
  " చేసేందుకు": 11856,
  "చేసేందుకు": 11857,
  " तत्": 11858,
  "तत्": 11859,
  " ट्वीट": 11860,
  "ट्वीट": 11861,
  " क्षेत्रों": 11862,
  "क्षेत्रों": 11863,
  " நாடா": 11864,
  "நாடா": 11865,
  "ীকার": 11866,
  " बॉलीवुड": 11867,
  "बॉलीवुड": 11868,
  "नात": 11869,
  " প্রতিদিন": 11870,
  "প্রতিদিন": 11871,
  "फ्ट": 11872,
  " त्र": 11873,
  " ఫు": 11874,
  "ఫు": 11875,
  "నియా": 11876,
  " চোখ": 11877,
  "চোখ": 11878,
  " மொத்த": 11879,
  "மொத்த": 11880,
  " రైల్": 11881,
  "రైల్": 11882,
  " கண்டுபி": 11883,
  "கண்டுபி": 11884,
  " பல்கலைக்கழக": 11885,
  "பல்கலைக்கழக": 11886,
  "केश": 11887,
  "ாலை": 11888,
  " स्वी": 11889,
  "स्वी": 11890,
  "డ్జ": 11891,
  " பை": 11892,
  " জি": 11893,
  " విదేశ": 11894,
  "విదేశ": 11895,
  " गृह": 11896,
  "गृह": 11897,
  " ग्रामीणों": 11898,
  "ग्रामीणों": 11899,
  " உயிர": 11900,
  "உயிர": 11901,
  " இவ்வாறு": 11902,
  "இவ்வாறு": 11903,
  "ण्ड": 11904,
  "িকায়": 11905,
  " పంచ": 11906,
  " உருவாக்க": 11907,
  "உருவாக்க": 11908,
  " हरिया": 11909,
  "हरिया": 11910,
  " எண்ணிக்கை": 11911,
  "எண்ணிக்கை": 11912,
  "াম্প": 11913,
  " లక్ష్": 11914,
  "లక్ష్": 11915,
  "ேற்ற": 11916,
  " சீன": 11917,
  "சீன": 11918,
  " लगाए": 11919,
  "लगाए": 11920,
  "न्द": 11921,
  " इंत": 11922,
  "इंत": 11923,
  " वार्ड": 11924,
  "वार्ड": 11925,
  " टै": 11926,
  "टै": 11927,
  "వస": 11928,
  " দিনে": 11929,
  "দিনে": 11930,
  " చేస్తుంది": 11931,
  "చేస్తుంది": 11932,
  " నరే": 11933,
  "నరే": 11934,
  " অনুস": 11935,
  "অনুস": 11936,
  " క్రీ": 11937,
  "క్రీ": 11938,
  "గ్రీ": 11939,
  " কমিটি": 11940,
  "কমিটি": 11941,
  "டுகிறது": 11942,
  "ోర్": 11943,
  " समी": 11944,
  "समी": 11945,
  " அவசிய": 11946,
  "அவசிய": 11947,
  " రవి": 11948,
  "రవి": 11949,
  " వది": 11950,
  "వది": 11951,
  "লী": 11952,
  "దారి": 11953,
  " জার": 11954,
  " அமைக்க": 11955,
  "அமைக்க": 11956,
  "డుకు": 11957,
  " అడి": 11958,
  "అడి": 11959,
  "ানির": 11960,
  " भेजा": 11961,
  "भेजा": 11962,
  " উদ্দিন": 11963,
  "উদ্দিন": 11964,
  " బంధ": 11965,
  "ப்பூர்": 11966,
  " हार": 11967,
  " दिसंबर": 11968,
  "दिसंबर": 11969,
  " আল্লাহ": 11970,
  "আল্লাহ": 11971,
  " जरिए": 11972,
  "जरिए": 11973,
  " देना": 11974,
  "देना": 11975,
  " प्रसाद": 11976,
  "प्रसाद": 11977,
  " ব্যবস্থ": 11978,
  "ব্যবস্থ": 11979,
  " பாதிப்பு": 11980,
  "பாதிப்பு": 11981,
  " अभिने": 11982,
  "अभिने": 11983,
  " அனுமதிக்க": 11984,
  "அனுமதிக்க": 11985,
  " সূত্র": 11986,
  "সূত্র": 11987,
  " ஏற்பட்டு": 11988,
  "ஏற்பட்டு": 11989,
  "రిత్ర": 11990,
  " তৃত": 11991,
  "তৃত": 11992,
  " लगता": 11993,
  "लगता": 11994,
  " చూసి": 11995,
  "చూసి": 11996,
  " इनमें": 11997,
  "इनमें": 11998,
  "ंव": 11999,
  "ச்சே": 12000,
  " ஒது": 12001,
  "ஒது": 12002,
  " दक्षि": 12003,
  "दक्षि": 12004,
  " கோயில்": 12005,
  "கோயில்": 12006,
  " స్థి": 12007,
  " இடங்களில்": 12008,
  "இடங்களில்": 12009,
  " मं": 12010,
  "मं": 12011,
  " இந்தியாவில்": 12012,
  "இந்தியாவில்": 12013,
  " वर्ग": 12014,
  "वर्ग": 12015,
  " আগের": 12016,
  "আগের": 12017,
  " নামের": 12018,
  "নামের": 12019,
  " గొప్ప": 12020,
  "గొప్ప": 12021,
  " F": 12022,
  "F": 12023,
  " থাকেন": 12024,
  "থাকেন": 12025,
  " प्रवेश": 12026,
  "प्रवेश": 12027,
  "స్టా": 12028,
  " দ্বারা": 12029,
  "দ্বারা": 12030,
  " ఉండాలి": 12031,
  "ఉండాలి": 12032,
  " যুগ": 12033,
  "যুগ": 12034,
  " সর্বোচ্চ": 12035,
  "সর্বোচ্চ": 12036,
  "ధ్యా": 12037,
  " दावा": 12038,
  "दावा": 12039,
  " టెస్టు": 12040,
  "టెస్టు": 12041,
  " लॉकडाउन": 12042,
  "लॉकडाउन": 12043,
  " मॉ": 12044,
  "मॉ": 12045,
  " తెచ్చ": 12046,
  "తెచ్చ": 12047,
  "ల్సి": 12048,
  " సూపర్": 12049,
  "సూపర్": 12050,
  " இதுவரை": 12051,
  "இதுவரை": 12052,
  " தொகுதி": 12053,
  "தொகுதி": 12054,
  " লক্ষ্য": 12055,
  "লক্ষ্য": 12056,
  "নাকে": 12057,
  " மட்டும": 12058,
  "மட்டும": 12059,
  "పాద": 12060,
  "ed": 12061,
  " परिष": 12062,
  "परिष": 12063,
  " दोपहर": 12064,
  "दोपहर": 12065,
  " அன்று": 12066,
  "அன்று": 12067,
  " বিএনপি": 12068,
  "বিএনপি": 12069,
  " కిలో": 12070,
  "కిలో": 12071,
  " పరిష్క": 12072,
  "పరిష్క": 12073,
  " పరిశ్రమ": 12074,
  "పరిశ్రమ": 12075,
  " সিং": 12076,
  "সিং": 12077,
  " మొదలు": 12078,
  "మొదలు": 12079,
  "इड": 12080,
  " गये": 12081,
  "गये": 12082,
  " शुभ": 12083,
  "शुभ": 12084,
  " অস্ট্র": 12085,
  "অস্ট্র": 12086,
  "ক্ষেপ": 12087,
  "াকায়": 12088,
  " पढ़ें": 12089,
  "पढ़ें": 12090,
  " పరిచ": 12091,
  "పరిచ": 12092,
  "াধিক": 12093,
  " किस": 12094,
  "किस": 12095,
  " হলেন": 12096,
  "হলেন": 12097,
  " पहला": 12098,
  "पहला": 12099,
  " এড": 12100,
  "এড": 12101,
  "బ్లి": 12102,
  " భర్త": 12103,
  "భర్త": 12104,
  " లోని": 12105,
  " জনপ্রিয়": 12106,
  "জনপ্রিয়": 12107,
  "ுத": 12108,
  "ும": 12109,
  " పరిశీలి": 12110,
  "పరిశీలి": 12111,
  " அதனால்": 12112,
  "அதனால்": 12113,
  " ఎన్టీఆర్": 12114,
  "ఎన్టీఆర్": 12115,
  " பங்கே": 12116,
  "பங்கே": 12117,
  " ரீ": 12118,
  "য়োগ": 12119,
  "లోనూ": 12120,
  " খুঁ": 12121,
  "খুঁ": 12122,
  "--": 12123,
  " ஆகியோர்": 12124,
  "ஆகியோர்": 12125,
  " तेल": 12126,
  "तेल": 12127,
  " சர்வதேச": 12128,
  "சர்வதேச": 12129,
  "ेशा": 12130,
  " எனவும்": 12131,
  "எனவும்": 12132,
  "লিক": 12133,
  " উৎপ": 12134,
  "উৎপ": 12135,
  " ప్రకటించారు": 12136,
  "ప్రకటించారు": 12137,
  " ఇబ్బ": 12138,
  "ఇబ్బ": 12139,
  " অতিরিক্ত": 12140,
  "অতিরিক্ত": 12141,
  " பெறு": 12142,
  "பெறு": 12143,
  "చింది": 12144,
  " বিএনপির": 12145,
  "বিএনপির": 12146,
  "?'": 12147,
  " সত": 12148,
  "সত": 12149,
  " உடன": 12150,
  "உடன": 12151,
  " সারা": 12152,
  "সারা": 12153,
[...]
