{
  "<pad>": 0,
  "<s>": 1,
  "</s>": 2,
  "<mask>": 3,
  "<unk>": 4,
  "<0x00>": 5,
  "<0x01>": 6,
  "<0x02>": 7,
  "<0x03>": 8,
  "<0x04>": 9,
  "<0x05>": 10,
  "<0x06>": 11,
  "<0x07>": 12,
  "<0x08>": 13,
  "<0x09>": 14,
  "<0x0A>": 15,
  "<0x0B>": 16,
  "<0x0C>": 17,
  "<0x0D>": 18,
  "<0x0E>": 19,
  "<0x0F>": 20,
  "<0x10>": 21,
  "<0x11>": 22,
  "<0x12>": 23,
  "<0x13>": 24,
  "<0x14>": 25,
  "<0x15>": 26,
  "<0x16>": 27,
  "<0x17>": 28,
  "<0x18>": 29,
  "<0x19>": 30,
  "<0x1A>": 31,
  "<0x1B>": 32,
  "<0x1C>": 33,
  "<0x1D>": 34,
  "<0x1E>": 35,
  "<0x1F>": 36,
  "<0x20>": 37,
  "<0x21>": 38,
  "<0x22>": 39,
  "<0x23>": 40,
  "<0x24>": 41,
  "<0x25>": 42,
  "<0x26>": 43,
  "<0x27>": 44,
  "<0x28>": 45,
  "<0x29>": 46,
  "<0x2A>": 47,
  "<0x2B>": 48,
  "<0x2C>": 49,
  "<0x2D>": 50,
  "<0x2E>": 51,
  "<0x2F>": 52,
  "<0x30>": 53,
  "<0x31>": 54,
  "<0x32>": 55,
  "<0x33>": 56,
  "<0x34>": 57,
  "<0x35>": 58,
  "<0x36>": 59,
  "<0x37>": 60,
  "<0x38>": 61,
  "<0x39>": 62,
  "<0x3A>": 63,
  "<0x3B>": 64,
  "<0x3C>": 65,
  "<0x3D>": 66,
  "<0x3E>": 67,
  "<0x3F>": 68,
  "<0x40>": 69,
  "<0x41>": 70,
  "<0x42>": 71,
  "<0x43>": 72,
  "<0x44>": 73,
  "<0x45>": 74,
  "<0x46>": 75,
  "<0x47>": 76,
  "<0x48>": 77,
  "<0x49>": 78,
  "<0x4A>": 79,
  "<0x4B>": 80,
  "<0x4C>": 81,
  "<0x4D>": 82,
  "<0x4E>": 83,
  "<0x4F>": 84,
  "<0x50>": 85,
  "<0x51>": 86,
  "<0x52>": 87,
  "<0x53>": 88,
  "<0x54>": 89,
  "<0x55>": 90,
  "<0x56>": 91,
  "<0x57>": 92,
  "<0x58>": 93,
  "<0x59>": 94,
  "<0x5A>": 95,
  "<0x5B>": 96,
  "<0x5C>": 97,
  "<0x5D>": 98,
  "<0x5E>": 99,
  "<0x5F>": 100,
  "<0x60>": 101,
  "<0x61>": 102,
  "<0x62>": 103,
  "<0x63>": 104,
  "<0x64>": 105,
  "<0x65>": 106,
  "<0x66>": 107,
  "<0x67>": 108,
  "<0x68>": 109,
  "<0x69>": 110,
  "<0x6A>": 111,
  "<0x6B>": 112,
  "<0x6C>": 113,
  "<0x6D>": 114,
  "<0x6E>": 115,
  "<0x6F>": 116,
  "<0x70>": 117,
  "<0x71>": 118,
  "<0x72>": 119,
  "<0x73>": 120,
  "<0x74>": 121,
  "<0x75>": 122,
  "<0x76>": 123,
  "<0x77>": 124,
  "<0x78>": 125,
  "<0x79>": 126,
  "<0x7A>": 127,
  "<0x7B>": 128,
  "<0x7C>": 129,
  "<0x7D>": 130,
  "<0x7E>": 131,
  "<0x7F>": 132,
  "<0x80>": 133,
  "<0x81>": 134,
  "<0x82>": 135,
  "<0x83>": 136,
  "<0x84>": 137,
  "<0x85>": 138,
  "<0x86>": 139,
  "<0x87>": 140,
  "<0x88>": 141,
  "<0x89>": 142,
  "<0x8A>": 143,
  "<0x8B>": 144,
  "<0x8C>": 145,
  "<0x8D>": 146,
  "<0x8E>": 147,
  "<0x8F>": 148,
  "<0x90>": 149,
  "<0x91>": 150,
  "<0x92>": 151,
  "<0x93>": 152,
  "<0x94>": 153,
  "<0x95>": 154,
  "<0x96>": 155,
  "<0x97>": 156,
  "<0x98>": 157,
  "<0x99>": 158,
  "<0x9A>": 159,
  "<0x9B>": 160,
  "<0x9C>": 161,
  "<0x9D>": 162,
  "<0x9E>": 163,
  "<0x9F>": 164,
  "<0xA0>": 165,
  "<0xA1>": 166,
  "<0xA2>": 167,
  "<0xA3>": 168,
  "<0xA4>": 169,
  "<0xA5>": 170,
  "<0xA6>": 171,
  "<0xA7>": 172,
  "<0xA8>": 173,
  "<0xA9>": 174,
  "<0xAA>": 175,
  "<0xAB>": 176,
  "<0xAC>": 177,
  "<0xAD>": 178,
  "<0xAE>": 179,
  "<0xAF>": 180,
  "<0xB0>": 181,
  "<0xB1>": 182,
  "<0xB2>": 183,
  "<0xB3>": 184,
  "<0xB4>": 185,
  "<0xB5>": 186,
  "<0xB6>": 187,
  "<0xB7>": 188,
  "<0xB8>": 189,
  "<0xB9>": 190,
  "<0xBA>": 191,
  "<0xBB>": 192,
  "<0xBC>": 193,
  "<0xBD>": 194,
  "<0xBE>": 195,
  "<0xBF>": 196,
  "<0xC0>": 197,
  "<0xC1>": 198,
  "<0xC2>": 199,
  "<0xC3>": 200,
  "<0xC4>": 201,
  "<0xC5>": 202,
  "<0xC6>": 203,
  "<0xC7>": 204,
  "<0xC8>": 205,
  "<0xC9>": 206,
  "<0xCA>": 207,
  "<0xCB>": 208,
  "<0xCC>": 209,
  "<0xCD>": 210,
  "<0xCE>": 211,
  "<0xCF>": 212,
  "<0xD0>": 213,
  "<0xD1>": 214,
  "<0xD2>": 215,
  "<0xD3>": 216,
  "<0xD4>": 217,
  "<0xD5>": 218,
  "<0xD6>": 219,
  "<0xD7>": 220,
  "<0xD8>": 221,
  "<0xD9>": 222,
  "<0xDA>": 223,
  "<0xDB>": 224,
  "<0xDC>": 225,
  "<0xDD>": 226,
  "<0xDE>": 227,
  "<0xDF>": 228,
  "<0xE0>": 229,
  "<0xE1>": 230,
  "<0xE2>": 231,
  "<0xE3>": 232,
  "<0xE4>": 233,
  "<0xE5>": 234,
  "<0xE6>": 235,
  "<0xE7>": 236,
  "<0xE8>": 237,
  "<0xE9>": 238,
  "<0xEA>": 239,
  "<0xEB>": 240,
  "<0xEC>": 241,
  "<0xED>": 242,
  "<0xEE>": 243,
  "<0xEF>": 244,
  "<0xF0>": 245,
  "<0xF1>": 246,
  "<0xF2>": 247,
  "<0xF3>": 248,
  "<0xF4>": 249,
  "<0xF5>": 250,
  "<0xF6>": 251,
  "<0xF7>": 252,
  "<0xF8>": 253,
  "<0xF9>": 254,
  "<0xFA>": 255,
  "<0xFB>": 256,
  "<0xFC>": 257,
  "<0xFD>": 258,
  "<0xFE>": 259,
  "<0xFF>": 260,
  " क": 261,
  "क": 262,
  " स": 263,
  "स": 264,
  " ব": 265,
  "ব": 266,
  " ह": 267,
  "ह": 268,
  " है": 269,
  "है": 270,
  "்க": 271,
  "ार": 272,
  "్ర": 273,
  " म": 274,
  "म": 275,
  " த": 276,
  "த": 277,
  "ার": 278,
  "্য": 279,
  " প": 280,
  "প": 281,
  "্র": 282,
  "्र": 283,
  " ప": 284,
  "ప": 285,
  " भ": 286,
  "भ": 287,
  "ம்": 288,
  " বা": 289,
  "বা": 290,
  " স": 291,
  "স": 292,
  " प": 293,
  "प": 294,
  "्य": 295,
  "లు": 296,
  " ம": 297,
  "ம": 298,
  "ের": 299,
  "िक": 300,
  "ংল": 301,
  " বাংল": 302,
  "বাংল": 303,
  "য়": 304,
  "ன்": 305,
  " త": 306,
  "త": 307,
  "ारत": 308,
  " भारत": 309,
  "भारत": 310,
  "து": 311,
  " न": 312,
  "न": 313,
  " ப": 314,
  "ப": 315,
  "க்க": 316,
  "ிழ": 317,
  "ிய": 318,
  "లో": 319,
  "তি": 320,
  " अ": 321,
  "अ": 322,
  " க": 323,
  "க": 324,
  " తె": 325,
  "తె": 326,
  "ें": 327,
  "மிழ": 328,
  " தமிழ": 329,
  "தமிழ": 330,
  "ान": 331,
  "గు": 332,
  " ক": 333,
  "ক": 334,
  "்ப": 335,
  " की": 336,
  "की": 337,
  " में": 338,
  "में": 339,
  "ில": 340,
  "్య": 341,
  " औ": 342,
  "औ": 343,
  "ின்": 344,
  " के": 345,
  "के": 346,
  "ది": 347,
  " और": 348,
  "और": 349,
  "లుగు": 350,
  " தமிழ்": 351,
  "தமிழ்": 352,
  " తెలుగు": 353,
  "తెలుగు": 354,
  "िय": 355,
  "்த": 356,
  " ज": 357,
  "ज": 358,
  "ப்ப": 359,
  "ता": 360,
  " ब": 361,
  "ब": 362,
  " స": 363,
  "స": 364,
  "ों": 365,
  " অ": 366,
  "অ": 367,
  " ম": 368,
  "ম": 369,
  "ிர": 370,
  "்ட": 371,
  " வ": 372,
  "வ": 373,
  "ும்": 374,
  "িক": 375,
  "ార": 376,
  " द": 377,
  "द": 378,
  "र्": 379,
  "ান": 380,
  " ल": 381,
  "ल": 382,
  "র্": 383,
  " এ": 384,
  "এ": 385,
  " ச": 386,
  "ச": 387,
  "ில்": 388,
  " বাংলার": 389,
  "বাংলার": 390,
  " వ": 391,
  "వ": 392,
  " का": 393,
  "का": 394,
  " বি": 395,
  "বি": 396,
  "িত": 397,
  "ாக": 398,
  "ிற": 399,
  " आ": 400,
  "आ": 401,
  "రా": 402,
  " र": 403,
  "र": 404,
  " व": 405,
  "व": 406,
  " இ": 407,
  "இ": 408,
  " మ": 409,
  "మ": 410,
  "ంది": 411,
  " से": 412,
  "से": 413,
  " प्र": 414,
  "प्र": 415,
  " ప్ర": 416,
  "ప్ర": 417,
  " క": 418,
  "క": 419,
  " প্র": 420,
  "প্র": 421,
  "्ष": 422,
  "ாட": 423,
  "ని": 424,
  "्व": 425,
  "েশ": 426,
  " ने": 427,
  "ने": 428,
  "ন্": 429,
  "াদ": 430,
  " শ": 431,
  "শ": 432,
  " అ": 433,
  "అ": 434,
  " को": 435,
  "को": 436,
  "ంగ": 437,
  "ள்": 438,
  "స్": 439,
  "िया": 440,
  "ங்க": 441,
  " ন": 442,
  "ন": 443,
  "த்த": 444,
  "ास": 445,
  "্ব": 446,
  "ுக": 447,
  "రి": 448,
  "ాల": 449,
  " हैं": 450,
  "हैं": 451,
  "ीय": 452,
  "ছে": 453,
  "রি": 454,
  " उ": 455,
  "उ": 456,
  " র": 457,
  "র": 458,
  "ায়": 459,
  "ক্": 460,
  "ற்": 461,
  " ও": 462,
  "ও": 463,
  "ற்ற": 464,
  "াদেশ": 465,
  "ிறது": 466,
  " বাংলাদেশ": 467,
  "বাংলাদেশ": 468,
  "ना": 469,
  "ोग": 470,
  "நாட": 471,
  " सं": 472,
  "सं": 473,
  " কর": 474,
  "কর": 475,
  "ப்பட": 476,
  " বিশ": 477,
  "বিশ": 478,
  "िल": 479,
  "्त": 480,
  "াল": 481,
  "ைய": 482,
  "ంచ": 483,
  "్ట": 484,
  " त": 485,
  "त": 486,
  " আ": 487,
  "আ": 488,
  " জ": 489,
  "জ": 490,
  " দ": 491,
  "দ": 492,
  "द्य": 493,
  "ित": 494,
  "িল": 495,
  "ர்": 496,
  "ద్": 497,
  "ాయ": 498,
  " य": 499,
  "य": 500,
  "ంలో": 501,
  " पर": 502,
  "पर": 503,
  "স্": 504,
  "తి": 505,
  " श": 506,
  "श": 507,
  " அ": 508,
  "அ": 509,
  " ந": 510,
  "ந": 511,
  "त्र": 512,
  "ంగా": 513,
  "க்கிய": 514,
  "நாட்ட": 515,
  "नी": 516,
  "ेश": 517,
  "াম": 518,
  "ான": 519,
  "ర్": 520,
  " ए": 521,
  "ए": 522,
  " উ": 523,
  "উ": 524,
  " ఆ": 525,
  "ఆ": 526,
  " గ": 527,
  "గ": 528,
  " लि": 529,
  "लि": 530,
  " రా": 531,
  " পরি": 532,
  "পরি": 533,
  " திர": 534,
  "திர": 535,
  "ாகும்": 536,
  "रा": 537,
  "ुन": 538,
  "টি": 539,
  "াত": 540,
  "েল": 541,
  "லை": 542,
  " হ": 543,
  "হ": 544,
  " చ": 545,
  "చ": 546,
  "ন্দ": 547,
  " एक": 548,
  "एक": 549,
  " সম": 550,
  "সম": 551,
  "द्योग": 552,
  " বিশ্ব": 553,
  "বিশ্ব": 554,
  " भारतीय": 555,
  "भारतीय": 556,
  " தமிழ்நாட்ட": 557,
  "தமிழ்நாட்ட": 558,
  "मा": 559,
  "বং": 560,
  "ంట": 561,
  "యు": 562,
  "ిన": 563,
  " உ": 564,
  "உ": 565,
  " ఉ": 566,
  "ఉ": 567,
  " న": 568,
  "న": 569,
  " భ": 570,
  "భ": 571,
  " హ": 572,
  "హ": 573,
  "बसे": 574,
  "்து": 575,
  "ష్ట": 576,
  " मह": 577,
  "मह": 578,
  " సం": 579,
  "సం": 580,
  " এবং": 581,
  "এবং": 582,
  " सबसे": 583,
  "सबसे": 584,
  "ढ़": 585,
  "ति": 586,
  "स्": 587,
  "ুর": 588,
  "ாவ": 589,
  "ுவ": 590,
  "ொழ": 591,
  "ఒక": 592,
  "ుఖ": 593,
  "ేశ": 594,
  " ग": 595,
  "ग": 596,
  " গ": 597,
  "গ": 598,
  "क्ष": 599,
  "চিত": 600,
  "త్య": 601,
  "శ్ర": 602,
  "స్త": 603,
  " नि": 604,
  "नि": 605,
  " वि": 606,
  "वि": 607,
  " ఒక": 608,
  "ிக்க": 609,
  "ப்படுக": 610,
  "वा": 611,
  "োগ": 612,
  "ரு": 613,
  "லக": 614,
  "ிக": 615,
  "ுற": 616,
  "న్": 617,
  "మై": 618,
  "ిక": 619,
  " ভ": 620,
  "ভ": 621,
  "ন্য": 622,
  "మైన": 623,
  "్యా": 624,
  " जा": 625,
  "जा": 626,
  "రియు": 627,
  " लिए": 628,
  "लिए": 629,
  " स्व": 630,
  "स्व": 631,
  " করে": 632,
  "করে": 633,
  " பிர": 634,
  "பிர": 635,
  "ష్ట్ర": 636,
  " మరియు": 637,
  "మరియు": 638,
  " రాష్ట్ర": 639,
  "రాష్ట్ర": 640,
  "ड़": 641,
  "द्": 642,
  "ला": 643,
  "हा": 644,
  "ोज": 645,
  "ড়": 646,
  "াক": 647,
  "াব": 648,
  "ார": 649,
  "்ச": 650,
  "వి": 651,
  " ঐ": 652,
  "ঐ": 653,
  "त्व": 654,
  "তিহ": 655,
  "ধান": 656,
  "ந்த": 657,
  " अध": 658,
  "अध": 659,
  " कर": 660,
  "कर": 661,
  " ని": 662,
  "ளின்": 663,
  " ঐতিহ": 664,
  "ঐতিহ": 665,
  " மற்ற": 666,
  "மற்ற": 667,
  " மற்றும்": 668,
  "மற்றும்": 669,
  "ओं": 670,
  "ती": 671,
  "री": 672,
  "्ट": 673,
  "কে": 674,
  "দ্": 675,
  "াজ": 676,
  "্ষ": 677,
  "பல": 678,
  "றன": 679,
  "కు": 680,
  "డి": 681,
  "డు": 682,
  "బా": 683,
  "ক্ষ": 684,
  "যোগ": 685,
  "ண்ட": 686,
  "மான": 687,
  "ம்ப": 688,
  "ர்க": 689,
  "ள்ள": 690,
  "త్ర": 691,
  "దేశ": 692,
  "ారు": 693,
  " सु": 694,
  "सु": 695,
  " இல": 696,
  "இல": 697,
  " கோ": 698,
  "கோ": 699,
  " மு": 700,
  "மு": 701,
  " భా": 702,
  "భా": 703,
  " సా": 704,
  "సా": 705,
  "िक्ष": 706,
  "రాబా": 707,
  " दुन": 708,
  "दुन": 709,
  " உலக": 710,
  "உலக": 711,
  "ின்றன": 712,
  " उद्योग": 713,
  "उद्योग": 714,
  " दुनिया": 715,
  "दुनिया": 716,
  " ঐতিহ্য": 717,
  "ঐতিহ্য": 718,
  "ंग": 719,
  "पू": 720,
  "ली": 721,
  "्म": 722,
  "ঙ্": 723,
  "তম": 724,
  "েষ": 725,
  "্প": 726,
  "্ল": 727,
  "ல்": 728,
  "ிட": 729,
  "ంధ": 730,
  "టి": 731,
  "తో": 732,
  "ప్": 733,
  "లి": 734,
  "ైద": 735,
  " इ": 736,
  "इ": 737,
  " ర": 738,
  "ర": 739,
  "्या": 740,
  "ছিল": 741,
  "ৃতি": 742,
  "ட்ட": 743,
  " अप": 744,
  "अप": 745,
  " रा": 746,
  " এক": 747,
  "এক": 748,
  " வக": 749,
  "வக": 750,
  " వి": 751,
  "ंत्र": 752,
  "पूर्": 753,
  "ক্তি": 754,
  "িক্ষ": 755,
  "িল্প": 756,
  "த்து": 757,
  "ుఖ్య": 758,
  " देश": 759,
  "देश": 760,
  " बढ़": 761,
  "बढ़": 762,
  " மிக": 763,
  "மிக": 764,
  " హైద": 765,
  "హైద": 766,
  " अधिक": 767,
  "अधिक": 768,
  "மாகும்": 769,
  "రాబాద్": 770,
  " महत्व": 771,
  "महत्व": 772,
  " শিক্ষ": 773,
  "শিক্ষ": 774,
  " ముఖ్య": 775,
  "ముఖ్య": 776,
  " முக்கிய": 777,
  "முக்கிய": 778,
  " ముఖ్యమైన": 779,
  "ముఖ్యమైన": 780,
  " రాష్ట్రాల": 781,
  "రాష్ట్రాల": 782,
  "ंद": 783,
  "कृ": 784,
  "त्": 785,
  "চ্": 786,
  "াপ": 787,
  "ரப": 788,
  "ణా": 789,
  "ధి": 790,
  " চ": 791,
  "চ": 792,
  " ఇ": 793,
  "ఇ": 794,
  "द्ध": 795,
  "धान": 796,
  "िला": 797,
  "কার": 798,
  "ঙ্গ": 799,
  "য়ে": 800,
  "্যব": 801,
  "న్న": 802,
  "పంచ": 803,
  "ాయి": 804,
  "ారి": 805,
  "ార్": 806,
  "్లో": 807,
  " यह": 808,
  "यह": 809,
  " सम": 810,
  "सम": 811,
  " सा": 812,
  "सा": 813,
  " கொ": 814,
  "கொ": 815,
  "रक्ष": 816,
  "ంధ్ర": 817,
  " क्ष": 818,
  " சிற": 819,
  "சிற": 820,
  " மரப": 821,
  "மரப": 822,
  " భాష": 823,
  "భాష": 824,
  "पूर्ण": 825,
  " अपनी": 826,
  "अपनी": 827,
  " जाता": 828,
  "जाता": 829,
  " प्रा": 830,
  "प्रा": 831,
  " பங்க": 832,
  "பங்க": 833,
  " শিল্প": 834,
  "শিল্প": 835,
  " திருவ": 836,
  "திருவ": 837,
  " ఆంధ్ర": 838,
  "ఆంధ్ర": 839,
  " ప్రపంచ": 840,
  "ప్రపంచ": 841,
  " இலக்கிய": 842,
  "இலக்கிய": 843,
  "ப்படுகிறது": 844,
  " హైదరాబాద్": 845,
  "హైదరాబాద్": 846,
  " महत्वपूर्ण": 847,
  "महत्वपूर्ण": 848,
  " தமிழ்நாட்டின்": 849,
  "தமிழ்நாட்டின்": 850,
  "हर": 851,
  "िस": 852,
  "ोक": 853,
  "्थ": 854,
  "চি": 855,
  "বন": 856,
  "ুন": 857,
  "ুল": 858,
  "েখ": 859,
  "ৎস": 860,
  "ளி": 861,
  "ைக": 862,
  "కి": 863,
  "జా": 864,
  "త్": 865,
  "ను": 866,
  "పు": 867,
  "వు": 868,
  "ొం": 869,
  " ख": 870,
  "ख": 871,
  " च": 872,
  "च": 873,
  " খ": 874,
  "খ": 875,
  " ত": 876,
  "ত": 877,
  " ল": 878,
  "ল": 879,
  "क्त": 880,
  "ध्य": 881,
  "माज": 882,
  "र्थ": 883,
  "श्व": 884,
  "ত্য": 885,
  "দ্য": 886,
  "ন্ত": 887,
  "মিক": 888,
  "হার": 889,
  "ன்ன": 890,
  "மாக": 891,
  "ரிய": 892,
  "ல்க": 893,
  "ார்": 894,
  " आध": 895,
  "आध": 896,
  " तक": 897,
  "तक": 898,
  " ला": 899,
  " অপ": 900,
  "অপ": 901,
  " নি": 902,
  "নি": 903,
  " সং": 904,
  "সং": 905,
  " இச": 906,
  "இச": 907,
  " சி": 908,
  "சி": 909,
  " பெ": 910,
  "பெ": 911,
  "िकास": 912,
  "ियों": 913,
  "ेत्र": 914,
  "ন্দর": 915,
  "ద్ధి": 916,
  " बड़": 917,
  "बड़": 918,
  " राज": 919,
  "राज": 920,
  " பார": 921,
  "பார": 922,
  " மொழ": 923,
  "மொழ": 924,
  " శ్ర": 925,
  "तंत्र": 926,
  "िक्षा": 927,
  "ুক্তি": 928,
  "த்துவ": 929,
  "ள்ளது": 930,
  " করছে": 931,
  "করছে": 932,
  " পরিব": 933,
  "পরিব": 934,
  " ఒకటి": 935,
  "ఒకటి": 936,
  " विकास": 937,
  "विकास": 938,
  " করেছে": 939,
  "করেছে": 940,
  " বাংলা": 941,
  "বাংলা": 942,
  " கொண்ட": 943,
  "கொண்ட": 944,
  " अधिकार": 945,
  "अधिकार": 946,
  " शिक्षा": 947,
  "शिक्षा": 948,
  " சிறப்ப": 949,
  "சிறப்ப": 950,
  " क्षेत्र": 951,
  "क्षेत्र": 952,
  "ंप": 953,
  "एँ": 954,
  "च्": 955,
  "टी": 956,
  "भा": 957,
  "यु": 958,
  "ुल": 959,
  "ूर": 960,
  "তন": 961,
  "নী": 962,
  "শ্": 963,
  "ষ্": 964,
  "হী": 965,
  "াস": 966,
  "াহ": 967,
  "ীত": 968,
  "ুত": 969,
  "ண்": 970,
  "ளவ": 971,
  "ாத": 972,
  "ாய": 973,
  "క్": 974,
  "మా": 975,
  "సి": 976,
  "ాట": 977,
  " ड": 978,
  "ड": 979,
  " थ": 980,
  "थ": 981,
  " ই": 982,
  "ই": 983,
  " য": 984,
  "য": 985,
  " ఎ": 986,
  "ఎ": 987,
  "कृत": 988,
  "नीक": 989,
  "भिय": 990,
  "ष्ट": 991,
  "स्थ": 992,
  "ाना": 993,
  "्रा": 994,
  "গ্র": 995,
  "তার": 996,
  "দ্ধ": 997,
  "ধ্য": 998,
  "ভাব": 999,
  "র্থ": 1000,
  "র্ব": 1001,
  "িয়": 1002,
  "ன்ற": 1003,
  "ரம்": 1004,
  "దాయ": 1005,
  " अं": 1006,
  "अं": 1007,
  " মা": 1008,
  "মা": 1009,
  " সু": 1010,
  "সু": 1011,
  " স্": 1012,
  " இட": 1013,
  "இட": 1014,
  " స్": 1015,
  "ंपरा": 1016,
  "ानों": 1017,
  "ोजना": 1018,
  "কৃতি": 1019,
  "ற்று": 1020,
  "ளில்": 1021,
  "ுக்க": 1022,
  "దేశ్": 1023,
  "లంగా": 1024,
  " मिल": 1025,
  "मिल": 1026,
  " लोक": 1027,
  "लोक": 1028,
  " கோய": 1029,
  "கோய": 1030,
  " కవి": 1031,
  "కవి": 1032,
  " పరి": 1033,
  "పరి": 1034,
  " వంట": 1035,
  "వంట": 1036,
  "চিত্র": 1037,
  "ন্দ্র": 1038,
  "ন্যতম": 1039,
  "ளவில்": 1040,
  "ையில்": 1041,
  "తోంది": 1042,
  " अभिय": 1043,
  "अभिय": 1044,
  " दिया": 1045,
  "दिया": 1046,
  " प्रस": 1047,
  "प्रस": 1048,
  " ব্যব": 1049,
  "ব্যব": 1050,
  " ఉంది": 1051,
  "ఉంది": 1052,
  " ప్రా": 1053,
  "ప్రా": 1054,
  "లంగాణా": 1055,
  " तकनीक": 1056,
  "तकनीक": 1057,
  " বিশেষ": 1058,
  "বিশেষ": 1059,
  " பிரபல": 1060,
  "பிரபல": 1061,
  "द्योगिक": 1062,
  "ர்களின்": 1063,
  "ప్రదేశ్": 1064,
  " परंपरा": 1065,
  "परंपरा": 1066,
  " অন্যতম": 1067,
  "অন্যতম": 1068,
  " পরিচিত": 1069,
  "পরিচিত": 1070,
  " வகிக்க": 1071,
  "வகிக்க": 1072,
  " உலகளவில்": 1073,
  "உலகளவில்": 1074,
  " తెలంగాణా": 1075,
  "తెలంగాణా": 1076,
  " தமிழர்களின்": 1077,
  "தமிழர்களின்": 1078,
  " தமிழ்நாட்டு": 1079,
  "தமிழ்நாட்டு": 1080,
  " ఆంధ్రప్రదేశ్": 1081,
  "ఆంధ్రప్రదేశ్": 1082,
  "गर": 1083,
  "घर": 1084,
  "ची": 1085,
  "पा": 1086,
  "बा": 1087,
  "मी": 1088,
  "वे": 1089,
  "षा": 1090,
  "ही": 1091,
  "िज": 1092,
  "ूप": 1093,
  "ेल": 1094,
  "জি": 1095,
  "ঞ্": 1096,
  "তা": 1097,
  "ত্": 1098,
  "থি": 1099,
  "না": 1100,
  "নু": 1101,
  "বে": 1102,
  "শন": 1103,
  "ির": 1104,
  "ৃষ": 1105,
  "েট": 1106,
  "োক": 1107,
  "োপ": 1108,
  "டு": 1109,
  "ணா": 1110,
  "தி": 1111,
  "மூ": 1112,
  "ரா": 1113,
  "ரை": 1114,
  "லா": 1115,
  "வி": 1116,
  "வை": 1117,
  "ாழ": 1118,
  "ிள": 1119,
  "ுட": 1120,
  "்வ": 1121,
  "ంక": 1122,
  "ంత": 1123,
  "కళ": 1124,
  "గా": 1125,
  "చి": 1126,
  "తీ": 1127,
  "నం": 1128,
  "హి": 1129,
  "ిర": 1130,
  "ూర": 1131,
  "ేక": 1132,
  " ऊ": 1133,
  "ऊ": 1134,
  " ध": 1135,
  "ध": 1136,
  " ஒ": 1137,
  "ஒ": 1138,
  " బ": 1139,
  "బ": 1140,
  " ల": 1141,
  "ల": 1142,
  "करण": 1143,
  "गार": 1144,
  "मिक": 1145,
  "व्य": 1146,
  "्तर": 1147,
  "তির": 1148,
  "দের": 1149,
  "ন্ধ": 1150,
  "ব্য": 1151,
  "ল্ল": 1152,
  "স্থ": 1153,
  "িতা": 1154,
  "েলা": 1155,
  "ச்ச": 1156,
  "மூக": 1157,
  "ாய்": 1158,
  "ప్ప": 1159,
  "ముఖ": 1160,
  "స్థ": 1161,
  "ించ": 1162,
  "ులు": 1163,
  "ొండ": 1164,
  "్రా": 1165,
  " आव": 1166,
  "आव": 1167,
  " इस": 1168,
  "इस": 1169,
  " गु": 1170,
  "गु": 1171,
  " जो": 1172,
  "जो": 1173,
  " दे": 1174,
  "दे": 1175,
  " हो": 1176,
  "हो": 1177,
  " আজ": 1178,
  "আজ": 1179,
  " জী": 1180,
  "জী": 1181,
  " পা": 1182,
  "পা": 1183,
  " বৃ": 1184,
  "বৃ": 1185,
  " ভূ": 1186,
  "ভূ": 1187,
  " মু": 1188,
  "মু": 1189,
  " সহ": 1190,
  "সহ": 1191,
  " செ": 1192,
  "செ": 1193,
  " தொ": 1194,
  "தொ": 1195,
  " గొ": 1196,
  "గొ": 1197,
  " చె": 1198,
  "చె": 1199,
  " పె": 1200,
  "పె": 1201,
  " పో": 1202,
  "పో": 1203,
  " మహ": 1204,
  "మహ": 1205,
  "डिया": 1206,
  "ध्यम": 1207,
  "िद्ध": 1208,
  "ुनिक": 1209,
  "চ্ছে": 1210,
  "বাহী": 1211,
  "মিকা": 1212,
  "র্তন": 1213,
  "র্শন": 1214,
  "ালয়": 1215,
  "েয়ে": 1216,
  "্রাম": 1217,
  "வும்": 1218,
  "శ్రమ": 1219,
  "ాలలో": 1220,
  " किस": 1221,
  "किस": 1222,
  " रोज": 1223,
  "रोज": 1224,
  " উৎস": 1225,
  "উৎস": 1226,
  " কৃষ": 1227,
  "কৃষ": 1228,
  " ছিল": 1229,
  " বিজ": 1230,
  "বিজ": 1231,
  " মান": 1232,
  "মান": 1233,
  " হয়": 1234,
  "হয়": 1235,
  " இசை": 1236,
  "இசை": 1237,
  " துற": 1238,
  "துற": 1239,
  " தொழ": 1240,
  "தொழ": 1241,
  " అని": 1242,
  "అని": 1243,
  " ఇది": 1244,
  "ఇది": 1245,
  "रक्षण": 1246,
  "र्थिक": 1247,
  "যোগ্য": 1248,
  "க்கலை": 1249,
  "ங்குக": 1250,
  " किया": 1251,
  "किया": 1252,
  " प्रौ": 1253,
  "प्रौ": 1254,
  " बढ़ा": 1255,
  "बढ़ा": 1256,
  " संस्": 1257,
  "संस्": 1258,
  " समाज": 1259,
  "समाज": 1260,
  " सेवा": 1261,
  "सेवा": 1262,
  " অগ্র": 1263,
  "অগ্র": 1264,
  " অর্থ": 1265,
  "অর্থ": 1266,
  " সমাজ": 1267,
  "সমাজ": 1268,
  " சமூக": 1269,
  "சமூக": 1270,
  " மக்க": 1271,
  "மக்க": 1272,
  " అత్య": 1273,
  "అత్య": 1274,
  " వారి": 1275,
  "వారి": 1276,
  " శ్రీ": 1277,
  "శ్రీ": 1278,
  "যুক্তি": 1279,
  "த்தின்": 1280,
  "ம்பரிய": 1281,
  "ுள்ளது": 1282,
  "ప్రదాయ": 1283,
  "సిద్ధి": 1284,
  " योजना": 1285,
  "योजना": 1286,
  " विश्व": 1287,
  "विश्व": 1288,
  " பங்கு": 1289,
  "பங்கு": 1290,
  "দ্যালয়": 1291,
  " अभियान": 1292,
  "अभियान": 1293,
  " आधुनिक": 1294,
  "आधुनिक": 1295,
  " आर्थिक": 1296,
  "आर्थिक": 1297,
  " रोजगार": 1298,
  "रोजगार": 1299,
  " প্রধান": 1300,
  "প্রধান": 1301,
  " ভূমিকা": 1302,
  "ভূমিকা": 1303,
  " সুন্দর": 1304,
  "সুন্দর": 1305,
  " ప్రముఖ": 1306,
  "ప్రముఖ": 1307,
  "द्योगिकी": 1308,
  " संरक्षण": 1309,
  "संरक्षण": 1310,
  " শিক্ষার": 1311,
  "শিক্ষার": 1312,
  " கொண்டாட": 1313,
  "கொண்டாட": 1314,
  " மிகவும்": 1315,
  "மிகவும்": 1316,
  " పరిశ్రమ": 1317,
  "పరిశ్రమ": 1318,
  " प्रसिद्ध": 1319,
  "प्रसिद्ध": 1320,
  " लोकतंत्र": 1321,
  "लोकतंत्र": 1322,
  " பிரபலமான": 1323,
  "பிரபலமான": 1324,
  " సంప్రదాయ": 1325,
  "సంప్రదాయ": 1326,
  " பாரம்பரிய": 1327,
  "பாரம்பரிய": 1328,
  " ప్రపంచంలో": 1329,
  "ప్రపంచంలో": 1330,
  " ప్రసిద్ధి": 1331,
  "ప్రసిద్ధి": 1332,
  "ப்படுகின்றன": 1333,
  " ঐতিহ্যবাহী": 1334,
  "ঐতিহ্যবাহী": 1335,
  " வகிக்கிறது": 1336,
  "வகிக்கிறது": 1337,
  " प्रौद्योगिकी": 1338,
  "प्रौद्योगिकी": 1339,
  "ंख": 1340,
  "जन": 1341,
  "ज्": 1342,
  "टल": 1343,
  "तर": 1344,
  "भु": 1345,
  "वन": 1346,
  "हि": 1347,
  "ाय": 1348,
  "िन": 1349,
  "िम": 1350,
  "िश": 1351,
  "ेन": 1352,
  "ोल": 1353,
  "्क": 1354,
  "চল": 1355,
  "জন": 1356,
  "জা": 1357,
  "দী": 1358,
  "পূ": 1359,
  "প্": 1360,
  "মব": 1361,
  "রু": 1362,
  "সল": 1363,
  "হন": 1364,
  "াঁ": 1365,
  "াং": 1366,
  "াখ": 1367,
  "ূল": 1368,
  "েত": 1369,
  "েন": 1370,
  "েপ": 1371,
  "েম": 1372,
  "োধ": 1373,
  "্ঞ": 1374,
  "கர": 1375,
  "டி": 1376,
  "டை": 1377,
  "ப்": 1378,
  "மை": 1379,
  "ంద": 1380,
  "గర": 1381,
  "గ్": 1382,
  "చ్": 1383,
  "తా": 1384,
  "దీ": 1385,
  "నా": 1386,
  "నీ": 1387,
  "యం": 1388,
  "యా": 1389,
  "ల్": 1390,
  "వబ": 1391,
  "వా": 1392,
  "సు": 1393,
  "హ్": 1394,
  " फ": 1395,
  "फ": 1396,
  " ঢ": 1397,
  "ঢ": 1398,
  " ஆ": 1399,
  "ஆ": 1400,
  " எ": 1401,
  "எ": 1402,
  " ఏ": 1403,
  "ఏ": 1404,
  " జ": 1405,
  "జ": 1406,
  " డ": 1407,
  "డ": 1408,
  "कार": 1409,
  "कों": 1410,
  "खों": 1411,
  "ग्र": 1412,
  "चीन": 1413,
  "चों": 1414,
  "ज्ञ": 1415,
  "तुल": 1416,
  "दान": 1417,
  "द्र": 1418,
  "धार": 1419,
  "नीय": 1420,
  "भुत": 1421,
  "मीण": 1422,
  "रान": 1423,
  "वार": 1424,
  "विष": 1425,
  "वेश": 1426,
  "ाषा": 1427,
  "िजि": 1428,
  "ीढ़": 1429,
  "ूरी": 1430,
  "গীত": 1431,
  "তিক": 1432,
  "দ্র": 1433,
  "ধুন": 1434,
  "পুর": 1435,
  "য়া": 1436,
  "র্ণ": 1437,
  "র্ম": 1438,
  "স্ত": 1439,
  "ানি": 1440,
  "ান্": 1441,
  "াপী": 1442,
  "ালে": 1443,
  "ীয়": 1444,
  "োপা": 1445,
  "্রে": 1446,
  "ஞ்ச": 1447,
  "ம்ம": 1448,
  "ர்த": 1449,
  "ிரி": 1450,
  "ூர்": 1451,
  "ெளி": 1452,
  "ంగీ": 1453,
  "ండి": 1454,
  "చిన": 1455,
  "ట్ట": 1456,
  "తిక": 1457,
  "తీయ": 1458,
  "ద్ద": 1459,
  "ద్య": 1460,
  "ధిక": 1461,
  "ర్ప": 1462,
  "లలో": 1463,
  "స్క": 1464,
  "ికి": 1465,
  "ిలు": 1466,
  " उत": 1467,
  "उत": 1468,
  " उप": 1469,
  "उप": 1470,
  " कृ": 1471,
  " जन": 1472,
  " जी": 1473,
  "जी": 1474,
  " थी": 1475,
  "थी": 1476,
  " नद": 1477,
  "नद": 1478,
  " ना": 1479,
  " नी": 1480,
  " पह": 1481,
  "पह": 1482,
  " बन": 1483,
  "बन": 1484,
  " बे": 1485,
  "बे": 1486,
  " भू": 1487,
  "भू": 1488,
  " मा": 1489,
  " मी": 1490,
  " वै": 1491,
  "वै": 1492,
  " सद": 1493,
  "सद": 1494,
  " কব": 1495,
  "কব": 1496,
  " কল": 1497,
  "কল": 1498,
  " জন": 1499,
  " পো": 1500,
  "পো": 1501,
  " বে": 1502,
  " বৈ": 1503,
  "বৈ": 1504,
  " அற": 1505,
  "அற": 1506,
  " அழ": 1507,
  "அழ": 1508,
  " இய": 1509,
  "இய": 1510,
  " கட": 1511,
  "கட": 1512,
  " சு": 1513,
  "சு": 1514,
  " நட": 1515,
  "நட": 1516,
  " பழ": 1517,
  "பழ": 1518,
  " பு": 1519,
  "பு": 1520,
  " வர": 1521,
  "வர": 1522,
  " வள": 1523,
  "வள": 1524,
  " வே": 1525,
  "வே": 1526,
  " గో": 1527,
  "గో": 1528,
  " పర": 1529,
  "పర": 1530,
  " పా": 1531,
  "పా": 1532,
  " పొ": 1533,
  "పొ": 1534,
  " లో": 1535,
  "मिका": 1536,
  "र्जा": 1537,
  "ास्थ": 1538,
  "চিমব": 1539,
  "ধানী": 1540,
  "ন্ধন": 1541,
  "রকার": 1542,
  "ায়ন": 1543,
  "ুত্ব": 1544,
  "্ঞান": 1545,
  "ண்ணா": 1546,
  "திபல": 1547,
  "துரை": 1548,
  "ன்னை": 1549,
  "ப்பு": 1550,
  "ரும்": 1551,
  "ிழாவ": 1552,
  "்கள்": 1553,
  "ందిన": 1554,
  "నికి": 1555,
  "న్ని": 1556,
  "స్తు": 1557,
  " अद्": 1558,
  "अद्": 1559,
  " आयु": 1560,
  "आयु": 1561,
  " कहा": 1562,
  "कहा": 1563,
  " कें": 1564,
  "कें": 1565,
  " क्र": 1566,
  "क्र": 1567,
  " बच्": 1568,
  "बच्": 1569,
  " रहा": 1570,
  "रहा": 1571,
  " रूप": 1572,
  "रूप": 1573,
  " स्थ": 1574,
  " অনু": 1575,
  "অনু": 1576,
  " খাত": 1577,
  "খাত": 1578,
  " গুর": 1579,
  "গুর": 1580,
  " ঢাক": 1581,
  "ঢাক": 1582,
  " দেশ": 1583,
  "দেশ": 1584,
  " নিদ": 1585,
  "নিদ": 1586,
  " পদ্": 1587,
  "পদ্": 1588,
  " পশ্": 1589,
  "পশ্": 1590,
  " পাল": 1591,
  "পাল": 1592,
  " মাছ": 1593,
  "মাছ": 1594,
  " রাজ": 1595,
  "রাজ": 1596,
  " সাম": 1597,
  "সাম": 1598,
  " স্থ": 1599,
  " கரு": 1600,
  "கரு": 1601,
  " கல்": 1602,
  "கல்": 1603,
  " காவ": 1604,
  "காவ": 1605,
  " குற": 1606,
  "குற": 1607,
  " மரு": 1608,
  "மரு": 1609,
  " வாழ": 1610,
  "வாழ": 1611,
  " விள": 1612,
  "விள": 1613,
  " దేశ": 1614,
  " పంట": 1615,
  "పంట": 1616,
  " పోష": 1617,
  "పోష": 1618,
  " మహా": 1619,
  "మహా": 1620,
  " రంగ": 1621,
  "రంగ": 1622,
  " స్థ": 1623,
  "कृतिक": 1624,
  "ज्ञान": 1625,
  "रक्षा": 1626,
  "विष्य": 1627,
  "ष्ट्र": 1628,
  "िजिटल": 1629,
  "ধুনিক": 1630,
  "নীতির": 1631,
  "ন্তর্": 1632,
  "পূর্ণ": 1633,
  "ল্লেখ": 1634,
  "ায়তা": 1635,
  "கிறது": 1636,
  "ங்கள்": 1637,
  "ப்படு": 1638,
  "ப்பிட": 1639,
  "ியின்": 1640,
  "ியில்": 1641,
  "డింది": 1642,
  "త్యేక": 1643,
  "స్తకళ": 1644,
  "హిత్య": 1645,
  "ిలువబ": 1646,
  " अंतर": 1647,
  "अंतर": 1648,
  " उद्य": 1649,
  "उद्य": 1650,
  " ग्रा": 1651,
  "ग्रा": 1652,
  " निभा": 1653,
  "निभा": 1654,
  " निर्": 1655,
  "निर्": 1656,
  " बड़ा": 1657,
  "बड़ा": 1658,
  " भाषा": 1659,
  "भाषा": 1660,
  " উৎসব": 1661,
  "উৎসব": 1662,
  " কর্ম": 1663,
  "কর্ম": 1664,
  " কৃষি": 1665,
  "কৃষি": 1666,
  " জন্য": 1667,
  "জন্য": 1668,
  " জীবন": 1669,
  "জীবন": 1670,
  " প্রা": 1671,
  "প্রা": 1672,
  " சங்க": 1673,
  "சங்க": 1674,
  " திரை": 1675,
  "திரை": 1676,
  " துறை": 1677,
  "துறை": 1678,
  " மரபை": 1679,
  "மரபை": 1680,
  " வெளி": 1681,
  "வெளி": 1682,
  " ఉన్న": 1683,
  "ఉన్న": 1684,
  " ఏర్ప": 1685,
  "ఏర్ప": 1686,
  " కొండ": 1687,
  "కొండ": 1688,
  " నిలి": 1689,
  "నిలి": 1690,
  " ప్రజ": 1691,
  "ప్రజ": 1692,
  " సంగీ": 1693,
  "సంగీ": 1694,
  "ास्थ्य": 1695,
  "চন্দ্র": 1696,
  "ধ্যায়": 1697,
  "ব্যাপী": 1698,
  "স্কৃতি": 1699,
  "ாய்ந்த": 1700,
  " उत्तर": 1701,
  "उत्तर": 1702,
  " ऊर्जा": 1703,
  "ऊर्जा": 1704,
  " प्रति": 1705,
  "प्रति": 1706,
  " लाखों": 1707,
  "लाखों": 1708,
  " গ্রাম": 1709,
  "গ্রাম": 1710,
  " পেয়ে": 1711,
  "পেয়ে": 1712,
  " প্রয়": 1713,
  "প্রয়": 1714,
  " হচ্ছে": 1715,
  "হচ্ছে": 1716,
  " சித்த": 1717,
  "சித்த": 1718,
  " గొప్ప": 1719,
  "గొప్ప": 1720,
  "চিমবঙ্গ": 1721,
  " अद्भुत": 1722,
  "अद्भुत": 1723,
  " केंद्र": 1724,
  "केंद्र": 1725,
  " डिजिटल": 1726,
  "डिजिटल": 1727,
  " तकनीकी": 1728,
  "तकनीकी": 1729,
  " बच्चों": 1730,
  "बच्चों": 1731,
  " भविष्य": 1732,
  "भविष्य": 1733,
  " भूमिका": 1734,
  "भूमिका": 1735,
  " माध्यम": 1736,
  "माध्यम": 1737,
  " আধুনিক": 1738,
  "আধুনিক": 1739,
  " উল্লেখ": 1740,
  "উল্লেখ": 1741,
  " পরিবেশ": 1742,
  "পরিবেশ": 1743,
  " শিক্ষা": 1744,
  "শিক্ষা": 1745,
  " கோயில்": 1746,
  "கோயில்": 1747,
  " சென்னை": 1748,
  "சென்னை": 1749,
  " தொழில்": 1750,
  "தொழில்": 1751,
  " பங்களி": 1752,
  "பங்களி": 1753,
  " பெரும்": 1754,
  "பெரும்": 1755,
  " పిలువబ": 1756,
  "పిలువబ": 1757,
  " హస్తకళ": 1758,
  "హస్తకళ": 1759,
  "திபலிக்க": 1760,
  " ग्रामीण": 1761,
  "ग्रामीण": 1762,
  " प्राचीन": 1763,
  "प्राचीन": 1764,
  " सुरक्षा": 1765,
  "सुरक्षा": 1766,
  " গুরুত্ব": 1767,
  "গুরুত্ব": 1768,
  " নিদর্শন": 1769,
  "নিদর্শন": 1770,
  " বিজ্ঞান": 1771,
  "বিজ্ঞান": 1772,
  " বিশ্ববি": 1773,
  "বিশ্ববি": 1774,
  " ব্যবহার": 1775,
  "ব্যবহার": 1776,
  " রাজধানী": 1777,
  "রাজধানী": 1778,
  " সহায়তা": 1779,
  "সহায়তা": 1780,
  " సాహిత్య": 1781,
  "సాహిత్య": 1782,
  "োপাধ্যায়": 1783,
  " अंतरिक्ष": 1784,
  "अंतरिक्ष": 1785,
  " সুন্দরবন": 1786,
  "সুন্দরবন": 1787,
  " மக்களின்": 1788,
  "மக்களின்": 1789,
  " மருத்துவ": 1790,
  "மருத்துவ": 1791,
  " விளங்குக": 1792,
  "விளங்குக": 1793,
  " ప్రత్యేక": 1794,
  "ప్రత్యేక": 1795,
  " स्वास्थ्य": 1796,
  "स्वास्थ्य": 1797,
  " অর্থনীতির": 1798,
  "অর্থনীতির": 1799,
  " প্রযুক্তি": 1800,
  "প্রযুক্তি": 1801,
  " இலக்கியம்": 1802,
  "இலக்கியம்": 1803,
  " வெளிப்படு": 1804,
  "வெளிப்படு": 1805,
  " পশ্চিমবঙ্গ": 1806,
  "পশ্চিমবঙ্গ": 1807,
  " উল্লেখযোগ্য": 1808,
  "উল্লেখযোগ্য": 1809,
  " বিশ্বব্যাপী": 1810,
  "বিশ্বব্যাপী": 1811,
  " பிரதிபலிக்க": 1812,
  "பிரதிபலிக்க": 1813,
  " రాష్ట్రాల్లో": 1814,
  "రాష్ట్రాల్లో": 1815,
  " বিশ্ববিদ্যালয়": 1816,
  "বিশ্ববিদ্যালয়": 1817,
  "20": 1818,
  "ंक": 1819,
  "ंब": 1820,
  "ंव": 1821,
  "खी": 1822,
  "गे": 1823,
  "ते": 1824,
  "दल": 1825,
  "दा": 1826,
  "धी": 1827,
  "न्": 1828,
  "भर": 1829,
  "भव": 1830,
  "रो": 1831,
  "लभ": 1832,
  "लय": 1833,
  "वत": 1834,
  "वु": 1835,
  "शल": 1836,
  "शि": 1837,
  "षि": 1838,
  "ां": 1839,
  "ाओ": 1840,
  "िर": 1841,
  "ुक": 1842,
  "ुग": 1843,
  "ूक": 1844,
  "ूच": 1845,
  "ून": 1846,
  "ूल": 1847,
  "ेट": 1848,
  "ेड": 1849,
  "ैव": 1850,
  "ংশ": 1851,
  "ইক": 1852,
  "উল": 1853,
  "কত": 1854,
  "কা": 1855,
  "কি": 1856,
  "জর": 1857,
  "ট্": 1858,
  "ডি": 1859,
  "থা": 1860,
  "থে": 1861,
  "নে": 1862,
  "ফল": 1863,
  "বদ": 1864,
  "বব": 1865,
  "বী": 1866,
  "মল": 1867,
  "ষণ": 1868,
  "ষা": 1869,
  "সি": 1870,
  "সূ": 1871,
  "ীণ": 1872,
  "ুষ": 1873,
  "ূপ": 1874,
  "ৃত": 1875,
  "েও": 1876,
  "োব": 1877,
  "োর": 1878,
  "ৌর": 1879,
  "্ঠ": 1880,
  "ৎপ": 1881,
  "கள": 1882,
  "க்": 1883,
  "ணவ": 1884,
  "ணி": 1885,
  "னெ": 1886,
  "மண": 1887,
  "யு": 1888,
  "ரட": 1889,
  "லி": 1890,
  "லோ": 1891,
  "ால": 1892,
  "ிப": 1893,
  "ீன": 1894,
  "ேச": 1895,
  "ேய": 1896,
  "ఐట": 1897,
  "కన": 1898,
  "గం": 1899,
  "గి": 1900,
  "జం": 1901,
  "జు": 1902,
  "ట్": 1903,
  "డా": 1904,
  "డే": 1905,
  "డ్": 1906,
  "తన": 1907,
  "తర": 1908,
  "దా": 1909,
  "పద": 1910,
  "మి": 1911,
  "రణ": 1912,
  "రు": 1913,
  "లా": 1914,
  "శా": 1915,
  "ష్": 1916,
  "సర": 1917,
  "ీవ": 1918,
  "ేత": 1919,
  "్వ": 1920,
  " 1": 1921,
  "1": 1922,
  " ई": 1923,
  "ई": 1924,
  " ऐ": 1925,
  "ऐ": 1926,
  " ऑ": 1927,
  "ऑ": 1928,
  " ओ": 1929,
  "ओ": 1930,
  " ট": 1931,
  "ট": 1932,
  " ধ": 1933,
  "ধ": 1934,
  " ফ": 1935,
  "ফ": 1936,
  " ஏ": 1937,
  "ஏ": 1938,
  " ఖ": 1939,
  "ఖ": 1940,
  " ద": 1941,
  "ద": 1942,
  "ंगा": 1943,
  "ंस्": 1944,
  "चार": 1945,
  "च्छ": 1946,
  "टीम": 1947,
  "ड़ा": 1948,
  "णित": 1949,
  "तिह": 1950,
  "दर्": 1951,
  "धता": 1952,
  "पाल": 1953,
  "माण": 1954,
  "यता": 1955,
  "यास": 1956,
  "र्ष": 1957,
  "वना": 1958,
  "वुड": 1959,
  "वेद": 1960,
  "श्य": 1961,
  "हती": 1962,
  "हरी": 1963,
  "हाँ": 1964,
  "हिए": 1965,
  "हित": 1966,
  "हों": 1967,
  "िशन": 1968,
  "िसे": 1969,
  "ृंख": 1970,
  "ृजन": 1971,
  "ेजी": 1972,
  "ॉली": 1973,
  "ोड़": 1974,
  "ोलन": 1975,
  "्यं": 1976,
  "्यट": 1977,
  "কাত": 1978,
  "ক্স": 1979,
  "গুল": 1980,
  "ছেন": 1981,
  "জিৎ": 1982,
  "ঞ্জ": 1983,
  "টির": 1984,
  "ট্ট": 1985,
  "ট্য": 1986,
  "ঠান": 1987,
  "ড়া": 1988,
  "ধিক": 1989,
  "প্ত": 1990,
  "প্ল": 1991,
  "বাগ": 1992,
  "বাস": 1993,
  "ময়": 1994,
  "যাত": 1995,
  "র্য": 1996,
  "র্ষ": 1997,
  "লচ্": 1998,
  "শাক": 1999,
  "স্ট": 2000,
  "হত্": 2001,
  "াড়": 2002,
  "াদন": 2003,
  "াফল": 2004,
  "ামা": 2005,
  "ারত": 2006,
  "ারী": 2007,
  "াষা": 2008,
  "িষ্": 2009,
  "ূষণ": 2010,
  "ৃথি": 2011,
  "েখে": 2012,
  "েলব": 2013,
  "ৈকত": 2014,
  "ৈরি": 2015,
  "োজন": 2016,
  "োধে": 2017,
  "্যে": 2018,
  "্লা": 2019,
  "கம்": 2020,
  "களை": 2021,
  "நகர": 2022,
  "னெஸ": 2023,
  "முக": 2024,
  "மைய": 2025,
  "யிர": 2026,
  "ராஜ": 2027,
  "ற்க": 2028,
  "ிரு": 2029,
  "ிலை": 2030,
  "ையை": 2031,
  "ொரு": 2032,
  "ொழி": 2033,
  "்கோ": 2034,
  "்சி": 2035,
  "ంకే": 2036,
  "ఐటీ": 2037,
  "కాల": 2038,
  "క్ష": 2039,
  "గరం": 2040,
  "గరా": 2041,
  "గర్": 2042,
  "గుర": 2043,
  "గ్గ": 2044,
  "టాల": 2045,
  "డుత": 2046,
  "ణ్య": 2047,
  "త్వ": 2048,
  "నువ": 2049,
  "బ్ర": 2050,
  "భార": 2051,
  "మిన": 2052,
  "లకు": 2053,
  "లతో": 2054,
  "వత్": 2055,
  "సిన": 2056,
  "స్ప": 2057,
  "హ్మ": 2058,
  "ాట్": 2059,
  "ావు": 2060,
  "ిక్": 2061,
  "ినీ": 2062,
  "ృష్": 2063,
  "ొంద": 2064,
  " अज": 2065,
  "अज": 2066,
  " आज": 2067,
  "आज": 2068,
  " इं": 2069,
  "इं": 2070,
  " कई": 2071,
  "कई": 2072,
  " घर": 2073,
  " चा": 2074,
  "चा": 2075,
  " जर": 2076,
  "जर": 2077,
  " जल": 2078,
  "जल": 2079,
  " तै": 2080,
  "तै": 2081,
  " पु": 2082,
  "पु": 2083,
  " भी": 2084,
  "भी": 2085,
  " मश": 2086,
  "मश": 2087,
  " सर": 2088,
  "सर": 2089,
  " सश": 2090,
  "सश": 2091,
  " सि": 2092,
  "सि": 2093,
  " सी": 2094,
  "सी": 2095,
  " हि": 2096,
  " অম": 2097,
  "অম": 2098,
  " আশ": 2099,
  "আশ": 2100,
  " ইউ": 2101,
  "ইউ": 2102,
  " উপ": 2103,
  "উপ": 2104,
  " এশ": 2105,
  "এশ": 2106,
  " জা": 2107,
  " থে": 2108,
  " দল": 2109,
  "দল": 2110,
  " দি": 2111,
  "দি": 2112,
  " নৌ": 2113,
  "নৌ": 2114,
  " পথ": 2115,
  "পথ": 2116,
  " পদ": 2117,
  "পদ": 2118,
  " বল": 2119,
  "বল": 2120,
  " মে": 2121,
  "মে": 2122,
  " মো": 2123,
  "মো": 2124,
  " যা": 2125,
  "যা": 2126,
  " সব": 2127,
  "সব": 2128,
  " হা": 2129,
  "হা": 2130,
  " தள": 2131,
  "தள": 2132,
  " தோ": 2133,
  "தோ": 2134,
  " நூ": 2135,
  "நூ": 2136,
  " நெ": 2137,
  "நெ": 2138,
  " பர": 2139,
  "பர": 2140,
  " மக": 2141,
  "மக": 2142,
  " மா": 2143,
  "மா": 2144,
  " யு": 2145,
  " வழ": 2146,
  "வழ": 2147,
  " కళ": 2148,
  " కూ": 2149,
  "కూ": 2150,
  " కో": 2151,
  "కో": 2152,
  " గా": 2153,
  " జా": 2154,
  " పు": 2155,
  " వృ": 2156,
  "వృ": 2157,
  " వే": 2158,
  "వే": 2159,
  "ंदिर": 2160,
  "कारी": 2161,
  "कृति": 2162,
  "क्ति": 2163,
  "गरिक": 2164,
  "गरूक": 2165,
  "त्ता": 2166,
  "धानम": 2167,
  "धानी": 2168,
  "रानी": 2169,
  "र्वत": 2170,
  "वस्थ": 2171,
  "शिता": 2172,
  "श्यक": 2173,
  "ार्ट": 2174,
  "ासिक": 2175,
  "ास्त": 2176,
  "िकेट": 2177,
  "ित्त": 2178,
  "ियाँ": 2179,
  "िल्म": 2180,
  "िवार": 2181,
  "ीकरण": 2182,
  "ुकला": 2183,
  "ुद्ध": 2184,
  "ूचना": 2185,
  "ेलवे": 2186,
  "्मान": 2187,
  "्याय": 2188,
  "ক্ষর": 2189,
  "চিতি": 2190,
  "জরুল": 2191,
  "ঞ্চল": 2192,
  "তিষ্": 2193,
  "ধ্যে": 2194,
  "ভাবে": 2195,
  "যোগা": 2196,
  "রুরি": 2197,
  "াজিক": 2198,
  "াদৃত": 2199,
  "ার্ব": 2200,
  "ার্য": 2201,
  "াহিত": 2202,
  "িকেট": 2203,
  "ুদ্র": 2204,
  "ুরস্": 2205,
  "ূর্ব": 2206,
  "ৃতিক": 2207,
  "েষ্ঠ": 2208,
  "োকসং": 2209,
  "োবেল": 2210,
  "্ভাব": 2211,
  "্যাং": 2212,
  "ஞ்சீ": 2213,
  "ட்டை": 2214,
  "த்தை": 2215,
  "ந்து": 2216,
  "ன்று": 2217,
  "லமாக": 2218,
  "ாகக்": 2219,
  "ாதார": 2220,
  "ாப்ப": 2221,
  "ியம்": 2222,
  "ியாவ": 2223,
  "ைக்க": 2224,
  "்க்க": 2225,
  "ంగూర": 2226,
  "ంచిన": 2227,
  "తికి": 2228,
  "ద్యా": 2229,
  "న్నయ": 2230,
  "లాడే": 2231,
  "లిగి": 2232,
  "ల్లో": 2233,
  "స్కృ": 2234,
  "స్తో": 2235,
  "ాలయం": 2236,
  "ుంది": 2237,
  "్యాం": 2238,
  " आंद": 2239,
  "आंद": 2240,
  " जवा": 2241,
  "जवा": 2242,
  " टीम": 2243,
  " नदी": 2244,
  "नदी": 2245,
  " पार": 2246,
  "पार": 2247,
  " बदल": 2248,
  "बदल": 2249,
  " बना": 2250,
  "बना": 2251,
  " योग": 2252,
  "योग": 2253,
  " रही": 2254,
  "रही": 2255,
  " विर": 2256,
  "विर": 2257,
  " शहर": 2258,
  "शहर": 2259,
  " श्र": 2260,
  "श्र": 2261,
  " सहा": 2262,
  "सहा": 2263,
  " स्म": 2264,
  "स्म": 2265,
  " অংশ": 2266,
  "অংশ": 2267,
  " আজও": 2268,
  "আজও": 2269,
  " আমল": 2270,
  "আমল": 2271,
  " উৎপ": 2272,
  "উৎপ": 2273,
  " কবি": 2274,
  "কবি": 2275,
  " করা": 2276,
  "করা": 2277,
  " ক্র": 2278,
  "ক্র": 2279,
  " ধান": 2280,
  " নদী": 2281,
  "নদী": 2282,
  " পাট": 2283,
  "পাট": 2284,
  " বৈশ": 2285,
  "বৈশ": 2286,
  " মূল": 2287,
  "মূল": 2288,
  " লাল": 2289,
  "লাল": 2290,
  " শ্র": 2291,
  "শ্র": 2292,
  " স্ব": 2293,
  "স্ব": 2294,
  " அமை": 2295,
  "அமை": 2296,
  " இது": 2297,
  "இது": 2298,
  " கலை": 2299,
  "கலை": 2300,
  " தலை": 2301,
  "தலை": 2302,
  " தேய": 2303,
  "தேய": 2304,
  " தொட": 2305,
  "தொட": 2306,
  " நடன": 2307,
  "நடன": 2308,
  " மாத": 2309,
  "மாத": 2310,
  " ఉంట": 2311,
  "ఉంట": 2312,
  " కూర": 2313,
  "కూర": 2314,
  " చరి": 2315,
  "చరి": 2316,
  " జీవ": 2317,
  "జీవ": 2318,
  " వర్": 2319,
  "వర్": 2320,
  " సంక": 2321,
  "సంక": 2322,
  " సమా": 2323,
  "సమా": 2324,
  "ंत्री": 2325,
  "धारने": 2326,
  "माजिक": 2327,
  "युक्त": 2328,
  "र्वेद": 2329,
  "वस्था": 2330,
  "विधता": 2331,
  "विधान": 2332,
  "श्विक": 2333,
  "ृंखला": 2334,
  "ोड़ों": 2335,
  "ক্ষেপ": 2336,
  "ছিলেন": 2337,
  "জাতিক": 2338,
  "ধিকার": 2339,
  "ন্দির": 2340,
  "ন্যাস": 2341,
  "বর্তন": 2342,
  "যাত্র": 2343,
  "রকারি": 2344,
  "রিহার": 2345,
  "শ্চিত": 2346,
  "হত্তম": 2347,
  "াপত্য": 2348,
  "াফল্য": 2349,
  "িয়ার": 2350,
  "েওয়া": 2351,
  "েত্রে": 2352,
  "க்கது": 2353,
  "ட்டிட": 2354,
  "ண்டைய": 2355,
  "ண்ணாம": 2356,
  "த்திய": 2357,
  "மையான": 2358,
  "ர்கள்": 2359,
  "ற்றிய": 2360,
  "ல்கள்": 2361,
  "ியார்": 2362,
  "ంటారు": 2363,
  "చ్చిన": 2364,
  "త్రను": 2365,
  "నువది": 2366,
  "భారతా": 2367,
  "ిక్కన": 2368,
  "్యాప్": 2369,
  " अतुल": 2370,
  "अतुल": 2371,
  " अर्थ": 2372,
  "अर्थ": 2373,
  " आधार": 2374,
  "आधार": 2375,
  " आवास": 2376,
  "आवास": 2377,
  " ऐतिह": 2378,
  "ऐतिह": 2379,
  " करने": 2380,
  "करने": 2381,
  " कृषि": 2382,
  "कृषि": 2383,
  " गणित": 2384,
  "गणित": 2385,
  " जहाँ": 2386,
  "जहाँ": 2387,
  " जाना": 2388,
  "जाना": 2389,
  " जिसे": 2390,
  "जिसे": 2391,
  " जीवन": 2392,
  "जीवन": 2393,
  " तेजी": 2394,
  "तेजी": 2395,
  " देता": 2396,
  "देता": 2397,
  " नींव": 2398,
  "नींव": 2399,
  " पूरी": 2400,
  "पूरी": 2401,
  " बड़ी": 2402,
  "बड़ी": 2403,
  " बेटी": 2404,
  "बेटी": 2405,
  " बॉली": 2406,
  "बॉली": 2407,
  " माना": 2408,
  "माना": 2409,
  " मिला": 2410,
  "मिला": 2411,
  " मिली": 2412,
  "मिली": 2413,
  " मिशन": 2414,
  "मिशन": 2415,
  " रीढ़": 2416,
  "रीढ़": 2417,
  " शहरी": 2418,
  "शहरी": 2419,
  " संभव": 2420,
  "संभव": 2421,
  " सुलभ": 2422,
  "सुलभ": 2423,
  " सृजन": 2424,
  "सृजन": 2425,
  " सेना": 2426,
  "सेना": 2427,
  " উদ্য": 2428,
  "উদ্য": 2429,
  " খাতে": 2430,
  "খাতে": 2431,
  " খেলা": 2432,
  "খেলা": 2433,
  " চট্ট": 2434,
  "চট্ট": 2435,
  " চলচ্": 2436,
  "চলচ্": 2437,
  " ঢাকা": 2438,
  "ঢাকা": 2439,
  " তৈরি": 2440,
  "তৈরি": 2441,
  " দূষণ": 2442,
  "দূষণ": 2443,
  " নারী": 2444,
  "নারী": 2445,
  " পর্য": 2446,
  "পর্য": 2447,
  " পৃথি": 2448,
  "পৃথি": 2449,
  " বাউল": 2450,
  "বাউল": 2451,
  " ভারত": 2452,
  "ভারত": 2453,
  " ভাষা": 2454,
  "ভাষা": 2455,
  " মাইক": 2456,
  "মাইক": 2457,
  " মানব": 2458,
  "মানব": 2459,
  " মেলব": 2460,
  "মেলব": 2461,
  " যোগা": 2462,
  " রক্ষ": 2463,
  "রক্ষ": 2464,
  " রপ্ত": 2465,
  "রপ্ত": 2466,
  " রায়": 2467,
  "রায়": 2468,
  " রেখে": 2469,
  "রেখে": 2470,
  " রোধে": 2471,
  "রোধে": 2472,
  " সত্য": 2473,
  "সত্য": 2474,
  " সর্ব": 2475,
  "সর্ব": 2476,
  " সৈকত": 2477,
  "সৈকত": 2478,
  " அறிய": 2479,
  "அறிய": 2480,
  " இடம்": 2481,
  "இடம்": 2482,
  " ஒன்ற": 2483,
  "ஒன்ற": 2484,
  " கம்ப": 2485,
  "கம்ப": 2486,
  " கருத": 2487,
  "கருத": 2488,
  " குறி": 2489,
  "குறி": 2490,
  " திரு": 2491,
  "திரு": 2492,
  " புரட": 2493,
  "புரட": 2494,
  " மொழி": 2495,
  "மொழி": 2496,
  " வகைக": 2497,
  "வகைக": 2498,
  " வரலா": 2499,
  "வரலா": 2500,
  " வளர்": 2501,
  "வளர்": 2502,
  " అంది": 2503,
  "అంది": 2504,
  " అష్ట": 2505,
  "అష్ట": 2506,
  " కృష్": 2507,
  "కృష్": 2508,
  " చార్": 2509,
  "చార్": 2510,
  " నగరం": 2511,
  "నగరం": 2512,
  " నిలు": 2513,
  "నిలు": 2514,
  " పొంద": 2515,
  "పొంద": 2516,
  " మాట్": 2517,
  "మాట్": 2518,
  " రంగం": 2519,
  "రంగం": 2520,
  " వంటి": 2521,
  "వంటి": 2522,
  " సినీ": 2523,
  "సినీ": 2524,
  " స్థా": 2525,
  "స్థా": 2526,
  "गरूकता": 2527,
  "ित्तीय": 2528,
  "প্রিয়": 2529,
  "স্থায়": 2530,
  "াকৃতিক": 2531,
  "ামাটির": 2532,
  "্ভাবনা": 2533,
  "த்தில்": 2534,
  "னெஸ்கோ": 2535,
  "ப்பட்ட": 2536,
  "ர்த்து": 2537,
  "ற்றுலா": 2538,
  "ில்கள்": 2539,
  "ுக்குற": 2540,
  "ంకేతిక": 2541,
  "ందింది": 2542,
  "త్వంలో": 2543,
  "ధికంగా": 2544,
  "న్నాయి": 2545,
  "బ్రహ్మ": 2546,
  "మినార్": 2547,
  "స్తారు": 2548,
  "ుతోంది": 2549,
  " उद्यम": 2550,
  "उद्यम": 2551,
  " किसान": 2552,
  "किसान": 2553,
  " चाहिए": 2554,
  "चाहिए": 2555,
  " निभाई": 2556,
  "निभाई": 2557,
  " निवेश": 2558,
  "निवेश": 2559,
  " न्याय": 2560,
  "न्याय": 2561,
  " पर्यट": 2562,
  "पर्यट": 2563,
  " पर्वत": 2564,
  "पर्वत": 2565,
  " फिल्म": 2566,
  "फिल्म": 2567,
  " मंदिर": 2568,
  "मंदिर": 2569,
  " महिला": 2570,
  "महिला": 2571,
  " मिलकर": 2572,
  "मिलकर": 2573,
  " राज्य": 2574,
  "राज्य": 2575,
  " रेलवे": 2576,
  "रेलवे": 2577,
  " वास्त": 2578,
  "वास्त": 2579,
  " सशक्त": 2580,
  "सशक्त": 2581,
  " सूचना": 2582,
  "सूचना": 2583,
  " स्थित": 2584,
  "स्थित": 2585,
  " অঞ্চল": 2586,
  "অঞ্চল": 2587,
  " কবিতা": 2588,
  "কবিতা": 2589,
  " কলকাত": 2590,
  "কলকাত": 2591,
  " জরুরি": 2592,
  "জরুরি": 2593,
  " নজরুল": 2594,
  "নজরুল": 2595,
  " নোবেল": 2596,
  "নোবেল": 2597,
  " পদ্মা": 2598,
  "পদ্মা": 2599,
  " পালিত": 2600,
  "পালিত": 2601,
  " পুরস্": 2602,
  "পুরস্": 2603,
  " পোশাক": 2604,
  "পোশাক": 2605,
  " বিপ্ল": 2606,
  "বিপ্ল": 2607,
  " ব্যাং": 2608,
  "ব্যাং": 2609,
  " মধ্যে": 2610,
  "মধ্যে": 2611,
  " মানুষ": 2612,
  "মানুষ": 2613,
  " লোকসং": 2614,
  "লোকসং": 2615,
  " সংগীত": 2616,
  "সংগীত": 2617,
  " সাহিত": 2618,
  "সাহিত": 2619,
  " கல்வி": 2620,
  "கல்வி": 2621,
  " காவிய": 2622,
  "காவிய": 2623,
  " நாட்ட": 2624,
  " பெரிய": 2625,
  "பெரிய": 2626,
  " மதுரை": 2627,
  "மதுரை": 2628,
  " மிகப்": 2629,
  "மிகப்": 2630,
  " வாழ்வ": 2631,
  "வாழ்வ": 2632,
  " కలిగి": 2633,
  "కలిగి": 2634,
  " డ్యాం": 2635,
  "డ్యాం": 2636,
  " నన్నయ": 2637,
  "నన్నయ": 2638,
  " నిండి": 2639,
  "నిండి": 2640,
  " పాత్ర": 2641,
  "పాత్ర": 2642,
  " పెద్ద": 2643,
  "పెద్ద": 2644,
  " సంగీత": 2645,
  "సంగీత": 2646,
  " సంవత్": 2647,
  "సంవత్": 2648,
  " సాగర్": 2649,
  "సాగర్": 2650,
  "तंत्रता": 2651,
  "दर्शिता": 2652,
  "চিত্র্য": 2653,
  "রিহার্য": 2654,
  "ங்களில்": 2655,
  "ந்தியாவ": 2656,
  "ாடல்கள்": 2657,
  "స్తోంది": 2658,
  " आंदोलन": 2659,
  "आंदोलन": 2660,
  " आवश्यक": 2661,
  "आवश्यक": 2662,
  " इंडिया": 2663,
  "इंडिया": 2664,
  " नागरिक": 2665,
  "नागरिक": 2666,
  " परिवार": 2667,
  "परिवार": 2668,
  " पुरानी": 2669,
  "पुरानी": 2670,
  " प्रदेश": 2671,
  "प्रदेश": 2672,
  " प्रयास": 2673,
  "प्रयास": 2674,
  " बढ़ावा": 2675,
  "बढ़ावा": 2676,
  " भाषाओं": 2677,
  "भाषाओं": 2678,
  " मीडिया": 2679,
  "मीडिया": 2680,
  " सहायता": 2681,
  "सहायता": 2682,
  " सेवाओं": 2683,
  "सेवाओं": 2684,
  " स्वच्छ": 2685,
  "स्वच्छ": 2686,
  " অপূর্ব": 2687,
  "অপূর্ব": 2688,
  " আন্তর্": 2689,
  "আন্তর্": 2690,
  " উৎপাদন": 2691,
  "উৎপাদন": 2692,
  " বিশেষত": 2693,
  "বিশেষত": 2694,
  " বিশ্বে": 2695,
  "বিশ্বে": 2696,
  " মন্দির": 2697,
  "মন্দির": 2698,
  " শিল্পে": 2699,
  "শিল্পে": 2700,
  " সমাদৃত": 2701,
  "সমাদৃত": 2702,
  " সমুদ্র": 2703,
  "সমুদ্র": 2704,
  " সাফল্য": 2705,
  "সাফল্য": 2706,
  " அழைக்க": 2707,
  "அழைக்க": 2708,
  " கட்டிட": 2709,
  "கட்டிட": 2710,
  " தத்துவ": 2711,
  "தத்துவ": 2712,
  " தலைநகர": 2713,
  "தலைநகர": 2714,
  " தேயிலை": 2715,
  "தேயிலை": 2716,
  " பண்டைய": 2717,
  "பண்டைய": 2718,
  " மரபில்": 2719,
  "மரபில்": 2720,
  " అత్యంత": 2721,
  "అత్యంత": 2722,
  " అనువది": 2723,
  "అనువది": 2724,
  " చెందిన": 2725,
  "చెందిన": 2726,
  " తిక్కన": 2727,
  "తిక్కన": 2728,
  " దేశంలో": 2729,
  "దేశంలో": 2730,
  " పోషించ": 2731,
  "పోషించ": 2732,
  " విద్యా": 2733,
  "విద్యా": 2734,
  " వృద్ధి": 2735,
  "వృద్ధి": 2736,
  " వ్యాప్": 2737,
  "వ్యాప్": 2738,
  "व्यवस्था": 2739,
  "த்தக்கது": 2740,
  "ுவாய்ந்த": 2741,
  " अतुलनीय": 2742,
  "अतुलनीय": 2743,
  " करोड़ों": 2744,
  "करोड़ों": 2745,
  " किसानों": 2746,
  "किसानों": 2747,
  " क्रिकेट": 2748,
  "क्रिकेट": 2749,
  " प्रधानम": 2750,
  "प्रधानम": 2751,
  " बॉलीवुड": 2752,
  "बॉलीवुड": 2753,
  " राजधानी": 2754,
  "राजधानी": 2755,
  " राष्ट्र": 2756,
  "राष्ट्र": 2757,
  " विज्ञान": 2758,
  "विज्ञान": 2759,
  " वित्तीय": 2760,
  "वित्तीय": 2761,
  " विविधता": 2762,
  "विविधता": 2763,
  " वैश्विक": 2764,
  "वैश्विक": 2765,
  " संयुक्त": 2766,
  "संयुक्त": 2767,
  " संविधान": 2768,
  "संविधान": 2769,
  " संस्कृत": 2770,
  "संस्कृत": 2771,
  " सामाजिक": 2772,
  "सामाजिक": 2773,
  " सुधारने": 2774,
  "सुधारने": 2775,
  " উপন্যাস": 2776,
  "উপন্যাস": 2777,
  " এশিয়ার": 2778,
  "এশিয়ার": 2779,
  " ক্রিকেট": 2780,
  "ক্রিকেট": 2781,
  " গ্রামীণ": 2782,
  "গ্রামীণ": 2783,
  " নিশ্চিত": 2784,
  "নিশ্চিত": 2785,
  " পদক্ষেপ": 2786,
  "পদক্ষেপ": 2787,
  " পরিচিতি": 2788,
  "পরিচিতি": 2789,
  " প্রকৃতি": 2790,
  "প্রকৃতি": 2791,
  " প্রতিষ্": 2792,
  "প্রতিষ্": 2793,
  " বৃহত্তম": 2794,
  "বৃহত্তম": 2795,
  " যোগাযোগ": 2796,
  "যোগাযোগ": 2797,
  " রপ্তানি": 2798,
  "রপ্তানি": 2799,
  " সত্যজিৎ": 2800,
  "সত্যজিৎ": 2801,
  " সামাজিক": 2802,
  "সামাজিক": 2803,
  " இயற்றிய": 2804,
  "இயற்றிய": 2805,
  " துறைமுக": 2806,
  "துறைமுக": 2807,
  " பழமையான": 2808,
  "பழமையான": 2809,
  "த்துகிறது": 2810,
  "ிழாவாகும்": 2811,
  "భారతాన్ని": 2812,
  " आयुर्वेद": 2813,
  "आयुर्वेद": 2814,
  " ऐतिहासिक": 2815,
  "ऐतिहासिक": 2816,
  " जागरूकता": 2817,
  "जागरूकता": 2818,
  " श्रृंखला": 2819,
  "श्रृंखला": 2820,
  " संस्कृति": 2821,
  "संस्कृति": 2822,
  " জনপ্রিয়": 2823,
  "জনপ্রিয়": 2824,
  " পরিবর্তন": 2825,
  "পরিবর্তন": 2826,
  " পুরস্কার": 2827,
  "পুরস্কার": 2828,
  " প্রয়োজন": 2829,
  "প্রয়োজন": 2830,
  " মেলবন্ধন": 2831,
  "মেলবন্ধন": 2832,
  " সম্ভাবনা": 2833,
  "সম্ভাবনা": 2834,
  " স্থাপত্য": 2835,
  "স্থাপত্য": 2836,
  " இடமாகும்": 2837,
  "இடமாகும்": 2838,
  " சுற்றுலா": 2839,
  "சுற்றுலா": 2840,
  " திரைப்பட": 2841,
  "திரைப்பட": 2842,
  " மொழியின்": 2843,
  "மொழியின்": 2844,
  " யுனெஸ்கோ": 2845,
  "யுனெஸ்கோ": 2846,
  " வரலாற்று": 2847,
  "வரலாற்று": 2848,
  " చరిత్రను": 2849,
  "చరిత్రను": 2850,
  " నిలుస్తు": 2851,
  "నిలుస్తు": 2852,
  " మాట్లాడే": 2853,
  "మాట్లాడే": 2854,
  " సాంకేతిక": 2855,
  "సాంకేతిక": 2856,
  "ிக்கப்பட்ட": 2857,
  " प्राकृतिक": 2858,
  "प्राकृतिक": 2859,
  " वास्तुकला": 2860,
  "वास्तुकला": 2861,
  " অপরিহার্য": 2862,
  "অপরিহার্য": 2863,
  " চলচ্চিত্র": 2864,
  "চলচ্চিত্র": 2865,
  " জীবনযাত্র": 2866,
  "জীবনযাত্র": 2867,
  " প্রাকৃতিক": 2868,
  "প্রাকৃতিক": 2869,
  " ஒன்றாகும்": 2870,
  "ஒன்றாகும்": 2871,
  " குறிப்பிட": 2872,
  "குறிப்பிட": 2873,
  " கோயில்கள்": 2874,
  "கோயில்கள்": 2875,
  " திருக்குற": 2876,
  "திருக்குற": 2877,
  " ఏర్పడింది": 2878,
  "ఏర్పడింది": 2879,
  " కవిత్వంలో": 2880,
  "కవిత్వంలో": 2881,
  " పిలువబడుత": 2882,
  "పిలువబడుత": 2883,
  " पारदर्शिता": 2884,
  "पारदर्शिता": 2885,
  " स्वतंत्रता": 2886,
  "स्वतंत्रता": 2887,
  " প্রযুক্তির": 2888,
  "প্রযুক্তির": 2889,
  " பங்களிப்பு": 2890,
  "பங்களிப்பு": 2891,
  " பிரபலமானவை": 2892,
  "பிரபலமானவை": 2893,
  " అత్యధికంగా": 2894,
  "అత్యధికంగా": 2895,
  " చార్మినార్": 2896,
  "చార్మినార్": 2897,
  " రాష్ట్రంగా": 2898,
  "రాష్ట్రంగా": 2899,
  " సాహిత్యంలో": 2900,
  "సాహిత్యంలో": 2901,
  " আন্তর্জাতিক": 2902,
  "আন্তর্জাতিক": 2903,
  " পশ্চিমবঙ্গে": 2904,
  "পশ্চিমবঙ্গে": 2905,
  " கட்டிடக்கலை": 2906,
  "கட்டிடக்கலை": 2907,
  " கொண்டுள்ளது": 2908,
  "கொண்டுள்ளது": 2909,
  " రాష్ట్రాలలో": 2910,
  "రాష్ట్రాలలో": 2911,
  " अर्थव्यवस्था": 2912,
  "अर्थव्यवस्था": 2913,
  " प्रधानमंत्री": 2914,
  "प्रधानमंत्री": 2915,
  " গুরুত্বপূর্ণ": 2916,
  "গুরুত্বপূর্ণ": 2917,
  " விளங்குகிறது": 2918,
  "விளங்குகிறது": 2919,
  " మహాభారతాన్ని": 2920,
  "మహాభారతాన్ని": 2921,
  " চট্টোপাধ্যায়": 2922,
  "চট্টোপাধ্যায়": 2923,
  " இலக்கியத்தின்": 2924,
  "இலக்கியத்தின்": 2925,
  " தமிழ்நாட்டில்": 2926,
  "தமிழ்நாட்டில்": 2927,
  " கருதப்படுகிறது": 2928,
  "கருதப்படுகிறது": 2929,
  " சிறப்புவாய்ந்த": 2930,
  "சிறப்புவாய்ந்த": 2931,
  " திருவிழாவாகும்": 2932,
  "திருவிழாவாகும்": 2933,
  "ிக்கப்பட்டுள்ளது": 2934,
  "14": 2935,
  "56": 2936,
  "59": 2937,
  "ँच": 2938,
  "ंड": 2939,
  "ंध": 2940,
  "ंभ": 2941,
  "ःश": 2942,
  "आई": 2943,
  "इन": 2944,
  "इब": 2945,
  "इल": 2946,
  "कच": 2947,
  "कॉ": 2948,
  "गत": 2949,
  "गम": 2950,
  "घु": 2951,
  "गा": 2952,
  "जम": 2953,
  "टव": 2954,
  "टे": 2955,
  "टो": 2956,
  "डु": 2957,
  "णव": 2958,
  "णी": 2959,
  "तृ": 2960,
  "था": 2961,
  "थि": 2962,
  "दद": 2963,
  "दन": 2964,
  "धि": 2965,
  "नर": 2966,
  "नु": 2967,
  "नो": 2968,
  "पट": 2969,
  "पि": 2970,
  "पे": 2971,
  "फल": 2972,
  "फा": 2973,
  "ब्": 2974,
  "भट": 2975,
  "मस": 2976,
  "मु": 2977,
  "मो": 2978,
  "यं": 2979,
  "या": 2980,
  "रण": 2981,
  "रल": 2982,
  "रह": 2983,
  "ले": 2984,
  "लॉ": 2985,
  "लो": 2986,
  "वक": 2987,
  "वस": 2988,
  "वो": 2989,
  "शय": 2990,
  "शे": 2991,
  "शै": 2992,
  "श्": 2993,
  "षण": 2994,
  "ष्": 2995,
  "हत": 2996,
  "हय": 2997,
  "हल": 2998,
  "हे": 2999,
  "ाँ": 3000,
  "ाक": 3001,
  "ाग": 3002,
  "ाण": 3003,
  "ाथ": 3004,
  "ाद": 3005,
  "िए": 3006,
  "िड": 3007,
  "ीन": 3008,
  "ीर": 3009,
  "ील": 3010,
  "ीस": 3011,
  "ुट": 3012,
  "ूब": 3013,
  "ेक": 3014,
  "ोह": 3015,
  "ौर": 3016,
  "ौल": 3017,
  "ংস": 3018,
  "ইচ": 3019,
  "ইব": 3020,
  "ইল": 3021,
  "খন": 3022,
  "খী": 3023,
  "গম": 3024,
  "গো": 3025,
  "ঘট": 3026,
  "ঘন": 3027,
  "ঘল": 3028,
  "চে": 3029,
  "জট": 3030,
  "জু": 3031,
  "জে": 3032,
  "টক": 3033,
  "টন": 3034,
  "টব": 3035,
  "টা": 3036,
  "ঠশ": 3037,
  "ডে": 3038,
  "ঢ়": 3039,
  "ণত": 3040,
  "ণী": 3041,
  "ণু": 3042,
  "তে": 3043,
  "থম": 3044,
  "দন": 3045,
  "দূ": 3046,
  "দৃ": 3047,
  "ধব": 3048,
  "ধু": 3049,
  "নৈ": 3050,
  "পম": 3051,
  "পর": 3052,
  "ফো": 3053,
  "বস": 3054,
  "ভী": 3055,
  "মদ": 3056,
  "যু": 3057,
  "রত": 3058,
  "রা": 3059,
  "রে": 3060,
  "রৎ": 3061,
  "লব": 3062,
  "লি": 3063,
  "শী": 3064,
  "শে": 3065,
  "সে": 3066,
  "হম": 3067,
  "হর": 3068,
  "হস": 3069,
  "াঙ": 3070,
  "াণ": 3071,
  "াভ": 3072,
  "িং": 3073,
  "িঠ": 3074,
  "িড": 3075,
  "িণ": 3076,
  "িন": 3077,
  "ুজ": 3078,
  "ৃক": 3079,
  "ৃৎ": 3080,
  "েজ": 3081,
  "োই": 3082,
  "োন": 3083,
  "োভ": 3084,
  "োষ": 3085,
  "ஐஐ": 3086,
  "ங்": 3087,
  "சவ": 3088,
  "சை": 3089,
  "ச்": 3090,
  "ஞர": 3091,
  "த்": 3092,
  "நி": 3093,
  "னை": 3094,
  "பி": 3095,
  "மர": 3096,
  "மஸ": 3097,
  "மே": 3098,
  "ரம": 3099,
  "றி": 3100,
  "ளா": 3101,
  "வல": 3102,
  "ீத": 3103,
  "ீப": 3104,
  "ுண": 3105,
  "ொள": 3106,
  "ంథ": 3107,
  "ంప": 3108,
  "కం": 3109,
  "కత": 3110,
  "కా": 3111,
  "కొ": 3112,
  "ఖప": 3113,
  "గడ": 3114,
  "గవ": 3115,
  "చీ": 3116,
  "జన": 3117,
  "జయ": 3118,
  "జె": 3119,
  "టక": 3120,
  "టా": 3121,
  "టు": 3122,
  "డూ": 3123,
  "ణం": 3124,
  "ణద": 3125,
  "ణప": 3126,
  "తం": 3127,
  "తబ": 3128,
  "దం": 3129,
  "దయ": 3130,
  "ధు": 3131,
  "పి": 3132,
  "పూ": 3133,
  "ఫీ": 3134,
  "ఫూ": 3135,
  "ఫ్": 3136,
  "మక": 3137,
  "మె": 3138,
  "మ్": 3139,
  "యక": 3140,
  "యో": 3141,
  "రీ": 3142,
  "లం": 3143,
  "లన": 3144,
  "వస": 3145,
  "శి": 3146,
  "శై": 3147,
  "షధ": 3148,
  "హన": 3149,
  "హో": 3150,
  "ాగ": 3151,
  "ాన": 3152,
  "ామ": 3153,
  "ియ": 3154,
  "ుప": 3155,
  "ూమ": 3156,
  "ేడ": 3157,
  "ేవ": 3158,
  "ైత": 3159,
  "ైబ": 3160,
  "ొద": 3161,
  "ోజ": 3162,
  "ోహ": 3163,
  " घ": 3164,
  "घ": 3165,
  " ছ": 3166,
  "ছ": 3167,
  " ঠ": 3168,
  "ঠ": 3169,
  " ১": 3170,
  "১": 3171,
  " ர": 3172,
  "ர": 3173,
  " ఐ": 3174,
  "ఐ": 3175,
  " ఘ": 3176,
  "ఘ": 3177,
  "-20": 3178,
  "591": 3179,
  "ंता": 3180,
  "ंति": 3181,
  "ंदर": 3182,
  "ंदी": 3183,
  "ंसा": 3184,
  "कॉम": 3185,
  "गरा": 3186,
  "गरी": 3187,
  "चाओ": 3188,
  "चान": 3189,
  "चिम": 3190,
  "जरा": 3191,
  "ज्य": 3192,
  "टनि": 3193,
  "णार": 3194,
  "त्न": 3195,
  "दार": 3196,
  "नाए": 3197,
  "पदा": 3198,
  "बदे": 3199,
  "बाव": 3200,
  "मता": 3201,
  "मरा": 3202,
  "यान": 3203,
  "यार": 3204,
  "रीब": 3205,
  "र्ग": 3206,
  "र्त": 3207,
  "र्म": 3208,
  "र्य": 3209,
  "लाल": 3210,
  "षता": 3211,
  "संख": 3212,
  "स्य": 3213,
  "हरण": 3214,
  "हूर": 3215,
  "ानु": 3216,
  "ाने": 3217,
  "ाया": 3218,
  "ारक": 3219,
  "ारा": 3220,
  "ावा": 3221,
  "ासत": 3222,
  "ासन": 3223,
  "िकल": 3224,
  "िका": 3225,
  "ियत": 3226,
  "ियम": 3227,
  "िल्": 3228,
  "ुनी": 3229,
  "ेनद": 3230,
  "ेलू": 3231,
  "ैंक": 3232,
  "ैसे": 3233,
  "ोत्": 3234,
  "्ता": 3235,
  "्लॉ": 3236,
  "ওড়": 3237,
  "কোর": 3238,
  "খ্য": 3239,
  "नात": 3240,
  "र्स": 3241,
  "हीं": 3242,
  "ूरत": 3243,
  "করণ": 3244,
  "গতি": 3245,
  "গদী": 3246,
  "ঘনা": 3247,
  "চাল": 3248,
  "চ্য": 3249,
  "জার": 3250,
  "জিব": 3251,
  "টবল": 3252,
  "টার": 3253,
  "টাল": 3254,
  "ঠিত": 3255,
  "ডিক": 3256,
  "ডেল": 3257,
  "তুল": 3258,
  "ত্ব": 3259,
  "থ্য": 3260,
  "দূত": 3261,
  "নুস": 3262,
  "পাত": 3263,
  "ববৈ": 3264,
  "বান": 3265,
  "বিষ": 3266,
  "বীত": 3267,
  "বেষ": 3268,
  "ভয়": 3269,
  "মার": 3270,
  "মুন": 3271,
  "য়ন": 3272,
  "য়ী": 3273,
  "র্গ": 3274,
  "র্ঘ": 3275,
  "র্ড": 3276,
  "লিশ": 3277,
  "শংস": 3278,
  "সার": 3279,
  "স্য": 3280,
  "হতি": 3281,
  "হাম": 3282,
  "াকো": 3283,
  "াখে": 3284,
  "াদব": 3285,
  "াপূ": 3286,
  "ারগ": 3287,
  "ারণ": 3288,
  "ারা": 3289,
  "ারে": 3290,
  "াহত": 3291,
  "িকা": 3292,
  "িকি": 3293,
  "িতে": 3294,
  "িত্": 3295,
  "িসে": 3296,
  "ীতক": 3297,
  "েবা": 3298,
  "োক্": 3299,
  "্যত": 3300,
  "্রা": 3301,
  "சவு": 3302,
  "ஞர்": 3303,
  "டிவ": 3304,
  "டைக": 3305,
  "ணம்": 3306,
  "ணவு": 3307,
  "ணைய": 3308,
  "ண்ய": 3309,
  "தன்": 3310,
  "தைக": 3311,
  "நில": 3312,
  "ன்ப": 3313,
  "ராம": 3314,
  "ர்ப": 3315,
  "ற்ப": 3316,
  "லிய": 3317,
  "ளாக": 3318,
  "ளிட": 3319,
  "ழ்ப": 3320,
  "வீன": 3321,
  "ாகு": 3322,
  "ாசி": 3323,
  "ாதஸ": 3324,
  "ிகை": 3325,
  "ியா": 3326,
  "ிரை": 3327,
  "ிழா": 3328,
  "ுட்": 3329,
  "ுணி": 3330,
  "ைகை": 3331,
  "ைக்": 3332,
  "ோடு": 3333,
  "்கு": 3334,
  "்டு": 3335,
  "ంచ్": 3336,
  "खित": 3337,
  "जाब": 3338,
  "प्त": 3339,
  "फ्त": 3340,
  "वित": 3341,
  "स्त": 3342,
  "िति": 3343,
  "िना": 3344,
  "िले": 3345,
  "ूरद": 3346,
  "ौती": 3347,
  "ঙাল": 3348,
  "তাব": 3349,
  "তুন": 3350,
  "রূপ": 3351,
  "সগো": 3352,
  "ালা": 3353,
  "திக": 3354,
  "னர்": 3355,
  "லைய": 3356,
  "ளைய": 3357,
  "ாபல": 3358,
  "ாபி": 3359,
  "ையே": 3360,
  "ంచట": 3361,
  "ంచా": 3362,
  "ంచే": 3363,
  "ంటస": 3364,
  "ంతి": 3365,
  "క్ట": 3366,
  "క్ర": 3367,
  "ఖ్య": 3368,
  "గాయ": 3369,
  "గుమ": 3370,
  "గ్ర": 3371,
  "చార": 3372,
  "జయన": 3373,
  "జ్య": 3374,
  "డవు": 3375,
  "తిం": 3376,
  "తీక": 3377,
  "దర్": 3378,
  "నిజ": 3379,
  "నీయ": 3380,
  "న్ట": 3381,
  "పగడ": 3382,
  "పల్": 3383,
  "బంధ": 3384,
  "మలు": 3385,
  "మార": 3386,
  "యలు": 3387,
  "రకు": 3388,
  "రామ": 3389,
  "రాల": 3390,
  "ర్థ": 3391,
  "ర్మ": 3392,
  "లయం": 3393,
  "లిత": 3394,
  "ల్క": 3395,
  "వణం": 3396,
  "వరణ": 3397,
  "వరి": 3398,
  "వేశ": 3399,
  "శివ": 3400,
  "స్ర": 3401,
  "హార": 3402,
  "హ్న": 3403,
  "ాటా": 3404,
  "ాటు": 3405,
  "ారం": 3406,
  "ారత": 3407,
  "ారీ": 3408,
  "ాలు": 3409,
  "ాలె": 3410,
  "ిది": 3411,
  "ిని": 3412,
  "ిరి": 3413,
  "ీతి": 3414,
  "ీసు": 3415,
  "ుచి": 3416,
  "ేడి": 3417,
  "ేదా": 3418,
  "ొలు": 3419,
  "ోరా": 3420,
  "్వర": 3421,
  " अत": 3422,
  "अत": 3423,
  " आई": 3424,
  " आक": 3425,
  "आक": 3426,
  " आद": 3427,
  "आद": 3428,
  " आम": 3429,
  "आम": 3430,
  " आय": 3431,
  "आय": 3432,
  " कम": 3433,
  "कम": 3434,
  " कश": 3435,
  "कश": 3436,
  " कौ": 3437,
  "कौ": 3438,
  " चौ": 3439,
  "चौ": 3440,
  " जव": 3441,
  "जव": 3442,
  " डॉ": 3443,
  "डॉ": 3444,
  " ता": 3445,
  "गति": 3446,
  "डिश": 3447,
  "ब्ध": 3448,
  "रती": 3449,
  "राई": 3450,
  "राह": 3451,
  "ात्": 3452,
  "কাশ": 3453,
  "কিং": 3454,
  "কিম": 3455,
  "বাব": 3456,
  "ভাত": 3457,
  "মাত": 3458,
  "ামদ": 3459,
  "ামে": 3460,
  "ুরু": 3461,
  "வான": 3462,
  "ுவர": 3463,
  "ேலை": 3464,
  "డిన": 3465,
  "నేక": 3466,
  "ర్ఘ": 3467,
  "లంక": 3468,
  " दी": 3469,
  "दी": 3470,
  " दृ": 3471,
  "दृ": 3472,
  " दौ": 3473,
  "दौ": 3474,
  " धन": 3475,
  "धन": 3476,
  " नव": 3477,
  "नव": 3478,
  " नै": 3479,
  "नै": 3480,
  " पं": 3481,
  "पं": 3482,
  " भव": 3483,
  " मत": 3484,
  "मत": 3485,
  " मु": 3486,
  " या": 3487,
  " यु": 3488,
  " लं": 3489,
  "लं": 3490,
  " शी": 3491,
  "शी": 3492,
  " सक": 3493,
  "सक": 3494,
  " सत": 3495,
  "सत": 3496,
  " सो": 3497,
  "सो": 3498,
  " हर": 3499,
  " অন": 3500,
  "অন": 3501,
  " আচ": 3502,
  "আচ": 3503,
  " এই": 3504,
  "এই": 3505,
  " কে": 3506,
  " ঘন": 3507,
  " তি": 3508,
  " থি": 3509,
  " দী": 3510,
  " দু": 3511,
  "দু": 3512,
  " নব": 3513,
  "নব": 3514,
  " না": 3515,
  " পহ": 3516,
  "পহ": 3517,
  " বজ": 3518,
  "বজ": 3519,
  " বন": 3520,
  " বৌ": 3521,
  "বৌ": 3522,
  " রো": 3523,
  "রো": 3524,
  " সন": 3525,
  "সন": 3526,
  " সৌ": 3527,
  "সৌ": 3528,
  " அர": 3529,
  "அர": 3530,
  " உண": 3531,
  "உண": 3532,
  " என": 3533,
  "என": 3534,
  " ஒவ": 3535,
  "ஒவ": 3536,
  " கு": 3537,
  "கு": 3538,
  " கை": 3539,
  "கை": 3540,
  " சட": 3541,
  "சட": 3542,
  " சா": 3543,
  "சா": 3544,
  " சீ": 3545,
  "சீ": 3546,
  " தன": 3547,
  "தன": 3548,
  " தெ": 3549,
  "தெ": 3550,
  " நக": 3551,
  "நக": 3552,
  " நத": 3553,
  "நத": 3554,
  " நீ": 3555,
  "நீ": 3556,
  " பொ": 3557,
  "பொ": 3558,
  " மல": 3559,
  "மல": 3560,
  " மீ": 3561,
  "மீ": 3562,
  " மூ": 3563,
  " மே": 3564,
  " ரா": 3565,
  " வை": 3566,
  " అవ": 3567,
  "అవ": 3568,
  " కా": 3569,
  " కు": 3570,
  " కే": 3571,
  "కే": 3572,
  " గణ": 3573,
  "గణ": 3574,
  " గు": 3575,
  " చి": 3576,
  " చే": 3577,
  "చే": 3578,
  " తమ": 3579,
  "తమ": 3580,
  " తే": 3581,
  "తే": 3582,
  " ది": 3583,
  " దీ": 3584,
  " నద": 3585,
  "నద": 3586,
  " నీ": 3587,
  " నూ": 3588,
  "నూ": 3589,
  " నృ": 3590,
  "నృ": 3591,
  " పం": 3592,
  "పం": 3593,
  " బొ": 3594,
  "బొ": 3595,
  " ము": 3596,
  "ము": 3597,
  "तीक": 3598,
  "नला": 3599,
  "नेक": 3600,
  "्ला": 3601,
  "ড়ে": 3602,
  "নাথ": 3603,
  "েমি": 3604,
  "ுவன": 3605,
  "టేశ": 3606,
  "డుగ": 3607,
  "విడ": 3608,
  "ేయక": 3609,
  " వా": 3610,
  " సు": 3611,
  " సే": 3612,
  "సే": 3613,
  " హజ": 3614,
  "హజ": 3615,
  " హృ": 3616,
  "హృ": 3617,
  "2014": 3618,
  "ंगलय": 3619,
  "ंगाल": 3620,
  "ंद्र": 3621,
  "ंबित": 3622,
  "क्षा": 3623,
  "क्षी": 3624,
  "घरों": 3625,
  "जमहल": 3626,
  "टवर्": 3627,
  "टेली": 3628,
  "टोमो": 3629,
  "ड़ाई": 3630,
  "डिशा": 3631,
  "तिथि": 3632,
  "त्पा": 3633,
  "थमिक": 3634,
  "दारी": 3635,
  "निष्": 3636,
  "नेमा": 3637,
  "पटने": 3638,
  "भट्ट": 3639,
  "भूषण": 3640,
  "मराव": 3641,
  "म्रा": 3642,
  "रीके": 3643,
  "रोहर": 3644,
  "र्नि": 3645,
  "वाली": 3646,
  "शयों": 3647,
  "शिला": 3648,
  "स्ता": 3649,
  "हयोग": 3650,
  "ाँधी": 3651,
  "ाकां": 3652,
  "ाचार": 3653,
  "ाणिज": 3654,
  "ाद्य": 3655,
  "ानता": 3656,
  "ानून": 3657,
  "ार्म": 3658,
  "ार्य": 3659,
  "ासिल": 3660,
  "ास्य": 3661,
  "िलाई": 3662,
  "ून्य": 3663,
  "ूलों": 3664,
  "ूहों": 3665,
  "ेडिस": 3666,
  "ोगों": 3667,
  "्मीर": 3668,
  "्यंत": 3669,
  "्याव": 3670,
  "्यिक": 3671,
  "्योह": 3672,
  "ইব্র": 3673,
  "ঙ্গল": 3674,
  "ঙ্গা": 3675,
  "চালক": 3676,
  "চেতন": 3677,
  "ঠানো": 3678,
  "ড়ান": 3679,
  "ড়ার": 3680,
  "ডিজি": 3681,
  "ণায়": 3682,
  "ত্মা": 3683,
  "থমিক": 3684,
  "দেশে": 3685,
  "ধানে": 3686,
  "ন্তি": 3687,
  "ন্ধু": 3688,
  "ন্সি": 3689,
  "বদান": 3690,
  "বময়": 3691,
  "বসতি": 3692,
  "বাইল": 3693,
  "মুখী": 3694,
  "লতার": 3695,
  "সলাম": 3696,
  "সলিন": 3697,
  "সূচি": 3698,
  "िंग": 3699,
  "নীন": 3700,
  "োচ্": 3701,
  "ிடி": 3702,
  "்லி": 3703,
  "చడి": 3704,
  "ప్ల": 3705,
  " इन": 3706,
  "ंगली": 3707,
  "र्या": 3708,
  "स्या": 3709,
  "ঙালি": 3710,
  "জনীন": 3711,
  "ঞ্জক": 3712,
  "দ্ধি": 3713,
  "বাসী": 3714,
  "মৃতি": 3715,
  "স্থল": 3716,
  "হমান": 3717,
  "াঁথা": 3718,
  "াকুর": 3719,
  "াড়ি": 3720,
  "ানজট": 3721,
  "াবার": 3722,
  "াবেল": 3723,
  "াব্য": 3724,
  "ামতি": 3725,
  "ায়ু": 3726,
  "ারস্": 3727,
  "ালিক": 3728,
  "াসিক": 3729,
  "ুতোষ": 3730,
  "ুলির": 3731,
  "ূল্য": 3732,
  "োচ্চ": 3733,
  "োরেল": 3734,
  "্যান": 3735,
  "্যার": 3736,
  "্রুত": 3737,
  "্রোক": 3738,
  "্র্য": 3739,
  "க்கண": 3740,
  "க்கழ": 3741,
  "க்கோ": 3742,
  "ங்கீ": 3743,
  "ட்டி": 3744,
  "ட்டு": 3745,
  "ணிமே": 3746,
  "ண்டு": 3747,
  "தம்ப": 3748,
  "தில்": 3749,
  "த்தா": 3750,
  "நாடக": 3751,
  "நாடு": 3752,
  "ந்தன": 3753,
  "ந்தவ": 3754,
  "ந்தஸ": 3755,
  "ந்தே": 3756,
  "பற்ற": 3757,
  "ர்கள": 3758,
  "ர்பு": 3759,
  "ற்கை": 3760,
  "ளும்": 3761,
  "ள்ளி": 3762,
  "ழமான": 3763,
  "ழ்பெ": 3764,
  "வலாக": 3765,
  "வார்": 3766,
  "வின்": 3767,
  "வுட்": 3768,
  "ாடல்": 3769,
  "ானல்": 3770,
  "ாரம்": 3771,
  "ார்த": 3772,
  "ாவிட": 3773,
  "ித்த": 3774,
  "ியலை": 3775,
  "ிலாக": 3776,
  "ிளைய": 3777,
  "ுகள்": 3778,
  "ுடமண": 3779,
  "ுப்ப": 3780,
  "ும்ப": 3781,
  "ுரம்": 3782,
  "ுறம்": 3783,
  "ுவடை": 3784,
  "ையில": 3785,
  "ொள்க": 3786,
  "்நாட": 3787,
  "்மான": 3788,
  "ందిర": 3789,
  "ంద్ర": 3790,
  "కుడు": 3791,
  "క్ట్": 3792,
  "ఖ్యా": 3793,
  "గంగా": 3794,
  "గరాజ": 3795,
  "గవతం": 3796,
  "గాహన": 3797,
  "గురూ": 3798,
  "जाम": 3799,
  "जुल": 3800,
  "भोक": 3801,
  "हरू": 3802,
  "ूरे": 3803,
  "প্ন": 3804,
  "োহী": 3805,
  "ৎসা": 3806,
  "క్త": 3807,
  "జాం": 3808,
  "జాడ": 3809,
  "వసి": 3810,
  "ాగం": 3811,
  "ాటక": 3812,
  "ీవు": 3813,
  " खग": 3814,
  "खग": 3815,
  " डे": 3816,
  "डे": 3817,
  " চা": 3818,
  "চা": 3819,
  "नुसं": 3820,
  "ूर्य": 3821,
  "ृद्ध": 3822,
  "কারী": 3823,
  "ঙ্গব": 3824,
  "নীয়": 3825,
  "নেছে": 3826,
  "বীতে": 3827,
  "াপড়": 3828,
  "ুনরু": 3829,
  "ৎস্য": 3830,
  "கமாக": 3831,
  "ன்னி": 3832,
  "ன்னோ": 3833,
  "క్తి": 3834,
  "చిపూ": 3835,
  "జాలు": 3836,
  "టిని": 3837,
  "టుడు": 3838,
  "ట్టు": 3839,
  "ట్నం": 3840,
  "డారు": 3841,
  "డుపు": 3842,
  "డులు": 3843,
  "ణత్య": 3844,
  "ణదేవ": 3845,
  "తంగా": 3846,
  "తిని": 3847,
  "త్తి": 3848,
  "త్మక": 3849,
  "త్రం": 3850,
  "త్రక": 3851,
  "దయాల": 3852,
  "ధిల్": 3853,
  "ధుని": 3854,
  "నిని": 3855,
  "నియా": 3856,
  "న్టీ": 3857,
  "పుకు": 3858,
  "పులు": 3859,
  "ప్పు": 3860,
  "మంది": 3861,
  "మాలు": 3862,
  "మెరి": 3863,
  "యానా": 3864,
  "యుడు": 3865,
  "రక్ష": 3866,
  "ర్జా": 3867,
  "ర్ణా": 3868,
  "ర్రా": 3869,
  "లనచి": 3870,
  "లిహో": 3871,
  "లోకి": 3872,
  "వసాయ": 3873,
  "వులు": 3874,
  "వులో": 3875,
  "శైలం": 3876,
  "సరాల": 3877,
  "స్ట్": 3878,
  "స్తూ": 3879,
  "స్మా": 3880,
  "స్ర్": 3881,
  "ాయపద": 3882,
  "ార్య": 3883,
  "ించే": 3884,
  "ియన్": 3885,
  "ుపతి": 3886,
  "ేత్ర": 3887,
  "ోజనం": 3888,
  "్రకళ": 3889,
  " अंब": 3890,
  "अंब": 3891,
  " अन्": 3892,
  "अन्": 3893,
  " अवस": 3894,
  "अवस": 3895,
  " अहि": 3896,
  "अहि": 3897,
  " आगे": 3898,
  "आगे": 3899,
  " इला": 3900,
  "इला": 3901,
  " उपल": 3902,
  "उपल": 3903,
  " एलो": 3904,
  "एलो": 3905,
  " कला": 3906,
  "कला": 3907,
  " किए": 3908,
  "किए": 3909,
  " खरी": 3910,
  "खरी": 3911,
  "ँची": 3912,
  "पात": 3913,
  "ूपी": 3914,
  "ত্ত": 3915,
  "োপণ": 3916,
  "நுட": 3917,
  "ாழ்": 3918,
  "ంతం": 3919,
  "ంపర": 3920,
  "ిరప": 3921,
  " था": 3922,
  " थे": 3923,
  "थे": 3924,
  "ग्रह": 3925,
  "बांग": 3926,
  "ष्टि": 3927,
  "তারা": 3928,
  "থিতি": 3929,
  "ভাবন": 3930,
  "ল্লা": 3931,
  "সূদন": 3932,
  "ৃদ্ধ": 3933,
  "েট্র": 3934,
  "ணாநி": 3935,
  "வரம்": 3936,
  "గాది": 3937,
  "ణ్యం": 3938,
  "తిపె": 3939,
  " अनि": 3940,
  "अनि": 3941,
  " खास": 3942,
  "खास": 3943,
  " खेल": 3944,
  "खेल": 3945,
  " खोज": 3946,
  "खोज": 3947,
  " चुन": 3948,
  "चुन": 3949,
  " जला": 3950,
  "जला": 3951,
  " जान": 3952,
  "जान": 3953,
  " जैव": 3954,
  "जैव": 3955,
  " तत्": 3956,
  "तत्": 3957,
  " तहत": 3958,
  "तहत": 3959,
  " दोग": 3960,
  "दोग": 3961,
  " ध्य": 3962,
  " नाम": 3963,
  "नाम": 3964,
  " पढ़": 3965,
  "पढ़": 3966,
  " पवन": 3967,
  "पवन": 3968,
  " पश्": 3969,
  "पश्": 3970,
  " पहु": 3971,
  "पहु": 3972,
  " बलि": 3973,
  "बलि": 3974,
  " भंड": 3975,
  "भंड": 3976,
  " भरा": 3977,
  "भरा": 3978,
  " भ्र": 3979,
  "भ्र": 3980,
  " मनर": 3981,
  "मनर": 3982,
  " महल": 3983,
  "महल": 3984,
  " मील": 3985,
  "मील": 3986,
  " मुग": 3987,
  "मुग": 3988,
  " मूल": 3989,
  "मूल": 3990,
  " रखी": 3991,
  "रखी": 3992,
  " लघु": 3993,
  "लघु": 3994,
  " लाल": 3995,
  " व्य": 3996,
  " शां": 3997,
  "शां": 3998,
  " संब": 3999,
  "संब": 4000,
  " समय": 4001,
  "समय": 4002,
  " समा": 4003,
  "समा": 4004,
  " सात": 4005,
  "सात": 4006,
  " सुश": 4007,
  "सुश": 4008,
  " सौर": 4009,
  "सौर": 4010,
  " स्क": 4011,
  "स्क": 4012,
  " स्ट": 4013,
  "स्ट": 4014,
  " स्त": 4015,
  " हों": 4016,
  " অর্": 4017,
  "অর্": 4018,
  " আজক": 4019,
  "আজক": 4020,
  " আহস": 4021,
  "আহস": 4022,
  " উদ্": 4023,
  "উদ্": 4024,
  " একস": 4025,
  "একস": 4026,
  " কথা": 4027,
  "কথা": 4028,
  " কেল": 4029,
  "কেল": 4030,
  " ক্ষ": 4031,
  " গভী": 4032,
  "গভী": 4033,
  " গৌর": 4034,
  "গৌর": 4035,
  " চাম": 4036,
  "চাম": 4037,
  " জনক": 4038,
  "জনক": 4039,
  " জলব": 4040,
  "জলব": 4041,
  " জাত": 4042,
  "জাত": 4043,
  " টের": 4044,
  "টের": 4045,
  " তার": 4046,
  " দিক": 4047,
  "দিক": 4048,
  " ধরে": 4049,
  "ধরে": 4050,
  " নবব": 4051,
  "নবব": 4052,
  " পাহ": 4053,
  "পাহ": 4054,
  " পিঠ": 4055,
  "পিঠ": 4056,
  " ফসল": 4057,
  "ফসল": 4058,
  " বঙ্": 4059,
  "বঙ্": 4060,
  " বলা": 4061,
  "বলা": 4062,
  " বসু": 4063,
  "বসু": 4064,
  " বহন": 4065,
  "বহন": 4066,
  " বাঘ": 4067,
  "বাঘ": 4068,
  " ভরা": 4069,
  "ভরা": 4070,
  " মধু": 4071,
  "মধু": 4072,
  " মোক": 4073,
  "মোক": 4074,
  " রাখ": 4075,
  "রাখ": 4076,
  " রাঙ": 4077,
  "রাঙ": 4078,
  "दिन": 4079,
  "ायी": 4080,
  "াখো": 4081,
  "েতু": 4082,
  "వాహ": 4083,
  "ुल्क": 4084,
  "চলিত": 4085,
  "দৃঢ়": 4086,
  "ண்மை": 4087,
  "ாய்ம": 4088,
  "మ్రా": 4089,
  "స్పీ": 4090,
  "ాలసు": 4091,
  "ించబ": 4092,
  " चाय": 4093,
  "चाय": 4094,
  " তাঁ": 4095,
  "তাঁ": 4096,
  " মুখ": 4097,
  "মুখ": 4098,
  " রূপ": 4099,
  " শাহ": 4100,
  "শাহ": 4101,
  " শেখ": 4102,
  "শেখ": 4103,
  " সবচ": 4104,
  "সবচ": 4105,
  " সমা": 4106,
  "সমা": 4107,
  " সাং": 4108,
  "সাং": 4109,
  " সুর": 4110,
  "সুর": 4111,
  " সোন": 4112,
  "সোন": 4113,
  " সৌর": 4114,
  "সৌর": 4115,
  " হাত": 4116,
  "হাত": 4117,
  " হাস": 4118,
  "হাস": 4119,
  " ஆடி": 4120,
  "ஆடி": 4121,
  " ஆர்": 4122,
  "ஆர்": 4123,
  " இரு": 4124,
  "இரு": 4125,
  " இவை": 4126,
  "இவை": 4127,
  " ஒரு": 4128,
  "ஒரு": 4129,
  " கர்": 4130,
  "கர்": 4131,
  " குட": 4132,
  "குட": 4133,
  " சில": 4134,
  "சில": 4135,
  " தீப": 4136,
  "தீப": 4137,
  " நதி": 4138,
  "நதி": 4139,
  " நிற": 4140,
  "நிற": 4141,
  " நுண": 4142,
  "நுண": 4143,
  " படை": 4144,
  "படை": 4145,
  " பிற": 4146,
  "பிற": 4147,
  " புக": 4148,
  "புக": 4149,
  " மலை": 4150,
  "மலை": 4151,
  " மாவ": 4152,
  "மாவ": 4153,
  " மீன": 4154,
  "மீன": 4155,
  " மைய": 4156,
  " வேல": 4157,
  "வேல": 4158,
  " అంత": 4159,
  "అంత": 4160,
  " అంద": 4161,
  "అంద": 4162,
  " ఆకు": 4163,
  "ఆకు": 4164,
  " ఆఫ్": 4165,
  "ఆఫ్": 4166,
  " ఇతర": 4167,
  "ఇతర": 4168,
  " ఉంచ": 4169,
  "ఉంచ": 4170,
  " ఐటీ": 4171,
  " కోట": 4172,
  "కోట": 4173,
  " గాయ": 4174,
  " గుర": 4175,
  " గ్ర": 4176,
  " చిర": 4177,
  "చిర": 4178,
  " చేశ": 4179,
  "చేశ": 4180,
  " జరు": 4181,
  "జరు": 4182,
  " టాల": 4183,
  " డయా": 4184,
  "డయా": 4185,
  " తిర": 4186,
  "తిర": 4187,
  " తెగ": 4188,
  "తెగ": 4189,
  " దోహ": 4190,
  "దోహ": 4191,
  " పచ్": 4192,
  "పచ్": 4193,
  " ప్య": 4194,
  "ప్య": 4195,
  " బిర": 4196,
  "బిర": 4197,
  " భూమ": 4198,
  "భూమ": 4199,
  " మేడ": 4200,
  "మేడ": 4201,
  " రైత": 4202,
  "రైత": 4203,
  " వరి": 4204,
  " వహి": 4205,
  "వహి": 4206,
  " వార": 4207,
  "వార": 4208,
  " విశ": 4209,
  "విశ": 4210,
  " వ్య": 4211,
  "వ్య": 4212,
  " శివ": 4213,
  " సాం": 4214,
  "సాం": 4215,
  " సైబ": 4216,
  "సైబ": 4217,
  "ँचाया": 4218,
  "ंदरता": 4219,
  "क्षता": 4220,
  "क्ष्य": 4221,
  "ग्रणी": 4222,
  "टेलीम": 4223,
  "तुलित": 4224,
  "तृत्व": 4225,
  "त्रिम": 4226,
  "नलाइन": 4227,
  "नेपाल": 4228,
  "न्हों": 4229,
  "पदाओं": 4230,
  "पेक्ष": 4231,
  "फ्तार": 4232,
  "बदेही": 4233,
  "वनाएँ": 4234,
  "व्यता": 4235,
  "स्थान": 4236,
  "ंका": 4237,
  "ंबई": 4238,
  "मालय": 4239,
  "বান্": 4240,
  "স্তশ": 4241,
  "ান্স": 4242,
  "ట్టి": 4243,
  " उदा": 4244,
  "उदा": 4245,
  " বেস": 4246,
  "বেস": 4247,
  " அழக": 4248,
  "அழக": 4249,
  " లోయ": 4250,
  "లోయ": 4251,
  "धारित": 4252,
  "वार्य": 4253,
  "िनियम": 4254,
  "ीलंका": 4255,
  "ुटिकल": 4256,
  "ूपीआई": 4257,
  "ेनदेन": 4258,
  "्यंजन": 4259,
  "्लॉकच": 4260,
  "কেয়া": 4261,
  "ক্তির": 4262,
  "ক্ষিণ": 4263,
  "ক্সফো": 4264,
  "গুলির": 4265,
  "গ্রোভ": 4266,
  "ঙ্গিক": 4267,
  "জুড়ে": 4268,
  "ঞ্জিল": 4269,
  "ণুপুর": 4270,
  "তারার": 4271,
  "প্রাণ": 4272,
  "প্রেম": 4273,
  "বাগান": 4274,
  "বাজার": 4275,
  "যুদ্ধ": 4276,
  "র্থিক": 4277,
  "র্ষাক": 4278,
  "শক্তি": 4279,
  "সারিত": 4280,
  "স্টবে": 4281,
  "স্টিক": 4282,
  "স্তবে": 4283,
  "স্ত্র": 4284,
  "স্থার": 4285,
  "াকোটা": 4286,
  "াতন্ত": 4287,
  "ান্তি": 4288,
  "াপূজা": 4289,
  "াব্যব": 4290,
  "িতায়": 4291,
  "িসেবে": 4292,
  "্যবোধ": 4293,
  "্রেডি": 4294,
  "க்கம்": 4295,
  "க்கள்": 4296,
  "ங்கல்": 4297,
  "ங்கிய": 4298,
  "ச்சலோ": 4299,
  "ச்சிர": 4300,
  "ஞ்சாவ": 4301,
  "டைகால": 4302,
  "டைக்க": 4303,
  "திர்க": 4304,
  "தைகள்": 4305,
  "த்தறி": 4306,
  "த்தில": 4307,
  "நுட்ப": 4308,
  "ன்னிய": 4309,
  "மானது": 4310,
  "ம்படு": 4311,
  "ம்மன்": 4312,
  "ரமண்ய": 4313,
  "ராஜர்": 4314,
  "ற்றது": 4315,
  "லகிரி": 4316,
  "ல்கலை": 4317,
  "ல்லிய": 4318,
  "ாகுமர": 4319,
  "ாபலிப": 4320,
  "ாவின்": 4321,
  "ிக்கர": 4322,
  "ிறார்": 4323,
  "ீதத்த": 4324,
  "ேசியா": 4325,
  "்திகை": 4326,
  "்வரம்": 4327,
  "ఖ్యలో": 4328,
  "గాయలు": 4329,
  "చింది": 4330,
  "జయనగర": 4331,
  "ట్టడా": 4332,
  "తబడిన": 4333,
  "త్రిక": 4334,
  "దావరి": 4335,
  "దీర్ఘ": 4336,
  "ద్యలో": 4337,
  "ద్యాయ": 4338,
  "ధికార": 4339,
  "ప్పార": 4340,
  "বীর": 4341,
  "েসি": 4342,
  "্মদ": 4343,
  "லோர": 4344,
  "జున": 4345,
  " 19": 4346,
  "19": 4347,
  " ईद": 4348,
  "ईद": 4349,
  " ओर": 4350,
  "ओर": 4351,
  " ফু": 4352,
  "ফু": 4353,
  " శా": 4354,
  "ेडकर": 4355,
  "গুলো": 4356,
  "নেস্": 4357,
  "ிபாட": 4358,
  "ொருள": 4359,
  "రుగు": 4360,
  "వామి": 4361,
  "ామిక": 4362,
  "్వవి": 4363,
  " युग": 4364,
  "युग": 4365,
  " सफल": 4366,
  "सफल": 4367,
  " বলে": 4368,
  "বলে": 4369,
  " রবী": 4370,
  "রবী": 4371,
  " கால": 4372,
  "கால": 4373,
  " பரத": 4374,
  "பரத": 4375,
  " பேச": 4376,
  "பேச": 4377,
  " నేత": 4378,
  "నేత": 4379,
  "र्षित": 4380,
  "ष्मान": 4381,
  "साहित": 4382,
  "िल्ली": 4383,
  "িষ্টি": 4384,
  "েসিডে": 4385,
  "ற்கரை": 4386,
  "ாட்சி": 4387,
  "ிற்கு": 4388,
  "்வொரு": 4389,
  "దిగ్గ": 4390,
  "మైనవి": 4391,
  "యుక్త": 4392,
  "రాయలు": 4393,
  "ర్తిం": 4394,
  "ర్థిక": 4395,
  "లిహోర": 4396,
  "వణంతో": 4397,
  "సంస్క": 4398,
  "సంస్థ": 4399,
  "సరంగా": 4400,
  "స్థాన": 4401,
  "ాయిగా": 4402,
  "ాయిలో": 4403,
  "ారుడు": 4404,
  "ిదిరీ": 4405,
  "ినిమా": 4406,
  "ిరిజన": 4407,
  "ీవుడ్": 4408,
  "ులుసు": 4409,
  "ేతంగా": 4410,
  "్యాతి": 4411,
  "్యానీ": 4412,
  " 1956": 4413,
  "1956": 4414,
  " 2014": 4415,
  " अजूब": 4416,
  "अजूब": 4417,
  " अध्य": 4418,
  "अध्य": 4419,
  " अन्न": 4420,
  "अन्न": 4421,
  " अपार": 4422,
  "अपार": 4423,
  " आगरा": 4424,
  "आगरा": 4425,
  " आदमी": 4426,
  "आदमी": 4427,
  " आर्य": 4428,
  "आर्य": 4429,
  " इसके": 4430,
  "इसके": 4431,
  " इसरो": 4432,
  "इसरो": 4433,
  " इससे": 4434,
  "इससे": 4435,
  " ऊँची": 4436,
  "ऊँची": 4437,
  " करती": 4438,
  "करती": 4439,
  " करते": 4440,
  "करते": 4441,
  " करना": 4442,
  "करना": 4443,
  " कराई": 4444,
  "कराई": 4445,
  " कर्त": 4446,
  "कर्त": 4447,
  " किला": 4448,
  "किला": 4449,
  " कौशल": 4450,
  "कौशल": 4451,
  " क्रा": 4452,
  "क्रा": 4453,
  " खगोल": 4454,
  "खगोल": 4455,
  " गंगा": 4456,
  "गंगा": 4457,
  " चौथा": 4458,
  "चौथा": 4459,
  " जननी": 4460,
  "जननी": 4461,
  " जाती": 4462,
  "जाती": 4463,
  " जाते": 4464,
  "जाते": 4465,
  " जैसे": 4466,
  "जैसे": 4467,
  " तत्व": 4468,
  "तत्व": 4469,
  " तमिल": 4470,
  "तमिल": 4471,
  " दबाव": 4472,
  "दबाव": 4473,
  " दावा": 4474,
  "दावा": 4475,
  " धरती": 4476,
  "धरती": 4477,
  " नहीं": 4478,
  "नहीं": 4479,
  " नीति": 4480,
  "नीति": 4481,
  " नैनो": 4482,
  "नैनो": 4483,
  " परिय": 4484,
  "परिय": 4485,
  " पहले": 4486,
  "पहले": 4487,
  " पीढ़": 4488,
  "पीढ़": 4489,
  "इबर": 4490,
  "ेगा": 4491,
  "नाडु": 4492,
  "फाएँ": 4493,
  "बाइल": 4494,
  "కాలో": 4495,
  " मदद": 4496,
  "मदद": 4497,
  " শরৎ": 4498,
  "শরৎ": 4499,
  "प्रिय": 4500,
  "स्त्र": 4501,
  "स्यता": 4502,
  "శించే": 4503,
  " गुणव": 4504,
  "गुणव": 4505,
  " निःश": 4506,
  "निःश": 4507,
  " पूरे": 4508,
  "पूरे": 4509,
  " बड़े": 4510,
  "बड़े": 4511,
  " बढ़ी": 4512,
  "बढ़ी": 4513,
  " बनना": 4514,
  "बनना": 4515,
  " बनाई": 4516,
  "बनाई": 4517,
  " बहती": 4518,
  "बहती": 4519,
  " मध्य": 4520,
  "मध्य": 4521,
  " मनाए": 4522,
  "मनाए": 4523,
  " मशीन": 4524,
  "मशीन": 4525,
  " मुगल": 4526,
  "मुगल": 4527,
  " रहती": 4528,
  "रहती": 4529,
  " लंबा": 4530,
  "लंबा": 4531,
  " लागत": 4532,
  "लागत": 4533,
  " लिंग": 4534,
  "लिंग": 4535,
  " लिखी": 4536,
  "लिखी": 4537,
  " लिपि": 4538,
  "लिपि": 4539,
  " विशे": 4540,
  "विशे": 4541,
  " व्या": 4542,
  "व्या": 4543,
  " संगम": 4544,
  "संगम": 4545,
  " संभा": 4546,
  "संभा": 4547,
  " सकती": 4548,
  "सकती": 4549,
  " सदैव": 4550,
  "सदैव": 4551,
  " सिटी": 4552,
  "सिटी": 4553,
  " सीधी": 4554,
  "सीधी": 4555,
  " सीमा": 4556,
  "सीमा": 4557,
  " सोशल": 4558,
  "सोशल": 4559,
  " स्तर": 4560,
  "स्तर": 4561,
  " होकर": 4562,
  "होकर": 4563,
  " होता": 4564,
  "होता": 4565,
  " होनी": 4566,
  "होनी": 4567,
  " होली": 4568,
  "होली": 4569,
  " অত্য": 4570,
  "অত্য": 4571,
  " অপার": 4572,
  "অপার": 4573,
  " অব্য": 4574,
  "অব্য": 4575,
  " অমিত": 4576,
  "অমিত": 4577,
  " আবাস": 4578,
  "আবাস": 4579,
  " ইলিশ": 4580,
  "ইলিশ": 4581,
  " কক্স": 4582,
  "কক্স": 4583,
  " করেন": 4584,
  "করেন": 4585,
  " কলেজ": 4586,
  "কলেজ": 4587,
  " গবেষ": 4588,
  "গবেষ": 4589,
  " গভীর": 4590,
  "গভীর": 4591,
  " গর্ব": 4592,
  "গর্ব": 4593,
  " চিকি": 4594,
  "চিকি": 4595,
  " ছন্দ": 4596,
  "ছন্দ": 4597,
  " জগদী": 4598,
  "জগদী": 4599,
  " জাতি": 4600,
  "জাতি": 4601,
  " জামদ": 4602,
  "জামদ": 4603,
  " তথ্য": 4604,
  "তথ্য": 4605,
  " তিনি": 4606,
  "তিনি": 4607,
  " ধারণ": 4608,
  "ধারণ": 4609,
  " নতুন": 4610,
  "নতুন": 4611,
  " নবাব": 4612,
  "নবাব": 4613,
  " নাটক": 4614,
  "নাটক": 4615,
  " নিজে": 4616,
  "নিজে": 4617,
  " নৌকা": 4618,
  "নৌকা": 4619,
  " পথিক": 4620,
  "পথিক": 4621,
  " পালন": 4622,
  "পালন": 4623,
  " পিতা": 4624,
  "পিতা": 4625,
  " পোড়": 4626,
  "পোড়": 4627,
  " প্লা": 4628,
  "প্লা": 4629,
  " বাইচ": 4630,
  "বাইচ": 4631,
  " বিষ্": 4632,
  "বিষ্": 4633,
  " বেগম": 4634,
  "বেগম": 4635,
  " ভবিষ": 4636,
  "ভবিষ": 4637,
  " ভিত্": 4638,
  "ভিত্": 4639,
  " মডেল": 4640,
  "মডেল": 4641,
  " ময়ন": 4642,
  "ময়ন": 4643,
  " মুঘল": 4644,
  "মুঘল": 4645,
  " মেলা": 4646,
  "মেলা": 4647,
  " মোহন": 4648,
  "মোহন": 4649,
  " যাদব": 4650,
  "যাদব": 4651,
  " রসগো": 4652,
  "রসগো": 4653,
  " রেমি": 4654,
  "রেমি": 4655,
  " লাখো": 4656,
  "লাখো": 4657,
  " লালন": 4658,
  "লালন": 4659,
  " শীতক": 4660,
  "শীতক": 4661,
  " শুরু": 4662,
  "শুরু": 4663,
  " সক্র": 4664,
  "সক্র": 4665,
  " সনেট": 4666,
  "সনেট": 4667,
  " সময়": 4668,
  "সময়": 4669,
  " সালে": 4670,
  "সালে": 4671,
  " সেতু": 4672,
  "সেতু": 4673,
  " হয়ে": 4674,
  "হয়ে": 4675,
  " அகம்": 4676,
  "அகம்": 4677,
  " இணைய": 4678,
  "இணைய": 4679,
  "मुख": 4680,
  "ழத்": 4681,
  "కోన": 4682,
  "చీన": 4683,
  "ణపై": 4684,
  " ஐஐ": 4685,
  "जरात": 4686,
  "टनिर": 4687,
  "शैली": 4688,
  "िसमस": 4689,
  "ीसरा": 4690,
  "ौलिक": 4691,
  "ঘটিত": 4692,
  "পরিক": 4693,
  "িংবদ": 4694,
  "ஞராக": 4695,
  "மஸ்த": 4696,
  "కతను": 4697,
  "ఫూర్": 4698,
  "శాఖప": 4699,
  "ొదటి": 4700,
  " असम": 4701,
  "असम": 4702,
  " तरह": 4703,
  "तरह": 4704,
  " बाग": 4705,
  "बाग": 4706,
  " मिड": 4707,
  "मिड": 4708,
  " मेक": 4709,
  "मेक": 4710,
  " रहे": 4711,
  "रहे": 4712,
  " सभी": 4713,
  "सभी": 4714,
  " हाथ": 4715,
  "हाथ": 4716,
  " এখন": 4717,
  "এখন": 4718,
  " এতে": 4719,
  "এতে": 4720,
  " লাভ": 4721,
  "লাভ": 4722,
  " শহর": 4723,
  "শহর": 4724,
  " నాగ": 4725,
  "నాగ": 4726,
  "णार्क": 4727,
  "हरलाल": 4728,
  "নৈতিক": 4729,
  "ச்சனை": 4730,
  "పల్లి": 4731,
  " 1591": 4732,
  "1591": 4733,
  " केरल": 4734,
  "केरल": 4735,
  " गरीब": 4736,
  "गरीब": 4737,
  " देवो": 4738,
  "देवो": 4739,
  " धर्म": 4740,
  "धर्म": 4741,
  " निधि": 4742,
  "निधि": 4743,
  " बचाओ": 4744,
  "बचाओ": 4745,
  " रत्न": 4746,
  "रत्न": 4747,
  " পাঠশ": 4748,
  "পাঠশ": 4749,
  " সবুজ": 4750,
  "সবুজ": 4751,
  " உயிர": 4752,
  "உயிர": 4753,
  " ஏற்ப": 4754,
  "ஏற்ப": 4755,
  " ஐஐடி": 4756,
  "ஐஐடி": 4757,
  " கல்வ": 4758,
  "கல்வ": 4759,
  " கோலி": 4760,
  "கோலி": 4761,
  " கோவை": 4762,
  "கோவை": 4763,
  " சுப்": 4764,
  "சுப்": 4765,
  " துணி": 4766,
  "துணி": 4767,
  " தோசை": 4768,
  "தோசை": 4769,
  " நம்ம": 4770,
  "நம்ம": 4771,
  " நூலக": 4772,
  "நூலக": 4773,
  " நெரு": 4774,
  "நெரு": 4775,
  " பயிர": 4776,
  "பயிர": 4777,
  " பாரத": 4778,
  "பாரத": 4779,
  " பின்": 4780,
  "பின்": 4781,
  " மரபு": 4782,
  "மரபு": 4783,
  " வருக": 4784,
  "வருக": 4785,
  " விரி": 4786,
  "விரி": 4787,
  " வேளா": 4788,
  "வேளா": 4789,
  " வைகை": 4790,
  "வைகை": 4791,
  " வைணவ": 4792,
  "வைணவ": 4793,
  " అగ్ర": 4794,
  "అగ్ర": 4795,
  " అడవు": 4796,
  "అడవు": 4797,
  " ఆచార": 4798,
  "ఆచార": 4799,
  " ఆదాయ": 4800,
  "ఆదాయ": 4801,
  " ఆలయం": 4802,
  "ఆలయం": 4803,
  " ఆహార": 4804,
  "ఆహార": 4805,
  " ఇటాల": 4806,
  "ఇటాల": 4807,
  " ఎగుమ": 4808,
  "ఎగుమ": 4809,
  " ఐఐటీ": 4810,
  "ఐఐటీ": 4811,
  " కలంక": 4812,
  "కలంక": 4813,
  " కళలు": 4814,
  "కళలు": 4815,
  " కూడా": 4816,
  "కూడా": 4817,
  " కోసం": 4818,
  "కోసం": 4819,
  " ఖనిజ": 4820,
  "ఖనిజ": 4821,
  " గారి": 4822,
  "గారి": 4823,
  " ఘంటస": 4824,
  "ఘంటస": 4825,
  " చారి": 4826,
  "చారి": 4827,
  " చెంద": 4828,
  "చెంద": 4829,
  " జాతర": 4830,
  "జాతర": 4831,
  " తీసు": 4832,
  "తీసు": 4833,
  " తేజం": 4834,
  "తేజం": 4835,
  " త్యా": 4836,
  "త్యా": 4837,
  " ద్రా": 4838,
  "ద్రా": 4839,
  " నగరా": 4840,
  "నగరా": 4841,
  " నాటక": 4842,
  "నాటక": 4843,
  " నూతన": 4844,
  "నూతన": 4845,
  " పండి": 4846,
  "పండి": 4847,
  " పర్య": 4848,
  "పర్య": 4849,
  " పారి": 4850,
  "పారి": 4851,
  " పెసర": 4852,
  "పెసర": 4853,
  "মুনা": 4854,
  "স্যা": 4855,
  "वित्र": 4856,
  "ात्मा": 4857,
  "খ্যাত": 4858,
  "জিবুর": 4859,
  "ডিকেল": 4860,
  "তাবাদ": 4861,
  "পাতাল": 4862,
  "মাতৃক": 4863,
  "র্ঘতম": 4864,
  "শংসিত": 4865,
  "ারগাঁ": 4866,
  "িকাশে": 4867,
  "ராமாய": 4868,
  "வானது": 4869,
  "ంచాంగ": 4870,
  "జ్యపు": 4871,
  "మ్మలు": 4872,
  "ాలెస్": 4873,
  "ేడియో": 4874,
  " किले": 4875,
  "किले": 4876,
  " दूरद": 4877,
  "दूरद": 4878,
  " बिना": 4879,
  "बिना": 4880,
  " बैंक": 4881,
  "बैंक": 4882,
  " सराह": 4883,
  "सराह": 4884,
  " অতুল": 4885,
  "অতুল": 4886,
  " উভয়": 4887,
  "উভয়": 4888,
  " নামে": 4889,
  "নামে": 4890,
  " সারা": 4891,
  "সারা": 4892,
  " সেবা": 4893,
  "সেবা": 4894,
  " அதன்": 4895,
  "அதன்": 4896,
  " இளைய": 4897,
  "இளைய": 4898,
  " உணவு": 4899,
  "உணவு": 4900,
  " காபி": 4901,
  "காபி": 4902,
  " நவீன": 4903,
  "நவீன": 4904,
  " நாதஸ": 4905,
  "நாதஸ": 4906,
  " வடிவ": 4907,
  "வடிவ": 4908,
  " வாசி": 4909,
  "வாசி": 4910,
  " అరకు": 4911,
  "అరకు": 4912,
  " కొలు": 4913,
  "కొలు": 4914,
  " పోతన": 4915,
  "పోతన": 4916,
  " పోషి": 4917,
  "పోషి": 4918,
  " భాగం": 4919,
  "భాగం": 4920,
  " భారత": 4921,
  "భారత": 4922,
  " భాషా": 4923,
  "భాషా": 4924,
  " మహనీ": 4925,
  "మహనీ": 4926,
  " మార్": 4927,
  "మార్": 4928,
  " ముగ్": 4929,
  "ముగ్": 4930,
  " రకాల": 4931,
  "రకాల": 4932,
  " రాజు": 4933,
  "రాజు": 4934,
  " రాతి": 4935,
  "రాతి": 4936,
  " రీతి": 4937,
  "రీతి": 4938,
  " రుచి": 4939,
  "రుచి": 4940,
  " లంచ్": 4941,
  "లంచ్": 4942,
  " లలిత": 4943,
  "లలిత": 4944,
  " లేదా": 4945,
  "లేదా": 4946,
  " వస్త": 4947,
  "వస్త": 4948,
  " వాటా": 4949,
  "వాటా": 4950,
  " వేంక": 4951,
  "వేంక": 4952,
  " సంపద": 4953,
  "సంపద": 4954,
  "ंगलयान": 4955,
  "ंस्करण": 4956,
  "कॉमर्स": 4957,
  "तापूर्": 4958,
  "त्पादन": 4959,
  "थमिकता": 4960,
  "पालिका": 4961,
  "वनागरी": 4962,
  "संख्या": 4963,
  "स्थिति": 4964,
  "स्याओं": 4965,
  "ानुपात": 4966,
  "ार्टअप": 4967,
  "िमत्ता": 4968,
  "ीकरणीय": 4969,
  "ेडिसिन": 4970,
  "्यावरण": 4971,
  "्योहार": 4972,
  "ইব্রিড": 4973,
  "করণীয়": 4974,
  "ড়ানোই": 4975,
  "থিতিশী": 4976,
  "দ্ধারে": 4977,
  "দ্রোহী": 4978,
  "ন্তর্ভ": 4979,
  "বান্ধব": 4980,
  "যোগিতা": 4981,
  "াড়পুর": 4982,
  "াধিকার": 4983,
  "ার্যকর": 4984,
  "িষ্ট্য": 4985,
  "েত্রেই": 4986,
  "க்கலைய": 4987,
  "க்கில்": 4988,
  "ங்கப்ப": 4989,
  "ங்கீகர": 4990,
  "ஞ்சீவி": 4991,
  "ண்ணாமல": 4992,
  "தியின்": 4993,
  "र्यात": 4994,
  "রক্ষণ": 4995,
  "ఖ్యాత": 4996,
  "ప్లవా": 4997,
  " अनेक": 4998,
  "अनेक": 4999,
  " युवा": 5000,
  "युवा": 5001,
  " ডিজি": 5002,
  " அரசு": 5003,
  "அரசு": 5004,
  " சேலை": 5005,
  "சேலை": 5006,
  " అనేక": 5007,
  "అనేక": 5008,
  " కాఫీ": 5009,
  "కాఫీ": 5010,
  "भोक्ता": 5011,
  "र्निंग": 5012,
  "ाणिज्य": 5013,
  "्लादेश": 5014,
  "চেতনতা": 5015,
  "েপুলির": 5016,
  "ன்பிடி": 5017,
  "பற்றுக": 5018,
  "ப்பதிக": 5019,
  "ப்பும்": 5020,
  "ம்பார்": 5021,
  "ம்மொழி": 5022,
  "ர்திரு": 5023,
  "ளிடையே": 5024,
  "ள்ளுவர": 5025,
  "ாகுமரி": 5026,
  "ிகளில்": 5027,
  "ிக்கவி": 5028,
  "ியாகக்": 5029,
  "ுக்காக": 5030,
  "ுக்கான": 5031,
  "ுடமணிய": 5032,
  "ுப்புற": 5033,
  "ంచటంలో": 5034,
  "ంథాలలో": 5035,
  "కాల్లో": 5036,
  "గ్గేయక": 5037,
  "చిపూడి": 5038,
  "జెక్ట్": 5039,
  "టానికి": 5040,
  "టేశ్వర": 5041,
  "డ్డారు": 5042,
  "ణ్యక్ష": 5043,
  "తానికి": 5044,
  "ధిల్లు": 5045,
  "నాన్ని": 5046,
  "నీయమైన": 5047,
  "ప్పుడూ": 5048,
  "యానాది": 5049,
  "రాబాదీ": 5050,
  "రాములు": 5051,
  "ర్ణాటక": 5052,
  "ల్కొండ": 5053,
  "స్పోరా": 5054,
  "హ్నంగా": 5055,
  "్యావరణ": 5056,
  "్రాంతి": 5057,
  " अंजाम": 5058,
  "अंजाम": 5059,
  " अजंता": 5060,
  "अजंता": 5061,
  " अतिथि": 5062,
  "अतिथि": 5063,
  " अनुसं": 5064,
  "अनुसं": 5065,
  " आभूषण": 5066,
  "आभूषण": 5067,
  " एलोरा": 5068,
  "एलोरा": 5069,
  " ऑटोमो": 5070,
  "ऑटोमो": 5071,
  " ओडिशा": 5072,
  "ओडिशा": 5073,
  " कानून": 5074,
  "कानून": 5075,
  " कार्य": 5076,
  "कार्य": 5077,
  " खाद्य": 5078,
  "खाद्य": 5079,
  " गाँधी": 5080,
  "गाँधी": 5081,
  " घनिष्": 5082,
  "घनिष्": 5083,
  " घरेलू": 5084,
  "घरेलू": 5085,
  " चंद्र": 5086,
  "चंद्र": 5087,
  " जंगली": 5088,
  "जंगली": 5089,
  " जरूरत": 5090,
  "जरूरत": 5091,
  " जरूरी": 5092,
  "जरूरी": 5093,
  " जोड़ा": 5094,
  "जोड़ा": 5095,
  " टीमों": 5096,
  "टीमों": 5097,
  " टेलीम": 5098,
  " तत्पर": 5099,
  "तत्पर": 5100,
  " तरीके": 5101,
  "तरीके": 5102,
  " तैनात": 5103,
  "तैनात": 5104,
  " तैयार": 5105,
  "तैयार": 5106,
  " दिलाई": 5107,
  "दिलाई": 5108,
  " दौरान": 5109,
  "दौरान": 5110,
  " धरोहर": 5111,
  "धरोहर": 5112,
  " ध्यान": 5113,
  "ध्यान": 5114,
  " नेहरू": 5115,
  "नेहरू": 5116,
  " पंजाब": 5117,
  "पंजाब": 5118,
  " पढ़ाओ": 5119,
  "पढ़ाओ": 5120,
  " पहचान": 5121,
  "पहचान": 5122,
  " फार्म": 5123,
  "फार्म": 5124,
  " बंगाल": 5125,
  "बंगाल": 5126,
  " बढ़ती": 5127,
  "बढ़ती": 5128,
  " बढ़ाई": 5129,
  "बढ़ाई": 5130,
  " बढ़ाए": 5131,
  "बढ़ाए": 5132,
  " बनाना": 5133,
  "बनाना": 5134,
  " बनाने": 5135,
  "बनाने": 5136,
  " बनाया": 5137,
  "बनाया": 5138,
  " अवसर": 5139,
  "अवसर": 5140,
  " দত্ত": 5141,
  "দত্ত": 5142,
  " మిరప": 5143,
  "మిరప": 5144,
  "হাম্মদ": 5145,
  "্রেডিট": 5146,
  "నాడులు": 5147,
  " बुद्ध": 5148,
  "बुद्ध": 5149,
  " भंडार": 5150,
  "भंडार": 5151,
  " मतदान": 5152,
  "मतदान": 5153,
  " मध्यम": 5154,
  "मध्यम": 5155,
  " मशहूर": 5156,
  "मशहूर": 5157,
  " महारा": 5158,
  "महारा": 5159,
  " मुंबई": 5160,
  "मुंबई": 5161,
  " मौलिक": 5162,
  "मौलिक": 5163,
  " यात्र": 5164,
  "यात्र": 5165,
  " रक्षा": 5166,
  " लंबित": 5167,
  "लंबित": 5168,
  " लड़ाई": 5169,
  "लड़ाई": 5170,
  " लिखित": 5171,
  "लिखित": 5172,
  " लोगों": 5173,
  "लोगों": 5174,
  " विदेश": 5175,
  "विदेश": 5176,
  " शक्ति": 5177,
  "शक्ति": 5178,
  " शहरों": 5179,
  "शहरों": 5180,
  " शांति": 5181,
  "शांति": 5182,
  " शीर्ष": 5183,
  "शीर्ष": 5184,
  " शून्य": 5185,
  "शून्य": 5186,
  " संचार": 5187,
  "संचार": 5188,
  " संबंध": 5189,
  "संबंध": 5190,
  " सत्या": 5191,
  "सत्या": 5192,
  " समग्र": 5193,
  "समग्र": 5194,
  " सरकार": 5195,
  "सरकार": 5196,
  " सस्ता": 5197,
  "सस्ता": 5198,
  " सहयोग": 5199,
  "सहयोग": 5200,
  " सांस्": 5201,
  "सांस्": 5202,
  " साहित": 5203,
  " सूर्य": 5204,
  "सूर्य": 5205,
  " स्तंभ": 5206,
  "स्तंभ": 5207,
  " स्वयं": 5208,
  "स्वयं": 5209,
  " स्वाद": 5210,
  "स्वाद": 5211,
  " हासिल": 5212,
  "हासिल": 5213,
  " हिंदी": 5214,
  "हिंदी": 5215,
  " होंगे": 5216,
  "होंगे": 5217,
  " অনন্য": 5218,
  "অনন্য": 5219,
  " অনুপম": 5220,
  "অনুপম": 5221,
  " অপরূপ": 5222,
  "অপরূপ": 5223,
  " অবদান": 5224,
  "অবদান": 5225,
  " অর্জন": 5226,
  "অর্জন": 5227,
  " আত্মা": 5228,
  "আত্মা": 5229,
  " আহসান": 5230,
  "আহসান": 5231,
  " ইউনুস": 5232,
  "ইউনুস": 5233,
  " ইসলাম": 5234,
  "ইসলাম": 5235,
  " এনেছে": 5236,
  "এনেছে": 5237,
  " কাঁথা": 5238,
  "কাঁথা": 5239,
  " কাপড়": 5240,
  "কাপড়": 5241,
  " কিংবদ": 5242,
  "কিংবদ": 5243,
  " খাবার": 5244,
  "খাবার": 5245,
  " গঙ্গা": 5246,
  "গঙ্গা": 5247,
  " গড়ার": 5248,
  "গড়ার": 5249,
  " চিত্র": 5250,
  " ছিলেন": 5251,
  " জগদীশ": 5252,
  "জগদীশ": 5253,
  " জাতির": 5254,
  "জাতির": 5255,
  " জীববৈ": 5256,
  "জীববৈ": 5257,
  " ট্রাম": 5258,
  "ট্রাম": 5259,
  " ঠাকুর": 5260,
  "ঠাকুর": 5261,
  " ঢাকার": 5262,
  "ঢাকার": 5263,
  " তালিক": 5264,
  "তালিক": 5265,
  " থিয়ে": 5266,
  "থিয়ে": 5267,
  " দরকার": 5268,
  "দরকার": 5269,
  " দর্শন": 5270,
  "দর্শন": 5271,
  " দিয়ে": 5272,
  "দিয়ে": 5273,
  " দুর্গ": 5274,
  "দুর্গ": 5275,
  " দ্রুত": 5276,
  "দ্রুত": 5277,
  " নৌকার": 5278,
  "নৌকার": 5279,
  " পরিণত": 5280,
  "পরিণত": 5281,
  " পহেলা": 5282,
  "পহেলা": 5283,
  " পারস্": 5284,
  "পারস্": 5285,
  " পার্ব": 5286,
  "পার্ব": 5287,
  " পুনরু": 5288,
  "পুনরু": 5289,
  " প্রথম": 5290,
  "প্রথম": 5291,
  " প্রাণ": 5292,
  " প্রাস": 5293,
  "প্রাস": 5294,
  " প্রেম": 5295,
  " বঙ্গব": 5296,
  "বঙ্গব": 5297,
  " বজায়": 5298,
  "বজায়": 5299,
  " বন্ধন": 5300,
  "বন্ধন": 5301,
  " বাড়া": 5302,
  "বাড়া": 5303,
  " বিহার": 5304,
  "বিহার": 5305,
  " বেতার": 5306,
  "বেতার": 5307,
  " বৌদ্ধ": 5308,
  "বৌদ্ধ": 5309,
  " মসলিন": 5310,
  "মসলিন": 5311,
  " মেঘনা": 5312,
  "মেঘনা": 5313,
  " মেট্র": 5314,
  "মেট্র": 5315,
  " ম্যান": 5316,
  "ম্যান": 5317,
  " মৎস্য": 5318,
  "মৎস্য": 5319,
  " যমুনা": 5320,
  "যমুনা": 5321,
  " যানজট": 5322,
  "যানজট": 5323,
  " রক্ষা": 5324,
  "রক্ষা": 5325,
  " রহমান": 5326,
  "রহমান": 5327,
  " শাড়ি": 5328,
  "শাড়ি": 5329,
  "ార్జున": 5330,
  " तीसरा": 5331,
  "तीसरा": 5332,
  " साइबर": 5333,
  "साइबर": 5334,
  " ফুটবল": 5335,
  "ফুটবল": 5336,
  " সংহতি": 5337,
  "সংহতি": 5338,
  " সাম্য": 5339,
  "সাম্য": 5340,
  " সার্ব": 5341,
  "সার্ব": 5342,
  " স্থান": 5343,
  "স্থান": 5344,
  " স্যার": 5345,
  "স্যার": 5346,
  " হস্তশ": 5347,
  "হস্তশ": 5348,
  " হাওড়": 5349,
  "হাওড়": 5350,
  " அண்ணா": 5351,
  "அண்ணா": 5352,
  " அந்தஸ": 5353,
  "அந்தஸ": 5354,
  " ஆழமான": 5355,
  "ஆழமான": 5356,
  " இசையை": 5357,
  "இசையை": 5358,
  " இட்லி": 5359,
  "இட்லி": 5360,
  " இலங்க": 5361,
  "இலங்க": 5362,
  " என்று": 5363,
  "என்று": 5364,
  " கஞ்சீ": 5365,
  "கஞ்சீ": 5366,
  " கடலோர": 5367,
  "கடலோர": 5368,
  " கடல்க": 5369,
  "கடல்க": 5370,
  " கார்த": 5371,
  "கார்த": 5372,
  " குன்ற": 5373,
  "குன்ற": 5374,
  " சிற்ப": 5375,
  "சிற்ப": 5376,
  " தலமாக": 5377,
  "தலமாக": 5378,
  " தளமாக": 5379,
  "தளமாக": 5380,
  " தீபம்": 5381,
  "தீபம்": 5382,
  " தொல்க": 5383,
  "தொல்க": 5384,
  " தோட்ட": 5385,
  "தோட்ட": 5386,
  " நகரம்": 5387,
  "நகரம்": 5388,
  " நூல்க": 5389,
  "நூல்க": 5390,
  " நெசவு": 5391,
  "நெசவு": 5392,
  " பட்டு": 5393,
  "பட்டு": 5394,
  " புறம்": 5395,
  "புறம்": 5396,
  " பொருள": 5397,
  "பொருள": 5398,
  " மணிமே": 5399,
  "மணிமே": 5400,
  " மாநில": 5401,
  "மாநில": 5402,
  " மாற்ற": 5403,
  "மாற்ற": 5404,
  " வந்தவ": 5405,
  "வந்தவ": 5406,
  " விழாவ": 5407,
  "விழாவ": 5408,
  " అతిపె": 5409,
  "అతిపె": 5410,
  " అమెరి": 5411,
  "అమెరి": 5412,
  " ఆధుని": 5413,
  "ఆధుని": 5414,
  " ఇందిర": 5415,
  "ఇందిర": 5416,
  " ఉగాది": 5417,
  "ఉగాది": 5418,
  " ఉన్నత": 5419,
  "ఉన్నత": 5420,
  " ఉస్మా": 5421,
  "ఉస్మా": 5422,
  " ఎన్టీ": 5423,
  "ఎన్టీ": 5424,
  " ఎర్రా": 5425,
  "ఎర్రా": 5426,
  " ఎస్పీ": 5427,
  "ఎస్పీ": 5428,
  " కవులు": 5429,
  "కవులు": 5430,
  " కార్య": 5431,
  "కార్య": 5432,
  " గడుపు": 5433,
  "గడుపు": 5434,
  " చలనచి": 5435,
  "చలనచి": 5436,
  " చేసిన": 5437,
  "చేసిన": 5438,
  " జాతీయ": 5439,
  "జాతీయ": 5440,
  " జీవనం": 5441,
  "జీవనం": 5442,
  " దోహదం": 5443,
  "దోహదం": 5444,
  " నటుడు": 5445,
  "నటుడు": 5446,
  " నదులు": 5447,
  "నదులు": 5448,
  " నిజాం": 5449,
  "నిజాం": 5450,
  " నిర్మ": 5451,
  "నిర్మ": 5452,
  " నివసి": 5453,
  "నివసి": 5454,
  " నృత్య": 5455,
  "నృత్య": 5456,
  " పంటకు": 5457,
  "పంటకు": 5458,
  " పంటలు": 5459,
  "పంటలు": 5460,
  " పండుగ": 5461,
  "పండుగ": 5462,
  " పత్తి": 5463,
  "పత్తి": 5464,
  " పరంపర": 5465,
  "పరంపర": 5466,
  " ప్రజల": 5467,
  "ప్రజల": 5468,
  " బాలసు": 5469,
  "బాలసు": 5470,
  " భక్తి": 5471,
  "భక్తి": 5472,
  " భాషకు": 5473,
  "భాషకు": 5474,
  " భాషగా": 5475,
  "భాషగా": 5476,
  " భాషను": 5477,
  "భాషను": 5478,
  " భాషలో": 5479,
  "భాషలో": 5480,
  " భోజనం": 5481,
  "భోజనం": 5482,
  " మొదటి": 5483,
  "మొదటి": 5484,
  " రామార": 5485,
  "రామార": 5486,
  " రాసిన": 5487,
  "రాసిన": 5488,
  " వంటకం": 5489,
  "వంటకం": 5490,
  " వర్క్": 5491,
  "వర్క్": 5492,
  " వివాహ": 5493,
  "వివాహ": 5494,
  " శ్రమి": 5495,
  "శ్రమి": 5496,
  " సందర్": 5497,
  "సందర్": 5498,
  " సంస్థ": 5499,
  " సమాజం": 5500,
  "సమాజం": 5501,
  " హజార్": 5502,
  "హజార్": 5503,
  "ज्ञानिक": 5504,
  "टवर्कों": 5505,
  "न्होंने": 5506,
  "ब्धियाँ": 5507,
  "म्राज्य": 5508,
  "ष्टाचार": 5509,
  "्लॉकचेन": 5510,
  "ক্ষরোপণ": 5511,
  "ট্যান্স": 5512,
  "নেস্কোর": 5513,
  "ন্দরবান": 5514,
  "ন্দর্যে": 5515,
  "প্রাণিত": 5516,
  "শ্রেষ্ঠ": 5517,
  "স্কৃতিক": 5518,
  "াবেলায়": 5519,
  "েষ্ঠত্ব": 5520,
  "োক্তারা": 5521,
  "্রাক্ষর": 5522,
  "க்கழகம்": 5523,
  "க்கியது": 5524,
  "ங்குகள்": 5525,
  "ச்சலோடு": 5526,
  "டுத்திய": 5527,
  "ண்ணாமலை": 5528,
  "தம்பரம்": 5529,
  "ந்தனையை": 5530,
  "ந்துள்ள": 5531,
  "ர்கிறது": 5532,
  "ல்லியல்": 5533,
  "ாய்மொழி": 5534,
  "ித்தனர்": 5535,
  "ிபாட்டு": 5536,
  "ிருந்தே": 5537,
  "ையிலும்": 5538,
  "்மானின்": 5539,
  "ంద్రంగా": 5540,
  "కొచ్చిన": 5541,
  "క్రమాలు": 5542,
  "ణత్యాగం": 5543,
  "దయాల్లో": 5544,
  "ద్యాలయం": 5545,
  "రక్షణపై": 5546,
  "ర్జాతీయ": 5547,
  "ర్తింపు": 5548,
  "వేశాలలో": 5549,
  "శ్రామిక": 5550,
  "సంస్కరణ": 5551,
  "స్కృతిక": 5552,
  "స్ర్తీయ": 5553,
  "ాయపదంగా": 5554,
  " अग्रणी": 5555,
  "अग्रणी": 5556,
  " अजूबों": 5557,
  "अजूबों": 5558,
  " अत्यंत": 5559,
  "अत्यंत": 5560,
  " अहिंसा": 5561,
  "अहिंसा": 5562,
  " आधारित": 5563,
  "आधारित": 5564,
  " आपदाओं": 5565,
  "आपदाओं": 5566,
  " इलाकों": 5567,
  "इलाकों": 5568,
  " उदाहरण": 5569,
  "उदाहरण": 5570,
  " उद्यान": 5571,
  "उद्यान": 5572,
  " ऑनलाइन": 5573,
  "ऑनलाइन": 5574,
  " कश्मीर": 5575,
  "कश्मीर": 5576,
  " क्षमता": 5577,
  "क्षमता": 5578,
  " खासियत": 5579,
  "खासियत": 5580,
  " गुजरात": 5581,
  "गुजरात": 5582,
  " गुटनिर": 5583,
  "गुटनिर": 5584,
  " गुफाएँ": 5585,
  "गुफाएँ": 5586,
  " चुनौती": 5587,
  "चुनौती": 5588,
  " जवानों": 5589,
  "जवानों": 5590,
  " ताजमहल": 5591,
  "ताजमहल": 5592,
  " दिल्ली": 5593,
  "दिल्ली": 5594,
  " दीवाली": 5595,
  "दीवाली": 5596,
  " दृष्टि": 5597,
  "दृष्टि": 5598,
  " दोगुनी": 5599,
  "दोगुनी": 5600,
  " नदियों": 5601,
  "नदियों": 5602,
  " निपटने": 5603,
  "निपटने": 5604,
  " निभाता": 5605,
  "निभाता": 5606,
  " निर्भर": 5607,
  "निर्भर": 5608,
  " पर्यटन": 5609,
  "पर्यटन": 5610,
  " पवित्र": 5611,
  "पवित्र": 5612,
  " पश्चिम": 5613,
  "पश्चिम": 5614,
  " प्रगति": 5615,
  "प्रगति": 5616,
  " प्रतीक": 5617,
  "प्रतीक": 5618,
  " प्रमाण": 5619,
  "प्रमाण": 5620,
  " प्रमुख": 5621,
  "प्रमुख": 5622,
  " प्रोत्": 5623,
  "प्रोत्": 5624,
  " बलिदान": 5625,
  "बलिदान": 5626,
  " बेघरों": 5627,
  "बेघरों": 5628,
  " भव्यता": 5629,
  "भव्यता": 5630,
  " भाषाएँ": 5631,
  "भाषाएँ": 5632,
  " भीमराव": 5633,
  "भीमराव": 5634,
  " मनरेगा": 5635,
  "मनरेगा": 5636,
  " मिलजुल": 5637,
  "मिलजुल": 5638,
  " यूपीआई": 5639,
  "यूपीआई": 5640,
  " योगदान": 5641,
  "योगदान": 5642,
  " रफ्तार": 5643,
  "रफ्तार": 5644,
  " लक्ष्य": 5645,
  "लक्ष्य": 5646,
  " लेनदेन": 5647,
  "लेनदेन": 5648,
  " वस्त्र": 5649,
  "वस्त्र": 5650,
  " विरासत": 5651,
  "विरासत": 5652,
  " व्यंजन": 5653,
  "व्यंजन": 5654,
  " सदियों": 5655,
  "सदियों": 5656,
  " समानता": 5657,
  "समानता": 5658,
  " समावेश": 5659,
  "समावेश": 5660,
  " समूहों": 5661,
  "समूहों": 5662,
  " समृद्ध": 5663,
  "समृद्ध": 5664,
  " सम्मान": 5665,
  "सम्मान": 5666,
  " सरकारी": 5667,
  "सरकारी": 5668,
  " सिनेमा": 5669,
  "सिनेमा": 5670,
  " सुशासन": 5671,
  "सुशासन": 5672,
  " सेवाएँ": 5673,
  "सेवाएँ": 5674,
  " स्थायी": 5675,
  "स्थायी": 5676,
  " स्मारक": 5677,
  "स्मारक": 5678,
  " स्वर्ग": 5679,
  "स्वर्ग": 5680,
  " स्वस्थ": 5681,
  "स्वस्थ": 5682,
  " हिमालय": 5683,
  "हिमालय": 5684,
  " অক্সফো": 5685,
  "অক্সফো": 5686,
  " অগ্রণী": 5687,
  "অগ্রণী": 5688,
  " অধিকার": 5689,
  "অধিকার": 5690,
  " অমূল্য": 5691,
  "অমূল্য": 5692,
  " আচার্য": 5693,
  "আচার্য": 5694,
  " আর্থিক": 5695,
  "আর্থিক": 5696,
  " আশাব্য": 5697,
  "আশাব্য": 5698,
  " আশুতোষ": 5699,
  "আশুতোষ": 5700,
  " ইস্টবে": 5701,
  "ইস্টবে": 5702,
  " উদ্যোগ": 5703,
  "উদ্যোগ": 5704,
  " একসময়": 5705,
  "একসময়": 5706,
  " কর্মরত": 5707,
  "কর্মরত": 5708,
  " কলকাতা": 5709,
  "কলকাতা": 5710,
  " কৃষিতে": 5711,
  "কৃষিতে": 5712,
  " কেল্লা": 5713,
  "কেল্লা": 5714,
  " গ্রামে": 5715,
  "গ্রামে": 5716,
  " ঘনবসতি": 5717,
  "ঘনবসতি": 5718,
  " চামড়া": 5719,
  "চামড়া": 5720,
  " জাতীয়": 5721,
  "জাতীয়": 5722,
  " দক্ষিণ": 5723,
  "দক্ষিণ": 5724,
  " দেওয়া": 5725,
  "দেওয়া": 5726,
  " নববর্ষ": 5727,
  "নববর্ষ": 5728,
  " নবায়ন": 5729,
  "নবায়ন": 5730,
  " নেওয়া": 5731,
  "নেওয়া": 5732,
  " পথিকৃৎ": 5733,
  "পথিকৃৎ": 5734,
  " পদ্মার": 5735,
  "পদ্মার": 5736,
  " পরিবহন": 5737,
  "পরিবহন": 5738,
  " পর্যটন": 5739,
  "পর্যটন": 5740,
  " পাঠানো": 5741,
  "পাঠানো": 5742,
  " প্রকাশ": 5743,
  "প্রকাশ": 5744,
  " বঙ্কিম": 5745,
  "বঙ্কিম": 5746,
  " বর্ষাক": 5747,
  "বর্ষাক": 5748,
  " বস্ত্র": 5749,
  "বস্ত্র": 5750,
  " বাঙালি": 5751,
  "বাঙালি": 5752,
  " বিকাশে": 5753,
  "বিকাশে": 5754,
  " বিজয়ী": 5755,
  "বিজয়ী": 5756,
  " বিদেশে": 5757,
  "বিদেশে": 5758,
  " বিপ্লব": 5759,
  "বিপ্লব": 5760,
  " বৃদ্ধি": 5761,
  "বৃদ্ধি": 5762,
  " বৈশাখে": 5763,
  "বৈশাখে": 5764,
  " ব্যাংক": 5765,
  "ব্যাংক": 5766,
  " ভিত্তি": 5767,
  "ভিত্তি": 5768,
  " মঞ্জিল": 5769,
  "মঞ্জিল": 5770,
  " মাইকেল": 5771,
  "মাইকেল": 5772,
  " মানবিক": 5773,
  "মানবিক": 5774,
  " মিষ্টি": 5775,
  "মিষ্টি": 5776,
  " মুক্তি": 5777,
  "মুক্তি": 5778,
  " মোবাইল": 5779,
  "মোবাইল": 5780,
  " রাখছেন": 5781,
  "রাখছেন": 5782,
  " রেখেছে": 5783,
  "রেখেছে": 5784,
  " লালবাগ": 5785,
  "লালবাগ": 5786,
  " শক্তির": 5787,
  "শক্তির": 5788,
  " শান্তি": 5789,
  "শান্তি": 5790,
  " শ্রমিক": 5791,
  "শ্রমিক": 5792,
  " সংঘটিত": 5793,
  "সংঘটিত": 5794,
  " সমস্যা": 5795,
  "সমস্যা": 5796,
  " সমৃদ্ধ": 5797,
  "সমৃদ্ধ": 5798,
  " সরকারি": 5799,
  "সরকারি": 5800,
  " সুদৃঢ়": 5801,
  "সুদৃঢ়": 5802,
  " স্বপ্ন": 5803,
  "স্বপ্ন": 5804,
  " স্মৃতি": 5805,
  "স্মৃতি": 5806,
  " হিসেবে": 5807,
  "হিসেবে": 5808,
  " அமைந்த": 5809,
  "அமைந்த": 5810,
  " அம்மன்": 5811,
  "அம்மன்": 5812,
  " அறுவடை": 5813,
  "அறுவடை": 5814,
  " இயற்கை": 5815,
  "இயற்கை": 5816,
  " இலக்கண": 5817,
  "இலக்கண": 5818,
  " உலகின்": 5819,
  "உலகின்": 5820,
  " உள்ளது": 5821,
  "உள்ளது": 5822,
  " எதிர்க": 5823,
  "எதிர்க": 5824,
  " கதைகள்": 5825,
  "கதைகள்": 5826,
  " கன்னிய": 5827,
  "கன்னிய": 5828,
  " கம்பர்": 5829,
  "கம்பர்": 5830,
  " கலைஞர்": 5831,
  "கலைஞர்": 5832,
  " காவிரி": 5833,
  "காவிரி": 5834,
  " கோட்டை": 5835,
  "கோட்டை": 5836,
  " தஞ்சாவ": 5837,
  "தஞ்சாவ": 5838,
  " திருமண": 5839,
  "திருமண": 5840,
  " தென்னி": 5841,
  "தென்னி": 5842,
  " நிறுவன": 5843,
  "நிறுவன": 5844,
  " படைப்ப": 5845,
  "படைப்ப": 5846,
  " பரவலாக": 5847,
  "பரவலாக": 5848,
  " பல்கலை": 5849,
  "பல்கலை": 5850,
  " புத்தா": 5851,
  "புத்தா": 5852,
  " புரட்ச": 5853,
  "புரட்ச": 5854,
  " பெற்று": 5855,
  "பெற்று": 5856,
  " மரபைக்": 5857,
  "மரபைக்": 5858,
  " மாவட்ட": 5859,
  "மாவட்ட": 5860,
  " முன்னோ": 5861,
  "முன்னோ": 5862,
  " மூன்று": 5863,
  "மூன்று": 5864,
  " மையமாக": 5865,
  "மையமாக": 5866,
  " ராக்கோ": 5867,
  "ராக்கோ": 5868,
  " வேகமாக": 5869,
  "வேகமாக": 5870,
  " வேலூர்": 5871,
  "வேலூர்": 5872,
  " అంటారు": 5873,
  "అంటారు": 5874,
  " అందమైన": 5875,
  "అందమైన": 5876,
  " అధికార": 5877,
  "అధికార": 5878,
  " అప్పార": 5879,
  "అప్పార": 5880,
  " అవగాహన": 5881,
  "అవగాహన": 5882,
  " ఆర్థిక": 5883,
  "ఆర్థిక": 5884,
  " ఉంటాయి": 5885,
  "ఉంటాయి": 5886,
  " ఎగుమతి": 5887,
  "ఎగుమతి": 5888,
  " కట్టడా": 5889,
  "కట్టడా": 5890,
  " కృష్ణా": 5891,
  "కృష్ణా": 5892,
  " ఖ్యాతి": 5893,
  "ఖ్యాతి": 5894,
  " గాంచిన": 5895,
  "గాంచిన": 5896,
  " గాత్రం": 5897,
  "గాత్రం": 5898,
  " గిరిజన": 5899,
  "గిరిజన": 5900,
  " గురజాడ": 5901,
  "గురజాడ": 5902,
  " గొంగూర": 5903,
  "గొంగూర": 5904,
  " గోంగూర": 5905,
  "గోంగూర": 5906,
  " ఘంటసాల": 5907,
  "ఘంటసాల": 5908,
  " చిరస్థ": 5909,
  "చిరస్థ": 5910,
  " చేశాయి": 5911,
  "చేశాయి": 5912,
  " దీనిని": 5913,
  "దీనిని": 5914,
  " నిలిపి": 5915,
  "నిలిపి": 5916,
  " నీటిని": 5917,
  "నీటిని": 5918,
  " పంచాంగ": 5919,
  "పంచాంగ": 5920,
  " పచ్చడి": 5921,
  "పచ్చడి": 5922,
  " పత్రిక": 5923,
  "పత్రిక": 5924,
  " పులుసు": 5925,
  "పులుసు": 5926,
  " పెరుగు": 5927,
  "పెరుగు": 5928,
  " పొందిన": 5929,
  "పొందిన": 5930,
  " పొట్టి": 5931,
  "పొట్టి": 5932,
  " ప్రజలు": 5933,
  "ప్రజలు": 5934,
  " ప్రతీక": 5935,
  "ప్రతీక": 5936,
  " ప్రబంధ": 5937,
  "ప్రబంధ": 5938,
  " బిదిరీ": 5939,
  "బిదిరీ": 5940,
  " భాగవతం": 5941,
  "భాగవతం": 5942,
  " భూమికి": 5943,
  "భూమికి": 5944,
  " మహాకవి": 5945,
  "మహాకవి": 5946,
  " మేడారం": 5947,
  "మేడారం": 5948,
  " యానాది": 5949,
  " రంగంలో": 5950,
  "రంగంలో": 5951,
  " రేడియో": 5952,
  "రేడియో": 5953,
  " రైతులు": 5954,
  "రైతులు": 5955,
  " వంటివి": 5956,
  "వంటివి": 5957,
  " వారికి": 5958,
  "వారికి": 5959,
  " విశాఖప": 5960,
  "విశాఖప": 5961,
  " వేగంగా": 5962,
  "వేగంగా": 5963,
  " సంస్కృ": 5964,
  "సంస్కృ": 5965,
  " సామ్రా": 5966,
  "సామ్రా": 5967,
  " సినిమా": 5968,
  "సినిమా": 5969,
  " స్థానం": 5970,
  "స్థానం": 5971,
  " స్ఫూర్": 5972,
  "స్ఫూర్": 5973,
  " స్వామి": 5974,
  "స్వామి": 5975,
  "तापूर्वक": 5976,
  "श्रीलंका": 5977,
  "ाकांक्षी": 5978,
  "ক্ষেত্রে": 5979,
  "ঠানগুলির": 5980,
  "ন্দ্রনাথ": 5981,
  "சித்தமான": 5982,
  "ச்சியில்": 5983,
  "ப்பிடமாக": 5984,
  "மஸ்தலமாக": 5985,
  "ராஜாவின்": 5986,
  "ராமாயணம்": 5987,
  "ாப்பள்ளி": 5988,
  "ாப்பியம்": 5989,
  "ாய்ந்தது": 5990,
  "ிளையாடல்": 5991,
  "ிழாக்கள்": 5992,
  "ீதத்தோடு": 5993,
  "ுக்கத்தை": 5994,
  "ொள்கிறது": 5995,
  "ద్యాయికి": 5996,
  "స్థానంలో": 5997,
  "ేత్రాలలో": 5998,
  " अंबेडकर": 5999,
  "अंबेडकर": 6000,
  " अधिनियम": 6001,
  "अधिनियम": 6002,
  " आकर्षित": 6003,
  "आकर्षित": 6004,
  " उत्पादन": 6005,
  "उत्पादन": 6006,
  " कर्तव्य": 6007,
  "कर्तव्य": 6008,
  " कृत्रिम": 6009,
  "कृत्रिम": 6010,
  " कोणार्क": 6011,
  "कोणार्क": 6012,
  " क्रांति": 6013,
  "क्रांति": 6014,
  " क्रिसमस": 6015,
  "क्रिसमस": 6016,
  " खरीदारी": 6017,
  "खरीदारी": 6018,
  " जलाशयों": 6019,
  "जलाशयों": 6020,
  " जानकारी": 6021,
  "जानकारी": 6022,
  " तकनीकों": 6023,
  "तकनीकों": 6024,
  " त्योहार": 6025,
  "त्योहार": 6026,
  " दूरदराज": 6027,
  "दूरदराज": 6028,
  " निर्माण": 6029,
  "निर्माण": 6030,
  " निर्यात": 6031,
  "निर्यात": 6032,
  " नेतृत्व": 6033,
  "नेतृत्व": 6034,
  " प्राप्त": 6035,
  "प्राप्त": 6036,
  " बागानों": 6037,
  "बागानों": 6038,
  " बैंकिंग": 6039,
  "बैंकिंग": 6040,
  " मंगलयान": 6041,
  "मंगलयान": 6042,
  " महात्मा": 6043,
  "महात्मा": 6044,
  " महिलाओं": 6045,
  "महिलाओं": 6046,
  " राजभाषा": 6047,
  "राजभाषा": 6048,
  " लर्निंग": 6049,
  "लर्निंग": 6050,
  " वाणिज्य": 6051,
  "वाणिज्य": 6052,
  " विरुद्ध": 6053,
  "विरुद्ध": 6054,
  " विशेषता": 6055,
  "विशेषता": 6056,
  " विश्वभर": 6057,
  "विश्वभर": 6058,
  " व्यक्ति": 6059,
  "व्यक्ति": 6060,
  " व्यापार": 6061,
  "व्यापार": 6062,
  " शहरीकरण": 6063,
  "शहरीकरण": 6064,
  " संतुलित": 6065,
  "संतुलित": 6066,
  " सदस्यता": 6067,
  "सदस्यता": 6068,
  " सराहनीय": 6069,
  "सराहनीय": 6070,
  " सुंदरता": 6071,
  "सुंदरता": 6072,
  " स्कूलों": 6073,
  "स्कूलों": 6074,
  " स्मार्ट": 6075,
  "स्मार्ट": 6076,
  " हाथियों": 6077,
  "हाथियों": 6078,
  " অগ্রগতি": 6079,
  "অগ্রগতি": 6080,
  " অগ্রদূত": 6081,
  "অগ্রদূত": 6082,
  " অত্যন্ত": 6083,
  "অত্যন্ত": 6084,
  " অন্তর্ভ": 6085,
  "অন্তর্ভ": 6086,
  " অব্যাহত": 6087,
  "অব্যাহত": 6088,
  " উদ্ভাবন": 6089,
  "উদ্ভাবন": 6090,
  " একতারার": 6091,
  "একতারার": 6092,
  " কবিতায়": 6093,
  "কবিতায়": 6094,
  " কলকাতার": 6095,
  "কলকাতার": 6096,
  " কার্যকর": 6097,
  "কার্যকর": 6098,
  " কেন্দ্র": 6099,
  "কেন্দ্র": 6100,
  " গৌরবময়": 6101,
  "গৌরবময়": 6102,
  " চিকিৎসা": 6103,
  "চিকিৎসা": 6104,
  " চিত্রিত": 6105,
  "চিত্রিত": 6106,
  " জলবায়ু": 6107,
  "জলবায়ু": 6108,
  " জামদানি": 6109,
  "জামদানি": 6110,
  " ডিজিটাল": 6111,
  "ডিজিটাল": 6112,
  " তথ্যপ্র": 6113,
  "তথ্যপ্র": 6114,
  " দীর্ঘতম": 6115,
  "দীর্ঘতম": 6116,
  " পরিচালক": 6117,
  "পরিচালক": 6118,
  " পর্যন্ত": 6119,
  "পর্যন্ত": 6120,
  " পাঠশালা": 6121,
  "পাঠশালা": 6122,
  " পৃথিবীর": 6123,
  "পৃথিবীর": 6124,
  " পেয়েছে": 6125,
  "পেয়েছে": 6126,
  " প্রচলিত": 6127,
  "প্রচলিত": 6128,
  " প্রবাসী": 6129,
  "প্রবাসী": 6130,
  " প্রয়োগ": 6131,
  "প্রয়োগ": 6132,
  " প্রাচ্য": 6133,
  "প্রাচ্য": 6134,
  " বাস্তবে": 6135,
  "বাস্তবে": 6136,
  " বিখ্যাত": 6137,
  "বিখ্যাত": 6138,
  " বিপ্লবে": 6139,
  "বিপ্লবে": 6140,
  " বিবর্তন": 6141,
  "বিবর্তন": 6142,
  " ভবিষ্যত": 6143,
  "ভবিষ্যত": 6144,
  " ভারতীয়": 6145,
  "ভারতীয়": 6146,
  " মধুসূদন": 6147,
  "মধুসূদন": 6148,
  " মুজিবুর": 6149,
  "মুজিবুর": 6150,
  " মেডিকেল": 6151,
  "মেডিকেল": 6152,
  " যাদবপুর": 6153,
  "যাদবপুর": 6154,
  " রক্ষায়": 6155,
  "রক্ষায়": 6156,
  " রোকেয়া": 6157,
  "রোকেয়া": 6158,
  " শীতকালে": 6159,
  "শীতকালে": 6160,
  " সংরক্ষণ": 6161,
  "সংরক্ষণ": 6162,
  " সক্রিয়": 6163,
  "সক্রিয়": 6164,
  " সচেতনতা": 6165,
  "সচেতনতা": 6166,
  " সবচেয়ে": 6167,
  "সবচেয়ে": 6168,
  " সমাধানে": 6169,
  "সমাধানে": 6170,
  " সাহিত্য": 6171,
  "সাহিত্য": 6172,
  " হয়েছিল": 6173,
  "হয়েছিল": 6174,
  " அங்கீகர": 6175,
  "அங்கீகர": 6176,
  " இசையில்": 6177,
  "இசையில்": 6178,
  " ஒவ்வொரு": 6179,
  "ஒவ்வொரு": 6180,
  " கடற்கரை": 6181,
  "கடற்கரை": 6182,
  " கருணாநி": 6183,
  "கருணாநி": 6184,
  " கர்நாடக": 6185,
  "கர்நாடக": 6186,
  " குடும்ப": 6187,
  "குடும்ப": 6188,
  " குறளும்": 6189,
  "குறளும்": 6190,
  " கைத்தறி": 6191,
  "கைத்தறி": 6192,
  " கொடைக்க": 6193,
  "கொடைக்க": 6194,
  " கோடைகால": 6195,
  "கோடைகால": 6196,
  " சஞ்சீவி": 6197,
  "சஞ்சீவி": 6198,
  " சிறப்பு": 6199,
  "சிறப்பு": 6200,
  " சிறப்பை": 6201,
  "சிறப்பை": 6202,
  " தனியார்": 6203,
  "தனியார்": 6204,
  " தமிழின்": 6205,
  "தமிழின்": 6206,
  " திராவிட": 6207,
  "திராவிட": 6208,
  " திரைப்ப": 6209,
  "திரைப்ப": 6210,
  " தொடர்பு": 6211,
  "தொடர்பு": 6212,
  " தொழிலாக": 6213,
  "தொழிலாக": 6214,
  " நடராஜர்": 6215,
  "நடராஜர்": 6216,
  " நதிக்கர": 6217,
  "நதிக்கர": 6218,
  " நம்மாழ்": 6219,
  "நம்மாழ்": 6220,
  " நீலகிரி": 6221,
  "நீலகிரி": 6222,
  " பழக்கம்": 6223,
  "பழக்கம்": 6224,
  " பார்க்க": 6225,
  "பார்க்க": 6226,
  " பிரபலமா": 6227,
  "பிரபலமா": 6228,
  " புகழ்பெ": 6229,
  "புகழ்பெ": 6230,
  " புரட்சி": 6231,
  "புரட்சி": 6232,
  " பொங்கல்": 6233,
  "பொங்கல்": 6234,
  " மகாபலிப": 6235,
  "மகாபலிப": 6236,
  " மலேசியா": 6237,
  "மலேசியா": 6238,
  " மேம்படு": 6239,
  "மேம்படு": 6240,
  " வகைகளாக": 6241,
  "வகைகளாக": 6242,
  " வாழ்க்க": 6243,
  "வாழ்க்க": 6244,
  " అందించే": 6245,
  "అందించే": 6246,
  " అడవులలో": 6247,
  "అడవులలో": 6248,
  " ఆచారాలు": 6249,
  "ఆచారాలు": 6250,
  " ఆదాయంలో": 6251,
  "ఆదాయంలో": 6252,
  " ఉంటుంది": 6253,
  "ఉంటుంది": 6254,
  " ఉన్నారు": 6255,
  "ఉన్నారు": 6256,
  " ఎప్పుడూ": 6257,
  "ఎప్పుడూ": 6258,
  " ఏర్పాటు": 6259,
  "ఏర్పాటు": 6260,
  " కర్ణాటక": 6261,
  "కర్ణాటక": 6262,
  " కలంకారీ": 6263,
  "కలంకారీ": 6264,
  " కొండకోన": 6265,
  "కొండకోన": 6266,
  " గాయకుడు": 6267,
  "గాయకుడు": 6268,
  " గోదావరి": 6269,
  "గోదావరి": 6270,
  " జరుపుకు": 6271,
  "జరుపుకు": 6272,
  " తిరుపతి": 6273,
  "తిరుపతి": 6274,
  " తెచ్చిన": 6275,
  "తెచ్చిన": 6276,
  " దేశాలలో": 6277,
  "దేశాలలో": 6278,
  " ద్రావిడ": 6279,
  "ద్రావిడ": 6280,
  " నిలిచిన": 6281,
  "నిలిచిన": 6282,
  " పాతబడిన": 6283,
  "పాతబడిన": 6284,
  " పులిహోర": 6285,
  "పులిహోర": 6286,
  " పొందాయి": 6287,
  "పొందాయి": 6288,
  " ప్రాంతం": 6289,
  "ప్రాంతం": 6290,
  " ప్రాచీన": 6291,
  "ప్రాచీన": 6292,
  " బొమ్మలు": 6293,
  "బొమ్మలు": 6294,
  " భాషల్లో": 6295,
  "భాషల్లో": 6296,
  " వహిస్తు": 6297,
  "వహిస్తు": 6298,
  " విజయనగర": 6299,
  "విజయనగర": 6300,
  " విద్యలో": 6301,
  "విద్యలో": 6302,
  " విప్లవా": 6303,
  "విప్లవా": 6304,
  " విశ్వవి": 6305,
  "విశ్వవి": 6306,
  " వ్యవసాయ": 6307,
  "వ్యవసాయ": 6308,
  " శివాలయం": 6309,
  "శివాలయం": 6310,
  " సంఖ్యలో": 6311,
  "సంఖ్యలో": 6312,
  " సుదీర్ఘ": 6313,
  "సుదీర్ఘ": 6314,
  "ास्युटिकल": 6315,
  "াতন্ত্র্য": 6316,
  "েসিডেন্সি": 6317,
  "க்கலையின்": 6318,
  "ங்கப்பூர்": 6319,
  "டுத்தியது": 6320,
  "த்தத்தில்": 6321,
  "த்துவதில்": 6322,
  "ள்ளுவரின்": 6323,
  "ణదేవరాయలు": 6324,
  "దిగ్గజాలు": 6325,
  "ించబడింది": 6326,
  " अधिकारों": 6327,
  "अधिकारों": 6328,
  " अनिवार्य": 6329,
  "अनिवार्य": 6330,
  " अनुसंधान": 6331,
  "अनुसंधान": 6332,
  " अभियानों": 6333,
  "अभियानों": 6334,
  " आधारशिला": 6335,
  "आधारशिला": 6336,
  " आधुनिकता": 6337,
  "आधुनिकता": 6338,
  " आयुष्मान": 6339,
  "आयुष्मान": 6340,
  " आर्यभट्ट": 6341,
  "आर्यभट्ट": 6342,
  " उन्होंने": 6343,
  "उन्होंने": 6344,
  " उपभोक्ता": 6345,
  "उपभोक्ता": 6346,
  " उपस्थिति": 6347,
  "उपस्थिति": 6348,
  " औद्योगिक": 6349,
  "औद्योगिक": 6350,
  " केंद्रित": 6351,
  "केंद्रित": 6352,
  " गुणवत्ता": 6353,
  "गुणवत्ता": 6354,
  " चंद्रयान": 6355,
  "चंद्रयान": 6356,
  " जनसंख्या": 6357,
  "जनसंख्या": 6358,
  " जवाबदेही": 6359,
  "जवाबदेही": 6360,
  " जवाहरलाल": 6361,
  "जवाहरलाल": 6362,
  " जीवनशैली": 6363,
  "जीवनशैली": 6364,
  " तमिलनाडु": 6365,
  "तमिलनाडु": 6366,
  " देवनागरी": 6367,
  "देवनागरी": 6368,
  " नवीकरणीय": 6369,
  "नवीकरणीय": 6370,
  " नागरिकों": 6371,
  "नागरिकों": 6372,
  " निःशुल्क": 6373,
  "निःशुल्क": 6374,
  " परंपराएँ": 6375,
  "परंपराएँ": 6376,
  " परंपराओं": 6377,
  "परंपराओं": 6378,
  " परियोजना": 6379,
  "परियोजना": 6380,
  " परिवारों": 6381,
  "परिवारों": 6382,
  " पर्यटकों": 6383,
  "पर्यटकों": 6384,
  " पर्यावरण": 6385,
  "पर्यावरण": 6386,
  " पहुँचाया": 6387,
  "पहुँचाया": 6388,
  " पीढ़ियों": 6389,
  "पीढ़ियों": 6390,
  " प्रतिदिन": 6391,
  "प्रतिदिन": 6392,
  " ब्लॉकचेन": 6393,
  "ब्लॉकचेन": 6394,
  " राजस्थान": 6395,
  "राजस्थान": 6396,
  " लोकप्रिय": 6397,
  "लोकप्रिय": 6398,
  " समस्याओं": 6399,
  "समस्याओं": 6400,
  " स्वच्छता": 6401,
  "स्वच्छता": 6402,
  " অতুলনীয়": 6403,
  "অতুলনীয়": 6404,
  " আবাসস্থল": 6405,
  "আবাসস্থল": 6406,
  " ঐতিহাসিক": 6407,
  "ঐতিহাসিক": 6408,
  " কর্মসূচি": 6409,
  "কর্মসূচি": 6410,
  " ক্রিকেটে": 6411,
  "ক্রিকেটে": 6412,
  " গবেষণায়": 6413,
  "গবেষণায়": 6414,
  " টেরাকোটা": 6415,
  "টেরাকোটা": 6416,
  " তালিকায়": 6417,
  "তালিকায়": 6418,
  " দেশপ্রেম": 6419,
  "দেশপ্রেম": 6420,
  " নদীমাতৃক": 6421,
  "নদীমাতৃক": 6422,
  " পার্বত্য": 6423,
  "পার্বত্য": 6424,
  " পৃথিবীতে": 6425,
  "পৃথিবীতে": 6426,
  " পেয়েছিল": 6427,
  "পেয়েছিল": 6428,
  " পেয়েছেন": 6429,
  "পেয়েছেন": 6430,
  " প্রবর্তন": 6431,
  "প্রবর্তন": 6432,
  " প্রশংসিত": 6433,
  "প্রশংসিত": 6434,
  " প্রসারিত": 6435,
  "প্রসারিত": 6436,
  " প্রাথমিক": 6437,
  "প্রাথমিক": 6438,
  " বাড়ানোই": 6439,
  "বাড়ানোই": 6440,
  " বিজ্ঞানে": 6441,
  "বিজ্ঞানে": 6442,
  " বিদ্রোহী": 6443,
  "বিদ্রোহী": 6444,
  " বেসরকারি": 6445,
  "বেসরকারি": 6446,
  " ব্যবহারে": 6447,
  "ব্যবহারে": 6448,
  " ব্যাংকিং": 6449,
  "ব্যাংকিং": 6450,
  " ময়নামতি": 6451,
  "ময়নামতি": 6452,
  " মাইক্রোক": 6453,
  "মাইক্রোক": 6454,
  " মুহাম্মদ": 6455,
  "মুহাম্মদ": 6456,
  " মূল্যবোধ": 6457,
  "মূল্যবোধ": 6458,
  " রসগোল্লা": 6459,
  "রসগোল্লা": 6460,
  " লোকসংগীত": 6461,
  "লোকসংগীত": 6462,
  " সংস্কৃতি": 6463,
  "সংস্কৃতি": 6464,
  " সর্বোচ্চ": 6465,
  "সর্বোচ্চ": 6466,
  " সহযোগিতা": 6467,
  "সহযোগিতা": 6468,
  " সাহিত্যে": 6469,
  "সাহিত্যে": 6470,
  " সোনারগাঁ": 6471,
  "সোনারগাঁ": 6472,
  " সৌরশক্তি": 6473,
  "সৌরশক্তি": 6474,
  " স্থিতিশী": 6475,
  "স্থিতিশী": 6476,
  " হাইব্রিড": 6477,
  "হাইব্রিড": 6478,
  " হাসপাতাল": 6479,
  "হাসপাতাল": 6480,
  " அண்ணாமலை": 6481,
  "அண்ணாமலை": 6482,
  " அந்தஸ்து": 6483,
  "அந்தஸ்து": 6484,
  " இந்தியாவ": 6485,
  "இந்தியாவ": 6486,
  " உணர்த்து": 6487,
  "உணர்த்து": 6488,
  " உயிர்நாட": 6489,
  "உயிர்நாட": 6490,
  " உலகிற்கு": 6491,
  "உலகிற்கு": 6492,
  " காலத்தில": 6493,
  "காலத்தில": 6494,
  " கோலிவுட்": 6495,
  "கோலிவுட்": 6496,
  " சாம்பார்": 6497,
  "சாம்பார்": 6498,
  " சித்திரை": 6499,
  "சித்திரை": 6500,
  " சிறப்பாக": 6501,
  "சிறப்பாக": 6502,
  " சிறப்பான": 6503,
  "சிறப்பான": 6504,
  " சீர்திரு": 6505,
  "சீர்திரு": 6506,
  " செம்மொழி": 6507,
  "செம்மொழி": 6508,
  " தத்துவங்": 6509,
  "தத்துவங்": 6510,
  " தத்துவச்": 6511,
  "தத்துவச்": 6512,
  " தலைநகராக": 6513,
  "தலைநகராக": 6514,
  " தளமாகும்": 6515,
  "தளமாகும்": 6516,
  " துறையில்": 6517,
  "துறையில்": 6518,
  " நடனக்கலை": 6519,
  "நடனக்கலை": 6520,
  " பயிர்கள்": 6521,
  "பயிர்கள்": 6522,
  " பாடல்கள்": 6523,
  "பாடல்கள்": 6524,
  " பிரச்சனை": 6525,
  "பிரச்சனை": 6526,
  " பெரியார்": 6527,
  "பெரியார்": 6528,
  " மகுடமணிய": 6529,
  "மகுடமணிய": 6530,
  " மணிமேகலை": 6531,
  "மணிமேகலை": 6532,
  " மீனாட்சி": 6533,
  "மீனாட்சி": 6534,
  " மீன்பிடி": 6535,
  "மீன்பிடி": 6536,
  " மொழியில்": 6537,
  "மொழியில்": 6538,
  " வகைகளில்": 6539,
  "வகைகளில்": 6540,
  " வருகிறது": 6541,
  "வருகிறது": 6542,
  " வளர்த்து": 6543,
  "வளர்த்து": 6544,
  " வளர்ந்து": 6545,
  "வளர்ந்து": 6546,
  " வழக்கில்": 6547,
  "வழக்கில்": 6548,
  " வாசிப்பு": 6549,
  "வாசிப்பு": 6550,
  " வேளாண்மை": 6551,
  "வேளாண்மை": 6552,
  " అతిపెద్ద": 6553,
  "అతిపెద్ద": 6554,
  " అష్టమంది": 6555,
  "అష్టమంది": 6556,
  " ఇటాలియన్": 6557,
  "ఇటాలియన్": 6558,
  " ఎర్రాపగడ": 6559,
  "ఎర్రాపగడ": 6560,
  " కూచిపూడి": 6561,
  "కూచిపూడి": 6562,
  " కూరగాయలు": 6563,
  "కూరగాయలు": 6564,
  " కొలువులో": 6565,
  "కొలువులో": 6566,
  " గణనీయమైన": 6567,
  "గణనీయమైన": 6568,
  " గోల్కొండ": 6569,
  "గోల్కొండ": 6570,
  " చలనచిత్ర": 6571,
  "చలనచిత్ర": 6572,
  " చారిత్రక": 6573,
  "చారిత్రక": 6574,
  " చిహ్నంగా": 6575,
  "చిహ్నంగా": 6576,
  " చెందింది": 6577,
  "చెందింది": 6578,
  " టాలీవుడ్": 6579,
  "టాలీవుడ్": 6580,
  " డ్యాంలలో": 6581,
  "డ్యాంలలో": 6582,
  " త్యాగరాజ": 6583,
  "త్యాగరాజ": 6584,
  " నగరానికి": 6585,
  "నగరానికి": 6586,
  " పర్యావరణ": 6587,
  "పర్యావరణ": 6588,
  " పుణ్యక్ష": 6589,
  "పుణ్యక్ష": 6590,
  " పెసరట్టు": 6591,
  "పెసరట్టు": 6592,
  " పొందింది": 6593,
  "పొందింది": 6594,
  " పోషించిన": 6595,
  "పోషించిన": 6596,
  " ప్యాలెస్": 6597,
  "ప్యాలెస్": 6598,
  " ప్రఖ్యాత": 6599,
  "ప్రఖ్యాత": 6600,
  " ప్రజల్లో": 6601,
  "ప్రజల్లో": 6602,
  " ప్రయుక్త": 6603,
  "ప్రయుక్త": 6604,
  " బిర్యానీ": 6605,
  "బిర్యానీ": 6606,
  " మహనీయుడు": 6607,
  "మహనీయుడు": 6608,
  " మార్పులు": 6609,
  "మార్పులు": 6610,
  " ముగ్గురూ": 6611,
  "ముగ్గురూ": 6612,
  " వస్త్రకళ": 6613,
  "వస్త్రకళ": 6614,
  " వాగ్గేయక": 6615,
  "వాగ్గేయక": 6616,
  " వృద్ధిలో": 6617,
  "వృద్ధిలో": 6618,
  " శ్రవణంతో": 6619,
  "శ్రవణంతో": 6620,
  " శ్రీశైలం": 6621,
  "శ్రీశైలం": 6622,
  " శ్రీశ్రీ": 6623,
  "శ్రీశ్రీ": 6624,
  " సంకేతంగా": 6625,
  "సంకేతంగా": 6626,
  " సంగీతంలో": 6627,
  "సంగీతంలో": 6628,
  " స్థాయిలో": 6629,
  "స్థాయిలో": 6630,
  " హస్తకళకు": 6631,
  "హస్తకళకు": 6632,
  " హస్తకళలు": 6633,
  "హస్తకళలు": 6634,
  "बांग्लादेश": 6635,
  "ந்தியாவில்": 6636,
  "ப்பதிகாரம்": 6637,
  "ர்களுக்கான": 6638,
  "ாதாரமாகும்": 6639,
  "ிக்கவிஞராக": 6640,
  "బ్రహ్మణ్యం": 6641,
  " अध्यक्षता": 6642,
  "अध्यक्षता": 6643,
  " उद्यमियों": 6644,
  "उद्यमियों": 6645,
  " ऑटोमोबाइल": 6646,
  "ऑटोमोबाइल": 6647,
  " क्षेत्रों": 6648,
  "क्षेत्रों": 6649,
  " निर्धारित": 6650,
  "निर्धारित": 6651,
  " नेटवर्कों": 6652,
  "नेटवर्कों": 6653,
  " यात्रियों": 6654,
  "यात्रियों": 6655,
  " राष्ट्रीय": 6656,
  "राष्ट्रीय": 6657,
  " विविधताओं": 6658,
  "विविधताओं": 6659,
  " वैज्ञानिक": 6660,
  "वैज्ञानिक": 6661,
  " संभावनाएँ": 6662,
  "संभावनाएँ": 6663,
  " सत्याग्रह": 6664,
  "सत्याग्रह": 6665,
  " सशक्तीकरण": 6666,
  "सशक्तीकरण": 6667,
  " साम्राज्य": 6668,
  "साम्राज्य": 6669,
  " साहित्यिक": 6670,
  "साहित्यिक": 6671,
  " स्टार्टअप": 6672,
  "स्टार्टअप": 6673,
  " অক্সফোর্ড": 6674,
  "অক্সফোর্ড": 6675,
  " অনুকরণীয়": 6676,
  "অনুকরণীয়": 6677,
  " অর্থনৈতিক": 6678,
  "অর্থনৈতিক": 6679,
  " আধুনিকতার": 6680,
  "আধুনিকতার": 6681,
  " ইউনেস্কোর": 6682,
  "ইউনেস্কোর": 6683,
  " কক্সবাজার": 6684,
  "কক্সবাজার": 6685,
  " কিংবদন্তি": 6686,
  "কিংবদন্তি": 6687,
  " ক্ষেত্রেই": 6688,
  "ক্ষেত্রেই": 6689,
  " পরিবর্তনে": 6690,
  "পরিবর্তনে": 6691,
  " পারস্পরিক": 6692,
  "পারস্পরিক": 6693,
  " পাহাড়পুর": 6694,
  "পাহাড়পুর": 6695,
  " পিঠেপুলির": 6696,
  "পিঠেপুলির": 6697,
  " প্লাস্টিক": 6698,
  "প্লাস্টিক": 6699,
  " বঙ্গবন্ধু": 6700,
  "বঙ্গবন্ধু": 6701,
  " বর্ষাকালে": 6702,
  "বর্ষাকালে": 6703,
  " বাংলাদেশে": 6704,
  "বাংলাদেশে": 6705,
  " বাড়াচ্ছে": 6706,
  "বাড়াচ্ছে": 6707,
  " বান্দরবান": 6708,
  "বান্দরবান": 6709,
  " বিদ্যালয়": 6710,
  "বিদ্যালয়": 6711,
  " বিষ্ণুপুর": 6712,
  "বিষ্ণুপুর": 6713,
  " বৃক্ষরোপণ": 6714,
  "বৃক্ষরোপণ": 6715,
  " বৈচিত্র্য": 6716,
  "বৈচিত্র্য": 6717,
  " বৈশিষ্ট্য": 6718,
  "বৈশিষ্ট্য": 6719,
  " ব্যবস্থার": 6720,
  "ব্যবস্থার": 6721,
  " মানবতাবাদ": 6722,
  "মানবতাবাদ": 6723,
  " মেট্রোরেল": 6724,
  "মেট্রোরেল": 6725,
  " মেলবন্ধনই": 6726,
  "মেলবন্ধনই": 6727,
  " মোহনবাগান": 6728,
  "মোহনবাগান": 6729,
  " রাঙামাটির": 6730,
  "রাঙামাটির": 6731,
  " রেখেছিলেন": 6732,
  "রেখেছিলেন": 6733,
  " শরৎচন্দ্র": 6734,
  "শরৎচন্দ্র": 6735,
  " শিল্পায়ন": 6736,
  "শিল্পায়ন": 6737,
  " সার্বজনীন": 6738,
  "সার্বজনীন": 6739,
  " সৌন্দর্যে": 6740,
  "সৌন্দর্যে": 6741,
  " হস্তশিল্প": 6742,
  "হস্তশিল্প": 6743,
  " அண்ணாதுரை": 6744,
  "அண்ணாதுரை": 6745,
  " அழகுக்காக": 6746,
  "அழகுக்காக": 6747,
  " கஞ்சீவரம்": 6748,
  "கஞ்சீவரம்": 6749,
  " கடல்களின்": 6750,
  "கடல்களின்": 6751,
  " கல்வியில்": 6752,
  "கல்வியில்": 6753,
  " குன்றுகள்": 6754,
  "குன்றுகள்": 6755,
  " சடங்குகள்": 6756,
  "சடங்குகள்": 6757,
  " சிதம்பரம்": 6758,
  "சிதம்பரம்": 6759,
  " சிந்தனையை": 6760,
  "சிந்தனையை": 6761,
  " சுப்ரமண்ய": 6762,
  "சுப்ரமண்ய": 6763,
  " தஞ்சாவூர்": 6764,
  "தஞ்சாவூர்": 6765,
  " தமிழ்நாடு": 6766,
  "தமிழ்நாடு": 6767,
  " திருச்சிர": 6768,
  "திருச்சிர": 6769,
  " துறைமுகம்": 6770,
  "துறைமுகம்": 6771,
  " தொல்லியல்": 6772,
  "தொல்லியல்": 6773,
  " நாட்டியம்": 6774,
  "நாட்டியம்": 6775,
  " நாதஸ்வரம்": 6776,
  "நாதஸ்வரம்": 6777,
  " நூலகங்கள்": 6778,
  "நூலகங்கள்": 6779,
  " நூல்களில்": 6780,
  "நூல்களில்": 6781,
  " நெருங்கிய": 6782,
  "நெருங்கிய": 6783,
  " பாரதியார்": 6784,
  "பாரதியார்": 6785,
  " பொருளாதார": 6786,
  "பொருளாதார": 6787,
  " மாதத்தில்": 6788,
  "மாதத்தில்": 6789,
  " மாற்றத்தை": 6790,
  "மாற்றத்தை": 6791,
  " மொழிகளில்": 6792,
  "மொழிகளில்": 6793,
  " வகித்தனர்": 6794,
  "வகித்தனர்": 6795,
  " வழிபாட்டு": 6796,
  "வழிபாட்டு": 6797,
  " வாய்ந்தது": 6798,
  "வாய்ந்தது": 6799,
  " வாழ்வியலை": 6800,
  "வாழ்வியலை": 6801,
  " விரிவானது": 6802,
  "விரிவானது": 6803,
  " விழாவாகக்": 6804,
  "விழாவாகக்": 6805,
  " అమెరికాలో": 6806,
  "అమెరికాలో": 6807,
  " ఆధునికతను": 6808,
  "ఆధునికతను": 6809,
  " ఉంచుతోంది": 6810,
  "ఉంచుతోంది": 6811,
  " ఉస్మానియా": 6812,
  "ఉస్మానియా": 6813,
  " కవిబ్రహ్మ": 6814,
  "కవిబ్రహ్మ": 6815,
  " కేంద్రంగా": 6816,
  "కేంద్రంగా": 6817,
  " కొండపల్లి": 6818,
  "కొండపల్లి": 6819,
  " గుర్తింపు": 6820,
  "గుర్తింపు": 6821,
  " గ్రంథాలలో": 6822,
  "గ్రంథాలలో": 6823,
  " జీవనాడులు": 6824,
  "జీవనాడులు": 6825,
  " డయాస్పోరా": 6826,
  "డయాస్పోరా": 6827,
  " నాగార్జున": 6828,
  "నాగార్జున": 6829,
  " నిలిచింది": 6830,
  "నిలిచింది": 6831,
  " నివసిస్తూ": 6832,
  "నివసిస్తూ": 6833,
  " పరిశ్రమలో": 6834,
  "పరిశ్రమలో": 6835,
  " పోషించారు": 6836,
  "పోషించారు": 6837,
  " మాట్లాడేవ": 6838,
  "మాట్లాడేవ": 6839,
  " వంటకాల్లో": 6840,
  "వంటకాల్లో": 6841,
  " వర్ధిల్లు": 6842,
  "వర్ధిల్లు": 6843,
  " శాస్ర్తీయ": 6844,
  "శాస్ర్తీయ": 6845,
  " సంక్రాంతి": 6846,
  "సంక్రాంతి": 6847,
  " సంప్రదాయం": 6848,
  "సంప్రదాయం": 6849,
  " సంప్రదాయా": 6850,
  "సంప్రదాయా": 6851,
  " సంవత్సరాల": 6852,
  "సంవత్సరాల": 6853,
  " సైబరాబాద్": 6854,
  "సైబరాబాద్": 6855,
  " హృదయాల్లో": 6856,
  "హృదయాల్లో": 6857,
  " హైదరాబాదీ": 6858,
  "హైదరాబాదీ": 6859,
  "াব্যবস্থায়": 6860,
  "ண்ணாமலையில்": 6861,
  "பற்றுகின்றன": 6862,
  "ப்படுகிறார்": 6863,
  " आयुर्वेदिक": 6864,
  "आयुर्वेदिक": 6865,
  " उपलब्धियाँ": 6866,
  "उपलब्धियाँ": 6867,
  " प्रसंस्करण": 6868,
  "प्रसंस्करण": 6869,
  " प्राथमिकता": 6870,
  "प्राथमिकता": 6871,
  " भ्रष्टाचार": 6872,
  "भ्रष्टाचार": 6873,
  " महाराष्ट्र": 6874,
  "महाराष्ट्र": 6875,
  " लिंगानुपात": 6876,
  "लिंगानुपात": 6877,
  " सांस्कृतिक": 6878,
  "सांस्कृतिक": 6879,
  " অগ্রাধিকার": 6880,
  "অগ্রাধিকার": 6881,
  " অনুপ্রাণিত": 6882,
  "অনুপ্রাণিত": 6883,
  " আশাব্যঞ্জক": 6884,
  "আশাব্যঞ্জক": 6885,
  " ইস্টবেঙ্গল": 6886,
  "ইস্টবেঙ্গল": 6887,
  " উৎপাদনকারী": 6888,
  "উৎপাদনকারী": 6889,
  " দিয়েছিলেন": 6890,
  "দিয়েছিলেন": 6891,
  " দুর্গাপূজা": 6892,
  "দুর্গাপূজা": 6893,
  " পোড়ামাটির": 6894,
  "পোড়ামাটির": 6895,
  " প্রতিষ্ঠিত": 6896,
  "প্রতিষ্ঠিত": 6897,
  " প্রাসঙ্গিক": 6898,
  "প্রাসঙ্গিক": 6899,
  " বিশ্বজুড়ে": 6900,
  "বিশ্বজুড়ে": 6901,
  " ব্যবস্থায়": 6902,
  "ব্যবস্থায়": 6903,
  " মোকাবেলায়": 6904,
  "মোকাবেলায়": 6905,
  " ম্যানগ্রোভ": 6906,
  "ম্যানগ্রোভ": 6907,
  " শ্রেষ্ঠত্ব": 6908,
  "শ্রেষ্ঠত্ব": 6909,
  " সাংস্কৃতিক": 6910,
  "সাংস্কৃতিক": 6911,
  " அமைந்துள்ள": 6912,
  "அமைந்துள்ள": 6913,
  " கார்த்திகை": 6914,
  "கார்த்திகை": 6915,
  " சமூகத்தின்": 6916,
  "சமூகத்தின்": 6917,
  " சித்தர்கள்": 6918,
  "சித்தர்கள்": 6919,
  " சிற்பக்கலை": 6920,
  "சிற்பக்கலை": 6921,
  " தொடர்கிறது": 6922,
  "தொடர்கிறது": 6923,
  " தோட்டங்கள்": 6924,
  "தோட்டங்கள்": 6925,
  " பிரபலமானது": 6926,
  "பிரபலமானது": 6927,
  " புத்தாண்டு": 6928,
  "புத்தாண்டு": 6929,
  " மக்களிடையே": 6930,
  "மக்களிடையே": 6931,
  " மருத்துவம்": 6932,
  "மருத்துவம்": 6933,
  " ராக்கோட்டை": 6934,
  "ராக்கோட்டை": 6935,
  " வடிவமாகும்": 6936,
  "வடிவமாகும்": 6937,
  " வந்தவர்கள்": 6938,
  "வந்தவர்கள்": 6939,
  " అంతర్జాతీయ": 6940,
  "అంతర్జాతీయ": 6941,
  " అనువదించిన": 6942,
  "అనువదించిన": 6943,
  " గడుపుతోంది": 6944,
  "గడుపుతోంది": 6945,
  " చెందుతోంది": 6946,
  "చెందుతోంది": 6947,
  " తెలుగులోకి": 6948,
  "తెలుగులోకి": 6949,
  " పండిస్తారు": 6950,
  "పండిస్తారు": 6951,
  " పరిరక్షణపై": 6952,
  "పరిరక్షణపై": 6953,
  " పరిశ్రమలలో": 6954,
  "పరిశ్రమలలో": 6955,
  " పిలువబడుతూ": 6956,
  "పిలువబడుతూ": 6957,
  " పొందటానికి": 6958,
  "పొందటానికి": 6959,
  " ప్రాజెక్ట్": 6960,
  "ప్రాజెక్ట్": 6961,
  " భారతదేశంలో": 6962,
  "భారతదేశంలో": 6963,
  " విశాఖపట్నం": 6964,
  "విశాఖపట్నం": 6965,
  " వేంకటేశ్వర": 6966,
  "వేంకటేశ్వర": 6967,
  " వ్యాప్తంగా": 6968,
  "వ్యాప్తంగా": 6969,
  " వ్యాప్తికి": 6970,
  "వ్యాప్తికి": 6971,
  " శ్రీరాములు": 6972,
  "శ్రీరాములు": 6973,
  " సంగీతానికి": 6974,
  "సంగీతానికి": 6975,
  " సందర్శించే": 6976,
  "సందర్శించే": 6977,
  " సంవత్సరంగా": 6978,
  "సంవత్సరంగా": 6979,
  " సంస్కృతిని": 6980,
  "సంస్కృతిని": 6981,
  " సమావేశాలలో": 6982,
  "సమావేశాలలో": 6983,
  " సాంస్కృతిక": 6984,
  "సాంస్కృతిక": 6985,
  " సేద్యాయికి": 6986,
  "సేద్యాయికి": 6987,
  " స్థానాన్ని": 6988,
  "స్థానాన్ని": 6989,
  " స్ఫూర్తికి": 6990,
  "స్ఫూర్తికి": 6991,
  " गुटनिरपेक्ष": 6992,
  "गुटनिरपेक्ष": 6993,
  " टेलीमेडिसिन": 6994,
  "टेलीमेडिसिन": 6995,
  " न्यायपालिका": 6996,
  "न्यायपालिका": 6997,
  " प्रोत्साहित": 6998,
  "प्रोत्साहित": 6999,
  " बुद्धिमत्ता": 7000,
  "बुद्धिमत्ता": 7001,
  " संस्कृतियाँ": 7002,
  "संस्कृतियाँ": 7003,
  " सफलतापूर्वक": 7004,
  "सफलतापूर्वक": 7005,
  " অমিত্রাক্ষর": 7006,
  "অমিত্রাক্ষর": 7007,
  " উদ্যোক্তারা": 7008,
  "উদ্যোক্তারা": 7009,
  " ঘনবসতিপূর্ণ": 7010,
  "ঘনবসতিপূর্ণ": 7011,
  " জগদীশচন্দ্র": 7012,
  "জগদীশচন্দ্র": 7013,
  " জীবনযাত্রার": 7014,
  "জীবনযাত্রার": 7015,
  " নবায়নযোগ্য": 7016,
  "নবায়নযোগ্য": 7017,
  " পুনরুদ্ধারে": 7018,
  "পুনরুদ্ধারে": 7019,
  " মুক্তিযুদ্ধ": 7020,
  "মুক্তিযুদ্ধ": 7021,
  " রপ্তানিমুখী": 7022,
  "রপ্তানিমুখী": 7023,
  " রবীন্দ্রনাথ": 7024,
  "রবীন্দ্রনাথ": 7025,
  " রেমিট্যান্স": 7026,
  "রেমিট্যান্স": 7027,
  " লোকসংস্কৃতি": 7028,
  "লোকসংস্কৃতি": 7029,
  " সর্বশ্রেষ্ঠ": 7030,
  "সর্বশ্রেষ্ঠ": 7031,
  " இந்தியாவின்": 7032,
  "இந்தியாவின்": 7033,
  " காவியமாகும்": 7034,
  "காவியமாகும்": 7035,
  " கொடைக்கானல்": 7036,
  "கொடைக்கானல்": 7037,
  " சிங்கப்பூர்": 7038,
  "சிங்கப்பூர்": 7039,
  " தலைநகராகும்": 7040,
  "தலைநகராகும்": 7041,
  " திருக்குறள்": 7042,
  "திருக்குறள்": 7043,
  " துணிச்சலோடு": 7044,
  "துணிச்சலோடு": 7045,
  " தொழில்நுட்ப": 7046,
  "தொழில்நுட்ப": 7047,
  " நாட்டுப்புற": 7048,
  "நாட்டுப்புற": 7049,
  " நுணுக்கத்தை": 7050,
  "நுணுக்கத்தை": 7051,
  " படைப்பாகும்": 7052,
  "படைப்பாகும்": 7053,
  " பிரசித்தமான": 7054,
  "பிரசித்தமான": 7055,
  " பிறப்பிடமாக": 7056,
  "பிறப்பிடமாக": 7057,
  " பெற்றுள்ளது": 7058,
  "பெற்றுள்ளது": 7059,
  " மகாபலிபுரம்": 7060,
  "மகாபலிபுரம்": 7061,
  " மருத்துவமான": 7062,
  "மருத்துவமான": 7063,
  " மாநிலமாகும்": 7064,
  "மாநிலமாகும்": 7065,
  " வகிக்கின்றன": 7066,
  "வகிக்கின்றன": 7067,
  " అందిస్తోంది": 7068,
  "అందిస్తోంది": 7069,
  " చిరస్థాయిగా": 7070,
  "చిరస్థాయిగా": 7071,
  " తీసుకొచ్చిన": 7072,
  "తీసుకొచ్చిన": 7073,
  " నిలుస్తుంది": 7074,
  "నిలుస్తుంది": 7075,
  " పర్యాయపదంగా": 7076,
  "పర్యాయపదంగా": 7077,
  " పారిశ్రామిక": 7078,
  "పారిశ్రామిక": 7079,
  " పెరుగుతోంది": 7080,
  "పెరుగుతోంది": 7081,
  " పోషిస్తోంది": 7082,
  "పోషిస్తోంది": 7083,
  " ప్రముఖమైనవి": 7084,
  "ప్రముఖమైనవి": 7085,
  " ప్రాణత్యాగం": 7086,
  "ప్రాణత్యాగం": 7087,
  " ప్రాసంస్కరణ": 7088,
  "ప్రాసంస్కరణ": 7089,
  " విద్యాసంస్థ": 7090,
  "విద్యాసంస్థ": 7091,
  " విప్లవాత్మక": 7092,
  "విప్లవాత్మక": 7093,
  " శ్రమిస్తారు": 7094,
  "శ్రమిస్తారు": 7095,
  " సంప్రదాయంలో": 7096,
  "సంప్రదాయంలో": 7097,
  " సామ్రాజ్యపు": 7098,
  "సామ్రాజ్యపు": 7099,
  " অন্তর্ভুক্তি": 7100,
  "অন্তর্ভুক্তি": 7101,
  " কর্মক্ষেত্রে": 7102,
  "কর্মক্ষেত্রে": 7103,
  " জীবনযাত্রায়": 7104,
  "জীবনযাত্রায়": 7105,
  " জীববৈচিত্র্য": 7106,
  "জীববৈচিত্র্য": 7107,
  " পরিবেশবান্ধব": 7108,
  "পরিবেশবান্ধব": 7109,
  " প্রেসিডেন্সি": 7110,
  "প্রেসিডেন্সি": 7111,
  " বঙ্কিমচন্দ্র": 7112,
  "বঙ্কিমচন্দ্র": 7113,
  " মুখোপাধ্যায়": 7114,
  "মুখোপাধ্যায়": 7115,
  " স্থিতিশীলতার": 7116,
  "স্থিতিশীলতার": 7117,
  " স্বাতন্ত্র্য": 7118,
  "স্বাতন্ত্র্য": 7119,
  " இலங்கையிலும்": 7120,
  "இலங்கையிலும்": 7121,
  " இளையராஜாவின்": 7122,
  "இளையராஜாவின்": 7123,
  " கன்னியாகுமரி": 7124,
  "கன்னியாகுமரி": 7125,
  " கம்பராமாயணம்": 7126,
  "கம்பராமாயணம்": 7127,
  " சங்கமஸ்தலமாக": 7128,
  "சங்கமஸ்தலமாக": 7129,
  " சங்கீதத்தோடு": 7130,
  "சங்கீதத்தோடு": 7131,
  " திருவாய்மொழி": 7132,
  "திருவாய்மொழி": 7133,
  " நடனக்கலையின்": 7134,
  "நடனக்கலையின்": 7135,
  " நதிக்கரையில்": 7136,
  "நதிக்கரையில்": 7137,
  " நிறுவனமாகும்": 7138,
  "நிறுவனமாகும்": 7139,
  " பங்களிப்பும்": 7140,
  "பங்களிப்பும்": 7141,
  " புகழ்பெற்றது": 7142,
  "புகழ்பெற்றது": 7143,
  " மாவட்டத்தின்": 7144,
  "மாவட்டத்தின்": 7145,
  " முக்கியமானது": 7146,
  "முக்கியமானது": 7147,
  " யுனெஸ்கோவின்": 7148,
  "யுனெஸ்கோவின்": 7149,
  " வளர்ச்சியில்": 7150,
  "வளர்ச்சியில்": 7151,
  " வாழ்க்கையில்": 7152,
  "வாழ்க்கையில்": 7153,
  " అగ్రస్థానంలో": 7154,
  "అగ్రస్థానంలో": 7155,
  " అనువదించటంలో": 7156,
  "అనువదించటంలో": 7157,
  " కార్యక్రమాలు": 7158,
  "కార్యక్రమాలు": 7159,
  " జరుపుకుంటారు": 7160,
  "జరుపుకుంటారు": 7161,
  " పిలువబడ్డారు": 7162,
  "పిలువబడ్డారు": 7163,
  " महत्वाकांक्षी": 7164,
  "महत्वाकांक्षी": 7165,
  " তথ্যপ্রযুক্তি": 7166,
  "তথ্যপ্রযুক্তি": 7167,
  " বৈচিত্র্যায়ন": 7168,
  "বৈচিত্র্যায়ন": 7169,
  " உணர்த்துகிறது": 7170,
  "உணர்த்துகிறது": 7171,
  " ஏற்படுத்தியது": 7172,
  "ஏற்படுத்தியது": 7173,
  " கருணாநிதியின்": 7174,
  "கருணாநிதியின்": 7175,
  " சிலப்பதிகாரம்": 7176,
  "சிலப்பதிகாரம்": 7177,
  " திருக்குறளின்": 7178,
  "திருக்குறளின்": 7179,
  " திருவிளையாடல்": 7180,
  "திருவிளையாடல்": 7181,
  " திருவிழாக்கள்": 7182,
  "திருவிழாக்கள்": 7183,
  " திரைப்படங்கள்": 7184,
  "திரைப்படங்கள்": 7185,
  " தொல்காப்பியம்": 7186,
  "தொல்காப்பியம்": 7187,
  " பல்கலைக்கழகம்": 7188,
  "பல்கலைக்கழகம்": 7189,
  " பேசப்படுகிறது": 7190,
  "பேசப்படுகிறது": 7191,
  " மகுடமணியாகும்": 7192,
  "மகுடமணியாகும்": 7193,
  " விளங்குகின்றன": 7194,
  "விளங்குகின்றன": 7195,
  " అష్టదిగ్గజాలు": 7196,
  "అష్టదిగ్గజాలు": 7197,
  " కృష్ణదేవరాయలు": 7198,
  "కృష్ణదేవరాయలు": 7199,
  " పిలువబడుతుంది": 7200,
  "పిలువబడుతుంది": 7201,
  " వహిస్తున్నాయి": 7202,
  "వహిస్తున్నాయి": 7203,
  " వాగ్గేయకారుడు": 7204,
  "వాగ్గేయకారుడు": 7205,
  " फार्मास्युटिकल": 7206,
  "फार्मास्युटिकल": 7207,
  " মাইক্রোক্রেডিট": 7208,
  "মাইক্রোক্রেডিট": 7209,
  " அறியப்படுகிறது": 7210,
  "அறியப்படுகிறது": 7211,
  " உயிர்நாடியாகக்": 7212,
  "உயிர்நாடியாகக்": 7213,
  " எதிர்கொள்கிறது": 7214,
  "எதிர்கொள்கிறது": 7215,
  " குடும்பங்களில்": 7216,
  "குடும்பங்களில்": 7217,
  " திருவள்ளுவரின்": 7218,
  "திருவள்ளுவரின்": 7219,
  " திரைப்பாடல்கள்": 7220,
  "திரைப்பாடல்கள்": 7221,
  " துறைமுகங்களில்": 7222,
  "துறைமுகங்களில்": 7223,
  " பிரபலமாக்கியது": 7224,
  "பிரபலமாக்கியது": 7225,
  " வெளிப்படுத்திய": 7226,
  "வெளிப்படுத்திய": 7227,
  " నిర్మించబడింది": 7228,
  "నిర్మించబడింది": 7229,
  " నిలుస్తున్నాయి": 7230,
  "నిలుస్తున్నాయి": 7231,
  " వర్ధిల్లుతోంది": 7232,
  "వర్ధిల్లుతోంది": 7233,
  " విశ్వవిద్యాలయం": 7234,
  "విశ్వవిద్యాలయం": 7235,
  " প্রতিষ্ঠানগুলির": 7236,
  "প্রতিষ্ঠানগুলির": 7237,
  " அறியப்படுகின்றன": 7238,
  "அறியப்படுகின்றன": 7239,
  " காலத்திலிருந்தே": 7240,
  "காலத்திலிருந்தே": 7241,
  " பின்பற்றுகின்றன": 7242,
  "பின்பற்றுகின்றன": 7243,
  " பிரதிபலிக்கிறது": 7244,
  "பிரதிபலிக்கிறது": 7245,
  " வாழ்வாதாரமாகும்": 7246,
  "வாழ்வாதாரமாகும்": 7247,
  " బాలసుబ్రహ్మణ్యం": 7248,
  "బాలసుబ్రహ్మణ్యం": 7249,
  "-2": 7250,
  "01": 7251,
  "ंत": 7252,
  "ंन": 7253,
  "ंर": 7254,
  "अद": 7255,
  "अभ": 7256,
  "अर": 7257,
  "अव": 7258,
  "अस": 7259,
  "आग": 7260,
  "आर": 7261,
  "उद": 7262,
  "ऊँ": 7263,
  "ऊर": 7264,
  "ऐत": 7265,
  "ऑन": 7266,
  "कत": 7267,
  "कू": 7268,
  "क्": 7269,
  "खा": 7270,
  "गण": 7271,
  "गल": 7272,
  "गि": 7273,
  "गो": 7274,
  "चं": 7275,
  "चन": 7276,
  "चि": 7277,
  "चे": 7278,
  "चो": 7279,
  "जं": 7280,
  "जग": 7281,
  "जध": 7282,
  "जस": 7283,
  "जि": 7284,
  "ञा": 7285,
  "टअ": 7286,
  "डक": 7287,
  "णा": 7288,
  "तं": 7289,
  "तु": 7290,
  "थम": 7291,
  "थ्": 7292,
  "दम": 7293,
  "दि": 7294,
  "दु": 7295,
  "दै": 7296,
  "दो": 7297,
  "धत": 7298,
  "नन": 7299,
  "नम": 7300,
  "नश": 7301,
  "नू": 7302,
  "पन": 7303,
  "प्": 7304,
  "बं": 7305,
  "बढ": 7306,
  "बद": 7307,
  "बस": 7308,
  "बु": 7309,
  "भि": 7310,
  "मन": 7311,
  "मे": 7312,
  "यत": 7313,
  "यम": 7314,
  "यी": 7315,
  "यू": 7316,
  "अग": 7317,
  "अन": 7318,
  "कन": 7319,
  "कह": 7320,
  "कि": 7321,
  "गं": 7322,
  "ग्": 7323,
  "डि": 7324,
  "थव": 7325,
  "धु": 7326,
  "बच": 7327,
  "बड": 7328,
  "मि": 7329,
  "यो": 7330,
  "रं": 7331,
  "रक": 7332,
  "रत": 7333,
  "रन": 7334,
  "रप": 7335,
  "रस": 7336,
  "रि": 7337,
  "रौ": 7338,
  "लन": 7339,
  "वप": 7340,
  "वय": 7341,
  "वश": 7342,
  "शक": 7343,
  "शा": 7344,
  "षी": 7345,
  "षे": 7346,
  "सन": 7347,
  "सफ": 7348,
  "सब": 7349,
  "सह": 7350,
  "सौ": 7351,
  "़ा": 7352,
  "़ी": 7353,
  "ाइ": 7354,
  "ाच": 7355,
  "ाज": 7356,
  "ात": 7357,
  "ाब": 7358,
  "ाम": 7359,
  "ाल": 7360,
  "ाव": 7361,
  "िट": 7362,
  "िथ": 7363,
  "िद": 7364,
  "िष": 7365,
  "ीं": 7366,
  "ीक": 7367,
  "ीड": 7368,
  "ीण": 7369,
  "ीध": 7370,
  "ुत": 7371,
  "ुध": 7372,
  "ुर": 7373,
  "ुस": 7374,
  "ूम": 7375,
  "ृज": 7376,
  "ेग": 7377,
  "ेघ": 7378,
  "ेज": 7379,
  "ेत": 7380,
  "ेद": 7381,
  "ेप": 7382,
  "ेह": 7383,
  "ैं": 7384,
  "ैय": 7385,
  "ैश": 7386,
  "ॉम": 7387,
  "ोण": 7388,
  "ोम": 7389,
  "ौत": 7390,
  "ौथ": 7391,
  "ौद": 7392,
  "्च": 7393,
  "्ज": 7394,
  "्ञ": 7395,
  "्ण": 7396,
  "्ध": 7397,
  "्भ": 7398,
  "्ल": 7399,
  "्ह": 7400,
  "ংগ": 7401,
  "ংব": 7402,
  "ংহ": 7403,
  "অং": 7404,
  "অক": 7405,
  "অধ": 7406,
  "खो": 7407,
  "ध्": 7408,
  "नह": 7409,
  "बॉ": 7410,
  "रय": 7411,
  "रू": 7412,
  "वर": 7413,
  "ाख": 7414,
  "ाध": 7415,
  "ुण": 7416,
  "ौश": 7417,
  "অব": 7418,
  "অর": 7419,
  "আন": 7420,
  "আম": 7421,
  "আর": 7422,
  "আহ": 7423,
  "উন": 7424,
  "উৎ": 7425,
  "এখ": 7426,
  "এত": 7427,
  "এন": 7428,
  "এব": 7429,
  "ঐত": 7430,
  "ওয": 7431,
  "কৃ": 7432,
  "কো": 7433,
  "খছ": 7434,
  "খয": 7435,
  "খা": 7436,
  "খে": 7437,
  "খো": 7438,
  "গত": 7439,
  "গদ": 7440,
  "গব": 7441,
  "গর": 7442,
  "গি": 7443,
  "গী": 7444,
  "গে": 7445,
  "গৌ": 7446,
  "গ্": 7447,
  "ঙা": 7448,
  "ছি": 7449,
  "জগ": 7450,
  "জধ": 7451,
  "টো": 7452,
  "ঠা": 7453,
  "ঠি": 7454,
  "ঢা": 7455,
  "ণা": 7456,
  "ণি": 7457,
  "তু": 7458,
  "তৃ": 7459,
  "থন": 7460,
  "দক": 7461,
  "দব": 7462,
  "দর": 7463,
  "দা": 7464,
  "দে": 7465,
  "ধা": 7466,
  "পত": 7467,
  "পী": 7468,
  "পু": 7469,
  "পে": 7470,
  "বহ": 7471,
  "বো": 7472,
  "ব্": 7473,
  "ভয": 7474,
  "ভা": 7475,
  "ভি": 7476,
  "ভু": 7477,
  "মক": 7478,
  "মড": 7479,
  "মন": 7480,
  "মর": 7481,
  "মি": 7482,
  "মূ": 7483,
  "যজ": 7484,
  "যত": 7485,
  "যব": 7486,
  "যো": 7487,
  "রছ": 7488,
  "রধ": 7489,
  "রন": 7490,
  "आं": 7491,
  "ट्": 7492,
  "णि": 7493,
  "मर": 7494,
  "यक": 7495,
  "यट": 7496,
  "यव": 7497,
  "रध": 7498,
  "व्": 7499,
  "शन": 7500,
  "़ो": 7501,
  "ाई": 7502,
  "िह": 7503,
  "ुख": 7504,
  "ृष": 7505,
  "ोर": 7506,
  "আধ": 7507,
  "উদ": 7508,
  "গু": 7509,
  "তব": 7510,
  "মী": 7511,
  "যট": 7512,
  "যন": 7513,
  "যে": 7514,
  "রব": 7515,
  "রম": 7516,
  "রস": 7517,
  "রহ": 7518,
  "রী": 7519,
  "রূ": 7520,
  "লয": 7521,
  "লা": 7522,
  "লে": 7523,
  "ল্": 7524,
  "শক": 7525,
  "শচ": 7526,
  "শর": 7527,
  "শা": 7528,
  "শি": 7529,
  "ষত": 7530,
  "ষি": 7531,
  "ষে": 7532,
  "সগ": 7533,
  "সঙ": 7534,
  "সত": 7535,
  "সর": 7536,
  "হচ": 7537,
  "হয": 7538,
  "হ্": 7539,
  "়ত": 7540,
  "়া": 7541,
  "়ে": 7542,
  "াই": 7543,
  "াউ": 7544,
  "াঘ": 7545,
  "াধ": 7546,
  "াফ": 7547,
  "ায": 7548,
  "িচ": 7549,
  "িজ": 7550,
  "িট": 7551,
  "িদ": 7552,
  "িপ": 7553,
  "িম": 7554,
  "িয": 7555,
  "িশ": 7556,
  "িষ": 7557,
  "িহ": 7558,
  "ীম": 7559,
  "ীয": 7560,
  "ীর": 7561,
  "ীশ": 7562,
  "ুক": 7563,
  "ুঘ": 7564,
  "ুদ": 7565,
  "ুস": 7566,
  "ূত": 7567,
  "ূদ": 7568,
  "ূম": 7569,
  "ূষ": 7570,
  "ৃঢ": 7571,
  "ৃথ": 7572,
  "েগ": 7573,
  "েছ": 7574,
  "েব": 7575,
  "েয": 7576,
  "ৈচ": 7577,
  "োজ": 7578,
  "্গ": 7579,
  "कल": 7580,
  "जह": 7581,
  "दब": 7582,
  "दर": 7583,
  "धा": 7584,
  "फि": 7585,
  "मं": 7586,
  "रद": 7587,
  "रृ": 7588,
  "रे": 7589,
  "लक": 7590,
  "लव": 7591,
  "ल्": 7592,
  "शु": 7593,
  "ाए": 7594,
  "ाष": 7595,
  "ाह": 7596,
  "िध": 7597,
  "िभ": 7598,
  "िव": 7599,
  "ीढ": 7600,
  "ीव": 7601,
  "ुज": 7602,
  "ुड": 7603,
  "ृत": 7604,
  "ॉल": 7605,
  "ोड": 7606,
  "्श": 7607,
  "আব": 7608,
  "গল": 7609,
  "নজ": 7610,
  "ভব": 7611,
  "যঞ": 7612,
  "িখ": 7613,
  "ীল": 7614,
  "েস": 7615,
  "্ছ": 7616,
  "্জ": 7617,
  "্ড": 7618,
  "্ণ": 7619,
  "্থ": 7620,
  "্দ": 7621,
  "্শ": 7622,
  "அங": 7623,
  "அண": 7624,
  "அம": 7625,
  "இண": 7626,
  "உல": 7627,
  "உள": 7628,
  "ஐட": 7629,
  "ஒன": 7630,
  "கத": 7631,
  "கம": 7632,
  "கவ": 7633,
  "கா": 7634,
  "கி": 7635,
  "சஞ": 7636,
  "சம": 7637,
  "சல": 7638,
  "சே": 7639,
  "ஜர": 7640,
  "ஜா": 7641,
  "டக": 7642,
  "டம": 7643,
  "ட்": 7644,
  "ணர": 7645,
  "ணு": 7646,
  "தக": 7647,
  "தத": 7648,
  "தம": 7649,
  "தல": 7650,
  "தா": 7651,
  "நா": 7652,
  "ந்": 7653,
  "னக": 7654,
  "னம": 7655,
  "னல": 7656,
  "னா": 7657,
  "னி": 7658,
  "பங": 7659,
  "பட": 7660,
  "பத": 7661,
  "ंय": 7662,
  "ंस": 7663,
  "खल": 7664,
  "जु": 7665,
  "पभ": 7666,
  "बै": 7667,
  "भं": 7668,
  "सू": 7669,
  "सृ": 7670,
  "िं": 7671,
  "ुद": 7672,
  "ुप": 7673,
  "ृं": 7674,
  "ेव": 7675,
  "অত": 7676,
  "উভ": 7677,
  "জও": 7678,
  "তর": 7679,
  "তৈ": 7680,
  "থল": 7681,
  "নো": 7682,
  "পণ": 7683,
  "পশ": 7684,
  "বঙ": 7685,
  "বপ": 7686,
  "রক": 7687,
  "রয": 7688,
  "সচ": 7689,
  "়ো": 7690,
  "াগ": 7691,
  "াট": 7692,
  "িব": 7693,
  "ীন": 7694,
  "ূর": 7695,
  "েড": 7696,
  "ৈর": 7697,
  "োট": 7698,
  "োশ": 7699,
  "্ক": 7700,
  "্চ": 7701,
  "্ত": 7702,
  "ஆர": 7703,
  "டா": 7704,
  "பம": 7705,
  "பய": 7706,
  "பா": 7707,
  "பை": 7708,
  "மன": 7709,
  "மற": 7710,
  "மி": 7711,
  "யண": 7712,
  "யத": 7713,
  "யம": 7714,
  "யற": 7715,
  "யல": 7716,
  "யா": 7717,
  "யி": 7718,
  "ரச": 7719,
  "ரவ": 7720,
  "ரி": 7721,
  "றத": 7722,
  "றம": 7723,
  "றா": 7724,
  "று": 7725,
  "லங": 7726,
  "லத": 7727,
  "லம": 7728,
  "லூ": 7729,
  "ளங": 7730,
  "ளத": 7731,
  "ளு": 7732,
  "ழம": 7733,
  "ழர": 7734,
  "ழை": 7735,
  "ழ்": 7736,
  "வன": 7737,
  "வா": 7738,
  "வு": 7739,
  "வூ": 7740,
  "வெ": 7741,
  "வ்": 7742,
  "ஸ்": 7743,
  "ாண": 7744,
  "ாம": 7745,
  "अह": 7746,
  "आभ": 7747,
  "दस": 7748,
  "धर": 7749,
  "पढ": 7750,
  "मू": 7751,
  "िख": 7752,
  "्प": 7753,
  "গভ": 7754,
  "জ্": 7755,
  "ঞা": 7756,
  "ধে": 7757,
  "ধ্": 7758,
  "ভর": 7759,
  "মধ": 7760,
  "ম্": 7761,
  "রণ": 7762,
  "লত": 7763,
  "ষর": 7764,
  "সা": 7765,
  "হত": 7766,
  "াছ": 7767,
  "িৎ": 7768,
  "ৃহ": 7769,
  "ৌক": 7770,
  "্ভ": 7771,
  "இத": 7772,
  "இர": 7773,
  "கல": 7774,
  "டத": 7775,
  "டப": 7776,
  "தப": 7777,
  "தற": 7778,
  "ய்": 7779,
  "றப": 7780,
  "ாச": 7781,
  "ாப": 7782,
  "ிங": 7783,
  "ித": 7784,
  "ின": 7785,
  "ீக": 7786,
  "ீல": 7787,
  "ுங": 7788,
  "ுத": 7789,
  "ுப": 7790,
  "ும": 7791,
  "ுல": 7792,
  "ுள": 7793,
  "ூக": 7794,
  "ெச": 7795,
  "ென": 7796,
  "ெர": 7797,
  "ைஞ": 7798,
  "ைத": 7799,
  "ைம": 7800,
  "ொண": 7801,
  "ோட": 7802,
  "ோய": 7803,
  "ோர": 7804,
  "ோல": 7805,
  "்ண": 7806,
  "்ந": 7807,
  "்ன": 7808,
  "்ம": 7809,
  "்ற": 7810,
  "்ல": 7811,
  "்ள": 7812,
  "ంల": 7813,
  "అం": 7814,
  "అడ": 7815,
  "అన": 7816,
  "అప": 7817,
  "ఆం": 7818,
  "ఆధ": 7819,
  "ఆల": 7820,
  "ఆహ": 7821,
  "ఇం": 7822,
  "ఇత": 7823,
  "ఇద": 7824,
  "ఉం": 7825,
  "ఉన": 7826,
  "ఉస": 7827,
  "ఎగ": 7828,
  "ఎర": 7829,
  "కట": 7830,
  "కల": 7831,
  "కవ": 7832,
  "ఖమ": 7833,
  "ఖ్": 7834,
  "15": 7835,
  "91": 7836,
  "95": 7837,
  "ंज": 7838,
  "आप": 7839,
  "उन": 7840,
  "खे": 7841,
  "नल": 7842,
  "नस": 7843,
  "पी": 7844,
  "रख": 7845,
  "हू": 7846,
  "ाश": 7847,
  "ॉक": 7848,
  "তক": 7849,
  "পি": 7850,
  "রশ": 7851,
  "লক": 7852,
  "ূজ": 7853,
  "கப": 7854,
  "டற": 7855,
  "தே": 7856,
  "னவ": 7857,
  "பண": 7858,
  "மத": 7859,
  "மொ": 7860,
  "ரத": 7861,
  "ரல": 7862,
  "லு": 7863,
  "ழி": 7864,
  "வத": 7865,
  "ாற": 7866,
  "ுர": 7867,
  "ெள": 7868,
  "ండ": 7869,
  "అత": 7870,
  "ఏర": 7871,
  "చం": 7872,
  "చట": 7873,
  "చబ": 7874,
  "చర": 7875,
  "టం": 7876,
  "టస": 7877,
  "టీ": 7878,
  "ణన": 7879,
  "తద": 7880,
  "తు": 7881,
  "తూ": 7882,
  "థా": 7883,
  "దమ": 7884,
  "దర": 7885,
  "దే": 7886,
  "దో": 7887,
  "ధ్": 7888,
  "నత": 7889,
  "పడ": 7890,
  "పత": 7891,
  "పీ": 7892,
  "బం": 7893,
  "మత": 7894,
  "మర": 7895,
  "మల": 7896,
  "యధ": 7897,
  "యమ": 7898,
  "యల": 7899,
  "యి": 7900,
  "యే": 7901,
  "రం": 7902,
  "రఖ": 7903,
  "రత": 7904,
  "రద": 7905,
  "రన": 7906,
  "రప": 7907,
  "రమ": 7908,
  "రస": 7909,
  "లల": 7910,
  "లవ": 7911,
  "వం": 7912,
  "వవ": 7913,
  "శం": 7914,
  "శ్": 7915,
  "షగ": 7916,
  "షణ": 7917,
  "సై": 7918,
  "హద": 7919,
  "హా": 7920,
  "एल": 7921,
  "ऑट": 7922,
  "ओड": 7923,
  "औद": 7924,
  "खर": 7925,
  "जू": 7926,
  "डा": 7927,
  "तव": 7928,
  "पद": 7929,
  "पल": 7930,
  "पस": 7931,
  "बो": 7932,
  "भो": 7933,
  "यभ": 7934,
  "रश": 7935,
  "रु": 7936,
  "लब": 7937,
  "षत": 7938,
  "षम": 7939,
  "सस": 7940,
  "हु": 7941,
  "ुष": 7942,
  "ूष": 7943,
  "ेर": 7944,
  "ोब": 7945,
  "्न": 7946,
  "्स": 7947,
  "বত": 7948,
  "শং": 7949,
  "ীব": 7950,
  "ুড": 7951,
  "ৌদ": 7952,
  "্স": 7953,
  "நு": 7954,
  "யப": 7955,
  "வொ": 7956,
  "చా": 7957,
  "టల": 7958,
  "లె": 7959,
  "హై": 7960,
  "ాం": 7961,
  "ాక": 7962,
  "ాణ": 7963,
  "ాత": 7964,
  "ాద": 7965,
  "ాప": 7966,
  "ాబ": 7967,
  "ాభ": 7968,
  "ాష": 7969,
  "ాహ": 7970,
  "ిం": 7971,
  "ిగ": 7972,
  "ిడ": 7973,
  "ిత": 7974,
  "ిద": 7975,
  "ిశ": 7976,
  "ిహ": 7977,
  "ీక": 7978,
  "ీన": 7979,
  "ీర": 7980,
  "ీశ": 7981,
  "ుగ": 7982,
  "ుచ": 7983,
  "ుత": 7984,
  "ుద": 7985,
  "ుబ": 7986,
  "ుర": 7987,
  "ృత": 7988,
  "ెం": 7989,
  "ెద": 7990,
  "ెల": 7991,
  "ెస": 7992,
  "ేగ": 7993,
  "ేజ": 7994,
  "ేద": 7995,
  "ైన": 7996,
  "ొప": 7997,
  "ోట": 7998,
  "ోయ": 7999,
  "ోర": 8000,
  "ోల": 8001,
  "ోష": 8002,
  "్గ": 8003,
  "్ఘ": 8004,
  "్థ": 8005,
  "్ద": 8006,
  "్ధ": 8007,
  "్న": 8008,
  "్ప": 8009,
  "్ల": 8010,
  " 2": 8011,
  "2": 8012,
  " ঘ": 8013,
  "ঘ": 8014,
  " ড": 8015,
  "ড": 8016,
  "ँध": 8017,
  "ख्": 8018,
  "घन": 8019,
  "चु": 8020,
  "जै": 8021,
  "टक": 8022,
  "टन": 8023,
  "टा": 8024,
  "टि": 8025,
  "तत": 8026,
  "तम": 8027,
  "तह": 8028,
  "दू": 8029,
  "नक": 8030,
  "नौ": 8031,
  "मग": 8032,
  "यप": 8033,
  "लू": 8034,
  "वी": 8035,
  "ाड": 8036,
  "िः": 8037,
  "िप": 8038,
  "ीत": 8039,
  "ीद": 8040,
  "ीब": 8041,
  "ीम": 8042,
  "ुफ": 8043,
  "ैन": 8044,
  "ैल": 8045,
  "ैस": 8046,
  "ংর": 8047,
  "কথ": 8048,
  "ফস": 8049,
  "அத": 8050,
  "அந": 8051,
  "டன": 8052,
  "ழா": 8053,
  "வங": 8054,
  "ூன": 8055,
  "ொல": 8056,
  "జల": 8057,
  "మే": 8058,
  "లే": 8059,
  "వత": 8060,
  "్డ": 8061,
  " ट": 8062,
  "ट": 8063,
  " থ": 8064,
  "থ": 8065,
  " ஐ": 8066,
  "ஐ": 8067,
  " ఒ": 8068,
  "ఒ": 8069,
  "ंदि": 8070,
  "आर्": 8071,
  "कर्": 8072,
  "च्च": 8073,
  "जना": 8074,
  "ञान": 8075,
  "ट्र": 8076,
  "डिय": 8077,
  "डिस": 8078,
  "ढ़त": 8079,
  "त्प": 8080,
  "त्य": 8081,
  "धिक": 8082,
  "नना": 8083,
  "नाग": 8084,
  "नाड": 8085,
  "नाय": 8086,
  "निक": 8087,
  "पस्": 8088,
  "फार": 8089,
  "मार": 8090,
  "म्र": 8091,
  "राव": 8092,
  "रिक": 8093,
  "र्ज": 8094,
  "र्ण": 8095,
  "र्ध": 8096,
  "र्व": 8097,
  "र्श": 8098,
  "लता": 8099,
  "लवे": 8100,
  "लाइ": 8101,
  "लाश": 8102,
  "लिक": 8103,
  "लित": 8104,
  "लीव": 8105,
  "वत्": 8106,
  "कप": 8107,
  "खि": 8108,
  "गद": 8109,
  "जभ": 8110,
  "तद": 8111,
  "पव": 8112,
  "पश": 8113,
  "फ्": 8114,
  "बई": 8115,
  "बल": 8116,
  "बह": 8117,
  "बि": 8118,
  "भ्": 8119,
  "मद": 8120,
  "मध": 8121,
  "मौ": 8122,
  "रग": 8123,
  "रफ": 8124,
  "रम": 8125,
  "रष": 8126,
  "लघ": 8127,
  "लज": 8128,
  "लड": 8129,
  "लर": 8130,
  "वभ": 8131,
  "शह": 8132,
  "शू": 8133,
  "हच": 8134,
  "़त": 8135,
  "़ि": 8136,
  "़े": 8137,
  "ाप": 8138,
  "ीआ": 8139,
  "ुँ": 8140,
  "ुं": 8141,
  "ुव": 8142,
  "ृद": 8143,
  "ेष": 8144,
  "ैज": 8145,
  "ोत": 8146,
  "ঠত": 8147,
  "যম": 8148,
  "সপ": 8149,
  "িস": 8150,
  "েঙ": 8151,
  "োচ": 8152,
  "கங": 8153,
  "ழக": 8154,
  "ோவ": 8155,
  "ృద": 8156,
  "त्त": 8157,
  "लाक": 8158,
  "वस्": 8159,
  "वान": 8160,
  "सान": 8161,
  "हास": 8162,
  "़िय": 8163,
  "ाओं": 8164,
  "ानम": 8165,
  "ानी": 8166,
  "ारद": 8167,
  "ारश": 8168,
  "ारि": 8169,
  "ार्": 8170,
  "ास्": 8171,
  "िंद": 8172,
  "िके": 8173,
  "िर्": 8174,
  "िली": 8175,
  "ीवन": 8176,
  "ेता": 8177,
  "ोगु": 8178,
  "ोजग": 8179,
  "्टअ": 8180,
  "्यत": 8181,
  "्यम": 8182,
  "्यव": 8183,
  "्यि": 8184,
  "्रण": 8185,
  "्वच": 8186,
  "्वभ": 8187,
  "्षी": 8188,
  "्षे": 8189,
  "আর্": 8190,
  "ওয়": 8191,
  "কাল": 8192,
  "খছে": 8193,
  "খোপ": 8194,
  "গর্": 8195,
  "গান": 8196,
  "গ্য": 8197,
  "ঙাম": 8198,
  "জয়": 8199,
  "জিল": 8200,
  "ंच": 8201,
  "छत": 8202,
  "नत": 8203,
  "बर": 8204,
  "मय": 8205,
  "मृ": 8206,
  "म्": 8207,
  "यि": 8208,
  "लत": 8209,
  "वच": 8210,
  "सभ": 8211,
  "हन": 8212,
  "ुश": 8213,
  "ूह": 8214,
  "ेम": 8215,
  "ोन": 8216,
  "ोश": 8217,
  "्ग": 8218,
  "्छ": 8219,
  "অগ": 8220,
  "অঞ": 8221,
  "আত": 8222,
  "ইস": 8223,
  "কক": 8224,
  "কস": 8225,
  "জক": 8226,
  "জয": 8227,
  "তো": 8228,
  "ধি": 8229,
  "নক": 8230,
  "নন": 8231,
  "পন": 8232,
  "মঞ": 8233,
  "ময": 8234,
  "মস": 8235,
  "মৎ": 8236,
  "রগ": 8237,
  "রদ": 8238,
  "লন": 8239,
  "শু": 8240,
  "সফ": 8241,
  "সস": 8242,
  "ুপ": 8243,
  "ূচ": 8244,
  "েঘ": 8245,
  "ৈক": 8246,
  "ৈত": 8247,
  "্ট": 8248,
  "্ম": 8249,
  "ணை": 8250,
  "தர": 8251,
  "ாந": 8252,
  "ெற": 8253,
  "టమ": 8254,
  "ిస": 8255,
  "ऊर्": 8256,
  "ननी": 8257,
  "रूर": 8258,
  "ेंद": 8259,
  "টিক": 8260,
  "ট্র": 8261,
  "ড়প": 8262,
  "তন্": 8263,
  "তবে": 8264,
  "তর্": 8265,
  "তান": 8266,
  "তিপ": 8267,
  "ত্র": 8268,
  "থার": 8269,
  "থিক": 8270,
  "ন্স": 8271,
  "বনয": 8272,
  "বাই": 8273,
  "বাহ": 8274,
  "বিক": 8275,
  "বেশ": 8276,
  "ব্র": 8277,
  "ভিত": 8278,
  "য়ু": 8279,
  "যান": 8280,
  "যার": 8281,
  "রার": 8282,
  "রিক": 8283,
  "রিচ": 8284,
  "র্জ": 8285,
  "ল্য": 8286,
  "শিক": 8287,
  "ষ্ঠ": 8288,
  "ষ্ণ": 8289,
  "সূদ": 8290,
  "হিত": 8291,
  "ঁথ": 8292,
  "কু": 8293,
  "গঙ": 8294,
  "গড": 8295,
  "গা": 8296,
  "ঘত": 8297,
  "চট": 8298,
  "চন": 8299,
  "ছন": 8300,
  "জল": 8301,
  "টে": 8302,
  "ঠে": 8303,
  "তথ": 8304,
  "তী": 8305,
  "থ্": 8306,
  "দত": 8307,
  "ধর": 8308,
  "নত": 8309,
  "নদ": 8310,
  "নপ": 8311,
  "নয": 8312,
  "নর": 8313,
  "পড": 8314,
  "বম": 8315,
  "বর": 8316,
  "যক": 8317,
  "যপ": 8318,
  "লচ": 8319,
  "শপ": 8320,
  "শব": 8321,
  "শহ": 8322,
  "হে": 8323,
  "়ন": 8324,
  "়প": 8325,
  "়ু": 8326,
  "াঠ": 8327,
  "াড": 8328,
  "েই": 8329,
  "্ঘ": 8330,
  "্ধ": 8331,
  "கஞ": 8332,
  "ளம": 8333,
  "ேம": 8334,
  "ைண": 8335,
  "జ్": 8336,
  "దట": 8337,
  "దు": 8338,
  "వణ": 8339,
  "వద": 8340,
  "షల": 8341,
  "హస": 8342,
  "ుమ": 8343,
  "ూత": 8344,
  "नुस": 8345,
  "र्भ": 8346,
  "्षण": 8347,
  "়ান": 8348,
  "়াম": 8349,
  "়ার": 8350,
  "াক্": 8351,
  "াচ্": 8352,
  "ানজ": 8353,
  "ানব": 8354,
  "ানী": 8355,
  "াবন": 8356,
  "ারস": 8357,
  "ারি": 8358,
  "ালন": 8359,
  "িকৃ": 8360,
  "িল্": 8361,
  "ীতে": 8362,
  "ুতো": 8363,
  "ুসূ": 8364,
  "ৃষি": 8365,
  "েয়": 8366,
  "েরা": 8367,
  "েশপ": 8368,
  "েষত": 8369,
  "ৈতি": 8370,
  "োকস": 8371,
  "োগা": 8372,
  "্ঠত": 8373,
  "্বত": 8374,
  "্বা": 8375,
  "্বে": 8376,
  "্যক": 8377,
  "্যজ": 8378,
  "্যট": 8379,
  "্যা": 8380,
  "্রণ": 8381,
  "্রত": 8382,
  "্রদ": 8383,
  "্রব": 8384,
  "্রশ": 8385,
  "ংক": 8386,
  "ংঘ": 8387,
  "ওড": 8388,
  "খ্": 8389,
  "তশ": 8390,
  "ধন": 8391,
  "নই": 8392,
  "নগ": 8393,
  "পৃ": 8394,
  "বচ": 8395,
  "বশ": 8396,
  "বু": 8397,
  "মচ": 8398,
  "মত": 8399,
  "মৃ": 8400,
  "রচ": 8401,
  "রথ": 8402,
  "রপ": 8403,
  "লো": 8404,
  "সক": 8405,
  "সী": 8406,
  "সৈ": 8407,
  "সো": 8408,
  "হি": 8409,
  "়ি": 8410,
  "়ী": 8411,
  "াও": 8412,
  "াচ": 8413,
  "াথ": 8414,
  "াশ": 8415,
  "াষ": 8416,
  "ুখ": 8417,
  "ুট": 8418,
  "ুহ": 8419,
  "ৃদ": 8420,
  "ৈশ": 8421,
  "োড": 8422,
  "োল": 8423,
  "োহ": 8424,
  "ৌন": 8425,
  "্ন": 8426,
  "ৎচ": 8427,
  "கழ": 8428,
  "தஸ": 8429,
  "னோ": 8430,
  "பள": 8431,
  "ிம": 8432,
  "ుడ": 8433,
  "गिक": 8434,
  "ड़े": 8435,
  "ছন্": 8436,
  "ুনা": 8437,
  "্রি": 8438,
  "ஒன்": 8439,
  "கன்": 8440,
  "சிய": 8441,
  "ஜாவ": 8442,
  "டில": 8443,
  "ணாம": 8444,
  "திய": 8445,
  "தில": 8446,
  "துர": 8447,
  "துவ": 8448,
  "நம்": 8449,
  "னாட": 8450,
  "பர்": 8451,
  "பற்": 8452,
  "பலி": 8453,
  "யம்": 8454,
  "யாட": 8455,
  "ருத": 8456,
  "ரைய": 8457,
  "றம்": 8458,
  "றள்": 8459,
  "றிய": 8460,
  "லகள": 8461,
  "ழிய": 8462,
  "ழில": 8463,
  "வள்": 8464,
  "விர": 8465,
  "ஸ்த": 8466,
  "ாடக": 8467,
  "ாடல": 8468,
  "ாது": 8469,
  "ாற்": 8470,
  "ிகா": 8471,
  "ியல": 8472,
  "ியி": 8473,
  "ிரச": 8474,
  "ிர்": 8475,
  "ிலா": 8476,
  "அக": 8477,
  "ஆட": 8478,
  "ஆழ": 8479,
  "இந": 8480,
  "இள": 8481,
  "இவ": 8482,
  "உய": 8483,
  "எத": 8484,
  "ஏற": 8485,
  "ஒர": 8486,
  "கக": 8487,
  "கண": 8488,
  "கன": 8489,
  "கீ": 8490,
  "சங": 8491,
  "ஞ்": 8492,
  "டங": 8493,
  "டல": 8494,
  "ணம": 8495,
  "தை": 8496,
  "பக": 8497,
  "பூ": 8498,
  "யர": 8499,
  "யை": 8500,
  "றள": 8501,
  "லப": 8502,
  "லே": 8503,
  "ளை": 8504,
  "வட": 8505,
  "வண": 8506,
  "ாஜ": 8507,
  "ிந": 8508,
  "ிவ": 8509,
  "ீர": 8510,
  "ீவ": 8511,
  "ுந": 8512,
  "ுன": 8513,
  "ூர": 8514,
  "ைந": 8515,
  "ொட": 8516,
  "ொர": 8517,
  "்ர": 8518,
  "ఆచ": 8519,
  "ాఖ": 8520,
  "ిచ": 8521,
  "ొమ": 8522,
  " య": 8523,
  "య": 8524,
  "नान": 8525,
  "सिक": 8526,
  "ाता": 8527,
  "्वप": 8528,
  "ঞান": 8529,
  "ুটব": 8530,
  "ৃঢ়": 8531,
  "্যঞ": 8532,
  "্যপ": 8533,
  "கிற": 8534,
  "ிரப": 8535,
  "ுன்": 8536,
  "ுறள": 8537,
  "ுறி": 8538,
  "ுவட": 8539,
  "ுவா": 8540,
  "ென்": 8541,
  "ெம்": 8542,
  "ெரு": 8543,
  "ொல்": 8544,
  "்கண": 8545,
  "்கத": 8546,
  "்கம": 8547,
  "்கர": 8548,
  "்கவ": 8549,
  "்கா": 8550,
  "்கி": 8551,
  "்சன": 8552,
  "்டா": 8553,
  "்டி": 8554,
  "்டை": 8555,
  "்தத": 8556,
  "்தற": 8557,
  "்தவ": 8558,
  "்தே": 8559,
  "்தோ": 8560,
  "்த்": 8561,
  "்பட": 8562,
  "்பள": 8563,
  "்பூ": 8564,
  "ంగూ": 8565,
  "ంటక": 8566,
  "ంస్": 8567,
  "சன": 8568,
  "சப": 8569,
  "டர": 8570,
  "தஞ": 8571,
  "தவ": 8572,
  "தீ": 8573,
  "நம": 8574,
  "நவ": 8575,
  "னத": 8576,
  "னர": 8577,
  "பற": 8578,
  "பே": 8579,
  "யே": 8580,
  "றை": 8581,
  "ளர": 8582,
  "வச": 8583,
  "வந": 8584,
  "வம": 8585,
  "வீ": 8586,
  "ிச": 8587,
  "ிஞ": 8588,
  "ுச": 8589,
  "ூல": 8590,
  "ெம": 8591,
  "ெஸ": 8592,
  "ேக": 8593,
  "ேல": 8594,
  "ேள": 8595,
  "ைப": 8596,
  "ொங": 8597,
  "ோச": 8598,
  "்ய": 8599,
  "అగ": 8600,
  "అధ": 8601,
  "డవ": 8602,
  "నే": 8603,
  "వర": 8604,
  "షి": 8605,
  "ిప": 8606,
  "ీయ": 8607,
  "ుల": 8608,
  "ువ": 8609,
  "ోం": 8610,
  "్జ": 8611,
  "్త": 8612,
  " ய": 8613,
  "ய": 8614,
  "तिक": 8615,
  "षित": 8616,
  "्रत": 8617,
  "्वत": 8618,
  "ানগ": 8619,
  "্বপ": 8620,
  "றுக": 8621,
  "விழ": 8622,
  "ிலு": 8623,
  "்சல": 8624,
  "்டத": 8625,
  "ఉస్": 8626,
  "ఎస్": 8627,
  "ఒకట": 8628,
  "కేత": 8629,
  "గవత": 8630,
  "గార": 8631,
  "గుత": 8632,
  "జనం": 8633,
  "జార": 8634,
  "జెక": 8635,
  "టది": 8636,
  "టలు": 8637,
  "డియ": 8638,
  "త్స": 8639,
  "దిగ": 8640,
  "దిర": 8641,
  "ద్ధ": 8642,
  "నిం": 8643,
  "నిమ": 8644,
  "నియ": 8645,
  "నిర": 8646,
  "నిల": 8647,
  "పాట": 8648,
  "పార": 8649,
  "బడు": 8650,
  "బరా": 8651,
  "బాద": 8652,
  "మతి": 8653,
  "మావ": 8654,
  "మ్మ": 8655,
  "మ్ర": 8656,
  "యలో": 8657,
  "యాల": 8658,
  "అమ": 8659,
  "అర": 8660,
  "అష": 8661,
  "ఆక": 8662,
  "ఆద": 8663,
  "ఆఫ": 8664,
  "ఆర": 8665,
  "ఇట": 8666,
  "ఉగ": 8667,
  "ఎన": 8668,
  "ఎప": 8669,
  "ఎస": 8670,
  "ఐఐ": 8671,
  "కర": 8672,
  "కృ": 8673,
  "గజ": 8674,
  "చు": 8675,
  "టడ": 8676,
  "టద": 8677,
  "థి": 8678,
  "పగ": 8679,
  "బ్": 8680,
  "మం": 8681,
  "యన": 8682,
  "రక": 8683,
  "రగ": 8684,
  "రహ": 8685,
  "లక": 8686,
  "లత": 8687,
  "లయ": 8688,
  "ళల": 8689,
  "వగ": 8690,
  "ాఫ": 8691,
  "ావ": 8692,
  "ిబ": 8693,
  "ుం": 8694,
  "ున": 8695,
  "ూచ": 8696,
  "ూడ": 8697,
  "ృష": 8698,
  "ెర": 8699,
  "ేం": 8700,
  "్ణ": 8701,
  "్మ": 8702,
  "ुर्": 8703,
  "ोंन": 8704,
  "्रह": 8705,
  "থনী": 8706,
  "ধার": 8707,
  "মতি": 8708,
  "ীন্": 8709,
  "என்": 8710,
  "ியப": 8711,
  "ெற்": 8712,
  "ద్ర": 8713,
  "మలో": 8714,
  "రాజ": 8715,
  "రాన": 8716,
  "రాబ": 8717,
  "రాష": 8718,
  "రిక": 8719,
  "రిత": 8720,
  "రియ": 8721,
  "రిర": 8722,
  "రిశ": 8723,
  "ర్క": 8724,
  "ర్ణ": 8725,
  "లంగ": 8726,
  "లలి": 8727,
  "లిగ": 8728,
  "లిహ": 8729,
  "లుత": 8730,
  "ళలు": 8731,
  "వది": 8732,
  "వబడ": 8733,
  "వరా": 8734,
  "వవి": 8735,
  "వుడ": 8736,
  "శాఖ": 8737,
  "శాయ": 8738,
  "శాల": 8739,
  "షలో": 8740,
  "సాల": 8741,
  "ాంగ": 8742,
  "ాడు": 8743,
  "ాయప": 8744,
  "ాయా": 8745,
  "ాలస": 8746,
  "ాల్": 8747,
  "ీతా": 8748,
  "ీని": 8749,
  "ుఖమ": 8750,
  "ున్": 8751,
  "ుపు": 8752,
  "ులో": 8753,
  "ూడా": 8754,
  "ఖన": 8755,
  "గూ": 8756,
  "ఘం": 8757,
  "చడ": 8758,
  "చల": 8759,
  "జర": 8760,
  "జీ": 8761,
  "డక": 8762,
  "డప": 8763,
  "డయ": 8764,
  "నగ": 8765,
  "నచ": 8766,
  "నట": 8767,
  "నన": 8768,
  "నయ": 8769,
  "పచ": 8770,
  "పల": 8771,
  "బడ": 8772,
  "రజ": 8773,
  "లీ": 8774,
  "వన": 8775,
  "ాజ": 8776,
  "ాడ": 8777,
  "ాస": 8778,
  "ిజ": 8779,
  "ిల": 8780,
  "ివ": 8781,
  "ీట": 8782,
  "ీస": 8783,
  "ుక": 8784,
  "ుస": 8785,
  "ెగ": 8786,
  "ెచ": 8787,
  "ేస": 8788,
  "ొచ": 8789,
  "ొల": 8790,
  "ోక": 8791,
  "ోద": 8792,
  "ోన": 8793,
  "ోస": 8794,
  "్క": 8795,
  "్చ": 8796,
  " ట": 8797,
  "ట": 8798,
  "थित": 8799,
  "र्न": 8800,
  "विध": 8801,
  "शिक": 8802,
  "তিন": 8803,
  "সিড": 8804,
  "াতী": 8805,
  "ালক": 8806,
  "டுக": 8807,
  "ீன்": 8808,
  "்தல": 8809,
  "స్ట": 8810,
  "ూడి": 8811,
  "ృతి": 8812,
  "ెద్": 8813,
  "ెలు": 8814,
  "ేంక": 8815,
  "ొంగ": 8816,
  "ొప్": 8817,
  "ోంగ": 8818,
  "ోల్": 8819,
  "్టు": 8820,
  "్ట్": 8821,
  "్యం": 8822,
  "్యవ": 8823,
  "్యే": 8824,
  "్రద": 8825,
  "్రప": 8826,
  "్రయ": 8827,
  "్రవ": 8828,
  "్రీ": 8829,
  "్లి": 8830,
  "్లు": 8831,
  " अग": 8832,
  " अन": 8833,
  " अर": 8834,
  " अव": 8835,
  " अस": 8836,
  " अह": 8837,
  " आभ": 8838,
  " आर": 8839,
  " उद": 8840,
  " खे": 8841,
  " गं": 8842,
  " गा": 8843,
  " जि": 8844,
  " तत": 8845,
  " तर": 8846,
  " ते": 8847,
  " दा": 8848,
  "ంఖ": 8849,
  "ంవ": 8850,
  "ంస": 8851,
  "గీ": 8852,
  "గే": 8853,
  "టే": 8854,
  "ణత": 8855,
  "ణ్": 8856,
  "నవ": 8857,
  "పట": 8858,
  "పై": 8859,
  "బి": 8860,
  "భక": 8861,
  "భూ": 8862,
  "భో": 8863,
  "మణ": 8864,
  "మొ": 8865,
  "యప": 8866,
  "యవ": 8867,
  "రట": 8868,
  "రబ": 8869,
  "రయ": 8870,
  "రవ": 8871,
  "రూ": 8872,
  "రే": 8873,
  "రై": 8874,
  "లస": 8875,
  "వహ": 8876,
  "వ్": 8877,
  "షక": 8878,
  "షన": 8879,
  "షా": 8880,
  "షే": 8881,
  "సమ": 8882,
  "ాచ": 8883,
  "ీత": 8884,
  "ుణ": 8885,
  "ెక": 8886,
  "ేయ": 8887,
  "ైల": 8888,
  "ొట": 8889,
  "ోత": 8890,
  "్శ": 8891,
  "్ష": 8892,
  "్స": 8893,
  " శ": 8894,
  "శ": 8895,
  "मान": 8896,
  "यपा": 8897,
  "ानत": 8898,
  "গিত": 8899,
  "বার": 8900,
  "য়ত": 8901,
  "ীর্": 8902,
  "্লে": 8903,
  "யில": 8904,
  "ளாத": 8905,
  "ிடம": 8906,
  "దంగ": 8907,
  "ుకు": 8908,
  " गण": 8909,
  " दु": 8910,
  " नह": 8911,
  " पश": 8912,
  " पी": 8913,
  " बं": 8914,
  " बह": 8915,
  " बै": 8916,
  " भर": 8917,
  " भा": 8918,
  " मि": 8919,
  " मे": 8920,
  " यू": 8921,
  " रत": 8922,
  " रह": 8923,
  " लक": 8924,
  " लघ": 8925,
  " लड": 8926,
  " ले": 8927,
  " लो": 8928,
  " वा": 8929,
  " सस": 8930,
  " सू": 8931,
  " सृ": 8932,
  " स्": 8933,
  " অগ": 8934,
  " আব": 8935,
  " আম": 8936,
  " উদ": 8937,
  " এত": 8938,
  " এন": 8939,
  " এব": 8940,
  " কি": 8941,
  " গঙ": 8942,
  " জল": 8943,
  " তা": 8944,
  "ழத": 8945,
  "తక": 8946,
  "బర": 8947,
  "ళక": 8948,
  "ిమ": 8949,
  "్ఫ": 8950,
  "टार": 8951,
  "डार": 8952,
  "णीय": 8953,
  "तार": 8954,
  "भार": 8955,
  "रों": 8956,
  "हार": 8957,
  "ारन": 8958,
  "ारी": 8959,
  "ारो": 8960,
  "्रम": 8961,
  "्वय": 8962,
  "দ্ভ": 8963,
  "য়ো": 8964,
  "্বজ": 8965,
  "ராக": 8966,
  "ளது": 8967,
  "ள்க": 8968,
  "ழ்க": 8969,
  "ஸ்க": 8970,
  "ிபல": 8971,
  "ிலம": 8972,
  "ுப்": 8973,
  "்கப": 8974,
  "்கல": 8975,
  "்கள": 8976,
  "்கழ": 8977,
  "்கீ": 8978,
  "்கை": 8979,
  "்கொ": 8980,
  "்க்": 8981,
  "టార": 8982,
  "ట్ర": 8983,
  "తంగ": 8984,
  "బాల": 8985,
  "్యక": 8986,
  "్రస": 8987,
  " कल": 8988,
  " कह": 8989,
  " कि": 8990,
  " क्": 8991,
  " रख": 8992,
  " सफ": 8993,
  " सब": 8994,
  " सभ": 8995,
  " सह": 8996,
  " सौ": 8997,
  " हा": 8998,
  " দে": 8999,
  " নজ": 9000,
  " নত": 9001,
  " নো": 9002,
  " পু": 9003,
  " পৃ": 9004,
  " পে": 9005,
  " প্": 9006,
  " বঙ": 9007,
  " বর": 9008,
  " বস": 9009,
  " বহ": 9010,
  " ব্": 9011,
  " মঞ": 9012,
  " মড": 9013,
  " মন": 9014,
  " মি": 9015,
  " মৎ": 9016,
  " রস": 9017,
  " রা": 9018,
  " শর": 9019,
  " শা": 9020,
  " শি": 9021,
  " শী": 9022,
  " শে": 9023,
  " সক": 9024,
  " সত": 9025,
  " সর": 9026,
  " সা": 9027,
  " அக": 9028,
  " அம": 9029,
  " இர": 9030,
  " இவ": 9031,
  " எத": 9032,
  " சங": 9033,
  " தம": 9034,
  " தல": 9035,
  " தீ": 9036,
  " து": 9037,
  " தே": 9038,
  " பண": 9039,
  " பய": 9040,
  " பி": 9041,
  " மத": 9042,
  "ंजन": 9043,
  "युष": 9044,
  "ागर": 9045,
  "ामा": 9046,
  "ेली": 9047,
  "ংলা": 9048,
  "চার": 9049,
  "নার": 9050,
  "পার": 9051,
  "ভার": 9052,
  "ম্য": 9053,
  "লার": 9054,
  "ষার": 9055,
  "ষ্য": 9056,
  "সলি": 9057,
  "হ্য": 9058,
  "ার্": 9059,
  "োড়": 9060,
  "ৌকা": 9061,
  "্যন": 9062,
  "্যো": 9063,
  "্রক": 9064,
  "্রগ": 9065,
  "্রচ": 9066,
  "্রথ": 9067,
  "্রধ": 9068,
  "্রন": 9069,
  "্রম": 9070,
  "্রয": 9071,
  "্রস": 9072,
  "্রু": 9073,
  "্রো": 9074,
  "தம்": 9075,
  "றாக": 9076,
  "డార": 9077,
  "ధ్ర": 9078,
  "నార": 9079,
  "ర్ర": 9080,
  "సుక": 9081,
  "్యప": 9082,
  "్రం": 9083,
  "్రక": 9084,
  "్రఖ": 9085,
  "్రజ": 9086,
  "్రత": 9087,
  "్రన": 9088,
  "్రబ": 9089,
  "్రమ": 9090,
  "్రహ": 9091,
  "్రి": 9092,
  "్ర్": 9093,
  " ऑट": 9094,
  " मं": 9095,
  " मद": 9096,
  " मध": 9097,
  " मन": 9098,
  " मू": 9099,
  " मौ": 9100,
  " অঞ": 9101,
  " পর": 9102,
  " পশ": 9103,
  " পি": 9104,
  " இண": 9105,
  " தஞ": 9106,
  " தத": 9107,
  " தி": 9108,
  " மற": 9109,
  " மொ": 9110,
  " வட": 9111,
  " வா": 9112,
  " வி": 9113,
  " అం": 9114,
  " అత": 9115,
  " అన": 9116,
  " అర": 9117,
  " ఆక": 9118,
  " ఆధ": 9119,
  " ఇత": 9120,
  " కట": 9121,
  " కర": 9122,
  " కవ": 9123,
  " కృ": 9124,
  " గడ": 9125,
  " జీ": 9126,
  " నా": 9127,
  " పచ": 9128,
  " పత": 9129,
  " పి": 9130,
  " భక": 9131,
  " భో": 9132,
  " మొ": 9133,
  " రక": 9134,
  " లే": 9135,
  " వం": 9136,
  " సి": 9137,
  "ँचाय": 9138,
  "ंखला": 9139,
  "ंधान": 9140,
  "क्ती": 9141,
  "ग्रण": 9142,
  "ख्य": 9143,
  "जिक": 9144,
  "थिक": 9145,
  "थ्य": 9146,
  "दिक": 9147,
  "न्य": 9148,
  "विक": 9149,
  "ष्य": 9150,
  "िकत": 9151,
  "िकी": 9152,
  "िक्": 9153,
  "्यक": 9154,
  "्यभ": 9155,
  "्यु": 9156,
  "्यो": 9157,
  "्रग": 9158,
  "्रद": 9159,
  "्रध": 9160,
  "्रय": 9161,
  "्रष": 9162,
  "्रस": 9163,
  "्रि": 9164,
  "्री": 9165,
  "्रृ": 9166,
  "्रो": 9167,
  "्रौ": 9168,
  "চিক": 9169,
  "তিয": 9170,
  "তিশ": 9171,
  "বিত": 9172,
  "রিণ": 9173,
  "লিক": 9174,
  "শাখ": 9175,
  "ষাক": 9176,
  "িক্": 9177,
  "அம்": 9178,
  "கிர": 9179,
  "டம்": 9180,
  "னிய": 9181,
  "பம்": 9182,
  "யற்": 9183,
  "ல்வ": 9184,
  "வம்": 9185,
  "ாம்": 9186,
  "ிழி": 9187,
  "ேம்": 9188,
  "்டங": 9189,
  "జలు": 9190,
  "లుగ": 9191,
  "లువ": 9192,
  "లుస": 9193,
  "ారా": 9194,
  " पढ": 9195,
  " पव": 9196,
  " पू": 9197,
  " भं": 9198,
  " री": 9199,
  " সচ": 9200,
  " সে": 9201,
  " সৈ": 9202,
  " সো": 9203,
  " சம": 9204,
  " மண": 9205,
  " மர": 9206,
  " மி": 9207,
  " மை": 9208,
  " ప్": 9209,
  " వస": 9210,
  "टकों": 9211,
  "ड़ों": 9212,
  "तदान": 9213,
  "तिया": 9214,
  "त्यं": 9215,
  "त्वप": 9216,
  "धिया": 9217,
  "निया": 9218,
  "पस्थ": 9219,
  "यपाल": 9220,
  "राओं": 9221,
  "र्थव": 9222,
  "र्मा": 9223,
  "वाहर": 9224,
  "शक्त": 9225,
  "हरों": 9226,
  "ाध्य": 9227,
  "ानिक": 9228,
  "ारती": 9229,
  "ासिय": 9230,
  "ाहिए": 9231,
  "िकार": 9232,
  "ित्य": 9233,
  "ियोज": 9234,
  "िलना": 9235,
  "ीर्ष": 9236,
  "ुक्त": 9237,
  "ूकता": 9238,
  "ेक्ष": 9239,
  "ोंने": 9240,
  "ोगिक": 9241,
  "ँधी": 9242,
  "टिक": 9243,
  "ताज": 9244,
  "वर्": 9245,
  "वास": 9246,
  "िको": 9247,
  "्वा": 9248,
  "ঐতি": 9249,
  "টিত": 9250,
  "তিষ": 9251,
  "মাদ": 9252,
  "যাদ": 9253,
  "রিব": 9254,
  "লয়": 9255,
  "সতি": 9256,
  "াতি": 9257,
  "িকত": 9258,
  "িতি": 9259,
  "ীতি": 9260,
  "োহন": 9261,
  "্তি": 9262,
  "டிய": 9263,
  "ணிய": 9264,
  "தது": 9265,
  "துக": 9266,
  "துள": 9267,
  "னது": 9268,
  "பிய": 9269,
  "மன்": 9270,
  "யது": 9271,
  "றது": 9272,
  "விய": 9273,
  "ியத": 9274,
  "ியம": 9275,
  "ிழர": 9276,
  "ிழ்": 9277,
  "ூன்": 9278,
  "ைகா": 9279,
  "்தஸ": 9280,
  "దరా": 9281,
  "లోక": 9282,
  "ాలో": 9283,
  "ిలో": 9284,
  " अद": 9285,
  " अभ": 9286,
  " बॉ": 9287,
  " கர": 9288,
  " கல": 9289,
  " பங": 9290,
  " பட": 9291,
  " பல": 9292,
  " பா": 9293,
  " பே": 9294,
  " తి": 9295,
  " తీ": 9296,
  " త్": 9297,
  "त्रि": 9298,
  "र्वे": 9299,
  "्टार": 9300,
  "्ट्र": 9301,
  "्तुक": 9302,
  "्यता": 9303,
  "्याग": 9304,
  "्यान": 9305,
  "्योग": 9306,
  "्रिक": 9307,
  "्रिय": 9308,
  "्वर्": 9309,
  "्वास": 9310,
  "्विक": 9311,
  "्षता": 9312,
  "ংলার": 9313,
  "ইকেল": 9314,
  "কেয়": 9315,
  "ক্ষে": 9316,
  "ক্সফ": 9317,
  "খোপা": 9318,
  "গ্রদ": 9319,
  "ঘনবস": 9320,
  "ঙামা": 9321,
  "ঙ্গে": 9322,
  "চন্দ": 9323,
  "তনতা": 9324,
  "তানি": 9325,
  "ত্যজ": 9326,
  "থায়": 9327,
  "দানি": 9328,
  "ন্যত": 9329,
  "প্রি": 9330,
  "প্রে": 9331,
  "বন্ধ": 9332,
  "বায়": 9333,
  "মক্ষ": 9334,
  "য়ার": 9335,
  "য়োগ": 9336,
  "র্জা": 9337,
  "র্থন": 9338,
  "র্যট": 9339,
  "201": 9340,
  "गान": 9341,
  "थान": 9342,
  "दिय": 9343,
  "धिय": 9344,
  "निय": 9345,
  "मिय": 9346,
  "सिय": 9347,
  "ानक": 9348,
  "ानू": 9349,
  "ानो": 9350,
  "ियो": 9351,
  "्षम": 9352,
  "স্ক": 9353,
  "ட்ப": 9354,
  "பில": 9355,
  "லாக": 9356,
  "ளர்": 9357,
  "ளில": 9358,
  "வில": 9359,
  "ிறு": 9360,
  "ிலப": 9361,
  "ிலி": 9362,
  "்பத": 9363,
  "்பா": 9364,
  "்பி": 9365,
  "்பு": 9366,
  "்பெ": 9367,
  "்பை": 9368,
  "ఎగు": 9369,
  "డ్య": 9370,
  "దిం": 9371,
  "దిన": 9372,
  "దిస": 9373,
  "ర్య": 9374,
  "ాది": 9375,
  "ాని": 9376,
  "ాలీ": 9377,
  "ుగు": 9378,
  "్గు": 9379,
  "్యధ": 9380,
  "్యమ": 9381,
  " औद": 9382,
  " गर": 9383,
  " बद": 9384,
  " কক": 9385,
  " কথ": 9386,
  " কা": 9387,
  " কৃ": 9388,
  " ক্": 9389,
  " உல": 9390,
  " கஞ": 9391,
  " கத": 9392,
  " கா": 9393,
  "दाहर": 9394,
  "लीवु": 9395,
  "ियान": 9396,
  "লায়": 9397,
  "শিয়": 9398,
  "ষায়": 9399,
  "হযোগ": 9400,
  "হায়": 9401,
  "হেলা": 9402,
  "াংস্": 9403,
  "াখছে": 9404,
  "াটির": 9405,
  "াতার": 9406,
  "াতাল": 9407,
  "াধিক": 9408,
  "ামড়": 9409,
  "াম্য": 9410,
  "ারার": 9411,
  "ারিত": 9412,
  "ালিত": 9413,
  "াস্ট": 9414,
  "িত্র": 9415,
  "ীন্দ": 9416,
  "ুন্দ": 9417,
  "ূমিক": 9418,
  "ৃথিব": 9419,
  "েঙ্গ": 9420,
  "েন্দ": 9421,
  "েপুল": 9422,
  "োকাব": 9423,
  "োক্র": 9424,
  "োগিত": 9425,
  "োনার": 9426,
  "োল্ল": 9427,
  "ৌকার": 9428,
  "্যবা": 9429,
  "্যাত": 9430,
  "্যোগ": 9431,
  "্রতি": 9432,
  "্রয়": 9433,
  "্রার": 9434,
  "্রিত": 9435,
  "্ষার": 9436,
  "அங்க": 9437,
  "कता": 9438,
  "गों": 9439,
  "छता": 9440,
  "ताओ": 9441,
  "ताप": 9442,
  "तिय": 9443,
  "थिय": 9444,
  "बों": 9445,
  "मों": 9446,
  "यों": 9447,
  "रता": 9448,
  "रिय": 9449,
  "लों": 9450,
  "़ों": 9451,
  "िता": 9452,
  "ूर्": 9453,
  "ेटी": 9454,
  "ैना": 9455,
  "ोंग": 9456,
  "ोता": 9457,
  "বর্": 9458,
  "রস্": 9459,
  "লাম": 9460,
  "েন্": 9461,
  "ৎসব": 9462,
  "ிரத": 9463,
  "்தன": 9464,
  "்தம": 9465,
  "்தர": 9466,
  "்தா": 9467,
  "்தி": 9468,
  "்தை": 9469,
  "రాయ": 9470,
  "ుతో": 9471,
  " जं": 9472,
  " जह": 9473,
  " जै": 9474,
  " टी": 9475,
  " बच": 9476,
  " बड": 9477,
  " बढ": 9478,
  " बल": 9479,
  " बा": 9480,
  " बि": 9481,
  " बु": 9482,
  " ब्": 9483,
  " অং": 9484,
  " অক": 9485,
  " অত": 9486,
  " অধ": 9487,
  " অব": 9488,
  " অর": 9489,
  " জগ": 9490,
  " মধ": 9491,
  " মস": 9492,
  " মূ": 9493,
  " సమ": 9494,
  " సై": 9495,
  "रीकर": 9496,
  "ारों": 9497,
  "िकता": 9498,
  "िकों": 9499,
  "ुरान": 9500,
  "्रता": 9501,
  "्राम": 9502,
  "्रों": 9503,
  "নীতি": 9504,
  "পূর্": 9505,
  "என்ற": 9506,
  "கங்க": 9507,
  "கராக": 9508,
  "கின்": 9509,
  "கும்": 9510,
  "க்கத": 9511,
  "க்கப": 9512,
  "க்கர": 9513,
  "க்கல": 9514,
  "க்கள": 9515,
  "க்கவ": 9516,
  "க்கா": 9517,
  "க்கி": 9518,
  "க்கு": 9519,
  "ங்கம": 9520,
  "ங்கல": 9521,
  "ங்கு": 9522,
  "ங்கை": 9523,
  "சப்ப": 9524,
  "ச்சன": 9525,
  "டக்க": 9526,
  "டங்க": 9527,
  "டப்ப": 9528,
  "டல்க": 9529,
  "டின்": 9530,
  "ணாது": 9531,
  "தக்க": 9532,
  "தத்த": 9533,
  "தப்ப": 9534,
  "தின்": 9535,
  "துள்": 9536,
  "த்தத": 9537,
  "धर्": 9538,
  "मर्": 9539,
  "र्क": 9540,
  "लर्": 9541,
  "लाद": 9542,
  "ीर्": 9543,
  "्षा": 9544,
  "ক্ত": 9545,
  "গিক": 9546,
  "জিক": 9547,
  "ণিত": 9548,
  "থান": 9549,
  "দর্": 9550,
  "দান": 9551,
  "নিক": 9552,
  "রছে": 9553,
  "র্ত": 9554,
  "র্ভ": 9555,
  "র্শ": 9556,
  "শান": 9557,
  "সান": 9558,
  "সিক": 9559,
  "সিত": 9560,
  "াদৃ": 9561,
  "ানু": 9562,
  "ানে": 9563,
  "ানো": 9564,
  "িকে": 9565,
  "ীবন": 9566,
  "ুর্": 9567,
  "ূর্": 9568,
  "োবা": 9569,
  "োর্": 9570,
  "ஐடி": 9571,
  "சாவ": 9572,
  "சிர": 9573,
  "ிரா": 9574,
  "ంచం": 9575,
  "కార": 9576,
  "తార": 9577,
  "రస్": 9578,
  " दब": 9579,
  " दि": 9580,
  " दू": 9581,
  " दो": 9582,
  " रो": 9583,
  " এখ": 9584,
  " শু": 9585,
  " சஞ": 9586,
  " சே": 9587,
  " வந": 9588,
  " வெ": 9589,
  "घरेल": 9590,
  "त्मा": 9591,
  "्रीय": 9592,
  "ঠশাল": 9593,
  "ান্ধ": 9594,
  "িকার": 9595,
  "িট্য": 9596,
  "্রিক": 9597,
  "டும்": 9598,
  "த்தன": 9599,
  "த்தம": 9600,
  "த்தர": 9601,
  "த்தற": 9602,
  "த்தோ": 9603,
  "னக்க": 9604,
  "னின்": 9605,
  "பக்க": 9606,
  "பில்": 9607,
  "ப்பத": 9608,
  "ப்பள": 9609,
  "ப்பா": 9610,
  "ப்பி": 9611,
  "ப்பூ": 9612,
  "ப்பை": 9613,
  "மானவ": 9614,
  "மிழர": 9615,
  "மிழி": 9616,
  "மிழ்": 9617,
  "ம்பட": 9618,
  "யற்ற": 9619,
  "யின்": 9620,
  "யில்": 9621,
  "ரட்ச": 9622,
  "ரமண்": 9623,
  "ரின்": 9624,
  "ரியா": 9625,
  "றத்த": 9626,
  "றப்ப": 9627,
  "றும்": 9628,
  "லகிற": 9629,
  "லக்க": 9630,
  "லங்க": 9631,
  "லத்த": 9632,
  "ளங்க": 9633,
  "ழக்க": 9634,
  "ழில்": 9635,
  "म्म": 9636,
  "्वस": 9637,
  "মিত": 9638,
  "রিহ": 9639,
  "লিত": 9640,
  "শুত": 9641,
  "ষিত": 9642,
  "াঁথ": 9643,
  "ুন্": 9644,
  "েশব": 9645,
  "েশে": 9646,
  "உள்": 9647,
  "ணிம": 9648,
  "பாட": 9649,
  "வாக": 9650,
  "ாகக": 9651,
  "ாடு": 9652,
  "ாட்": 9653,
  "ிறா": 9654,
  "ఖని": 9655,
  "టాయ": 9656,
  "నిక": 9657,
  "నిన": 9658,
  "నివ": 9659,
  "రాత": 9660,
  "రాస": 9661,
  "సరా": 9662,
  "ీరా": 9663,
  "ుని": 9664,
  "ూచి": 9665,
  "్టీ": 9666,
  "్ని": 9667,
  " आं": 9668,
  " आग": 9669,
  " आप": 9670,
  " रक": 9671,
  " रफ": 9672,
  " रू": 9673,
  " रे": 9674,
  " वस": 9675,
  " அத": 9676,
  " இந": 9677,
  " இள": 9678,
  " కల": 9679,
  " కొ": 9680,
  " మర": 9681,
  " మా": 9682,
  " మి": 9683,
  " మే": 9684,
  " రే": 9685,
  " వర": 9686,
  " వహ": 9687,
  "्ष्य": 9688,
  "িত্য": 9689,
  "வில்": 9690,
  "ஸ்து": 9691,
  "ாக்க": 9692,
  "ாடிய": 9693,
  "ாட்ட": 9694,
  "ாண்ட": 9695,
  "ானது": 9696,
  "ாவாக": 9697,
  "ிங்க": 9698,
  "ிச்ச": 9699,
  "ிந்த": 9700,
  "ின்ப": 9701,
  "ின்ற": 9702,
  "ிப்ப": 9703,
  "ியது": 9704,
  "ியாக": 9705,
  "ியில": 9706,
  "ிர்க": 9707,
  "ிற்க": 9708,
  "ிற்ப": 9709,
  "ிலிர": 9710,
  "ில்க": 9711,
  "ில்ந": 9712,
  "ீர்த": 9713,
  "ுகம்": 9714,
  "ுங்க": 9715,
  "ுத்த": 9716,
  "ுந்த": 9717,
  "ுன்ற": 9718,
  "ுறள்": 9719,
  "ுற்ற": 9720,
  "ுள்ள": 9721,
  "ுவாய": 9722,
  "ூன்ற": 9723,
  "ூல்க": 9724,
  "ெற்ற": 9725,
  "ைந்த": 9726,
  "ைப்ப": 9727,
  "ையாட": 9728,
  "ையான": 9729,
  "ொங்க": 9730,
  "ொழிக": 9731,
  "ொழில": 9732,
  "்கது": 9733,
  "்கம்": 9734,
  "்கரை": 9735,
  "ंगल": 9736,
  "तिद": 9737,
  "फिल": 9738,
  "मास": 9739,
  "रास": 9740,
  "शास": 9741,
  "ासि": 9742,
  "ेही": 9743,
  "ोकत": 9744,
  "আন্": 9745,
  "ঘনব": 9746,
  "চন্": 9747,
  "দন্": 9748,
  "পাদ": 9749,
  "বন্": 9750,
  "বাদ": 9751,
  "শ্ব": 9752,
  "ৌন্": 9753,
  "্বব": 9754,
  "கள்": 9755,
  "ருக": 9756,
  "ாவி": 9757,
  "ுகழ": 9758,
  "ுள்": 9759,
  "ంగం": 9760,
  "కంగ": 9761,
  "గంగ": 9762,
  "డుప": 9763,
  "నంగ": 9764,
  "స్మ": 9765,
  "హస్": 9766,
  "ాస్": 9767,
  "ిస్": 9768,
  "ూర్": 9769,
  "ెస్": 9770,
  "్నం": 9771,
  " ती": 9772,
  " তৈ": 9773,
  " নদ": 9774,
  " নে": 9775,
  " শক": 9776,
  " শহ": 9777,
  " అగ": 9778,
  " అడ": 9779,
  " అధ": 9780,
  " అప": 9781,
  " అమ": 9782,
  " అష": 9783,
  "नाएँ": 9784,
  "তিহা": 9785,
  "প্রয": 9786,
  "বদন্": 9787,
  "শ্চি": 9788,
  "্যন্": 9789,
  "கத்த": 9790,
  "ங்கள": 9791,
  "டத்த": 9792,
  "ுகிற": 9793,
  "ைத்த": 9794,
  "்கிய": 9795,
  "்கிற": 9796,
  "்கைய": 9797,
  "்சிய": 9798,
  "்டாட": 9799,
  "்டிட": 9800,
  "்டிய": 9801,
  "்டில": 9802,
  "்தது": 9803,
  "்திக": 9804,
  "்திய": 9805,
  "்திர": 9806,
  "்தில": 9807,
  "்த்த": 9808,
  "்ந்த": 9809,
  "்பிய": 9810,
  "்வாத": 9811,
  "ంగాణ": 9812,
  "ందిం": 9813,
  "ందిస": 9814,
  "ంస్థ": 9815,
  "ఇంది": 9816,
  "కంగా": 9817,
  "కళకు": 9818,
  "కారు": 9819,
  "గార్": 9820,
  "గుతో": 9821,
  "గుర్": 9822,
  "గులో": 9823,
  "జాతీ": 9824,
  "జార్": 9825,
  "టంలో": 9826,
  "టాలి": 9827,
  "ట్టడ": 9828,
  "డుతూ": 9829,
  "खला": 9830,
  "चना": 9831,
  "डकर": 9832,
  "तीय": 9833,
  "नाई": 9834,
  "पनी": 9835,
  "माव": 9836,
  "रना": 9837,
  "लना": 9838,
  "शिल": 9839,
  "हिल": 9840,
  "िलक": 9841,
  "िलज": 9842,
  "ॉकच": 9843,
  "ोगद": 9844,
  "्तं": 9845,
  "्ति": 9846,
  "्ती": 9847,
  "्तु": 9848,
  "তাল": 9849,
  "দক্": 9850,
  "মক্": 9851,
  "রক্": 9852,
  "শক্": 9853,
  "াপত": 9854,
  "ুক্": 9855,
  "ুড়": 9856,
  "ুরি": 9857,
  "ৃক্": 9858,
  "েছে": 9859,
  "েল্": 9860,
  "্ছে": 9861,
  "ுற்": 9862,
  "்சீ": 9863,
  "థాల": 9864,
  "రిజ": 9865,
  "వాల": 9866,
  "ాలయ": 9867,
  "ాలి": 9868,
  "ెరి": 9869,
  " उन": 9870,
  " রক": 9871,
  " রপ": 9872,
  " রব": 9873,
  " রহ": 9874,
  " রূ": 9875,
  " রে": 9876,
  " ఉన": 9877,
  "्तार": 9878,
  "्तीय": 9879,
  "्त्र": 9880,
  "জায়": 9881,
  "পায়": 9882,
  "হারে": 9883,
  "ায়ত": 9884,
  "ৈতিক": 9885,
  "্যাল": 9886,
  "ச்சல": 9887,
  "ல்கள": 9888,
  "ாற்ற": 9889,
  "తులు": 9890,
  "త్యం": 9891,
  "త్యధ": 9892,
  "త్యే": 9893,
  "త్సర": 9894,
  "దీని": 9895,
  "దులు": 9896,
  "నంగా": 9897,
  "నాడు": 9898,
  "నికత": 9899,
  "నిర్": 9900,
  "న్నత": 9901,
  "పుతో": 9902,
  "ప్తి": 9903,
  "మాజం": 9904,
  "మాని": 9905,
  "మించ": 9906,
  "మికి": 9907,
  "ములు": 9908,
  "మైనవ": 9909,
  "యమైన": 9910,
  "యుక్": 9911,
  "రాని": 9912,
  "ర్క్": 9913,
  "ర్తి": 9914,
  "ర్ధి": 9915,
  "లిచి": 9916,
  "లువబ": 9917,
  "లుస్": 9918,
  "వత్స": 9919,
  "విత్": 9920,
  "శ్రవ": 9921,
  "షించ": 9922,
  "ష్టమ": 9923,
  "స్కర": 9924,
  "స్పో": 9925,
  "ారిక": 9926,
  "ార్ప": 9927,
  "ढ़ा": 9928,
  "बित": 9929,
  "राओ": 9930,
  "ससे": 9931,
  "শাল": 9932,
  "শিল": 9933,
  "ালব": 9934,
  "ালি": 9935,
  "িলে": 9936,
  "சைய": 9937,
  "ஜர்": 9938,
  "டைய": 9939,
  "ண்ண": 9940,
  "னைய": 9941,
  "ர்ச": 9942,
  "ர்ந": 9943,
  "றைய": 9944,
  "ையம": 9945,
  "ையர": 9946,
  "ையா": 9947,
  "ంచబ": 9948,
  "ంచి": 9949,
  "ంచు": 9950,
  "థాయ": 9951,
  "నాయ": 9952,
  "ర్ధ": 9953,
  "లంచ": 9954,
  "సాయ": 9955,
  "ాంచ": 9956,
  "ాద్": 9957,
  "ాయం": 9958,
  "ాయక": 9959,
  "ిద్": 9960,
  "ృద్": 9961,
  "్టడ": 9962,
  "్టమ": 9963,
  "్టి": 9964,
  " तम": 9965,
  " तह": 9966,
  " यो": 9967,
  " আত": 9968,
  " আধ": 9969,
  " আহ": 9970,
  " চল": 9971,
  " জর": 9972,
  " দত": 9973,
  " দর": 9974,
  " দূ": 9975,
  "तव्य": 9976,
  "द्यम": 9977,
  "ारित": 9978,
  "ित्र": 9979,
  "ृत्र": 9980,
  "ौद्य": 9981,
  "्रित": 9982,
  "কালে": 9983,
  "ষ্টি": 9984,
  "டர்க": 9985,
  "்டைய": 9986,
  "ంచార": 9987,
  "దాయం": 9988,
  "దించ": 9989,
  "ాయలు": 9990,
  "ింది": 9991,
  "ిత్ర": 9992,
  "ినార": 9993,
  "ిశ్ర": 9994,
  "ీవనా": 9995,
  "ున్న": 9996,
  "ులుస": 9997,
  "ృతిక": 9998,
  "ృత్య": 9999,
  "ెంది": 10000,
  "ొందట": 10001,
  "ొంది": 10002,
  "ొప్ప": 10003,
  "ోంది": 10004,
  "్టది": 10005,
  "్ట్ర": 10006,
  "్తీయ": 10007,
  "్యలో": 10008,
  "్యాప": 10009,
  "్యాయ": 10010,
  "్యాల": 10011,
  "్యావ": 10012,
  "్యాస": 10013,
  "్రంగ": 10014,
  "్రమా": 10015,
  "్రస్": 10016,
  "్రాజ": 10017,
  "్రాల": 10018,
  "్రిక": 10019,
  " अति": 10020,
  "अति": 10021,
  " अर्": 10022,
  "अर्": 10023,
  " आर्": 10024,
  " इसर": 10025,
  "इसर": 10026,
  " उपभ": 10027,
  "उपभ": 10028,
  " ऐति": 10029,
  "ऐति": 10030,
  " करा": 10031,
  "करा": 10032,
  "कनी": 10033,
  "वाल": 10034,
  "ीति": 10035,
  "ोनी": 10036,
  "ংস্": 10037,
  "ইস্": 10038,
  "তনত": 10039,
  "নাম": 10040,
  "বস্": 10041,
  "সস্": 10042,
  "স্প": 10043,
  "হস্": 10044,
  "ামড": 10045,
  "ামী": 10046,
  "াম্": 10047,
  "াস্": 10048,
  "েস্": 10049,
  "மாய": 10050,
  "லைஞ": 10051,
  "ானல": 10052,
  "ானவ": 10053,
  "ఏర్": 10054,
  "తర్": 10055,
  "తిప": 10056,
  "పతి": 10057,
  "ాతి": 10058,
  "ేతి": 10059,
  "్తి": 10060,
  " शक": 10061,
  " शह": 10062,
  " शा": 10063,
  " शू": 10064,
  " அண": 10065,
  " அந": 10066,
  " நவ": 10067,
  " நா": 10068,
  " நு": 10069,
  "त्री": 10070,
  "द्धि": 10071,
  "ात्र": 10072,
  "তীয়": 10073,
  "্রিড": 10074,
  "பலிப": 10075,
  "வர்க": 10076,
  "తంలో": 10077,
  "తాన్": 10078,
  "దంగా": 10079,
  "నంలో": 10080,
  "బాద్": 10081,
  "రంగా": 10082,
  "వంలో": 10083,
  "శంలో": 10084,
  "ాత్ర": 10085,
  "ారతా": 10086,
  "్యక్": 10087,
  " करो": 10088,
  "करो": 10089,
  " कर्": 10090,
  " कान": 10091,
  "कान": 10092,
  " कार": 10093,
  " किय": 10094,
  "किय": 10095,
  " किल": 10096,
  "किल": 10097,
  " केर": 10098,
  "केर": 10099,
  " कोण": 10100,
  "कोण": 10101,
  " ग्र": 10102,
  " घनि": 10103,
  "घनि": 10104,
  " डिज": 10105,
  "डिज": 10106,
  " त्य": 10107,
  " दबा": 10108,
  "दबा": 10109,
  " दिय": 10110,
  " दिल": 10111,
  "दिल": 10112,
  " धरो": 10113,
  "धरो": 10114,
  " निः": 10115,
  "निः": 10116,
  " निप": 10117,
  "निप": 10118,
  " निव": 10119,
  "निव": 10120,
  " नेट": 10121,
  "नेट": 10122,
  " नेत": 10123,
  "नेत": 10124,
  " नेह": 10125,
  "नेह": 10126,
  " न्य": 10127,
  " परं": 10128,
  "परं": 10129,
  " परि": 10130,
  "परि": 10131,
  " पर्": 10132,
  "पर्": 10133,
  " पहल": 10134,
  "पहल": 10135,
  " फार": 10136,
  " फिल": 10137,
  " बंग": 10138,
  "बंग": 10139,
  " भार": 10140,
  " भीम": 10141,
  "भीम": 10142,
  " मंद": 10143,
  "मंद": 10144,
  " मना": 10145,
  "मना": 10146,
  " मशी": 10147,
  "मशी": 10148,
  " मान": 10149,
  " रत्": 10150,
  "रत्": 10151,
  " लर्": 10152,
  " लिं": 10153,
  "लिं": 10154,
  " लोग": 10155,
  "लोग": 10156,
  " वास": 10157,
  " विक": 10158,
  " विज": 10159,
  "विज": 10160,
  "दरा": 10161,
  "धुन": 10162,
  "परा": 10163,
  "माल": 10164,
  "राए": 10165,
  "रात": 10166,
  "रीक": 10167,
  "सरा": 10168,
  "िमा": 10169,
  "ीमा": 10170,
  "ुनौ": 10171,
  "ेमा": 10172,
  "ोरा": 10173,
  "्मा": 10174,
  "খেল": 10175,
  "বেল": 10176,
  "রেল": 10177,
  "হেল": 10178,
  "াকৃ": 10179,
  "াটি": 10180,
  "াতা": 10181,
  "াতৃ": 10182,
  "াতে": 10183,
  "্টি": 10184,
  "லைந": 10185,
  "விஞ": 10186,
  "ఆర్": 10187,
  "మిక": 10188,
  "ర్జ": 10189,
  "ర్శ": 10190,
  "ీర్": 10191,
  " एल": 10192,
  " উভ": 10193,
  " উল": 10194,
  " উৎ": 10195,
  " হচ": 10196,
  " হি": 10197,
  " ఆం": 10198,
  " ఆచ": 10199,
  " ఆద": 10200,
  " ఆఫ": 10201,
  " ఆల": 10202,
  " ఆహ": 10203,
  " గి": 10204,
  " చల": 10205,
  "द्भु": 10206,
  "ংগীত": 10207,
  "ন্দি": 10208,
  "াতন্": 10209,
  "াত্র": 10210,
  "িকেল": 10211,
  "ৌন্দ": 10212,
  "্বাত": 10213,
  "்கலை": 10214,
  "ంటార": 10215,
  "ిత్య": 10216,
  "్రహ్": 10217,
  " लिख": 10218,
  "लिख": 10219,
  " लिप": 10220,
  "लिप": 10221,
  " वित": 10222,
  " विद": 10223,
  "विद": 10224,
  " विव": 10225,
  "विव": 10226,
  " शिक": 10227,
  " संग": 10228,
  "संग": 10229,
  " संच": 10230,
  "संच": 10231,
  " संत": 10232,
  "संत": 10233,
  " संभ": 10234,
  "संभ": 10235,
  " संय": 10236,
  "संय": 10237,
  " संर": 10238,
  "संर": 10239,
  " संव": 10240,
  "संव": 10241,
  " संस": 10242,
  "संस": 10243,
  " सदस": 10244,
  "सदस": 10245,
  " समू": 10246,
  "समू": 10247,
  " समृ": 10248,
  "समृ": 10249,
  " सरा": 10250,
  " साम": 10251,
  "साम": 10252,
  " सुं": 10253,
  "सुं": 10254,
  " सुर": 10255,
  "सुर": 10256,
  " सुल": 10257,
  "सुल": 10258,
  " सूच": 10259,
  "सूच": 10260,
  " सूर": 10261,
  "सूर": 10262,
  " सेन": 10263,
  "सेन": 10264,
  " सेव": 10265,
  "सेव": 10266,
  " हास": 10267,
  " অক্": 10268,
  "অক্": 10269,
  " অন্": 10270,
  "অন্": 10271,
  " অপর": 10272,
  "অপর": 10273,
  " অপূ": 10274,
  "অপূ": 10275,
  " অবদ": 10276,
  "অবদ": 10277,
  " আন্": 10278,
  " আর্": 10279,
  " ইস্": 10280,
  " একত": 10281,
  "একত": 10282,
  " ঐতি": 10283,
  " কক্": 10284,
  "কক্": 10285,
  " কর্": 10286,
  "কর্": 10287,
  " কাঁ": 10288,
  "কাঁ": 10289,
  "जस्": 10290,
  "ढ़ी": 10291,
  "तिथ": 10292,
  "ृति": 10293,
  "কুর": 10294,
  "নবা": 10295,
  "বাজ": 10296,
  "বুর": 10297,
  "সবা": 10298,
  "াবে": 10299,
  "றுவ": 10300,
  "ளுவ": 10301,
  "ாவட": 10302,
  "ாவூ": 10303,
  "ுவண": 10304,
  "ுவி": 10305,
  "ంటి": 10306,
  "ంటు": 10307,
  "కుడ": 10308,
  "ఘంట": 10309,
  "యుక": 10310,
  "యుడ": 10311,
  "ీయు": 10312,
  "ుంట": 10313,
  " உய": 10314,
  " ఉగ": 10315,
  " నగ": 10316,
  " నట": 10317,
  " నన": 10318,
  " నే": 10319,
  " భూ": 10320,
  " హై": 10321,
  "ख्या": 10322,
  "ढ़िय": 10323,
  "्वस्": 10324,
  "ালবা": 10325,
  "্লেখ": 10326,
  "ாட்ச": 10327,
  "ாவிய": 10328,
  "ாவிர": 10329,
  "ிறுவ": 10330,
  "ுவள்": 10331,
  "ுவிழ": 10332,
  "ெரிய": 10333,
  "ொழிய": 10334,
  "ோட்ட": 10335,
  "்துக": 10336,
  "்துவ": 10337,
  "ంటలు": 10338,
  "ంటాయ": 10339,
  "ధిలో": 10340,
  " महत": 10341,
  "महत": 10342,
  " महा": 10343,
  "महा": 10344,
  " लड़": 10345,
  "लड़": 10346,
  " सदै": 10347,
  "सदै": 10348,
  " सस्": 10349,
  "सस्": 10350,
  " আবা": 10351,
  "আবা": 10352,
  " কার": 10353,
  " গঙ্": 10354,
  "গঙ্": 10355,
  " গড়": 10356,
  "গড়": 10357,
  " গর্": 10358,
  " চিক": 10359,
  " জরু": 10360,
  "জরু": 10361,
  " জাম": 10362,
  "জাম": 10363,
  " দক্": 10364,
  " দর্": 10365,
  " দ্র": 10366,
  " ধার": 10367,
  " নবা": 10368,
  " নাম": 10369,
  " নার": 10370,
  " নিজ": 10371,
  "নিজ": 10372,
  " নিশ": 10373,
  "নিশ": 10374,
  " পাঠ": 10375,
  "পাঠ": 10376,
  " পার": 10377,
  " পিত": 10378,
  "পিত": 10379,
  " পুর": 10380,
  " বন্": 10381,
  " বর্": 10382,
  " বস্": 10383,
  " বাং": 10384,
  "বাং": 10385,
  " বাই": 10386,
  " বাউ": 10387,
  "বাউ": 10388,
  " বাঙ": 10389,
  "বাঙ": 10390,
  " বাড": 10391,
  "বাড": 10392,
  " বান": 10393,
  " বাস": 10394,
  " বিক": 10395,
  " বিখ": 10396,
  "বিখ": 10397,
  " বিদ": 10398,
  "বিদ": 10399,
  " বিপ": 10400,
  "বিপ": 10401,
  " বিব": 10402,
  "বিব": 10403,
  " বিষ": 10404,
  " বিহ": 10405,
  "বিহ": 10406,
  " বেগ": 10407,
  "বেগ": 10408,
  " ব্য": 10409,
  "वाए": 10410,
  "वाओ": 10411,
  "वाब": 10412,
  "वाह": 10413,
  "ीवा": 10414,
  "ुवा": 10415,
  "ருண": 10416,
  "ருள": 10417,
  "ிகப": 10418,
  "ிகள": 10419,
  "ிகவ": 10420,
  "ீலக": 10421,
  "ுறை": 10422,
  "ூலக": 10423,
  "దమై": 10424,
  "యన్": 10425,
  "యమై": 10426,
  "ాగ్": 10427,
  "ాన్": 10428,
  "ేశ్": 10429,
  " গড": 10430,
  " গব": 10431,
  " গভ": 10432,
  " গৌ": 10433,
  "ंक्ष": 10434,
  "क्षण": 10435,
  "श्वभ": 10436,
  "षाएँ": 10437,
  "हरला": 10438,
  "াধ্য": 10439,
  "ৈচিত": 10440,
  "োগ্য": 10441,
  "্চিত": 10442,
  "্যঞ্": 10443,
  "্রেই": 10444,
  "லகிர": 10445,
  "ுறைய": 10446,
  "శ్రా": 10447,
  "స్తక": 10448,
  "ిస్త": 10449,
  "ీశ్ర": 10450,
  "ేశాయ": 10451,
  "ేశాల": 10452,
  "్యమై": 10453,
  " गुण": 10454,
  "गुण": 10455,
  " निध": 10456,
  "निध": 10457,
  " निभ": 10458,
  "निभ": 10459,
  " निर": 10460,
  "निर": 10461,
  " विश": 10462,
  "विश": 10463,
  " গ্র": 10464,
  " চিত": 10465,
  " ভবি": 10466,
  "ভবি": 10467,
  " মঞ্": 10468,
  "মঞ্": 10469,
  " মন্": 10470,
  "মন্": 10471,
  " ময়": 10472,
  " মসল": 10473,
  "মসল": 10474,
  " মুহ": 10475,
  "মুহ": 10476,
  " মেঘ": 10477,
  "মেঘ": 10478,
  " মেট": 10479,
  "মেট": 10480,
  " মেল": 10481,
  "মেল": 10482,
  " ম্য": 10483,
  " যাদ": 10484,
  " যোগ": 10485,
  " রক্": 10486,
  " রহম": 10487,
  "রহম": 10488,
  " লাখ": 10489,
  "লাখ": 10490,
  " লোক": 10491,
  "লোক": 10492,
  " শক্": 10493,
  " শান": 10494,
  " শিক": 10495,
  " শিল": 10496,
  " শুর": 10497,
  "শুর": 10498,
  " সংহ": 10499,
  "সংহ": 10500,
  " সচে": 10501,
  "সচে": 10502,
  " সমস": 10503,
  "সমস": 10504,
  " সমু": 10505,
  "সমু": 10506,
  " সমৃ": 10507,
  "সমৃ": 10508,
  " সম্": 10509,
  "সম্": 10510,
  " সর্": 10511,
  "সর্": 10512,
  " সার": 10513,
  " সাল": 10514,
  "সাল": 10515,
  " সাহ": 10516,
  "সাহ": 10517,
  " স্য": 10518,
  " হচ্": 10519,
  "হচ্": 10520,
  " হস্": 10521,
  " হাও": 10522,
  "হাও": 10523,
  " அம்": 10524,
  " இட்": 10525,
  "இட்": 10526,
  " இயற": 10527,
  "இயற": 10528,
  " உள்": 10529,
  " கன்": 10530,
  " கம்": 10531,
  " கோட": 10532,
  "கோட": 10533,
  " கோவ": 10534,
  "கோவ": 10535,
  " நம்": 10536,
  " நாட": 10537,
  " நாத": 10538,
  "நாத": 10539,
  "ड़ी": 10540,
  "त्स": 10541,
  "द्भ": 10542,
  "बाइ": 10543,
  "रला": 10544,
  "हाय": 10545,
  "िद्": 10546,
  "ुद्": 10547,
  "ृद्": 10548,
  "কাব": 10549,
  "খাব": 10550,
  "ঠাক": 10551,
  "ড়ি": 10552,
  "থিব": 10553,
  "পড়": 10554,
  "শাব": 10555,
  "ষাব": 10556,
  "াকা": 10557,
  "িজি": 10558,
  "ட்ச": 10559,
  "தார": 10560,
  "ாரத": 10561,
  "ாரம": 10562,
  "థిక": 10563,
  "విత": 10564,
  "విద": 10565,
  "విబ": 10566,
  "ావి": 10567,
  "ివి": 10568,
  " ভব": 10569,
  " ভর": 10570,
  " ভা": 10571,
  "ृत्व": 10572,
  "ড়াম": 10573,
  "ত্তম": 10574,
  "নন্য": 10575,
  "ন্যা": 10576,
  "পন্য": 10577,
  "ববর্": 10578,
  "াকার": 10579,
  "াকাল": 10580,
  "াবাদ": 10581,
  "ামাজ": 10582,
  "াযোগ": 10583,
  "েরাক": 10584,
  "ார்க": 10585,
  "ிகார": 10586,
  "்சாவ": 10587,
  "்சிர": 10588,
  "డ్యా": 10589,
  "థాయి": 10590,
  "దమైన": 10591,
  "ర్యా": 10592,
  "ాయిక": 10593,
  "ికార": 10594,
  "ుఖమై": 10595,
  "్యాగ": 10596,
  "్యాత": 10597,
  "్యాన": 10598,
  " जहा": 10599,
  "जहा": 10600,
  " जाग": 10601,
  "जाग": 10602,
  " जात": 10603,
  "जात": 10604,
  " तरी": 10605,
  "तरी": 10606,
  " योज": 10607,
  "योज": 10608,
  " ভার": 10609,
  " ভিত": 10610,
  " கார": 10611,
  "கார": 10612,
  " பழம": 10613,
  "பழம": 10614,
  " பாட": 10615,
  " புற": 10616,
  "புற": 10617,
  " மணி": 10618,
  "மணி": 10619,
  " மது": 10620,
  "மது": 10621,
  " மற்": 10622,
  "மற்": 10623,
  " வகை": 10624,
  "வகை": 10625,
  " வடி": 10626,
  "வடி": 10627,
  " வாய": 10628,
  "வாய": 10629,
  " விர": 10630,
  " விழ": 10631,
  " வேக": 10632,
  "வேக": 10633,
  " అంట": 10634,
  "అంట": 10635,
  " అతి": 10636,
  "అతి": 10637,
  " అను": 10638,
  "అను": 10639,
  " అమె": 10640,
  "అమె": 10641,
  " ఆర్": 10642,
  " ఉన్": 10643,
  "ఉన్": 10644,
  " ఉస్": 10645,
  " ఒకట": 10646,
  " కర్": 10647,
  "కర్": 10648,
  " కార": 10649,
  " ఖని": 10650,
  " గడు": 10651,
  "గడు": 10652,
  " గార": 10653,
  " చలన": 10654,
  "చలన": 10655,
  " చార": 10656,
  " చెం": 10657,
  "చెం": 10658,
  " తిక": 10659,
  " తెచ": 10660,
  "తెచ": 10661,
  " తెల": 10662,
  "తెల": 10663,
  " త్య": 10664,
  "कती": 10665,
  "चेन": 10666,
  "टने": 10667,
  "ट्ट": 10668,
  "नेप": 10669,
  "रीद": 10670,
  "िने": 10671,
  "्टा": 10672,
  "्टि": 10673,
  "দ্ম": 10674,
  "ুদ্": 10675,
  "ৃদ্": 10676,
  "োকে": 10677,
  "ৌদ্": 10678,
  "্ষা": 10679,
  "্ষে": 10680,
  "பலம": 10681,
  "வாத": 10682,
  "ండు": 10683,
  "ంపు": 10684,
  "నగర": 10685,
  "పడి": 10686,
  "బడి": 10687,
  "ళకు": 10688,
  "షకు": 10689,
  "ుడు": 10690,
  "ढ़ती": 10691,
  "ताओं": 10692,
  "त्वा": 10693,
  "त्सा": 10694,
  "वाओं": 10695,
  "ारने": 10696,
  "ক্ষণ": 10697,
  "ক্ষা": 10698,
  "ক্ষি": 10699,
  "খযোগ": 10700,
  "জধান": 10701,
  "টোপা": 10702,
  "দক্ষ": 10703,
  "নযোগ": 10704,
  "সেবে": 10705,
  "াক্ষ": 10706,
  "াধান": 10707,
  "ৃক্ষ": 10708,
  "্ষাব": 10709,
  "கரம்": 10710,
  "ம்பர": 10711,
  "வமான": 10712,
  "ாழ்வ": 10713,
  "ொண்ட": 10714,
  "ంటకు": 10715,
  "కుంట": 10716,
  "మణ్య": 10717,
  "ాయకు": 10718,
  " अधि": 10719,
  "अधि": 10720,
  " अने": 10721,
  "अने": 10722,
  " करत": 10723,
  "करत": 10724,
  " करन": 10725,
  "करन": 10726,
  " गरी": 10727,
  " गुज": 10728,
  "गुज": 10729,
  " मंग": 10730,
  "मंग": 10731,
  " জীব": 10732,
  "জীব": 10733,
  " ఎప్": 10734,
  "ఎప్": 10735,
  " నగర": 10736,
  " నన్": 10737,
  "నన్": 10738,
  " నాట": 10739,
  "నాట": 10740,
  " నిం": 10741,
  " నిజ": 10742,
  " నిల": 10743,
  " నివ": 10744,
  " పంచ": 10745,
  " పాత": 10746,
  "పాత": 10747,
  " పార": 10748,
  " పొం": 10749,
  "పొం": 10750,
  " పోత": 10751,
  "పోత": 10752,
  " బాల": 10753,
  " భాగ": 10754,
  "భాగ": 10755,
  " భార": 10756,
  " భోజ": 10757,
  "భోజ": 10758,
  " మరి": 10759,
  "మరి": 10760,
  " మహన": 10761,
  "మహన": 10762,
  " మాట": 10763,
  "మాట": 10764,
  " మార": 10765,
  " ముఖ": 10766,
  " రాజ": 10767,
  " రామ": 10768,
  " రాష": 10769,
  " రాస": 10770,
  " లలి": 10771,
  " వస్": 10772,
  "వస్": 10773,
  " విజ": 10774,
  "విజ": 10775,
  " వివ": 10776,
  "వివ": 10777,
  " సంఖ": 10778,
  "సంఖ": 10779,
  " సంగ": 10780,
  "సంగ": 10781,
  " సంద": 10782,
  "సంద": 10783,
  " సంప": 10784,
  "సంప": 10785,
  " సంవ": 10786,
  "సంవ": 10787,
  " సాగ": 10788,
  "సాగ": 10789,
  "ंग्": 10790,
  "पाद": 10791,
  "लीम": 10792,
  "श्म": 10793,
  "ष्म": 10794,
  "ांग": 10795,
  "ीकर": 10796,
  "ैली": 10797,
  "ोकप": 10798,
  "ोकर": 10799,
  "ोली": 10800,
  "्मी": 10801,
  "्ली": 10802,
  "ঘতম": 10803,
  "ঙ্ক": 10804,
  "সঙ্": 10805,
  "েঙ্": 10806,
  "েষণ": 10807,
  "েষ্": 10808,
  "্তম": 10809,
  "্পে": 10810,
  "্লব": 10811,
  "பிட": 10812,
  "ல்ல": 10813,
  "ுனெ": 10814,
  "ంతో": 10815,
  "దటి": 10816,
  "ీటి": 10817,
  "ూరగ": 10818,
  "ंगान": 10819,
  "तापू": 10820,
  "स्कर": 10821,
  "िलकर": 10822,
  "्मार": 10823,
  "्मास": 10824,
  "বেষণ": 10825,
  "ানোই": 10826,
  "েল্ল": 10827,
  "্রেষ": 10828,
  "ம்பா": 10829,
  "ளமாக": 10830,
  "ழகம்": 10831,
  "ாம்ப": 10832,
  "ிடைய": 10833,
  "ியல்": 10834,
  "ேம்ப": 10835,
  "ோர்க": 10836,
  "తదేశ": 10837,
  "త్రన": 10838,
  "నారు": 10839,
  "ప్రద": 10840,
  "లుతో": 10841,
  "సంస్": 10842,
  " उत्": 10843,
  "उत्": 10844,
  " गंग": 10845,
  "गंग": 10846,
  " जंग": 10847,
  "जंग": 10848,
  " साह": 10849,
  "साह": 10850,
  " सुध": 10851,
  "सुध": 10852,
  " আত্": 10853,
  "আত্": 10854,
  " প্ল": 10855,
  " মুঘ": 10856,
  "মুঘ": 10857,
  " রপ্": 10858,
  "রপ্": 10859,
  " সেত": 10860,
  "সেত": 10861,
  " கோல": 10862,
  "கோல": 10863,
  " புர": 10864,
  "புர": 10865,
  " ఆంధ": 10866,
  "ఆంధ": 10867,
  " సామ": 10868,
  "సామ": 10869,
  " సాహ": 10870,
  "సాహ": 10871,
  " సిన": 10872,
  " స్వ": 10873,
  "స్వ": 10874,
  " హస్": 10875,
  "ंदोलन": 10876,
  "करणीय": 10877,
  "च्चों": 10878,
  "च्छता": 10879,
  "तिहास": 10880,
  "त्रता": 10881,
  "त्रिय": 10882,
  "त्रों": 10883,
  "त्वपू": 10884,
  "थियों": 10885,
  "दर्शि": 10886,
  "द्धिम": 10887,
  "द्भुत": 10888,
  "द्यान": 10889,
  "धताओं": 10890,
  "नीकों": 10891,
  "भियान": 10892,
  "मावेश": 10893,
  "रिक्ष": 10894,
  "रीकरण": 10895,
  "रुद्ध": 10896,
  "र्कों": 10897,
  "र्यभट": 10898,
  "लिदान": 10899,
  "लीवुड": 10900,
  "वानों": 10901,
  "श्चिम": 10902,
  "स्करण": 10903,
  "ंदो": 10904,
  "चंद": 10905,
  "निष": 10906,
  "मत्": 10907,
  "ाकृ": 10908,
  "ेघर": 10909,
  "्था": 10910,
  "গাপ": 10911,
  "চ্চ": 10912,
  "থাপ": 10913,
  "ரபு": 10914,
  "ரபை": 10915,
  "ణాట": 10916,
  "ధిల": 10917,
  "ప్త": 10918,
  "లిచ": 10919,
  "లిప": 10920,
  "ిప్": 10921,
  "ులి": 10922,
  "్ణా": 10923,
  " ইস": 10924,
  " চট": 10925,
  " লো": 10926,
  " ఇట": 10927,
  " ఎన": 10928,
  " జర": 10929,
  " రీ": 10930,
  " రు": 10931,
  " రై": 10932,
  "जधान": 10933,
  "त्या": 10934,
  "राएँ": 10935,
  "स्कृ": 10936,
  "्यात": 10937,
  "्याप": 10938,
  "কারি": 10939,
  "ছিলে": 10940,
  "নকার": 10941,
  "বঙ্গ": 10942,
  "েছিল": 10943,
  "্যাপ": 10944,
  "மணிய": 10945,
  " चंद": 10946,
  " जनस": 10947,
  "जनस": 10948,
  " भवि": 10949,
  "भवि": 10950,
  " राष": 10951,
  "राष": 10952,
  " लाग": 10953,
  "लाग": 10954,
  " কাপ": 10955,
  "কাপ": 10956,
  " வகி": 10957,
  "வகி": 10958,
  " అప్": 10959,
  "అప్": 10960,
  " కలి": 10961,
  "కలి": 10962,
  " పెర": 10963,
  "పెర": 10964,
  " విద": 10965,
  "पूर्व": 10966,
  "मंत्र": 10967,
  "ांक्ष": 10968,
  "ासियत": 10969,
  "िलाओं": 10970,
  "ुनिया": 10971,
  "ेंद्र": 10972,
  "ोगुनी": 10973,
  "ोजगार": 10974,
  "्यक्त": 10975,
  "्यक्ष": 10976,
  "्याओं": 10977,
  "्रृंख": 10978,
  "কাতার": 10979,
  "ক্তিয": 10980,
  "ক্ষেত": 10981,
  "চার্য": 10982,
  "চ্চিত": 10983,
  "তিহ্য": 10984,
  "ত্যজি": 10985,
  "ত্যন্": 10986,
  "দ্ধার": 10987,
  "নুপ্র": 10988,
  "ন্দরব": 10989,
  "প্লবে": 10990,
  "ফোর্ড": 10991,
  "বিষ্য": 10992,
  "ব্যাপ": 10993,
  "মবঙ্গ": 10994,
  "য়নাম": 10995,
  "যোগিত": 10996,
  "র্গাপ": 10997,
  "ষ্ট্য": 10998,
  "সরকার": 10999,
  "স্কার": 11000,
  "হনবাগ": 11001,
  "হার্য": 11002,
  "াকৃতি": 11003,
  "াখছেন": 11004,
  "াচ্ছে": 11005,
  "াজধান": 11006,
  "ाहर": 11007,
  "ाहि": 11008,
  "िसम": 11009,
  "िसि": 11010,
  "ोक्": 11011,
  "ोहर": 11012,
  "চিম": 11013,
  "তনে": 11014,
  "পুল": 11015,
  "রবন": 11016,
  "রুল": 11017,
  "িৎস": 11018,
  "ুনর": 11019,
  "ুলন": 11020,
  "ুলি": 11021,
  "ুলো": 11022,
  "ূচি": 11023,
  "্চি": 11024,
  "ைகள": 11025,
  "గజా": 11026,
  "జాత": 11027,
  "తను": 11028,
  "త్మ": 11029,
  "రజా": 11030,
  "ాత్": 11031,
  "िसान": 11032,
  "्थित": 11033,
  "्थ्य": 11034,
  "्रिस": 11035,
  "ল্যব": 11036,
  "সঙ্গ": 11037,
  "িয়ে": 11038,
  "ুনিক": 11039,
  "্বপ্": 11040,
  "্যবহ": 11041,
  "্যবো": 11042,
  "্যাহ": 11043,
  "্ষেত": 11044,
  "ருணா": 11045,
  "ைகள்": 11046,
  "దాయి": 11047,
  "ాయిగ": 11048,
  "ార్జ": 11049,
  "ార్మ": 11050,
  " समग": 11051,
  "समग": 11052,
  " समस": 11053,
  "समस": 11054,
  " सां": 11055,
  "सां": 11056,
  " साइ": 11057,
  "साइ": 11058,
  " খাব": 11059,
  " দত্": 11060,
  "দত্": 11061,
  " পুন": 11062,
  "পুন": 11063,
  " মৎস": 11064,
  "মৎস": 11065,
  " রেখ": 11066,
  "রেখ": 11067,
  " கொட": 11068,
  "கொட": 11069,
  " மகா": 11070,
  "மகா": 11071,
  " வைக": 11072,
  "வைக": 11073,
  " గోద": 11074,
  "గోద": 11075,
  " పత్": 11076,
  "పత్": 11077,
  "मियों": 11078,
  "বেঙ্গ": 11079,
  "য়েছে": 11080,
  "াতীয়": 11081,
  "াদেশে": 11082,
  "াধানে": 11083,
  "ানগ্র": 11084,
  "ান্ধব": 11085,
  "ার্বজ": 11086,
  "াসপাত": 11087,
  "িকতার": 11088,
  "িকায়": 11089,
  "িকেটে": 11090,
  "িক্ষা": 11091,
  "িল্পে": 11092,
  "ুন্দর": 11093,
  "ূল্যব": 11094,
  "ৃথিবী": 11095,
  "েখযোগ": 11096,
  "েরাকো": 11097,
  "েলায়": 11098,
  "েল্লা": 11099,
  "োক্রে": 11100,
  "োনারগ": 11101,
  "্পায়": 11102,
  "্যঞ্জ": 11103,
  "্যপ্র": 11104,
  "্যবস্": 11105,
  "্যাংক": 11106,
  "্যান্": 11107,
  "্যায়": 11108,
  "্রমিক": 11109,
  "্রামী": 11110,
  "্রামে": 11111,
  "্রায়": 11112,
  "্রিয়": 11113,
  "கிக்க": 11114,
  "க்காக": 11115,
  "க்கான": 11116,
  "க்கிற": 11117,
  "க்கில": 11118,
  "ंजा": 11119,
  "ंबा": 11120,
  "भाई": 11121,
  "भाव": 11122,
  "भाष": 11123,
  "शुल": 11124,
  "ाएँ": 11125,
  "िटी": 11126,
  "ुलन": 11127,
  "्कू": 11128,
  "కొం": 11129,
  "పుడ": 11130,
  "వామ": 11131,
  "వుల": 11132,
  "సుబ": 11133,
  "ృదయ": 11134,
  "ైలం": 11135,
  " खा": 11136,
  " তথ": 11137,
  " লা": 11138,
  "भाता": 11139,
  "युर्": 11140,
  "वाएँ": 11141,
  "ैश्व": 11142,
  "দ্যো": 11143,
  "ৃষিত": 11144,
  "ல்கா": 11145,
  "ென்ன": 11146,
  "ொல்க": 11147,
  "లువు": 11148,
  "ేతిక": 11149,
  "్యపు": 11150,
  " ऊर्": 11151,
  " गाँ": 11152,
  "गाँ": 11153,
  " देव": 11154,
  "देव": 11155,
  " लाख": 11156,
  "लाख": 11157,
  " খেল": 11158,
  " তাল": 11159,
  " রেম": 11160,
  "রেম": 11161,
  " সংগ": 11162,
  "সংগ": 11163,
  " সংঘ": 11164,
  "সংঘ": 11165,
  " সংর": 11166,
  "সংর": 11167,
  " சித": 11168,
  "சித": 11169,
  " பெர": 11170,
  "பெர": 11171,
  " కవు": 11172,
  "కవు": 11173,
  " కొం": 11174,
  "गानों": 11175,
  "दियों": 11176,
  "लाकों": 11177,
  "দ্যাল": 11178,
  "দ্যোগ": 11179,
  "ন্ত্র": 11180,
  "বিদ্য": 11181,
  "ৌন্দর": 11182,
  "্বত্য": 11183,
  "্যন্ত": 11184,
  "க்குற": 11185,
  "ங்கைய": 11186,
  "சப்பட": 11187,
  "சிக்க": 11188,
  "ச்சிய": 11189,
  "ணிச்ச": 11190,
  "ண்டாட": 11191,
  "தப்பட": 11192,
  "திகார": 11193,
  "திக்க": 11194,
  "த்திர": 11195,
  "த்துக": 11196,
  "நகராக": 11197,
  "நாடிய": 11198,
  "ந்தது": 11199,
  "ந்திய": 11200,
  "னெஸ்க": 11201,
  "பலமான": 11202,
  "ப்பள்": 11203,
  "ப்பாக": 11204,
  "ப்பாட": 11205,
  "ப்பான": 11206,
  "ப்பிய": 11207,
  "ப்புற": 11208,
  "ப்புவ": 11209,
  "முகம்": 11210,
  "மேகலை": 11211,
  "ம்பர்": 11212,
  "ம்மாழ": 11213,
  "யுனெஸ": 11214,
  "ரபில்": 11215,
  "ரிக்க": 11216,
  "ருங்க": 11217,
  "ர்நாட": 11218,
  "ற்றுக": 11219,
  "லகங்க": 11220,
  "லகின்": 11221,
  "லிக்க": 11222,
  "லைக்க": 11223,
  "லைநகர": 11224,
  "ளிடைய": 11225,
  "ளிப்ப": 11226,
  "ள்ளுவ": 11227,
  "ாடப்ப": 11228,
  "ुल्": 11229,
  "জনী": 11230,
  "ষ্ট": 11231,
  "াসপ": 11232,
  "াহা": 11233,
  "েতন": 11234,
  "েবে": 11235,
  "ண்ம": 11236,
  "மண்": 11237,
  "ாண்": 11238,
  "ாயண": 11239,
  "మాజ": 11240,
  "రక్": 11241,
  "హదం": 11242,
  "ుగ్": 11243,
  " डि": 11244,
  " ইল": 11245,
  " যম": 11246,
  " ఎర": 11247,
  "नाना": 11248,
  "नीकी": 11249,
  "ष्टा": 11250,
  "स्था": 11251,
  "ाष्ट": 11252,
  "ुलित": 11253,
  "ृष्ट": 11254,
  "ोहार": 11255,
  "्थाय": 11256,
  "्रां": 11257,
  "्राज": 11258,
  "গ্রগ": 11259,
  "গ্রণ": 11260,
  "গ্রা": 11261,
  "গ্রো": 11262,
  "নপ্র": 11263,
  "র্বশ": 11264,
  "র্বো": 11265,
  "ানিম": 11266,
  "ীর্ঘ": 11267,
  "ুদ্ধ": 11268,
  "ুপ্র": 11269,
  "ুরুত": 11270,
  "ুলনী": 11271,
  "েতার": 11272,
  "ৌদ্ধ": 11273,
  "ৎপাদ": 11274,
  "யிர்": 11275,
  "దాయా": 11276,
  "నిమా": 11277,
  "రట్ట": 11278,
  " अंत": 11279,
  "अंत": 11280,
  " दूर": 11281,
  "दूर": 11282,
  " नीं": 11283,
  "नीं": 11284,
  " पूर": 11285,
  "पूर": 11286,
  " যান": 11287,
  " শীত": 11288,
  "শীত": 11289,
  " அண்": 11290,
  "அண்": 11291,
  " ఎగు": 11292,
  " ఎస్": 11293,
  " భక్": 11294,
  "భక్": 11295,
  " వాట": 11296,
  "వాట": 11297,
  "द्रित": 11298,
  "स्कृत": 11299,
  "्रष्ट": 11300,
  "ক্তার": 11301,
  "দ্ভাব": 11302,
  "র্থনী": 11303,
  "াসঙ্গ": 11304,
  "েশপ্র": 11305,
  "ன்றுக": 11306,
  "ாடல்க": 11307,
  "ாதத்த": 11308,
  "ானின்": 11309,
  "ாரம்ப": 11310,
  "ாவட்ட": 11311,
  "ாவிரி": 11312,
  "ாவில்": 11313,
  "ிக்கவ": 11314,
  "ிடக்க": 11315,
  "ிடத்த": 11316,
  "ிடமாக": 11317,
  "ிப்பட": 11318,
  "ியத்த": 11319,
  "ியப்ப": 11320,
  "ிறப்ப": 11321,
  "ிறுவன": 11322,
  "ிலப்ப": 11323,
  "ிலும்": 11324,
  "ிளங்க": 11325,
  "ுகங்க": 11326,
  "ுகின்": 11327,
  "ுடும்": 11328,
  "ுத்து": 11329,
  "ுற்று": 11330,
  "ுவள்ள": 11331,
  "ைப்பட": 11332,
  "ையமாக": 11333,
  "ையராஜ": 11334,
  "गरू": 11335,
  "घरे": 11336,
  "णिज": 11337,
  "दमी": 11338,
  "ुपा": 11339,
  "ोबा": 11340,
  "উনু": 11341,
  "জিট": 11342,
  "ঞ্চ": 11343,
  "টবে": 11344,
  "টোপ": 11345,
  "ঠেপ": 11346,
  "ত্ম": 11347,
  "নুক": 11348,
  "নুপ": 11349,
  "নেট": 11350,
  "রোপ": 11351,
  "াংক": 11352,
  "ুজি": 11353,
  "েটে": 11354,
  "டரா": 11355,
  "ணாந": 11356,
  "ரலா": 11357,
  "ేంద": 11358,
  " ধর": 11359,
  "निंग": 11360,
  "नेपा": 11361,
  "षाओं": 11362,
  "िज्य": 11363,
  "স্পর": 11364,
  "্যকর": 11365,
  "্লবে": 11366,
  "ையரா": 11367,
  "்படு": 11368,
  "ణనీయ": 11369,
  "ెద్ద": 11370,
  "ేశ్వ": 11371,
  "్రాం": 11372,
  " नही": 11373,
  "नही": 11374,
  " यूप": 11375,
  "यूप": 11376,
  " रेल": 11377,
  "रेल": 11378,
  " অঞ্": 11379,
  "অঞ্": 11380,
  " মাই": 11381,
  "মাই": 11382,
  " সুদ": 11383,
  "সুদ": 11384,
  " স্ম": 11385,
  "স্ম": 11386,
  " சமூ": 11387,
  "சமூ": 11388,
  " స్ఫ": 11389,
  "స్ఫ": 11390,
  "्रामी": 11391,
  "কৃতিক": 11392,
  "ভাবনা": 11393,
  "குக்க": 11394,
  "டுத்த": 11395,
  "ணுக்க": 11396,
  "ம்பரா": 11397,
  "ராக்க": 11398,
  "ற்றுல": 11399,
  "ளுக்க": 11400,
  "ாற்று": 11401,
  "ிப்பு": 11402,
  "ையின்": 11403,
  "ொழில்": 11404,
  "்கப்ப": 11405,
  "்டங்க": 11406,
  "்டத்த": 11407,
  "்டின்": 11408,
  "்டில்": 11409,
  "்தக்க": 11410,
  "்தின்": 11411,
  "்தில்": 11412,
  "்துள்": 11413,
  "்த்து": 11414,
  "்பக்க": 11415,
  "ంగంలో": 11416,
  "ంగాణా": 11417,
  "ంచంలో": 11418,
  "ంచారు": 11419,
  "ంటాయి": 11420,
  "ందమైన": 11421,
  "ందించ": 11422,
  "ందిస్": 11423,
  "ంస్కృ": 11424,
  "క్రమా": 11425,
  "గురజా": 11426,
  "గ్గుర": 11427,
  "చిత్ర": 11428,
  "టాలియ": 11429,
  "డిస్త": 11430,
  "త్యంత": 11431,
  "త్రాల": 11432,
  "దరాబా": 11433,
  "దేశాల": 11434,
  "ద్యాల": 11435,
  "న్నాయ": 11436,
  "పదంగా": 11437,
  "బరాబా": 11438,
  "రాబాద": 11439,
  "రిత్ర": 11440,
  "రిశ్ర": 11441,
  "हिं": 11442,
  "ीधी": 11443,
  "மாழ": 11444,
  "வுட": 11445,
  "வ்வ": 11446,
  "ஸ்வ": 11447,
  "ீவி": 11448,
  "ுடம": 11449,
  "்வொ": 11450,
  "ంకట": 11451,
  "గాహ": 11452,
  "చిప": 11453,
  "నచి": 11454,
  "వగా": 11455,
  "వనం": 11456,
  "ానం": 11457,
  "ిరు": 11458,
  "ిహ్": 11459,
  "ోసం": 11460,
  "్తీ": 11461,
  " ऊँ": 11462,
  " धर": 11463,
  " బి": 11464,
  "त्तर": 11465,
  "रूरी": 11466,
  "लाशय": 11467,
  "व्यव": 11468,
  "ूमिक": 11469,
  "বিতা": 11470,
  "সস্থ": 11471,
  "াতির": 11472,
  "ல்வி": 11473,
  "ாழ்க": 11474,
  "ுச்ச": 11475,
  "ுட்ப": 11476,
  "்விய": 11477,
  "ంకార": 11478,
  "ంతర్": 11479,
  "క్రా": 11480,
  "దిరీ": 11481,
  "శించ": 11482,
  "ిరస్": 11483,
  "ొండక": 11484,
  "ొండప": 11485,
  "్రాప": 11486,
  " अनु": 11487,
  "अनु": 11488,
  " आवश": 11489,
  "आवश": 11490,
  " इसक": 11491,
  "इसक": 11492,
  " ऑटो": 11493,
  "ऑटो": 11494,
  " गुट": 11495,
  "गुट": 11496,
  " गुफ": 11497,
  "गुफ": 11498,
  " धर्": 11499,
  " বৃহ": 11500,
  "বৃহ": 11501,
  " ఉగా": 11502,
  "ఉగా": 11503,
  " మిర": 11504,
  "మిర": 11505,
  " లంచ": 11506,
  "पालिक": 11507,
  "मिकता": 11508,
  "लादेश": 11509,
  "संधान": 11510,
  "ব্যাহ": 11511,
  "மானவை": 11512,
  "ர்ச்ச": 11513,
  "ுவாய்": 11514,
  "లిచిన": 11515,
  "లుస్త": 11516,
  "వత్సర": 11517,
  "శ్రమల": 11518,
  "శ్రామ": 11519,
  "ష్టది": 11520,
  "సిస్త": 11521,
  "సుబ్ర": 11522,
  "స్కరణ": 11523,
  "స్తార": 11524,
  "స్త్ర": 11525,
  "హిస్త": 11526,
  "ానంలో": 11527,
  "ాయంలో": 11528,
  "ాయికి": 11529,
  "ారికి": 11530,
  "ార్జు": 11531,
  "ార్పు": 11532,
  "ాల్లో": 11533,
  "ించిన": 11534,
  "ికంగా": 11535,
  "ిద్ధి": 11536,
  "ినార్": 11537,
  "ిరస్థ": 11538,
  "ిర్యా": 11539,
  "ుఖమైన": 11540,
  "ృద్ధి": 11541,
  "ృష్ణా": 11542,
  "ేడారం": 11543,
  "ేశంలో": 11544,
  "ేశాయి": 11545,
  "ేశ్వర": 11546,
  "गोल": 11547,
  "देन": 11548,
  "वनश": 11549,
  "िटल": 11550,
  "िशा": 11551,
  "ैज्": 11552,
  "গাঁ": 11553,
  "দীম": 11554,
  "দীশ": 11555,
  "ূজা": 11556,
  "ப்ர": 11557,
  "ீகர": 11558,
  " ஆழ": 11559,
  "ंदोल": 11560,
  "मोबा": 11561,
  "ार्क": 11562,
  "िदान": 11563,
  "िनिय": 11564,
  "िमत्": 11565,
  "िसिन": 11566,
  "তিপূ": 11567,
  "দ্মা": 11568,
  "র্জন": 11569,
  "হনবা": 11570,
  "েত্র": 11571,
  "্বপূ": 11572,
  "ளர்த": 11573,
  "గ్గే": 11574,
  " मिश": 11575,
  "मिश": 11576,
  " लेन": 11577,
  "लेन": 11578,
  " ইসল": 11579,
  "ইসল": 11580,
  " রোধ": 11581,
  "রোধ": 11582,
  " மாந": 11583,
  "மாந": 11584,
  " ఏర్": 11585,
  " పెస": 11586,
  "పెస": 11587,
  "ंख्या": 11588,
  "ंडिया": 11589,
  "कॉमर्": 11590,
  "ाध्यम": 11591,
  "ानकार": 11592,
  "ीडिया": 11593,
  "চেয়ে": 11594,
  "রুদ্ধ": 11595,
  "র্তনে": 11596,
  "ালবাগ": 11597,
  "டைப்ப": 11598,
  "థాలలో": 11599,
  "ొలువు": 11600,
  "్యంలో": 11601,
  "్యక్ర": 11602,
  "్యక్ష": 11603,
  "్యమైన": 11604,
  "్యాలె": 11605,
  "్యాసం": 11606,
  "్రంగా": 11607,
  "్రదేశ": 11608,
  "్రప్ర": 11609,
  "్రస్థ": 11610,
  "్రావి": 11611,
  " अंजा": 11612,
  "अंजा": 11613,
  " अग्र": 11614,
  "अग्र": 11615,
  " अधिन": 11616,
  "अधिन": 11617,
  " आधुन": 11618,
  "आधुन": 11619,
  " आर्थ": 11620,
  "आर्थ": 11621,
  " औद्य": 11622,
  "औद्य": 11623,
  " क्षम": 11624,
  "क्षम": 11625,
  " क्षे": 11626,
  "क्षे": 11627,
  " जवाब": 11628,
  "जवाब": 11629,
  " जागर": 11630,
  "जागर": 11631,
  " जोड़": 11632,
  "जोड़": 11633,
  " टेली": 11634,
  " डिजि": 11635,
  "डिजि": 11636,
  " तकनी": 11637,
  "तकनी": 11638,
  " ताजम": 11639,
  "ताजम": 11640,
  " तैना": 11641,
  "तैना": 11642,
  " दिला": 11643,
  "दिला": 11644,
  " दिल्": 11645,
  "दिल्": 11646,
  " नेटव": 11647,
  "नेटव": 11648,
  " नेतृ": 11649,
  "नेतृ": 11650,
  " नेहर": 11651,
  "नेहर": 11652,
  " न्या": 11653,
  "न्या": 11654,
  " परंप": 11655,
  "परंप": 11656,
  " पर्य": 11657,
  "पर्य": 11658,
  " प्रग": 11659,
  "प्रग": 11660,
  " प्रत": 11661,
  "प्रत": 11662,
  " प्रद": 11663,
  "प्रद": 11664,
  " प्रध": 11665,
  "प्रध": 11666,
  " प्रम": 11667,
  "प्रम": 11668,
  " प्रय": 11669,
  "प्रय": 11670,
  " प्रो": 11671,
  "प्रो": 11672,
  " बनाय": 11673,
  "बनाय": 11674,
  " ब्लॉ": 11675,
  "ब्लॉ": 11676,
  " भव्य": 11677,
  "भव्य": 11678,
  " मनरे": 11679,
  "मनरे": 11680,
  " महार": 11681,
  "महार": 11682,
  " महिल": 11683,
  "महिल": 11684,
  "மைந": 11685,
  "ందు": 11686,
  "చ్చ": 11687,
  "ణనీ": 11688,
  "లవా": 11689,
  "వనా": 11690,
  "ానా": 11691,
  "ుదీ": 11692,
  "ొచ్": 11693,
  " యా": 11694,
  "तुलन": 11695,
  "रकार": 11696,
  "हनीय": 11697,
  "ैज्ञ": 11698,
  "ौरान": 11699,
  "ওয়া": 11700,
  "ণীয়": 11701,
  "দ্রো": 11702,
  "বপুর": 11703,
  "র্মর": 11704,
  "র্মস": 11705,
  "ুপুর": 11706,
  "্রেড": 11707,
  "ணர்த": 11708,
  "லூர்": 11709,
  "ிரிவ": 11710,
  "ంగీత": 11711,
  "ంలలో": 11712,
  "ంస్క": 11713,
  "గ్గు": 11714,
  "తాని": 11715,
  "దిగ్": 11716,
  "దీర్": 11717,
  "నాది": 11718,
  "నాన్": 11719,
  "నీయు": 11720,
  "యాస్": 11721,
  "ల్లి": 11722,
  "ల్లు": 11723,
  "వబడు": 11724,
  "వాత్": 11725,
  "ేద్య": 11726,
  "ొట్ట": 11727,
  " कृष": 11728,
  "कृष": 11729,
  " पहच": 11730,
  "पहच": 11731,
  " কলক": 11732,
  "কলক": 11733,
  " কলে": 11734,
  "কলে": 11735,
  " வேள": 11736,
  "வேள": 11737,
  "निवार": 11738,
  "र्धार": 11739,
  "वारों": 11740,
  "ाषाएँ": 11741,
  "ाषाओं": 11742,
  "ोगदान": 11743,
  "ড়পুর": 11744,
  "াকালে": 11745,
  "மைந்த": 11746,
  "ம்மொழ": 11747,
  "ர்திர": 11748,
  "ாவூர்": 11749,
  "ంగీతా": 11750,
  "ర్పడి": 11751,
  "ర్పాట": 11752,
  "విద్య": 11753,
  "వులలో": 11754,
  " नागर": 11755,
  "नागर": 11756,
  " बनान": 11757,
  "बनान": 11758,
  " बेघर": 11759,
  "बेघर": 11760,
  " भविष": 11761,
  "भविष": 11762,
  " मिलज": 11763,
  "मिलज": 11764,
  " मुंब": 11765,
  "मुंब": 11766,
  " रक्ष": 11767,
  " राजभ": 11768,
  "राजभ": 11769,
  " लक्ष": 11770,
  "लक्ष": 11771,
  " लेनद": 11772,
  "लेनद": 11773,
  " लोकप": 11774,
  "लोकप": 11775,
  " वस्त": 11776,
  "वस्त": 11777,
  " विज्": 11778,
  "विज्": 11779,
  " विवि": 11780,
  "विवि": 11781,
  " व्यं": 11782,
  "व्यं": 11783,
  " शक्त": 11784,
  " संयु": 11785,
  "संयु": 11786,
  " संवि": 11787,
  "संवि": 11788,
  " समान": 11789,
  "समान": 11790,
  " सम्म": 11791,
  "सम्म": 11792,
  " सामा": 11793,
  "सामा": 11794,
  " सिने": 11795,
  "सिने": 11796,
  " सुंद": 11797,
  "सुंद": 11798,
  " स्वच": 11799,
  "स्वच": 11800,
  " स्वत": 11801,
  "स्वत": 11802,
  " स्वय": 11803,
  "स्वय": 11804,
  " स्वा": 11805,
  "स्वा": 11806,
  " हिंद": 11807,
  "हिंद": 11808,
  " অক্স": 11809,
  "অক্স": 11810,
  " অধিক": 11811,
  "অধিক": 11812,
  " অনুপ": 11813,
  "অনুপ": 11814,
  " অন্ত": 11815,
  "অন্ত": 11816,
  " অন্য": 11817,
  "অন্য": 11818,
  "ंकि": 11819,
  "कां": 11820,
  "न्न": 11821,
  "न्ह": 11822,
  "लंक": 11823,
  "ुंब": 11824,
  "ुगल": 11825,
  "ोशल": 11826,
  "ौशल": 11827,
  " 20": 11828,
  "ढ़ाओ": 11829,
  "दाओं": 11830,
  "देही": 11831,
  "र्शि": 11832,
  "लयान": 11833,
  "ांति": 11834,
  "ोंगे": 11835,
  "னையை": 11836,
  "ைகால": 11837,
  "ఖపట్": 11838,
  "ుణ్య": 11839,
  "ేసిన": 11840,
  "్యవస": 11841,
  " उन्": 11842,
  "उन्": 11843,
  " लंब": 11844,
  "लंब": 11845,
  " পোশ": 11846,
  "পোশ": 11847,
  " அழை": 11848,
  "அழை": 11849,
  " கடற": 11850,
  "கடற": 11851,
  " கடல": 11852,
  "கடல": 11853,
  " పరం": 11854,
  "పరం": 11855,
  "हायता": 11856,
  "ন্ধনই": 11857,
  "বন্ধু": 11858,
  "বায়ন": 11859,
  "ষ্ঠান": 11860,
  "্ঞানে": 11861,
  "ాట్లా": 11862,
  "ానికి": 11863,
  " आयुष": 11864,
  "आयुष": 11865,
  " অনুক": 11866,
  "অনুক": 11867,
  " অপরি": 11868,
  "অপরি": 11869,
  " অমূল": 11870,
  "অমূল": 11871,
  " আধুন": 11872,
  "আধুন": 11873,
  " আন্ত": 11874,
  "আন্ত": 11875,
  " আর্থ": 11876,
  "আর্থ": 11877,
  " আশাব": 11878,
  "আশাব": 11879,
  " ইউনু": 11880,
  "ইউনু": 11881,
  " ইউনে": 11882,
  "ইউনে": 11883,
  " ইস্ট": 11884,
  "ইস্ট": 11885,
  " উল্ল": 11886,
  "উল্ল": 11887,
  " কবিত": 11888,
  "কবিত": 11889,
  " গঙ্গ": 11890,
  "গঙ্গ": 11891,
  " ছিলে": 11892,
  " জীবব": 11893,
  "জীবব": 11894,
  " দক্ষ": 11895,
  " নিশ্": 11896,
  "নিশ্": 11897,
  " পদ্ম": 11898,
  "পদ্ম": 11899,
  " পরিচ": 11900,
  "পরিচ": 11901,
  " পরিণ": 11902,
  "পরিণ": 11903,
  " প্রক": 11904,
  "প্রক": 11905,
  " প্রচ": 11906,
  "প্রচ": 11907,
  " প্রথ": 11908,
  "প্রথ": 11909,
  " প্রধ": 11910,
  "প্রধ": 11911,
  " প্রব": 11912,
  "প্রব": 11913,
  " প্রয": 11914,
  " প্রশ": 11915,
  "প্রশ": 11916,
  " প্রস": 11917,
  "প্রস": 11918,
  " প্রে": 11919,
  " বঙ্গ": 11920,
  " বন্ধ": 11921,
  " বস্ত": 11922,
  "বস্ত": 11923,
  " বাড়": 11924,
  "বাড়": 11925,
  " বান্": 11926,
  " বাস্": 11927,
  "বাস্": 11928,
  " বিজ্": 11929,
  "বিজ্": 11930,
  " বিশে": 11931,
  "বিশে": 11932,
  " মঞ্জ": 11933,
  "মঞ্জ": 11934,
  " মধ্য": 11935,
  "মধ্য": 11936,
  " মন্দ": 11937,
  "মন্দ": 11938,
  " মানু": 11939,
  "মানু": 11940,
  " মুজি": 11941,
  "মুজি": 11942,
  " মোবা": 11943,
  "মোবা": 11944,
  " শাড়": 11945,
  "শাড়": 11946,
  " শান্": 11947,
  "শান্": 11948,
  " সংস্": 11949,
  "সংস্": 11950,
  " সমাদ": 11951,
  "সমাদ": 11952,
  " সাফল": 11953,
  "সাফল": 11954,
  " সৌরশ": 11955,
  "সৌরশ": 11956,
  " স্থি": 11957,
  "স্থি": 11958,
  " হস্ত": 11959,
  "হস্ত": 11960,
  " அங்க": 11961,
  " அந்த": 11962,
  "அந்த": 11963,
  " அம்ம": 11964,
  "அம்ம": 11965,
  " அறுவ": 11966,
  "அறுவ": 11967,
  " இசைய": 11968,
  "இசைய": 11969,
  " இந்த": 11970,
  "இந்த": 11971,
  " உலகள": 11972,
  "உலகள": 11973,
  "बेड": 11974,
  "मेड": 11975,
  "वरण": 11976,
  "शेष": 11977,
  "ংবদ": 11978,
  "উনে": 11979,
  "ডিট": 11980,
  "ৌরব": 11981,
  "ৌরশ": 11982,
  "லிவ": 11983,
  "லேச": 11984,
  "ழிப": 11985,
  "ிபு": 11986,
  "ுமண": 11987,
  "ைணவ": 11988,
  "ఐఐట": 11989,
  "డేవ": 11990,
  "డ్డ": 11991,
  "దావ": 11992,
  "పట్": 11993,
  "శాస": 11994,
  "శ్వ": 11995,
  "ష్ణ": 11996,
  "ాడే": 11997,
  "ూతన": 11998,
  "ేజం": 11999,
  "్కన": 12000,
  "్లా": 12001,
  " 15": 12002,
  " ऑन": 12003,
  " ओड": 12004,
  " ডি": 12005,
  " ஏற": 12006,
  " ఐట": 12007,
  " దో": 12008,
  "कर्ष": 12009,
  "वनाग": 12010,
  "्कूल": 12011,
  "ইক্র": 12012,
  "ঙ্কি": 12013,
  "থিবী": 12014,
  "ফল্য": 12015,
  "াংকি": 12016,
  "্রোর": 12017,
  "யுனெ": 12018,
  "லோடு": 12019,
  "ீனாட": 12020,
  "ேசிய": 12021,
  "ேயில": 12022,
  "టాలీ": 12023,
  "డుతు": 12024,
  "రుపు": 12025,
  "వుడ్": 12026,
  "ష్ణా": 12027,
  "ీవనం": 12028,
  " अजू": 12029,
  "अजू": 12030,
  " शून": 12031,
  "शून": 12032,
  " এনে": 12033,
  "এনে": 12034,
  " চট্": 12035,
  "চট্": 12036,
  " দেও": 12037,
  "দেও": 12038,
  " নজর": 12039,
  "নজর": 12040,
  " নেও": 12041,
  "নেও": 12042,
  " নোব": 12043,
  "নোব": 12044,
  " உணவ": 12045,
  "உணவ": 12046,
  "भावना": 12047,
  "रीदार": 12048,
  "वेदिक": 12049,
  "हित्य": 12050,
  "होंने": 12051,
  "ारदर्": 12052,
  "லியல்": 12053,
  "ாலத்த": 12054,
  "మిస్త": 12055,
  "సరట్ట": 12056,
  " बंगा": 12057,
  "बंगा": 12058,
  " लड़ा": 12059,
  "लड़ा": 12060,
  " உள்ள": 12061,
  "உள்ள": 12062,
  " என்ற": 12063,
  " கஞ்ச": 12064,
  "கஞ்ச": 12065,
  " கடலோ": 12066,
  "கடலோ": 12067,
  " கட்ட": 12068,
  "கட்ட": 12069,
  " கதைக": 12070,
  "கதைக": 12071,
  " கன்ன": 12072,
  "கன்ன": 12073,
  " குறள": 12074,
  "குறள": 12075,
  " கொடை": 12076,
  "கொடை": 12077,
  " சஞ்ச": 12078,
  "சஞ்ச": 12079,
  " செம்": 12080,
  "செம்": 12081,
  " தஞ்ச": 12082,
  "தஞ்ச": 12083,
  " திரா": 12084,
  "திரா": 12085,
  " தொல்": 12086,
  "தொல்": 12087,
  " நடரா": 12088,
  "நடரா": 12089,
  " பட்ட": 12090,
  "பட்ட": 12091,
  " பண்ட": 12092,
  "பண்ட": 12093,
  " பரவல": 12094,
  "பரவல": 12095,
  " பல்க": 12096,
  "பல்க": 12097,
  " பிரச": 12098,
  "பிரச": 12099,
  " பிரத": 12100,
  "பிரத": 12101,
  " பிரப": 12102,
  "பிரப": 12103,
  " பொரு": 12104,
  "பொரு": 12105,
[...]
