{
  "<pad>": 0,
  "<s>": 1,
  "</s>": 2,
  "<mask>": 3,
  "<unk>": 4,
  "<0x00>": 5,
  "<0x01>": 6,
  "<0x02>": 7,
  "<0x03>": 8,
  "<0x04>": 9,
  "<0x05>": 10,
  "<0x06>": 11,
  "<0x07>": 12,
  "<0x08>": 13,
  "<0x09>": 14,
  "<0x0A>": 15,
  "<0x0B>": 16,
  "<0x0C>": 17,
  "<0x0D>": 18,
  "<0x0E>": 19,
  "<0x0F>": 20,
  "<0x10>": 21,
  "<0x11>": 22,
  "<0x12>": 23,
  "<0x13>": 24,
  "<0x14>": 25,
  "<0x15>": 26,
  "<0x16>": 27,
  "<0x17>": 28,
  "<0x18>": 29,
  "<0x19>": 30,
  "<0x1A>": 31,
  "<0x1B>": 32,
  "<0x1C>": 33,
  "<0x1D>": 34,
  "<0x1E>": 35,
  "<0x1F>": 36,
  "<0x20>": 37,
  "<0x21>": 38,
  "<0x22>": 39,
  "<0x23>": 40,
  "<0x24>": 41,
  "<0x25>": 42,
  "<0x26>": 43,
  "<0x27>": 44,
  "<0x28>": 45,
  "<0x29>": 46,
  "<0x2A>": 47,
  "<0x2B>": 48,
  "<0x2C>": 49,
  "<0x2D>": 50,
  "<0x2E>": 51,
  "<0x2F>": 52,
  "<0x30>": 53,
  "<0x31>": 54,
  "<0x32>": 55,
  "<0x33>": 56,
  "<0x34>": 57,
  "<0x35>": 58,
  "<0x36>": 59,
  "<0x37>": 60,
  "<0x38>": 61,
  "<0x39>": 62,
  "<0x3A>": 63,
  "<0x3B>": 64,
  "<0x3C>": 65,
  "<0x3D>": 66,
  "<0x3E>": 67,
  "<0x3F>": 68,
  "<0x40>": 69,
  "<0x41>": 70,
  "<0x42>": 71,
  "<0x43>": 72,
  "<0x44>": 73,
  "<0x45>": 74,
  "<0x46>": 75,
  "<0x47>": 76,
  "<0x48>": 77,
  "<0x49>": 78,
  "<0x4A>": 79,
  "<0x4B>": 80,
  "<0x4C>": 81,
  "<0x4D>": 82,
  "<0x4E>": 83,
  "<0x4F>": 84,
  "<0x50>": 85,
  "<0x51>": 86,
  "<0x52>": 87,
  "<0x53>": 88,
  "<0x54>": 89,
  "<0x55>": 90,
  "<0x56>": 91,
  "<0x57>": 92,
  "<0x58>": 93,
  "<0x59>": 94,
  "<0x5A>": 95,
  "<0x5B>": 96,
  "<0x5C>": 97,
  "<0x5D>": 98,
  "<0x5E>": 99,
  "<0x5F>": 100,
  "<0x60>": 101,
  "<0x61>": 102,
  "<0x62>": 103,
  "<0x63>": 104,
  "<0x64>": 105,
  "<0x65>": 106,
  "<0x66>": 107,
  "<0x67>": 108,
  "<0x68>": 109,
  "<0x69>": 110,
  "<0x6A>": 111,
  "<0x6B>": 112,
  "<0x6C>": 113,
  "<0x6D>": 114,
  "<0x6E>": 115,
  "<0x6F>": 116,
  "<0x70>": 117,
  "<0x71>": 118,
  "<0x72>": 119,
  "<0x73>": 120,
  "<0x74>": 121,
  "<0x75>": 122,
  "<0x76>": 123,
  "<0x77>": 124,
  "<0x78>": 125,
  "<0x79>": 126,
  "<0x7A>": 127,
  "<0x7B>": 128,
  "<0x7C>": 129,
  "<0x7D>": 130,
  "<0x7E>": 131,
  "<0x7F>": 132,
  "<0x80>": 133,
  "<0x81>": 134,
  "<0x82>": 135,
  "<0x83>": 136,
  "<0x84>": 137,
  "<0x85>": 138,
  "<0x86>": 139,
  "<0x87>": 140,
  "<0x88>": 141,
  "<0x89>": 142,
  "<0x8A>": 143,
  "<0x8B>": 144,
  "<0x8C>": 145,
  "<0x8D>": 146,
  "<0x8E>": 147,
  "<0x8F>": 148,
  "<0x90>": 149,
  "<0x91>": 150,
  "<0x92>": 151,
  "<0x93>": 152,
  "<0x94>": 153,
  "<0x95>": 154,
  "<0x96>": 155,
  "<0x97>": 156,
  "<0x98>": 157,
  "<0x99>": 158,
  "<0x9A>": 159,
  "<0x9B>": 160,
  "<0x9C>": 161,
  "<0x9D>": 162,
  "<0x9E>": 163,
  "<0x9F>": 164,
  "<0xA0>": 165,
  "<0xA1>": 166,
  "<0xA2>": 167,
  "<0xA3>": 168,
  "<0xA4>": 169,
  "<0xA5>": 170,
  "<0xA6>": 171,
  "<0xA7>": 172,
  "<0xA8>": 173,
  "<0xA9>": 174,
  "<0xAA>": 175,
  "<0xAB>": 176,
  "<0xAC>": 177,
  "<0xAD>": 178,
  "<0xAE>": 179,
  "<0xAF>": 180,
  "<0xB0>": 181,
  "<0xB1>": 182,
  "<0xB2>": 183,
  "<0xB3>": 184,
  "<0xB4>": 185,
  "<0xB5>": 186,
  "<0xB6>": 187,
  "<0xB7>": 188,
  "<0xB8>": 189,
  "<0xB9>": 190,
  "<0xBA>": 191,
  "<0xBB>": 192,
  "<0xBC>": 193,
  "<0xBD>": 194,
  "<0xBE>": 195,
  "<0xBF>": 196,
  "<0xC0>": 197,
  "<0xC1>": 198,
  "<0xC2>": 199,
  "<0xC3>": 200,
  "<0xC4>": 201,
  "<0xC5>": 202,
  "<0xC6>": 203,
  "<0xC7>": 204,
  "<0xC8>": 205,
  "<0xC9>": 206,
  "<0xCA>": 207,
  "<0xCB>": 208,
  "<0xCC>": 209,
  "<0xCD>": 210,
  "<0xCE>": 211,
  "<0xCF>": 212,
  "<0xD0>": 213,
  "<0xD1>": 214,
  "<0xD2>": 215,
  "<0xD3>": 216,
  "<0xD4>": 217,
  "<0xD5>": 218,
  "<0xD6>": 219,
  "<0xD7>": 220,
  "<0xD8>": 221,
  "<0xD9>": 222,
  "<0xDA>": 223,
  "<0xDB>": 224,
  "<0xDC>": 225,
  "<0xDD>": 226,
  "<0xDE>": 227,
  "<0xDF>": 228,
  "<0xE0>": 229,
  "<0xE1>": 230,
  "<0xE2>": 231,
  "<0xE3>": 232,
  "<0xE4>": 233,
  "<0xE5>": 234,
  "<0xE6>": 235,
  "<0xE7>": 236,
  "<0xE8>": 237,
  "<0xE9>": 238,
  "<0xEA>": 239,
  "<0xEB>": 240,
  "<0xEC>": 241,
  "<0xED>": 242,
  "<0xEE>": 243,
  "<0xEF>": 244,
  "<0xF0>": 245,
  "<0xF1>": 246,
  "<0xF2>": 247,
  "<0xF3>": 248,
  "<0xF4>": 249,
  "<0xF5>": 250,
  "<0xF6>": 251,
  "<0xF7>": 252,
  "<0xF8>": 253,
  "<0xF9>": 254,
  "<0xFA>": 255,
  "<0xFB>": 256,
  "<0xFC>": 257,
  "<0xFD>": 258,
  "<0xFE>": 259,
  "<0xFF>": 260,
  "क": 261,
  "்க": 262,
  "்த": 263,
  "स": 264,
  "য়": 265,
  "ம்": 266,
  "ह": 267,
  "म": 268,
  "ার": 269,
  "ல்": 270,
  "प": 271,
  "ప": 272,
  "ক": 273,
  "ార": 274,
  "ன்": 275,
  "ப": 276,
  "ని": 277,
  "স": 278,
  "్ర": 279,
  "ব": 280,
  "క": 281,
  "న్": 282,
  "க": 283,
  "க்க": 284,
  "்ட": 285,
  "ের": 286,
  "প": 287,
  "వ": 288,
  "ம": 289,
  "்ப": 290,
  "స్": 291,
  "வ": 292,
  "த்த": 293,
  "ार": 294,
  "ें": 295,
  "্র": 296,
  "ర్": 297,
  "అ": 298,
  "ர்": 299,
  "ने": 300,
  "ంద": 301,
  "మ": 302,
  "த": 303,
  "ब": 304,
  "्र": 305,
  "அ": 306,
  "ும்": 307,
  "্য": 308,
  "ிய": 309,
  "లు": 310,
  "ள்": 311,
  "ச": 312,
  "స": 313,
  "లో": 314,
  "ান": 315,
  "है": 316,
  "या": 317,
  "చ": 318,
  "ज": 319,
  "இ": 320,
  "এ": 321,
  "ப்ப": 322,
  "আ": 323,
  "के": 324,
  "ম": 325,
  "ரு": 326,
  "ந்த": 327,
  "ட்ட": 328,
  "द": 329,
  "து": 330,
  "ில்": 331,
  "में": 332,
  "হ": 333,
  "र": 334,
  "ந": 335,
  "కు": 336,
  "ন": 337,
  "్య": 338,
  "व": 339,
  "ल": 340,
  "త": 341,
  "अ": 342,
  "ों": 343,
  "দ": 344,
  "న్న": 345,
  "की": 346,
  "ల్": 347,
  "্ত": 348,
  "ంచ": 349,
  "గా": 350,
  "কর": 351,
  "ట్": 352,
  "ত": 353,
  "न": 354,
  "క్": 355,
  "েন": 356,
  "को": 357,
  "ారు": 358,
  "য়ে": 359,
  "ను": 360,
  "ర": 361,
  "எ": 362,
  "ग": 363,
  "ைய": 364,
  "ంది": 365,
  "অ": 366,
  "र्": 367,
  "ान": 368,
  "জ": 369,
  "ங்க": 370,
  "ప్ర": 371,
  "से": 372,
  "आ": 373,
  "తు": 374,
  "कि": 375,
  "ఆ": 376,
  "ாக": 377,
  "రి": 378,
  "কে": 379,
  "ता": 380,
  "াল": 381,
  "इ": 382,
  "का": 383,
  "कर": 384,
  "িন": 385,
  "भ": 386,
  "त": 387,
  "उ": 388,
  "ায়": 389,
  "డు": 390,
  "ின்": 391,
  "டு": 392,
  "ிற": 393,
  "প্র": 394,
  "టి": 395,
  "డి": 396,
  "িক": 397,
  "ఉ": 398,
  "তে": 399,
  "చే": 400,
  "உ": 401,
  "ాల": 402,
  "র": 403,
  "শ": 404,
  "ना": 405,
  "ఇ": 406,
  "..": 407,
  "தி": 408,
  "న": 409,
  "াম": 410,
  "पर": 411,
  "க்கு": 412,
  "கள": 413,
  "ற்": 414,
  "्य": 415,
  "కి": 416,
  "ద": 417,
  "র্": 418,
  "బ": 419,
  "টি": 420,
  "ছে": 421,
  "ள்ள": 422,
  "ाल": 423,
  "िक": 424,
  "ற்ற": 425,
  "்ச": 426,
  "ண்ட": 427,
  "য": 428,
  "िल": 429,
  "యి": 430,
  "श": 431,
  "వి": 432,
  "త్": 433,
  "বে": 434,
  "ஆ": 435,
  "বি": 436,
  "లి": 437,
  "ரி": 438,
  "গ": 439,
  "লে": 440,
  "ప్": 441,
  "च": 442,
  "स्": 443,
  "औ": 444,
  "ড়": 445,
  "प्र": 446,
  "த்து": 447,
  "और": 448,
  "రు": 449,
  "తో": 450,
  "ంట": 451,
  "జ": 452,
  "লা": 453,
  "ఎ": 454,
  "ன்ற": 455,
  "ए": 456,
  "டி": 457,
  "గ": 458,
  "চ": 459,
  "ான": 460,
  "क्": 461,
  "மு": 462,
  "ார": 463,
  "ில": 464,
  "इस": 465,
  "ही": 466,
  "ిన": 467,
  "తి": 468,
  "্ব": 469,
  "নি": 470,
  "செ": 471,
  "हा": 472,
  "ார்": 473,
  "ிர": 474,
  "াস": 475,
  "हो": 476,
  "ও": 477,
  "্ট": 478,
  "ভ": 479,
  "మా": 480,
  "ార్": 481,
  "ించ": 482,
  "িত": 483,
  "లా": 484,
  "উ": 485,
  "थ": 486,
  "ంగా": 487,
  "ाम": 488,
  "াক": 489,
  "ండ": 490,
  "ित": 491,
  "हैं": 492,
  "సు": 493,
  "পর": 494,
  "టు": 495,
  "िया": 496,
  "্ষ": 497,
  "'": 498,
  "லை": 499,
  "ఈ": 500,
  "তি": 501,
  "जा": 502,
  "य": 503,
  "வி": 504,
  "ప్ప": 505,
  "ంత": 506,
  "वा": 507,
  "িল": 508,
  "ুর": 509,
  "(": 510,
  "াই": 511,
  "দের": 512,
  "ட்டு": 513,
  "िए": 514,
  "க்": 515,
  "াজ": 516,
  "िय": 517,
  "থ": 518,
  "এক": 519,
  "করে": 520,
  "ஒ": 521,
  "స్తు": 522,
  "ख": 523,
  "ద్": 524,
  "ர்க": 525,
  "యా": 526,
  "ंग": 527,
  "ந்து": 528,
  "చ్": 529,
  "फ": 530,
  "भी": 531,
  "ంగ": 532,
  "ப்": 533,
  "ুল": 534,
  "াত": 535,
  "बा": 536,
  "கு": 537,
  "ला": 538,
  "ते": 539,
  "్యా": 540,
  "வு": 541,
  "েশ": 542,
  "రా": 543,
  "वि": 544,
  "ష్": 545,
  "సి": 546,
  "त्र": 547,
  "వా": 548,
  "ির": 549,
  "ால்": 550,
  "বা": 551,
  "నే": 552,
  "ন্": 553,
  "ेश": 554,
  "కా": 555,
  "ది": 556,
  "డా": 557,
  "నా": 558,
  "री": 559,
  "లే": 560,
  "ிரு": 561,
  "టీ": 562,
  "্যা": 563,
  "డ్": 564,
  "িয়ে": 565,
  "ले": 566,
  "সম": 567,
  "చ్చ": 568,
  "न्": 569,
  "హ": 570,
  "న్ని": 571,
  "ফ": 572,
  "న్నారు": 573,
  "இரு": 574,
  "हीं": 575,
  "্থ": 576,
  "செய": 577,
  "తె": 578,
  "భ": 579,
  "ই": 580,
  "য়া": 581,
  "ச்ச": 582,
  "रा": 583,
  "దు": 584,
  "ती": 585,
  "கொ": 586,
  "போ": 587,
  "ছ": 588,
  "सा": 589,
  "খ": 590,
  "கள்": 591,
  "िस": 592,
  "लिए": 593,
  "ல்ல": 594,
  "ின": 595,
  "ాయి": 596,
  "శ": 597,
  "ट": 598,
  "று": 599,
  "ारी": 600,
  "த்": 601,
  "மா": 602,
  "एक": 603,
  "सं": 604,
  "గు": 605,
  "রা": 606,
  "ందు": 607,
  "స్త": 608,
  "নে": 609,
  "िन": 610,
  "गा": 611,
  "ुर": 612,
  "सी": 613,
  "তা": 614,
  "యం": 615,
  "கா": 616,
  "১": 617,
  "அவ": 618,
  "ిక": 619,
  "বার": 620,
  "த்தில்": 621,
  "नी": 622,
  "হয়ে": 623,
  "త్ర": 624,
  "্প": 625,
  "ति": 626,
  "రో": 627,
  "ன்ன": 628,
  "ন্ত": 629,
  "्या": 630,
  "ப்பு": 631,
  "క్ష": 632,
  "மை": 633,
  "আম": 634,
  "नहीं": 635,
  "ঙ্": 636,
  "பெ": 637,
  "చె": 638,
  "িস": 639,
  "మ్": 640,
  "றி": 641,
  "ोग": 642,
  "हु": 643,
  "లను": 644,
  "పు": 645,
  "ఏ": 646,
  "২": 647,
  "ছেন": 648,
  "నికి": 649,
  "দে": 650,
  "వు": 651,
  "ంచి": 652,
  "ரா": 653,
  "ళ్": 654,
  "களை": 655,
  "না": 656,
  "ां": 657,
  "ক্ষ": 658,
  "वार": 659,
  "ஸ்": 660,
  "இந்த": 661,
  "ేశ": 662,
  "ड": 663,
  "किया": 664,
  "ையில்": 665,
  "தொ": 666,
  "सम": 667,
  "য়ার": 668,
  "अप": 669,
  "েল": 670,
  "क्ष": 671,
  "ली": 672,
  "ன்று": 673,
  "জন": 674,
  "ஒரு": 675,
  "வே": 676,
  "ఫ": 677,
  "కో": 678,
  "दे": 679,
  "లకు": 680,
  "मु": 681,
  "డం": 682,
  "ான்": 683,
  "रह": 684,
  "కొ": 685,
  "ंद": 686,
  "ாய": 687,
  "க்கும்": 688,
  "ఒ": 689,
  "டை": 690,
  "থে": 691,
  "ారం": 692,
  "ారి": 693,
  "ট": 694,
  "ुल": 695,
  "్రా": 696,
  "ங்கள்": 697,
  "ுவ": 698,
  "সে": 699,
  "ाय": 700,
  "సం": 701,
  "गया": 702,
  "नि": 703,
  "పా": 704,
  "ம்ப": 705,
  "কার": 706,
  "ுக்கு": 707,
  "ாள": 708,
  "ভা": 709,
  "ল": 710,
  "ঙ্গ": 711,
  "त्": 712,
  "పె": 713,
  "पह": 714,
  "োগ": 715,
  "দ্": 716,
  "కూ": 717,
  "িনি": 718,
  "ண்டு": 719,
  "হয়": 720,
  "ற்க": 721,
  "క్క": 722,
  "ము": 723,
  "పై": 724,
  "তার": 725,
  "కే": 726,
  "এই": 727,
  "कार": 728,
  "ண்": 729,
  "மி": 730,
  "्ट": 731,
  "কো": 732,
  "ர்கள்": 733,
  "వె": 734,
  "మి": 735,
  "ாவ": 736,
  "সা": 737,
  "னர்": 738,
  "ক্ত": 739,
  "\"": 740,
  "था": 741,
  "চ্": 742,
  "-": 743,
  "ড": 744,
  "िला": 745,
  "வெ": 746,
  "లీ": 747,
  "పో": 748,
  "্ম": 749,
  "னை": 750,
  "ப்பட்ட": 751,
  "ঘ": 752,
  "घ": 753,
  "জান": 754,
  "এব": 755,
  "कहा": 756,
  "ধ্য": 757,
  "ైన": 758,
  "பா": 759,
  "এবং": 760,
  "ன்ப": 761,
  "টা": 762,
  "ணி": 763,
  "ஏ": 764,
  "తం": 765,
  "மற்ற": 766,
  "మె": 767,
  "সং": 768,
  "ఉన్న": 769,
  "பு": 770,
  "অন": 771,
  "டிய": 772,
  "தே": 773,
  "తీ": 774,
  "యు": 775,
  "్రి": 776,
  "ীর": 777,
  "உள்ள": 778,
  "আর": 779,
  "ష్ట": 780,
  "পা": 781,
  "வர்": 782,
  "கிற": 783,
  "न्ह": 784,
  "ரை": 785,
  "ধ": 786,
  "கூ": 787,
  "করা": 788,
  "என": 789,
  "करने": 790,
  "ட்ச": 791,
  "मा": 792,
  "றை": 793,
  "ండి": 794,
  "ங்": 795,
  "ాడు": 796,
  "ట": 797,
  "కూడా": 798,
  "ంగ్": 799,
  "ंड": 800,
  "...": 801,
  "ास": 802,
  "মা": 803,
  "ాలు": 804,
  "న్‌": 805,
  "மாக": 806,
  "ச்": 807,
  "साथ": 808,
  "ंच": 809,
  "बाद": 810,
  "रो": 811,
  "పీ": 812,
  "পার": 813,
  "सि": 814,
  "చి": 815,
  "ர": 816,
  "గి": 817,
  "ুন": 818,
  "ীয়": 819,
  "களில்": 820,
  "్వ": 821,
  "மற்றும்": 822,
  "ிக": 823,
  "িশ": 824,
  "ద్ద": 825,
  "्म": 826,
  "বল": 827,
  "ால": 828,
  "திய": 829,
  "నీ": 830,
  "ற்ப": 831,
  "तो": 832,
  "ప్పు": 833,
  "ளி": 834,
  "்கள்": 835,
  "தெ": 836,
  "మీ": 837,
  "अध": 838,
  "పి": 839,
  "ఒక": 840,
  "తే": 841,
  "ర్‌": 842,
  "उन्ह": 843,
  "மான": 844,
  "பொ": 845,
  "रहे": 846,
  "ల": 847,
  "ట్ట": 848,
  "াপ": 849,
  "भा": 850,
  "டுத்த": 851,
  "যে": 852,
  "ষ্": 853,
  "দু": 854,
  "రం": 855,
  "लोग": 856,
  "गी": 857,
  "స్తున్న": 858,
  "উপ": 859,
  "బ్": 860,
  "রে": 861,
  "సా": 862,
  "நா": 863,
  "দ্ধ": 864,
  "నిర్": 865,
  "যা": 866,
  "மே": 867,
  "कु": 868,
  "पू": 869,
  "லா": 870,
  "यह": 871,
  "ழு": 872,
  "த்தை": 873,
  "দেশ": 874,
  "ரிய": 875,
  "পরি": 876,
  "వే": 877,
  "স্থ": 878,
  "दी": 879,
  "స్‌": 880,
  "वाल": 881,
  "பே": 882,
  "ட்": 883,
  "బా": 884,
  "उन": 885,
  "राज": 886,
  "सु": 887,
  "ব্য": 888,
  "্ড": 889,
  "నం": 890,
  "ిల్": 891,
  "దా": 892,
  "సిని": 893,
  "அத": 894,
  "ாத": 895,
  "ाह": 896,
  "दो": 897,
  "వం": 898,
  "సీ": 899,
  "रे": 900,
  "డ": 901,
  "ানে": 902,
  "তিনি": 903,
  "ంటు": 904,
  "दिया": 905,
  "छ": 906,
  "देश": 907,
  "நீ": 908,
  "அதி": 909,
  "ரச": 910,
  "జు": 911,
  "గ్": 912,
  "अन": 913,
  "வும்": 914,
  "రె": 915,
  "பிர": 916,
  "సిన": 917,
  "வை": 918,
  "ছিল": 919,
  "জন্য": 920,
  "ங்கள": 921,
  "సమ": 922,
  "হয়েছে": 923,
  "ரும்": 924,
  "வழ": 925,
  "ंत्र": 926,
  "्री": 927,
  "কি": 928,
  "गई": 929,
  "நட": 930,
  "মু": 931,
  "প্রতি": 932,
  "নিয়ে": 933,
  "మరి": 934,
  "जी": 935,
  "ట్లు": 936,
  "సుకు": 937,
  "ற்று": 938,
  "త్త": 939,
  "వ్య": 940,
  "்த்த": 941,
  "टी": 942,
  "இத": 943,
  "லி": 944,
  "पी": 945,
  "২০": 946,
  "ంటే": 947,
  "ल्": 948,
  "ப்பட": 949,
  "तक": 950,
  "ంద్ర": 951,
  "கோ": 952,
  "పరి": 953,
  "సినిమా": 954,
  "্রে": 955,
  "दा": 956,
  "ষ্ট": 957,
  "்ய": 958,
  "యో": 959,
  "களுக்கு": 960,
  "কা": 961,
  "্ন": 962,
  "िर": 963,
  "्रे": 964,
  "ள்ளது": 965,
  "बता": 966,
  "வா": 967,
  "स्ट": 968,
  "ంటి": 969,
  "వై": 970,
  "ఓ": 971,
  "டன்": 972,
  "ஜ": 973,
  "అయి": 974,
  "తెలి": 975,
  "ালে": 976,
  "బు": 977,
  "சி": 978,
  "ారా": 979,
  "ట్టు": 980,
  "ின்ற": 981,
  "ध": 982,
  "చేయ": 983,
  "ையும்": 984,
  "रहा": 985,
  "বিশ": 986,
  "उस": 987,
  "িতে": 988,
  "্যান": 989,
  "స్థ": 990,
  "पुल": 991,
  "வில்": 992,
  "சு": 993,
  "सर": 994,
  "এর": 995,
  "என்ற": 996,
  "हुए": 997,
  "தாக": 998,
  "মান": 999,
  "తున్న": 1000,
  "वी": 1001,
  "ప్రభ": 1002,
  "தொட": 1003,
  "थी": 1004,
  "োর": 1005,
  "అధ": 1006,
  "रही": 1007,
  "गे": 1008,
  "হবে": 1009,
  "খন": 1010,
  "ண்டும்": 1011,
  "র্ত": 1012,
  "ন্ত্র": 1013,
  "ர்கள": 1014,
  "বলে": 1015,
  "দেখ": 1016,
  "తన": 1017,
  "ড়া": 1018,
  "্স": 1019,
  "्ष": 1020,
  "गर": 1021,
  "मिल": 1022,
  "আগ": 1023,
  "मह": 1024,
  "్రీ": 1025,
  "ঞ্": 1026,
  "আস": 1027,
  "মো": 1028,
  "என்று": 1029,
  "पुलिस": 1030,
  "அரச": 1031,
  "ओं": 1032,
  "ौर": 1033,
  "చేశ": 1034,
  "েম": 1035,
  "ওয়া": 1036,
  "্দ": 1037,
  "சே": 1038,
  "க்கிற": 1039,
  "வரு": 1040,
  "टर": 1041,
  "बी": 1042,
  "செய்த": 1043,
  "వచ్చ": 1044,
  "னி": 1045,
  "రీ": 1046,
  "తా": 1047,
  "ন্দ": 1048,
  "आप": 1049,
  "सक": 1050,
  "ৃত": 1051,
  "ाना": 1052,
  "স্ব": 1053,
  "অভ": 1054,
  "యన": 1055,
  "্রি": 1056,
  "ोंने": 1057,
  "चु": 1058,
  "ப்பட்டு": 1059,
  "মে": 1060,
  "ानी": 1061,
  "ार्": 1062,
  "নির্": 1063,
  "সু": 1064,
  "ர்ப": 1065,
  "ట్టి": 1066,
  "முத": 1067,
  "జ్": 1068,
  "অব": 1069,
  "நில": 1070,
  "स्त": 1071,
  "টে": 1072,
  "ల్ల": 1073,
  "ంధ": 1074,
  "ద్య": 1075,
  "మొ": 1076,
  "ेल": 1077,
  "ాలని": 1078,
  "ிட்ட": 1079,
  "అవ": 1080,
  "ழ்": 1081,
  "ोज": 1082,
  "श्": 1083,
  "जो": 1084,
  "দিয়ে": 1085,
  "பி": 1086,
  "ుత్": 1087,
  "ందని": 1088,
  "ாம": 1089,
  "াকা": 1090,
  "াদ": 1091,
  "যোগ": 1092,
  "কোন": 1093,
  "করতে": 1094,
  "িক্ষ": 1095,
  "జా": 1096,
  "నుంచి": 1097,
  "िव": 1098,
  "भार": 1099,
  "पा": 1100,
  "ড়ে": 1101,
  "త్య": 1102,
  "கிறது": 1103,
  "করেন": 1104,
  "स्थ": 1105,
  "அமை": 1106,
  "ధా": 1107,
  "तर": 1108,
  "मौ": 1109,
  "மூ": 1110,
  "మైన": 1111,
  "द्": 1112,
  "ண்ண": 1113,
  "अपने": 1114,
  "భార": 1115,
  "বাং": 1116,
  "च्": 1117,
  "செய்ய": 1118,
  "కార": 1119,
  "থা": 1120,
  "उन्होंने": 1121,
  "చూ": 1122,
  "্ল": 1123,
  "ीन": 1124,
  "जिस": 1125,
  "கி": 1126,
  "স্ত": 1127,
  "దీ": 1128,
  "্ক": 1129,
  ":": 1130,
  "మే": 1131,
  "ाई": 1132,
  "জে": 1133,
  "দি": 1134,
  "చెప్ప": 1135,
  "लगा": 1136,
  "ూర్": 1137,
  "பய": 1138,
  "அதிக": 1139,
  "జీ": 1140,
  "बार": 1141,
  "ோது": 1142,
  "ষ্ঠ": 1143,
  "வீ": 1144,
  "মধ্য": 1145,
  "अधिक": 1146,
  "शन": 1147,
  "పార్": 1148,
  "நிற": 1149,
  "ান্ত": 1150,
  "ারা": 1151,
  "ட்டி": 1152,
  "ప్రా": 1153,
  "्त": 1154,
  "किन": 1155,
  "ఆయన": 1156,
  "थे": 1157,
  "தமி": 1158,
  "்கு": 1159,
  "রি": 1160,
  "हम": 1161,
  "என்ப": 1162,
  "ంట్": 1163,
  "ాలి": 1164,
  "తోంది": 1165,
  "ప్రభుత్": 1166,
  "আপ": 1167,
  "द्र": 1168,
  "বাংলা": 1169,
  "ैं": 1170,
  "అని": 1171,
  "மீ": 1172,
  "ধান": 1173,
  "শে": 1174,
  "టర్": 1175,
  "ंह": 1176,
  "పే": 1177,
  "क्र": 1178,
  "हर": 1179,
  "ెస్": 1180,
  "ையை": 1181,
  "రూ": 1182,
  "வத": 1183,
  "लेकिन": 1184,
  "னால்": 1185,
  "பல": 1186,
  "ర్శ": 1187,
  "னு": 1188,
  "குறி": 1189,
  "கட": 1190,
  "অনু": 1191,
  "ंत्री": 1192,
  "गए": 1193,
  "রাজ": 1194,
  "ুরু": 1195,
  "లతో": 1196,
  "हां": 1197,
  "बर": 1198,
  "াহ": 1199,
  "ங்கு": 1200,
  "আল": 1201,
  "டம்": 1202,
  "இது": 1203,
  "নার": 1204,
  "சிற": 1205,
  "र्म": 1206,
  "தெரி": 1207,
  "बना": 1208,
  "కీ": 1209,
  "सरकार": 1210,
  "সব": 1211,
  "সর": 1212,
  "होने": 1213,
  "య": 1214,
  "ும்ப": 1215,
  "మం": 1216,
  "চ্ছে": 1217,
  "ड़ी": 1218,
  "మరియు": 1219,
  "গুল": 1220,
  "ऐ": 1221,
  "ధి": 1222,
  "ెక్": 1223,
  "जाए": 1224,
  "நே": 1225,
  "ियों": 1226,
  "கே": 1227,
  "েস": 1228,
  "ডি": 1229,
  "ల్‌": 1230,
  "ఉంది": 1231,
  "లోని": 1232,
  "বলেন": 1233,
  "சொ": 1234,
  "ஆக": 1235,
  "டுத்து": 1236,
  "వీ": 1237,
  "ঙ্গে": 1238,
  "రణ": 1239,
  "విష": 1240,
  "த்திய": 1241,
  "ించి": 1242,
  "पुर": 1243,
  "దే": 1244,
  "ప్పుడు": 1245,
  "రాష్ట": 1246,
  "থাক": 1247,
  "টার": 1248,
  "बे": 1249,
  "வேண்டும்": 1250,
  "कम": 1251,
  "पहले": 1252,
  "दिन": 1253,
  "ండ్": 1254,
  "ఉండ": 1255,
  "ష": 1256,
  "రే": 1257,
  "बताया": 1258,
  "ెట్": 1259,
  "తెలు": 1260,
  "াত্র": 1261,
  "ఖ్య": 1262,
  "த்தின்": 1263,
  "ष्ट": 1264,
  "িম": 1265,
  "ంచారు": 1266,
  "मो": 1267,
  "కోవ": 1268,
  "ক্র": 1269,
  "య్య": 1270,
  "தலை": 1271,
  "अब": 1272,
  "্যাল": 1273,
  "డీ": 1274,
  "মধ্যে": 1275,
  "দিন": 1276,
  "टे": 1277,
  "सिंह": 1278,
  "ய்": 1279,
  "ंध": 1280,
  "ड़ा": 1281,
  "পুর": 1282,
  "షన్": 1283,
  "ணை": 1284,
  "সম্প": 1285,
  "అను": 1286,
  "தான்": 1287,
  "ूर": 1288,
  "ஊ": 1289,
  "டைய": 1290,
  "ండా": 1291,
  "ட்சி": 1292,
  "ुप": 1293,
  "సే": 1294,
  "ব্যব": 1295,
  "திரு": 1296,
  "শিক্ষ": 1297,
  "పార్టీ": 1298,
  "ட": 1299,
  "ত্ত": 1300,
  "అభ": 1301,
  "சிய": 1302,
  "कार्य": 1303,
  "িব": 1304,
  "সময়": 1305,
  "தை": 1306,
  "ரோ": 1307,
  "ప్పటి": 1308,
  "माम": 1309,
  "বাংলাদেশ": 1310,
  "নাম": 1311,
  "ాలా": 1312,
  "మని": 1313,
  "ப்பி": 1314,
  "ப்படு": 1315,
  "जब": 1316,
  "मे": 1317,
  "రుగు": 1318,
  "उप": 1319,
  "ంప": 1320,
  "வர": 1321,
  "वे": 1322,
  "ন্ধ": 1323,
  "কিন": 1324,
  "వాత": 1325,
  "কম": 1326,
  "ధ్య": 1327,
  "ులు": 1328,
  "वह": 1329,
  "বিশ্ব": 1330,
  "िंग": 1331,
  "ய": 1332,
  "ভাবে": 1333,
  "அறி": 1334,
  "னா": 1335,
  "সি": 1336,
  "र्ट": 1337,
  "భా": 1338,
  "ওয়ার": 1339,
  "ంబ": 1340,
  "చేశారు": 1341,
  "खा": 1342,
  "हि": 1343,
  "இருந்த": 1344,
  "लेकर": 1345,
  "वर्": 1346,
  "াজার": 1347,
  "ছু": 1348,
  "ஞ்ச": 1349,
  "ించిన": 1350,
  "రాజ": 1351,
  "వ్యా": 1352,
  "பார": 1353,
  "హి": 1354,
  "అయితే": 1355,
  "ரிக்க": 1356,
  "శా": 1357,
  "நி": 1358,
  "అధిక": 1359,
  "গ্র": 1360,
  "वाले": 1361,
  "्यू": 1362,
  "িজ": 1363,
  "క్కు": 1364,
  "ించారు": 1365,
  "मार": 1366,
  "াব": 1367,
  "মন": 1368,
  "ளிய": 1369,
  "ிருந்த": 1370,
  "যায়": 1371,
  "निर्": 1372,
  "வ்": 1373,
  "কাজ": 1374,
  "बि": 1375,
  "ুক্ত": 1376,
  "டிக்க": 1377,
  "सो": 1378,
  "इन": 1379,
  "তাঁ": 1380,
  "ంత్రి": 1381,
  "ুম": 1382,
  "ார்கள்": 1383,
  "সঙ্গে": 1384,
  "கொண்ட": 1385,
  "पहु": 1386,
  "గ్రా": 1387,
  "அந்த": 1388,
  "ారని": 1389,
  "बात": 1390,
  "లలో": 1391,
  "వర్": 1392,
  "మ్మ": 1393,
  "డానికి": 1394,
  "దేశ": 1395,
  "వారి": 1396,
  "அவர்": 1397,
  "ற்கு": 1398,
  "जान": 1399,
  "தெரிவி": 1400,
  "க்கிய": 1401,
  "ীন": 1402,
  "পি": 1403,
  "চার": 1404,
  "హా": 1405,
  "कुछ": 1406,
  "చేసి": 1407,
  "৩": 1408,
  "వ్": 1409,
  "जन": 1410,
  "ये": 1411,
  "డ్డి": 1412,
  "கின்ற": 1413,
  "पहुंच": 1414,
  "ளை": 1415,
  "ভার": 1416,
  "எதி": 1417,
  "ओ": 1418,
  "మార్": 1419,
  "।": 1420,
  "జరి": 1421,
  "త్రం": 1422,
  "বছ": 1423,
  "োল": 1424,
  "రోజు": 1425,
  "বাদ": 1426,
  "స్ట": 1427,
  "ప్రక": 1428,
  "కోసం": 1429,
  "िल्": 1430,
  "மைய": 1431,
  "ாய்": 1432,
  "িয়": 1433,
  "ధ": 1434,
  "క్ర": 1435,
  "োন": 1436,
  "ंप": 1437,
  "ியில்": 1438,
  "िश": 1439,
  "তো": 1440,
  "నె": 1441,
  "ஏற்ப": 1442,
  "చేసిన": 1443,
  "साम": 1444,
  "চিত": 1445,
  "ाप": 1446,
  "మో": 1447,
  "ుకు": 1448,
  "த்தி": 1449,
  "অনে": 1450,
  "కుండా": 1451,
  "্লা": 1452,
  "రాష్ట్ర": 1453,
  "্তু": 1454,
  "बढ़": 1455,
  "কিছু": 1456,
  "हुई": 1457,
  "సమా": 1458,
  "जे": 1459,
  "స్తున్నారు": 1460,
  "্বর": 1461,
  "বেশ": 1462,
  "ব্যা": 1463,
  "शुर": 1464,
  "మూ": 1465,
  "ంటూ": 1466,
  "இந்திய": 1467,
  "साल": 1468,
  "কথা": 1469,
  "జి": 1470,
  "परि": 1471,
  "శ్": 1472,
  "সরকার": 1473,
  "ুষ": 1474,
  "েয়ে": 1475,
  "க்கள்": 1476,
  "నుండి": 1477,
  "இர": 1478,
  "చాలా": 1479,
  "धान": 1480,
  "কর্ম": 1481,
  "ाइ": 1482,
  "ड़े": 1483,
  "సె": 1484,
  "ழக": 1485,
  "க்கி": 1486,
  "ఫ్": 1487,
  "ஓ": 1488,
  "क्षा": 1489,
  "कई": 1490,
  "থম": 1491,
  "्स": 1492,
  "్యం": 1493,
  "ஸ்ட": 1494,
  "শু": 1495,
  "உட": 1496,
  "కలి": 1497,
  "கை": 1498,
  "अनु": 1499,
  "বিষ": 1500,
  "ியு": 1501,
  "অভি": 1502,
  "సులు": 1503,
  "सब": 1504,
  "ండు": 1505,
  "ள்ளார்": 1506,
  "दौर": 1507,
  "ছি": 1508,
  "అనే": 1509,
  "్యూ": 1510,
  "లంగా": 1511,
  "টির": 1512,
  "అందు": 1513,
  "ர்ந்த": 1514,
  "আই": 1515,
  "কিন্তু": 1516,
  "বছর": 1517,
  "इसके": 1518,
  "லம்": 1519,
  "ఆర్": 1520,
  "र्व": 1521,
  "दु": 1522,
  "ாம்": 1523,
  "ల్లి": 1524,
  "িয়া": 1525,
  "லாம்": 1526,
  "বেন": 1527,
  "भारत": 1528,
  "தீ": 1529,
  "முதல்": 1530,
  "కేంద్ర": 1531,
  "ற்றி": 1532,
  "க்கப்பட்ட": 1533,
  "వర": 1534,
  "ऑ": 1535,
  "रू": 1536,
  "मुख": 1537,
  "ాను": 1538,
  "ংশ": 1539,
  "মহ": 1540,
  "াঁ": 1541,
  "वर": 1542,
  "कारी": 1543,
  "হাস": 1544,
  "పోలీ": 1545,
  "ிலும்": 1546,
  "वं": 1547,
  "ழி": 1548,
  "कोई": 1549,
  "ణా": 1550,
  "ুব": 1551,
  "வெளிய": 1552,
  "ర్చ": 1553,
  "ல": 1554,
  "েন্ট": 1555,
  "बै": 1556,
  "ఖ": 1557,
  "২০১": 1558,
  "च्च": 1559,
  "మంది": 1560,
  "चाह": 1561,
  "पार": 1562,
  "क्त": 1563,
  "एम": 1564,
  "ামী": 1565,
  "கார": 1566,
  "అంత": 1567,
  "ेंद्र": 1568,
  "সহ": 1569,
  "ళ్ల": 1570,
  "काम": 1571,
  "उत्": 1572,
  "िप": 1573,
  "দল": 1574,
  "अं": 1575,
  "ेत्र": 1576,
  "তবে": 1577,
  "స్తుంది": 1578,
  "डी": 1579,
  "ழை": 1580,
  "ிற்கு": 1581,
  "வாக": 1582,
  "जार": 1583,
  "తుంది": 1584,
  "ওয়": 1585,
  "ூர்": 1586,
  "కర్": 1587,
  "స్తా": 1588,
  "अपनी": 1589,
  "వారం": 1590,
  "गां": 1591,
  "లం": 1592,
  "పొ": 1593,
  "সাম": 1594,
  "হিস": 1595,
  "ত্র": 1596,
  "হল": 1597,
  "ूल": 1598,
  "ఎన్ని": 1599,
  "सभी": 1600,
  "இட": 1601,
  "ोल": 1602,
  "ఇది": 1603,
  "உய": 1604,
  "्ल": 1605,
  "కరో": 1606,
  "র্ব": 1607,
  "ர்த்த": 1608,
  "ীব": 1609,
  "ర్థ": 1610,
  "లోకి": 1611,
  "স্ট": 1612,
  "வந்த": 1613,
  "ప్రతి": 1614,
  "পুল": 1615,
  "আমি": 1616,
  "ట్‌": 1617,
  "ুদ্ধ": 1618,
  "ேன்": 1619,
  "্ঞ": 1620,
  "லும்": 1621,
  "हुआ": 1622,
  "ঘট": 1623,
  "ப்பா": 1624,
  "దని": 1625,
  "বাড়": 1626,
  "दू": 1627,
  "মানুষ": 1628,
  "జిల్": 1629,
  "আজ": 1630,
  "एस": 1631,
  "র্থ": 1632,
  "ইউ": 1633,
  "ருக்கு": 1634,
  "ূল": 1635,
  "ఐ": 1636,
  "ரம்": 1637,
  "दौरान": 1638,
  "హై": 1639,
  "গত": 1640,
  "కరోనా": 1641,
  "क्षेत्र": 1642,
  "కార్య": 1643,
  "ாரி": 1644,
  "খে": 1645,
  "শুরু": 1646,
  "োক": 1647,
  "প্ত": 1648,
  "टा": 1649,
  "డే": 1650,
  "మరో": 1651,
  "िम": 1652,
  "আমা": 1653,
  "গে": 1654,
  "சில": 1655,
  "मंत्री": 1656,
  "వరి": 1657,
  "ఉన్నాయి": 1658,
  "पि": 1659,
  "ার্থ": 1660,
  "ारा": 1661,
  "রয়ে": 1662,
  "िका": 1663,
  "িং": 1664,
  "फिल": 1665,
  "వహ": 1666,
  "রণ": 1667,
  "आय": 1668,
  "সল": 1669,
  "ఆమె": 1670,
  "হার": 1671,
  "''": 1672,
  "இய": 1673,
  "ంచిన": 1674,
  "சா": 1675,
  "प्रति": 1676,
  "బంధ": 1677,
  "्रेस": 1678,
  "்க்க": 1679,
  "এখন": 1680,
  "रुप": 1681,
  "గిన": 1682,
  "কেন": 1683,
  "देख": 1684,
  "समय": 1685,
  "ாளர்": 1686,
  "शिक": 1687,
  "லக": 1688,
  "லில்": 1689,
  "चार": 1690,
  "वारा": 1691,
  "পুলিশ": 1692,
  "मान": 1693,
  "आरो": 1694,
  "खिला": 1695,
  "దల": 1696,
  "వ్యక్": 1697,
  "வர்கள்": 1698,
  "োট": 1699,
  "আমার": 1700,
  "कह": 1701,
  "ग्र": 1702,
  "অনেক": 1703,
  "முன்ன": 1704,
  "সেই": 1705,
  "করার": 1706,
  "తీసుకు": 1707,
  "జిల్లా": 1708,
  "ியை": 1709,
  "मै": 1710,
  "किसी": 1711,
  "స్తోంది": 1712,
  "িকা": 1713,
  "ুক": 1714,
  "ఎన్నిక": 1715,
  "సో": 1716,
  "ঢ": 1717,
  "बंध": 1718,
  "ఉంటు": 1719,
  "तरह": 1720,
  "பின்": 1721,
  "கரு": 1722,
  "सू": 1723,
  "ோத": 1724,
  "चल": 1725,
  "सान": 1726,
  "েক": 1727,
  "பிற": 1728,
  "व्य": 1729,
  "ার্": 1730,
  "முடிய": 1731,
  "प्रदेश": 1732,
  "ணம்": 1733,
  "చ్చు": 1734,
  "க்கொ": 1735,
  ",": 1736,
  "ेंगे": 1737,
  "हाल": 1738,
  "ோம்": 1739,
  "என்ன": 1740,
  "க்கிறது": 1741,
  "కానీ": 1742,
  "மாவ": 1743,
  "बह": 1744,
  "ঞ্জ": 1745,
  "ানা": 1746,
  "दर्": 1747,
  "ங்கி": 1748,
  "्टी": 1749,
  "दिल्": 1750,
  "అభి": 1751,
  "சம": 1752,
  "తర్": 1753,
  "வது": 1754,
  "১৯": 1755,
  "আগে": 1756,
  "প্রধান": 1757,
  "ন্ত্রী": 1758,
  "খানে": 1759,
  "घर": 1760,
  "சந்த": 1761,
  "लिया": 1762,
  "తమ": 1763,
  "राज्य": 1764,
  "బీ": 1765,
  "ोट": 1766,
  "अम": 1767,
  "द्वारा": 1768,
  "ందే": 1769,
  "న్నా": 1770,
  "অধ": 1771,
  "గం": 1772,
  "ியல்": 1773,
  "ভাল": 1774,
  "பகு": 1775,
  "స్తే": 1776,
  "কাল": 1777,
  "োধ": 1778,
  "ஆண்டு": 1779,
  "পর্য": 1780,
  "কারণ": 1781,
  "టం": 1782,
  "द्ध": 1783,
  "ছিলেন": 1784,
  "ষণ": 1785,
  "தா": 1786,
  "लग": 1787,
  "জানান": 1788,
  "క్కువ": 1789,
  "மாவட்ட": 1790,
  "दिल्ली": 1791,
  "తెలంగా": 1792,
  "স্য": 1793,
  "ারে": 1794,
  "शुरू": 1795,
  "ఎం": 1796,
  "ప్రభుత్వం": 1797,
  "रख": 1798,
  "৫": 1799,
  "இருந்து": 1800,
  "ারণ": 1801,
  "విజ": 1802,
  "క్‌": 1803,
  "কাশ": 1804,
  "शाम": 1805,
  "ృష్": 1806,
  "ஆனால்": 1807,
  "उन्हें": 1808,
  "అత": 1809,
  "बु": 1810,
  "முடி": 1811,
  "महिला": 1812,
  "सह": 1813,
  "బాద్": 1814,
  "త్స": 1815,
  "कै": 1816,
  "नाम": 1817,
  "గే": 1818,
  "ப்படும்": 1819,
  "इं": 1820,
  "नाव": 1821,
  "ర్య": 1822,
  "চল": 1823,
  "దూ": 1824,
  "সদ": 1825,
  "విషయం": 1826,
  "கூற": 1827,
  "ஹ": 1828,
  "ாது": 1829,
  "స్తూ": 1830,
  "चा": 1831,
  "িন্ন": 1832,
  "গুলো": 1833,
  "்கள": 1834,
  "ोर": 1835,
  "ून": 1836,
  "मामले": 1837,
  "ष्": 1838,
  "তারা": 1839,
  "తర్వాత": 1840,
  "తెలిప": 1841,
  "ద్ధ": 1842,
  "తెలంగాణ": 1843,
  "৪": 1844,
  "వడం": 1845,
  "அல்ல": 1846,
  "োনা": 1847,
  "ణం": 1848,
  "िट": 1849,
  "टीम": 1850,
  "ভারত": 1851,
  "আব": 1852,
  "அனு": 1853,
  "ఇచ్చ": 1854,
  "மரு": 1855,
  "லு": 1856,
  "শেষ": 1857,
  "న్స్": 1858,
  "ైనా": 1859,
  "প্রথম": 1860,
  "स्प": 1861,
  "ெய": 1862,
  "क्रम": 1863,
  "পারে": 1864,
  "বির": 1865,
  "బ్బ": 1866,
  "ोड़": 1867,
  "जु": 1868,
  "मुख्य": 1869,
  "ঞ্চ": 1870,
  "ట్ల": 1871,
  "েবে": 1872,
  "হচ্ছে": 1873,
  "ముందు": 1874,
  "यु": 1875,
  "োম": 1876,
  "अभ": 1877,
  "పని": 1878,
  "जाने": 1879,
  "कोरो": 1880,
  "లోనే": 1881,
  "ஐ": 1882,
  "होगा": 1883,
  "নির্বা": 1884,
  "প্রশ": 1885,
  "র্ণ": 1886,
  "அம": 1887,
  "उनके": 1888,
  "రెండు": 1889,
  "াড়া": 1890,
  "হাজার": 1891,
  "బి": 1892,
  "తులు": 1893,
  "వెళ్": 1894,
  "டுக்க": 1895,
  "कोरोना": 1896,
  "்பு": 1897,
  "తూ": 1898,
  "রয়েছে": 1899,
  "வில்லை": 1900,
  "खु": 1901,
  "ত্য": 1902,
  "तीन": 1903,
  "ముఖ్య": 1904,
  "াতে": 1905,
  "नों": 1906,
  "করেছেন": 1907,
  "ప్రజ": 1908,
  "வழங்க": 1909,
  "দুই": 1910,
  "ीड": 1911,
  "జే": 1912,
  "இல": 1913,
  "रूप": 1914,
  "जर": 1915,
  "ராக": 1916,
  "పూర్": 1917,
  "టన": 1918,
  "রাখ": 1919,
  "తున్నారు": 1920,
  "తంగా": 1921,
  "ியா": 1922,
  "फिल्म": 1923,
  "தன": 1924,
  "ఆరో": 1925,
  "েত": 1926,
  "करते": 1927,
  "মি": 1928,
  "आई": 1929,
  "বর": 1930,
  "కులు": 1931,
  "హీ": 1932,
  "த்துவ": 1933,
  "য়ন": 1934,
  "பொரு": 1935,
  "।'": 1936,
  "ক্তি": 1937,
  "ట్లా": 1938,
  "ఎస్": 1939,
  "పోయి": 1940,
  "आज": 1941,
  "ందిన": 1942,
  "அரசு": 1943,
  "লি": 1944,
  "दि": 1945,
  "पु": 1946,
  "আমরা": 1947,
  "நிறுவ": 1948,
  "ंस": 1949,
  "भाग": 1950,
  "दार": 1951,
  "ஆகிய": 1952,
  "ிருந்து": 1953,
  "फी": 1954,
  "ட்டை": 1955,
  "ল্প": 1956,
  "ताल": 1957,
  "గ్ర": 1958,
  "ர்ந்து": 1959,
  "हत": 1960,
  "శ్రీ": 1961,
  "জি": 1962,
  "ింది": 1963,
  "டும்": 1964,
  "्यक्ष": 1965,
  "ர்த": 1966,
  "कुमार": 1967,
  "నూ": 1968,
  "செய்து": 1969,
  "বিভ": 1970,
  "ரில்": 1971,
  "সাথে": 1972,
  "ఇప్పటి": 1973,
  "ద్వ": 1974,
  "কোনো": 1975,
  "यर": 1976,
  "శం": 1977,
  "করেছে": 1978,
  "ாமல்": 1979,
  "बीच": 1980,
  "সাল": 1981,
  "పించ": 1982,
  "கால": 1983,
  "াড়": 1984,
  "),": 1985,
  "రై": 1986,
  "హీరో": 1987,
  "மிக": 1988,
  "ொரு": 1989,
  "రించి": 1990,
  "करा": 1991,
  "শি": 1992,
  "ఏర్": 1993,
  "र्स": 1994,
  "బ్యా": 1995,
  "மன்ற": 1996,
  "ుల": 1997,
  "एं": 1998,
  "ல்லை": 1999,
  "एवं": 2000,
  "లక్ష": 2001,
  "ாலும்": 2002,
  "োপ": 2003,
  "తలు": 2004,
  "நோ": 2005,
  "பட": 2006,
  "పాటు": 2007,
  "তির": 2008,
  "আছে": 2009,
  "చేసుకు": 2010,
  "जै": 2011,
  "আহ": 2012,
  "দ্যাল": 2013,
  "হিসেবে": 2014,
  "पास": 2015,
  "ஈ": 2016,
  "అంద": 2017,
  "తీసు": 2018,
  "तीय": 2019,
  "েলা": 2020,
  "অন্য": 2021,
  "ोक": 2022,
  "कांग": 2023,
  "ক্ষে": 2024,
  "চে": 2025,
  "லீ": 2026,
  "झ": 2027,
  "टना": 2028,
  "েম্বর": 2029,
  "సూ": 2030,
  "ினை": 2031,
  "అలా": 2032,
  "వ్వ": 2033,
  "गु": 2034,
  "ানি": 2035,
  "స్ప": 2036,
  "మాట్లా": 2037,
  "র্ম": 2038,
  "जू": 2039,
  "িকার": 2040,
  "தும்": 2041,
  "ठ": 2042,
  "तै": 2043,
  "సంద": 2044,
  "बन": 2045,
  "சட்ட": 2046,
  "సమయం": 2047,
  "குழ": 2048,
  "ட்டில்": 2049,
  "वर्ष": 2050,
  "టా": 2051,
  "বাস": 2052,
  "মৃত": 2053,
  "మంత్రి": 2054,
  "बच्च": 2055,
  "निक": 2056,
  "यहां": 2057,
  "कारण": 2058,
  "கல": 2059,
  "সালে": 2060,
  "लय": 2061,
  "লেখ": 2062,
  "শন": 2063,
  "ंट": 2064,
  "वाई": 2065,
  "दूस": 2066,
  "ওই": 2067,
  "ంపు": 2068,
  "क्ट": 2069,
  "எழு": 2070,
  "ఉప": 2071,
  "েলার": 2072,
  "वहीं": 2073,
  "करना": 2074,
  "ியின்": 2075,
  "োস": 2076,
  "এমন": 2077,
  "తర": 2078,
  "తెలిపారు": 2079,
  "বু": 2080,
  "स्थित": 2081,
  "चुनाव": 2082,
  "వేశ": 2083,
  "திர": 2084,
  "দা": 2085,
  "पै": 2086,
  "ద్వారా": 2087,
  "சீ": 2088,
  "நிறுவன": 2089,
  "టో": 2090,
  "তুন": 2091,
  "বৃ": 2092,
  "विक": 2093,
  "தோ": 2094,
  "चौ": 2095,
  "அது": 2096,
  "జగ": 2097,
  "এলা": 2098,
  "ాల్": 2099,
  "ஷ்": 2100,
  "वन": 2101,
  "गांव": 2102,
  "शी": 2103,
  "க்கள": 2104,
  "कांग्रेस": 2105,
  "தொடர்ப": 2106,
  "చారం": 2107,
  "మన": 2108,
  "மும்": 2109,
  "ेर": 2110,
  "পড়": 2111,
  "రించ": 2112,
  "ச்சி": 2113,
  "োর্": 2114,
  "धार": 2115,
  "প্রকাশ": 2116,
  "தம்": 2117,
  "ఫో": 2118,
  "मी": 2119,
  "ప్రధా": 2120,
  "ేక": 2121,
  "விட்ட": 2122,
  "సంబంధ": 2123,
  "ुत": 2124,
  "உள்ளது": 2125,
  "తొ": 2126,
  "অবস্থ": 2127,
  "ఎలా": 2128,
  "ப்படி": 2129,
  "হতে": 2130,
  "శాల": 2131,
  "जिला": 2132,
  "চাল": 2133,
  "বিভিন্ন": 2134,
  "பண": 2135,
  "ন্ন": 2136,
  "கண": 2137,
  "পর্যন্ত": 2138,
  "মাস": 2139,
  "म्म": 2140,
  "కొత్త": 2141,
  "ரூ": 2142,
  "உறு": 2143,
  "১০": 2144,
  "అవకా": 2145,
  "নতুন": 2146,
  "த்துக்கு": 2147,
  "ினர்": 2148,
  "கொண்டு": 2149,
  "மேலும்": 2150,
  "आरोप": 2151,
  ".,": 2152,
  "ళ్లు": 2153,
  "ఇక": 2154,
  "र्थ": 2155,
  "గ్గ": 2156,
  "जांच": 2157,
  "ర్భ": 2158,
  "డిన": 2159,
  "फै": 2160,
  "మధ్య": 2161,
  "ரே": 2162,
  "పెద్ద": 2163,
  "হলে": 2164,
  "ప్రస్తు": 2165,
  "দ্ব": 2166,
  "ার্থী": 2167,
  "য়ো": 2168,
  "बैठ": 2169,
  "फिर": 2170,
  "குறை": 2171,
  "ாவது": 2172,
  "ेट": 2173,
  "्रीय": 2174,
  "உரு": 2175,
  "చంద్ర": 2176,
  "ীগ": 2177,
  "ఇప్పుడు": 2178,
  "জানিয়ে": 2179,
  "மக்கள்": 2180,
  "তাঁর": 2181,
  "ানো": 2182,
  "అస": 2183,
  "खिलाफ": 2184,
  "చేస్తున్న": 2185,
  "डॉ": 2186,
  "ினார்": 2187,
  "அனை": 2188,
  "க்கான": 2189,
  "త్తి": 2190,
  "্দ্র": 2191,
  "பூ": 2192,
  "న్య": 2193,
  "కం": 2194,
  "विभाग": 2195,
  "బాబు": 2196,
  "िले": 2197,
  "ছবি": 2198,
  "কাছে": 2199,
  "দেখা": 2200,
  "क्स": 2201,
  "ट्र": 2202,
  "ியாக": 2203,
  "இருக்கும்": 2204,
  "య్": 2205,
  "చెందిన": 2206,
  "শ্": 2207,
  "নিজ": 2208,
  "जारी": 2209,
  "মন্ত্রী": 2210,
  "సాధ": 2211,
  "సై": 2212,
  "కె": 2213,
  "నటి": 2214,
  "্যু": 2215,
  "अव": 2216,
  "মাধ্য": 2217,
  "தால்": 2218,
  "অপ": 2219,
  "பயன்ப": 2220,
  "ప్రత్య": 2221,
  "స్థి": 2222,
  "என்பது": 2223,
  "হা": 2224,
  "নায়": 2225,
  "நடை": 2226,
  "েই": 2227,
  "స్థా": 2228,
  "जानकारी": 2229,
  "அல்லது": 2230,
  "இருக்க": 2231,
  "सार": 2232,
  "க்கம்": 2233,
  "টাকা": 2234,
  "अन्य": 2235,
  "சூ": 2236,
  "விச": 2237,
  "దీం": 2238,
  "க்கப்பட்டு": 2239,
  "ంగ్ర": 2240,
  "பதி": 2241,
  "ইসল": 2242,
  "ভাগ": 2243,
  "ఘ": 2244,
  "लि": 2245,
  "గ్రామం": 2246,
  "నని": 2247,
  "मांग": 2248,
  "பொது": 2249,
  "গিয়ে": 2250,
  "కార్": 2251,
  "షి": 2252,
  "জ্ঞ": 2253,
  "கவ": 2254,
  "ுடன்": 2255,
  "దరా": 2256,
  "உண": 2257,
  "యని": 2258,
  "தியில்": 2259,
  "वाली": 2260,
  "অভিযোগ": 2261,
  "డ్డ": 2262,
  "৬": 2263,
  "ोर्ट": 2264,
  "्यादा": 2265,
  "శి": 2266,
  "দ্যালয়": 2267,
  "নেই": 2268,
  "ऐसे": 2269,
  "கம்": 2270,
  "ாவில்": 2271,
  "ষ্ট্র": 2272,
  "च्छ": 2273,
  "కపో": 2274,
  "నిర్ణ": 2275,
  "তিন": 2276,
  "த்திற்கு": 2277,
  "ুলে": 2278,
  "அமைச்ச": 2279,
  "ப்படுத்த": 2280,
  "ेज": 2281,
  "নয়": 2282,
  "మహ": 2283,
  "ायत": 2284,
  "கட்ட": 2285,
  "মাম": 2286,
  "क्टर": 2287,
  "త్రి": 2288,
  "సారి": 2289,
  "த்தார்": 2290,
  "वाद": 2291,
  "তিক": 2292,
  "নী": 2293,
  "अग": 2294,
  "చిత్ర": 2295,
  "క్కడ": 2296,
  "धी": 2297,
  "किए": 2298,
  "हार": 2299,
  "దర్శ": 2300,
  "అంది": 2301,
  "ారణ": 2302,
  "உத": 2303,
  "ब्": 2304,
  "দেওয়া": 2305,
  "कंप": 2306,
  "ారులు": 2307,
  "సర్": 2308,
  "ियां": 2309,
  "গর": 2310,
  "கடந்த": 2311,
  "గుర్": 2312,
  "ভাব": 2313,
  "गो": 2314,
  "కాంగ్ర": 2315,
  "ించింది": 2316,
  "बद": 2317,
  "ையின்": 2318,
  "कॉ": 2319,
  "பர": 2320,
  "మీరు": 2321,
  "ப்படுகிறது": 2322,
  "पार्टी": 2323,
  "লার": 2324,
  "বেশি": 2325,
  "পাত": 2326,
  "ఉంటుంది": 2327,
  "ம்பி": 2328,
  "उनकी": 2329,
  "বর্ত": 2330,
  "ையா": 2331,
  "తెలుగు": 2332,
  "বিষয়": 2333,
  "விள": 2334,
  "களின்": 2335,
  "కని": 2336,
  "किसान": 2337,
  "सबसे": 2338,
  "గొ": 2339,
  "திட்ட": 2340,
  "ారంభ": 2341,
  "ఎక్కువ": 2342,
  "అన్నారు": 2343,
  "্যান্ড": 2344,
  "আদ": 2345,
  "ள்ளனர்": 2346,
  "సంస్థ": 2347,
  "নিয়": 2348,
  "పూర్తి": 2349,
  "ধারণ": 2350,
  "தல்": 2351,
  "కల": 2352,
  "छा": 2353,
  "ঠে": 2354,
  "విడు": 2355,
  "सुर": 2356,
  "ंब": 2357,
  "்கிற": 2358,
  "ఇలా": 2359,
  "தில்": 2360,
  "शामिल": 2361,
  "ప్రాంత": 2362,
  "भारतीय": 2363,
  "ज्": 2364,
  "మంచి": 2365,
  "উত্ত": 2366,
  "హైదరా": 2367,
  "पूर्व": 2368,
  "ర్కొ": 2369,
  "ొక్క": 2370,
  "আশ": 2371,
  "కాల": 2372,
  "যদি": 2373,
  "ప్రారంభ": 2374,
  "வுக்கு": 2375,
  "లేదు": 2376,
  "गत": 2377,
  "शु": 2378,
  "ణి": 2379,
  "சேர்ந்த": 2380,
  "কেট": 2381,
  "தொழ": 2382,
  "పరిస్థి": 2383,
  "তাই": 2384,
  "అన": 2385,
  "রহ": 2386,
  "ভালো": 2387,
  "देने": 2388,
  "মনে": 2389,
  "ర్టు": 2390,
  "করোনা": 2391,
  "বন্ধ": 2392,
  "బో": 2393,
  "இருப்ப": 2394,
  "ঁচ": 2395,
  "ীক্ষ": 2396,
  "ज्यादा": 2397,
  "బె": 2398,
  "தய": 2399,
  "ర్యా": 2400,
  "दान": 2401,
  "நெ": 2402,
  "ன்னை": 2403,
  "கூட்ட": 2404,
  "சொல்ல": 2405,
  "लोगों": 2406,
  "చేసింది": 2407,
  "அள": 2408,
  "அடி": 2409,
  "நக": 2410,
  "ইসলাম": 2411,
  "वै": 2412,
  "ந்": 2413,
  "पां": 2414,
  "ప్రే": 2415,
  "மொ": 2416,
  "্রু": 2417,
  "स्क": 2418,
  "लाख": 2419,
  "ள்ளி": 2420,
  "అవు": 2421,
  "నెల": 2422,
  "दोनों": 2423,
  "লাই": 2424,
  "পরিচ": 2425,
  "भाव": 2426,
  "త్తు": 2427,
  "ேய": 2428,
  "ர்களின்": 2429,
  "राष्ट": 2430,
  "একটা": 2431,
  "ত্যা": 2432,
  "ந்தை": 2433,
  "தமிழக": 2434,
  "ম্যা": 2435,
  "ओर": 2436,
  "ুদ্ধে": 2437,
  "ট্র": 2438,
  "जपा": 2439,
  "வள": 2440,
  "డియా": 2441,
  "इससे": 2442,
  "్లా": 2443,
  "యే": 2444,
  "நடி": 2445,
  "जाएगा": 2446,
  "ताओं": 2447,
  "ोजना": 2448,
  "ந்திர": 2449,
  "আরও": 2450,
  "ायर": 2451,
  "ించే": 2452,
  "्यालय": 2453,
  "కేసు": 2454,
  "కొన్ని": 2455,
  "ारे": 2456,
  "பாதி": 2457,
  "கிடை": 2458,
  "தமிழ்": 2459,
  "৭": 2460,
  "সদস্য": 2461,
  "தேர்த": 2462,
  "ंक": 2463,
  "స్య": 2464,
  "నాలు": 2465,
  "ृत": 2466,
  "িউ": 2467,
  "ষ্ঠান": 2468,
  "నిర్వహ": 2469,
  "्यों": 2470,
  "கிர": 2471,
  "విడుదల": 2472,
  "చేసే": 2473,
  "काफी": 2474,
  "णा": 2475,
  "र्ड": 2476,
  "महा": 2477,
  "సభ": 2478,
  "चाहिए": 2479,
  "বড়": 2480,
  "ারী": 2481,
  "அரு": 2482,
  "केट": 2483,
  "ामी": 2484,
  "प्रत": 2485,
  "এস": 2486,
  "নির্বাচ": 2487,
  "ाज": 2488,
  "ர்வு": 2489,
  "க்கை": 2490,
  "வரை": 2491,
  "விர": 2492,
  "स्व": 2493,
  "राम": 2494,
  "అన్ని": 2495,
  "ఒక్క": 2496,
  "পতি": 2497,
  "లపై": 2498,
  "ப்போது": 2499,
  "த்திர": 2500,
  "उसे": 2501,
  "गिर": 2502,
  "तैय": 2503,
  "करी": 2504,
  "পড়ে": 2505,
  "भाजपा": 2506,
  "நீங்கள்": 2507,
  "क्ति": 2508,
  "ாவின்": 2509,
  "పోలీసులు": 2510,
  "স্থা": 2511,
  "போன்ற": 2512,
  "ఇం": 2513,
  "మొద": 2514,
  "ूम": 2515,
  "కేంద్రం": 2516,
  "కున్న": 2517,
  "்சி": 2518,
  "நிலையில்": 2519,
  "পরে": 2520,
  "ंदी": 2521,
  "তৈ": 2522,
  "রো": 2523,
  "श्व": 2524,
  "সক": 2525,
  "ণ্ড": 2526,
  "रुपये": 2527,
  "பெற்ற": 2528,
  "েট": 2529,
  "దం": 2530,
  "बो": 2531,
  "मौत": 2532,
  "কারী": 2533,
  "্যাম": 2534,
  "বেদ": 2535,
  "హైదరాబాద్": 2536,
  "ரின்": 2537,
  "कप": 2538,
  "প্রা": 2539,
  "मैं": 2540,
  "ఉద్య": 2541,
  "प्रश": 2542,
  "ভাই": 2543,
  "वान": 2544,
  "చెప్పారు": 2545,
  "an": 2546,
  "বাহ": 2547,
  "ঠ": 2548,
  "একজন": 2549,
  "ায়ী": 2550,
  "पिछ": 2551,
  "దూరం": 2552,
  "্যাপ": 2553,
  "কেই": 2554,
  "க்காக": 2555,
  "ন্ড": 2556,
  "चना": 2557,
  "ाली": 2558,
  "ప్రస్తుతం": 2559,
  "अस्प": 2560,
  "అది": 2561,
  "సిందే": 2562,
  "পূ": 2563,
  "వచ్చిన": 2564,
  "दर्ज": 2565,
  "कों": 2566,
  "न्न": 2567,
  "ారీ": 2568,
  "மாநில": 2569,
  "இல்லை": 2570,
  "योग": 2571,
  "सभा": 2572,
  "अध्यक्ष": 2573,
  "अस्पताल": 2574,
  "উদ": 2575,
  "এন": 2576,
  "ையாக": 2577,
  "விவ": 2578,
  "అవస": 2579,
  "ரோனா": 2580,
  "ूर्": 2581,
  "ंबर": 2582,
  "ेशन": 2583,
  "மோ": 2584,
  "াস্থ": 2585,
  "మాత్రం": 2586,
  "এসে": 2587,
  "యొక్క": 2588,
  "जिले": 2589,
  "அல": 2590,
  "టింగ్": 2591,
  "জাত": 2592,
  "स्था": 2593,
  "ঝ": 2594,
  "యూ": 2595,
  "नई": 2596,
  "ందో": 2597,
  "ोष": 2598,
  "అన్న": 2599,
  "நீதி": 2600,
  "ళ్ళ": 2601,
  "शिक्ष": 2602,
  "మీడియా": 2603,
  "இல்ல": 2604,
  "ப்பட்டது": 2605,
  "డ్‌": 2606,
  "ఉంట": 2607,
  "ட்டிய": 2608,
  "வ்வ": 2609,
  "పంచ": 2610,
  "యోగ": 2611,
  "ఫి": 2612,
  "ासन": 2613,
  "హ్": 2614,
  "విధ": 2615,
  "यू": 2616,
  "గురించి": 2617,
  "শহ": 2618,
  "బాల": 2619,
  "ோர்": 2620,
  "্যে": 2621,
  "ोन": 2622,
  "য়েক": 2623,
  "వచ్చు": 2624,
  "ারি": 2625,
  "म्": 2626,
  "பெய": 2627,
  "গেছে": 2628,
  "৮": 2629,
  "இன்று": 2630,
  "చంద్రబాబు": 2631,
  "সভা": 2632,
  "জীব": 2633,
  "इला": 2634,
  "రెడ్డి": 2635,
  "హం": 2636,
  "চ্চ": 2637,
  "வில": 2638,
  "வய": 2639,
  "ैन": 2640,
  "గో": 2641,
  "மூலம்": 2642,
  "पाल": 2643,
  "ంచింది": 2644,
  "மத்திய": 2645,
  "్రే": 2646,
  "अल": 2647,
  "ஒன்ற": 2648,
  "ச்சு": 2649,
  "আন": 2650,
  "అం": 2651,
  "करें": 2652,
  "প্রায়": 2653,
  "स्वा": 2654,
  "ప్రత్యేక": 2655,
  "র্ক": 2656,
  "சை": 2657,
  "னம்": 2658,
  "उसके": 2659,
  "అమ": 2660,
  "মাণ": 2661,
  "பிரி": 2662,
  "सद": 2663,
  "যাবে": 2664,
  "తాజా": 2665,
  "వల": 2666,
  "मोदी": 2667,
  "ந்தது": 2668,
  "आने": 2669,
  "পরীক্ষ": 2670,
  "మ్మె": 2671,
  "बहुत": 2672,
  "मार्": 2673,
  "सामने": 2674,
  "होगी": 2675,
  "ीस": 2676,
  "జరుగు": 2677,
  "ంచు": 2678,
  "ர்க்க": 2679,
  "ிலிருந்து": 2680,
  "वो": 2681,
  "न्यू": 2682,
  "বিশ্ববি": 2683,
  "িট": 2684,
  "छात्र": 2685,
  "ாங்க": 2686,
  "িপ": 2687,
  "জু": 2688,
  "காண": 2689,
  "ంచే": 2690,
  "పేరు": 2691,
  "முறை": 2692,
  "முக்கிய": 2693,
  "ुरु": 2694,
  "విద్య": 2695,
  "రాజకీ": 2696,
  "घटना": 2697,
  "বিরুদ্ধে": 2698,
  "মতো": 2699,
  "కర": 2700,
  "हजार": 2701,
  "वास": 2702,
  "పాల్": 2703,
  "தெரிவித்து": 2704,
  "ियो": 2705,
  "றிய": 2706,
  "াধ": 2707,
  "క్తి": 2708,
  "நான்": 2709,
  "ইউনি": 2710,
  "సందర్భ": 2711,
  "करोड़": 2712,
  "ব্যবহার": 2713,
  "পাল": 2714,
  "நிக": 2715,
  "வரும்": 2716,
  "కళ": 2717,
  "অংশ": 2718,
  "மருத்துவ": 2719,
  "கர்": 2720,
  "కుటు": 2721,
  "ைப்": 2722,
  "பரி": 2723,
  "స్ట్": 2724,
  "ई": 2725,
  "ைக்": 2726,
  "యర్": 2727,
  "आए": 2728,
  "प्रधान": 2729,
  "ेंद": 2730,
  "ম্যাচ": 2731,
  "जूद": 2732,
  "জা": 2733,
  "ద్ర": 2734,
  "হাসপাত": 2735,
  "நேர": 2736,
  "মাধ্যমে": 2737,
  "చిత్రం": 2738,
  "াইল": 2739,
  "கொள்ள": 2740,
  "িস্ত": 2741,
  "జగన్": 2742,
  "టె": 2743,
  "িৎ": 2744,
  "ప్రకటి": 2745,
  "करीब": 2746,
  "निय": 2747,
  "র্ষ": 2748,
  "স্ক": 2749,
  "சம்ப": 2750,
  "হণ": 2751,
  "வேலை": 2752,
  "্রী": 2753,
  "త్‌": 2754,
  "প্রক": 2755,
  "కథ": 2756,
  "సమీ": 2757,
  "ुक": 2758,
  "ప్రభుత్వ": 2759,
  "কয়েক": 2760,
  "ভি": 2761,
  "ீர்": 2762,
  "வெளி": 2763,
  "इसी": 2764,
  "फ्त": 2765,
  "முக": 2766,
  "య్యా": 2767,
  "्ड": 2768,
  "வடிக்க": 2769,
  "లేదా": 2770,
  "వ్ర": 2771,
  "केंद्र": 2772,
  "धिक": 2773,
  "எந்த": 2774,
  "ంత్ర": 2775,
  "পেয়ে": 2776,
  "ধর": 2777,
  "धा": 2778,
  "ாள்": 2779,
  "ীত": 2780,
  "মার": 2781,
  "संबंध": 2782,
  "০০": 2783,
  "ாதார": 2784,
  "ेंट": 2785,
  "জাতীয়": 2786,
  "ফে": 2787,
  "సింది": 2788,
  "शा": 2789,
  "डि": 2790,
  "மாண": 2791,
  "జేపీ": 2792,
  "டுப்ப": 2793,
  "श्री": 2794,
  "దీని": 2795,
  "நடவடிக்க": 2796,
  "எல்ல": 2797,
  "్‌": 2798,
  "ध्य": 2799,
  "ঘো": 2800,
  "ধরে": 2801,
  "কেন্দ্র": 2802,
  "शहर": 2803,
  "রহমান": 2804,
  "మాత్ర": 2805,
  "प्": 2806,
  "উদ্": 2807,
  "మై": 2808,
  "निया": 2809,
  "భారీ": 2810,
  "कर्म": 2811,
  ".": 2812,
  "ఏపీ": 2813,
  "பணி": 2814,
  "பாது": 2815,
  "দিতে": 2816,
  "போது": 2817,
  "द्य": 2818,
  "బయ": 2819,
  "తప్ప": 2820,
  "తీవ్ర": 2821,
  "ইন": 2822,
  "தற்ப": 2823,
  "స్తారు": 2824,
  "పేర్కొ": 2825,
  "খুব": 2826,
  "৯": 2827,
  "মুখ": 2828,
  "पूरी": 2829,
  "আইন": 2830,
  "తీయ": 2831,
  "याद": 2832,
  "िता": 2833,
  "अपना": 2834,
  "కాదు": 2835,
  "अधिकार": 2836,
  "ত্ব": 2837,
  "கின்றன": 2838,
  "গ্রাম": 2839,
  "ెం": 2840,
  "अनुसार": 2841,
  "போலீ": 2842,
  "দায়": 2843,
  "அறிவி": 2844,
  "యత్": 2845,
  "ార్థ": 2846,
  "அவர்கள்": 2847,
  "ம்ம": 2848,
  "நடைபெ": 2849,
  "शे": 2850,
  "మెంట్": 2851,
  "ర్లు": 2852,
  "బీజేపీ": 2853,
  "য়ারি": 2854,
  "স্থান": 2855,
  "ல்ப": 2856,
  "ক্রান্ত": 2857,
  "పలు": 2858,
  "నున్న": 2859,
  "కారణ": 2860,
  "मन": 2861,
  "পে": 2862,
  "তথ": 2863,
  "గింది": 2864,
  "আপনার": 2865,
  "तार": 2866,
  "आर": 2867,
  "விய": 2868,
  "in": 2869,
  "ோடு": 2870,
  "২০২": 2871,
  "ட்ப": 2872,
  "தூ": 2873,
  "త్తం": 2874,
  "உலக": 2875,
  "পারেন": 2876,
  "অর্": 2877,
  "அளி": 2878,
  "परिवार": 2879,
  "தர": 2880,
  "েশন": 2881,
  "பாதுகா": 2882,
  "োচ": 2883,
  "ूं": 2884,
  "విని": 2885,
  "्रा": 2886,
  "இவர்": 2887,
  "मुख्यमंत्री": 2888,
  "पद": 2889,
  "तथा": 2890,
  "সর্ব": 2891,
  "ఆధ": 2892,
  "नगर": 2893,
  "लो": 2894,
  "மணி": 2895,
  "সাধারণ": 2896,
  "মিক": 2897,
  "क्यों": 2898,
  "दिए": 2899,
  "ஸ்த": 2900,
  "अगर": 2901,
  "अला": 2902,
  "ছাত্র": 2903,
  "দ্র": 2904,
  "ंगल": 2905,
  "দাবি": 2906,
  "েরা": 2907,
  "ेत": 2908,
  "ద్ధి": 2909,
  "बारे": 2910,
  "স্": 2911,
  "अभी": 2912,
  "योजना": 2913,
  "बंद": 2914,
  "ண்டி": 2915,
  "কারণে": 2916,
  "বলেছেন": 2917,
  "ड़क": 2918,
  "வந்து": 2919,
  "েষ": 2920,
  "पिछले": 2921,
  "হোস": 2922,
  "జన": 2923,
  "অভিন": 2924,
  "రాలు": 2925,
  "వ్యవ": 2926,
  "ఎదు": 2927,
  "హె": 2928,
  "अधिकारी": 2929,
  "ద్దు": 2930,
  "বিভাগ": 2931,
  "ఎమ్మె": 2932,
  "వద్ద": 2933,
  "ప్రపంచ": 2934,
  "जय": 2935,
  "ற்கொ": 2936,
  "விடு": 2937,
  "গো": 2938,
  "ाला": 2939,
  "மதி": 2940,
  "आयोज": 2941,
  "চিক": 2942,
  "నమో": 2943,
  "మాత్రమే": 2944,
  "रण": 2945,
  "কর্ত": 2946,
  "కెట్": 2947,
  "మహి": 2948,
  "उठ": 2949,
  "தனது": 2950,
  "सल": 2951,
  "నేప": 2952,
  "रिप": 2953,
  "रीज": 2954,
  "వైర": 2955,
  "నిర్మా": 2956,
  "এবার": 2957,
  "উল": 2958,
  "ড়িয়ে": 2959,
  "পরিচাল": 2960,
  "என்": 2961,
  "িতা": 2962,
  "మిక": 2963,
  "विध": 2964,
  "माण": 2965,
  "కాంగ్రెస్": 2966,
  "জানা": 2967,
  "நாட": 2968,
  "বৈ": 2969,
  "स्तान": 2970,
  "লেন": 2971,
  "দান": 2972,
  "ష్టం": 2973,
  "விட": 2974,
  "సీఎం": 2975,
  "கொரோனா": 2976,
  "मिले": 2977,
  "ंत": 2978,
  "భూ": 2979,
  "पढ़": 2980,
  "ক্রি": 2981,
  "వైద్య": 2982,
  "సంగ": 2983,
  "परी": 2984,
  "पांच": 2985,
  "অর্থ": 2986,
  "বিশেষ": 2987,
  "வாழ": 2988,
  "জেলা": 2989,
  "টক": 2990,
  "பார்த்த": 2991,
  "పరిశ": 2992,
  "కుడు": 2993,
  "ఇవ్వ": 2994,
  "தகவ": 2995,
  "ெல்ல": 2996,
  "পাঠ": 2997,
  "ఫీ": 2998,
  "ానికి": 2999,
  "র্শ": 3000,
  "ர்ப்ப": 3001,
  "ताब": 3002,
  "వార్": 3003,
  "রাস": 3004,
  "నగ": 3005,
  "వచ్చే": 3006,
  "ుడు": 3007,
  "वासी": 3008,
  "বিশ্ববিদ্যালয়": 3009,
  "অফ": 3010,
  "நாடு": 3011,
  "क्या": 3012,
  "காரண": 3013,
  "তথ্য": 3014,
  "జరిగిన": 3015,
  "त्म": 3016,
  "తరు": 3017,
  "अलावा": 3018,
  "দার": 3019,
  "எடுத்து": 3020,
  "யில்": 3021,
  "ஆர": 3022,
  "థ్యం": 3023,
  "தெரிய": 3024,
  "দেন": 3025,
  "ক্রম": 3026,
  "கிறார்": 3027,
  "वल": 3028,
  "চ্ছ": 3029,
  "ప్రధాన": 3030,
  "ையான": 3031,
  "మహిళ": 3032,
  "வாய": 3033,
  "ज्ञ": 3034,
  "ட்டும்": 3035,
  "पड़": 3036,
  "ிருக்க": 3037,
  "త్వం": 3038,
  "தமிழ": 3039,
  "కంగా": 3040,
  "నేత": 3041,
  "தொகு": 3042,
  "மட்டு": 3043,
  "రాష్ట్రం": 3044,
  "আবার": 3045,
  "কল": 3046,
  "जग": 3047,
  "विकास": 3048,
  "மன": 3049,
  "ూరు": 3050,
  "க்கூ": 3051,
  "ఆరోగ": 3052,
  "सफ": 3053,
  "্যাক": 3054,
  "ন্ত্রণ": 3055,
  "ென": 3056,
  "లై": 3057,
  "য়োজন": 3058,
  "ినే": 3059,
  "நல்ல": 3060,
  "आपको": 3061,
  "इसे": 3062,
  "లుగా": 3063,
  "কর্মকর্ত": 3064,
  "बैं": 3065,
  "வார": 3066,
  "ंगे": 3067,
  "పాత్ర": 3068,
  "ஆய": 3069,
  "তখন": 3070,
  "ప్రయత్": 3071,
  "இலங்க": 3072,
  "इसमें": 3073,
  "ெரிக்க": 3074,
  "বলা": 3075,
  "இரண்டு": 3076,
  "स्कूल": 3077,
  "ख्या": 3078,
  "సమస్య": 3079,
  "উপজ": 3080,
  "ాన్ని": 3081,
  "ুঁ": 3082,
  "புதிய": 3083,
  "ఏర్పాటు": 3084,
  "कान": 3085,
  "ట్టిన": 3086,
  "ীতে": 3087,
  "వల్ల": 3088,
  "భారత": 3089,
  "মূল": 3090,
  "াস্ত": 3091,
  "வற்ற": 3092,
  "ரீ": 3093,
  "ন্ম": 3094,
  "बजे": 3095,
  "এম": 3096,
  "குட": 3097,
  "వాటి": 3098,
  "వ్యక్తి": 3099,
  "সূ": 3100,
  "కార్యక్ర": 3101,
  "er": 3102,
  "युव": 3103,
  "চলে": 3104,
  "ஆம்": 3105,
  "ফির": 3106,
  "అవకాశం": 3107,
  "తున్నాయి": 3108,
  "குறித்து": 3109,
  "ిల్లీ": 3110,
  "ంక": 3111,
  "యాన్ని": 3112,
  "নিজে": 3113,
  "అధ్య": 3114,
  "ల్య": 3115,
  "పం": 3116,
  "హో": 3117,
  "கல்": 3118,
  "களும்": 3119,
  "நேற்று": 3120,
  "ப்பை": 3121,
  "கட்டு": 3122,
  "తెలిసిందే": 3123,
  "நிலை": 3124,
  "ராஜ": 3125,
  "व्यव": 3126,
  "ప్‌": 3127,
  "ুট": 3128,
  "হোসেন": 3129,
  "যুক্ত": 3130,
  "இற": 3131,
  "ంటున్న": 3132,
  "செல்ல": 3133,
  "సరి": 3134,
  "रि": 3135,
  "जबकि": 3136,
  "ঢাকা": 3137,
  "ুণ": 3138,
  "ண்டிய": 3139,
  "পরিবার": 3140,
  "।\"": 3141,
  "మ్‌": 3142,
  "பழ": 3143,
  "্বে": 3144,
  "వన్": 3145,
  "డియో": 3146,
  "जहां": 3147,
  "పద": 3148,
  "उत्तर": 3149,
  "्ला": 3150,
  "చెబు": 3151,
  "इंड": 3152,
  "ুজ": 3153,
  "बैठक": 3154,
  "त्व": 3155,
  "তম": 3156,
  "পৌ": 3157,
  "ीर": 3158,
  "பெரிய": 3159,
  "கீ": 3160,
  "ांकि": 3161,
  "चे": 3162,
  "संग": 3163,
  "ర్మ": 3164,
  "অনুষ্ঠ": 3165,
  "লক্ষ": 3166,
  "అంటూ": 3167,
  "ంగ్‌": 3168,
  "క్రి": 3169,
  "রান": 3170,
  "படி": 3171,
  "మీద": 3172,
  "ధర": 3173,
  "స్వ": 3174,
  "ాం": 3175,
  "கட்சி": 3176,
  "ূর্ণ": 3177,
  "సౌ": 3178,
  "மீது": 3179,
  "ఉద్యో": 3180,
  "বিক": 3181,
  "యాలు": 3182,
  "अच्छ": 3183,
  "ృష్టి": 3184,
  "रिपोर्ट": 3185,
  "సర": 3186,
  "ங்கிய": 3187,
  "మూడు": 3188,
  "িত্ব": 3189,
  "చిన్న": 3190,
  "दर": 3191,
  "இணை": 3192,
  "దేశం": 3193,
  "పడు": 3194,
  "সাং": 3195,
  "চিকিৎ": 3196,
  "அமெரிக்க": 3197,
  "பயன்படுத்த": 3198,
  "াস্থ্য": 3199,
  "చేసు": 3200,
  "కొన": 3201,
  "हालांकि": 3202,
  "ப்போ": 3203,
  "ूट": 3204,
  "তৈরি": 3205,
  "শেখ": 3206,
  "সংস": 3207,
  "గంట": 3208,
  "प्रा": 3209,
  "குழந்தை": 3210,
  "ஆத": 3211,
  "నేపథ్యం": 3212,
  "நினை": 3213,
  "ची": 3214,
  "रात": 3215,
  "্লাহ": 3216,
  "நடவடிக்கை": 3217,
  "திற": 3218,
  "యన్": 3219,
  "करण": 3220,
  "কী": 3221,
  "पत्र": 3222,
  "மர்": 3223,
  "தொடர்ந்து": 3224,
  "গণ": 3225,
  "ట్ర": 3226,
  "ச்சை": 3227,
  "কলে": 3228,
  "ायक": 3229,
  "போரா": 3230,
  "पानी": 3231,
  "பேர்": 3232,
  "மார்": 3233,
  "செய்": 3234,
  "நாள": 3235,
  "உங்கள்": 3236,
  "कंपनी": 3237,
  "కలిసి": 3238,
  "గె": 3239,
  "হয়েছিল": 3240,
  "जह": 3241,
  "అదే": 3242,
  "বিষয়ে": 3243,
  "১২": 3244,
  "तैयार": 3245,
  "అమె": 3246,
  "दन": 3247,
  "হত": 3248,
  "चला": 3249,
  "்ப்ப": 3250,
  "త్మ": 3251,
  "பெரும்": 3252,
  "சென்னை": 3253,
  "క్స్": 3254,
  "ேயே": 3255,
  "ar": 3256,
  "నాయ": 3257,
  "ంటర్": 3258,
  "ऐसा": 3259,
  "கின்றனர்": 3260,
  "ப்பட்டுள்ளது": 3261,
  "টিতে": 3262,
  "దన": 3263,
  "খ্যা": 3264,
  "ముఖ్యమంత్రి": 3265,
  "தான": 3266,
  "স্প": 3267,
  "మొత్తం": 3268,
  "েত্রে": 3269,
  "र्फ": 3270,
  "मैच": 3271,
  "கூட": 3272,
  "পো": 3273,
  "র্ঘ": 3274,
  "చేయడం": 3275,
  "நிர்": 3276,
  "తాజాగా": 3277,
  "বিপ": 3278,
  "తుల": 3279,
  "యారు": 3280,
  "சென்ற": 3281,
  "చ్‌": 3282,
  "ষণা": 3283,
  "थाना": 3284,
  "ধু": 3285,
  "ড়ি": 3286,
  "பர்": 3287,
  "హు": 3288,
  "দিল": 3289,
  "మ్యా": 3290,
  "ఇప్పటికే": 3291,
  "डे": 3292,
  "కేసీ": 3293,
  "ிற்க": 3294,
  "ఖా": 3295,
  "అత్య": 3296,
  "கையில்": 3297,
  "షన్‌": 3298,
  "గత": 3299,
  "పెట్ట": 3300,
  "గానే": 3301,
  "ुक्त": 3302,
  "दें": 3303,
  "வைத்து": 3304,
  "तहत": 3305,
  "కుటుంబ": 3306,
  "అధికారులు": 3307,
  "দেয়": 3308,
  "பகுதி": 3309,
  "कर्": 3310,
  "భాగ": 3311,
  "ঠন": 3312,
  "শিক্ষক": 3313,
  "வர்கள": 3314,
  "வம்": 3315,
  "ஜி": 3316,
  "कार्यक्रम": 3317,
  "தற்போது": 3318,
  "जिसमें": 3319,
  ")।": 3320,
  "వంటి": 3321,
  "ாளர்கள்": 3322,
  "పూ": 3323,
  "ப்பில்": 3324,
  "లోనూ": 3325,
  "১১": 3326,
  "কেউ": 3327,
  "সম্পাদ": 3328,
  "వెల్ల": 3329,
  "ரூப": 3330,
  "वजह": 3331,
  "దాని": 3332,
  "ప్రభా": 3333,
  "பத": 3334,
  "मंद": 3335,
  "कहना": 3336,
  "ఢిల్లీ": 3337,
  "नेता": 3338,
  "कार्र": 3339,
  "ற்காக": 3340,
  "రెండ": 3341,
  "্জ": 3342,
  "ృతి": 3343,
  "पंच": 3344,
  "गिरफ्त": 3345,
  "हों": 3346,
  "ियर": 3347,
  "শিশ": 3348,
  "করছে": 3349,
  "डा": 3350,
  "న్యా": 3351,
  "सुबह": 3352,
  "ప్రమా": 3353,
  "లక": 3354,
  "বেদন": 3355,
  "శాఖ": 3356,
  "నో": 3357,
  "றும்": 3358,
  "র্জ": 3359,
  "कार्रवाई": 3360,
  "మండ": 3361,
  "షా": 3362,
  "ప్రశ్": 3363,
  "निर्देश": 3364,
  "శు": 3365,
  "ভব": 3366,
  "पाकि": 3367,
  "குறிப்பி": 3368,
  "యువ": 3369,
  "ক্স": 3370,
  "మాట్లాడు": 3371,
  "आग": 3372,
  "ষ্টা": 3373,
  "লেও": 3374,
  "క్షణ": 3375,
  "ఊ": 3376,
  "இந்": 3377,
  "লাখ": 3378,
  "லாக": 3379,
  "స్టు": 3380,
  "ళ్లి": 3381,
  "రంగ": 3382,
  "్వర": 3383,
  "मज": 3384,
  "தலைவர்": 3385,
  "उनका": 3386,
  "ల్యే": 3387,
  "ణ్": 3388,
  "ఆర్‌": 3389,
  "ंज": 3390,
  "அழை": 3391,
  "बल्": 3392,
  "డీపీ": 3393,
  "వత్స": 3394,
  "मीड": 3395,
  "খা": 3396,
  "సందర్భంగా": 3397,
  "வழி": 3398,
  "नजर": 3399,
  "मेंट": 3400,
  "సమాచారం": 3401,
  "వృ": 3402,
  "क्षण": 3403,
  "लोक": 3404,
  "ఉత్త": 3405,
  "ोध": 3406,
  "मुताब": 3407,
  "त्रा": 3408,
  "উৎ": 3409,
  "సహా": 3410,
  "त्या": 3411,
  "గుర్తి": 3412,
  "కంప": 3413,
  "బడి": 3414,
  "ండియా": 3415,
  "লোক": 3416,
  "సమావేశ": 3417,
  "సభ్య": 3418,
  "ఛ": 3419,
  "ావు": 3420,
  "आम": 3421,
  "வன்": 3422,
  "बनाने": 3423,
  "த்தர": 3424,
  "গ্রে": 3425,
  "সেখানে": 3426,
  "িদ": 3427,
  "ంతా": 3428,
  "সম্": 3429,
  "ेंस": 3430,
  "కొనసా": 3431,
  "স্বাস্থ্য": 3432,
  "উই": 3433,
  "ைத்": 3434,
  "িন্দ": 3435,
  "தனி": 3436,
  "রাত": 3437,
  "পাক": 3438,
  "அதன்": 3439,
  "ఎందు": 3440,
  "ఇందు": 3441,
  "டுப": 3442,
  "వాల్": 3443,
  "मौके": 3444,
  "தேசிய": 3445,
  "குடும்ப": 3446,
  "वरी": 3447,
  "विश्व": 3448,
  "மெ": 3449,
  "மாற்ற": 3450,
  "बाहर": 3451,
  "खेल": 3452,
  "स्ता": 3453,
  "शर्": 3454,
  "அவர": 3455,
  "ழ்ச": 3456,
  "ఎమ్మెల్యే": 3457,
  "बॉ": 3458,
  "చో": 3459,
  "আওয়": 3460,
  "என்றும்": 3461,
  "াসন": 3462,
  "ఇతర": 3463,
  "ங்கே": 3464,
  "சந்தி": 3465,
  "இன்ன": 3466,
  "খান": 3467,
  "দেশে": 3468,
  "मीडिया": 3469,
  "मत": 3470,
  "बेह": 3471,
  "াইন": 3472,
  "बस": 3473,
  "লো": 3474,
  "on": 3475,
  "அதிகாரி": 3476,
  "रवि": 3477,
  "भर": 3478,
  "பெரு": 3479,
  "ংক": 3480,
  "উন্ন": 3481,
  "யம்": 3482,
  "தின": 3483,
  "చర్య": 3484,
  "स्थ्य": 3485,
  "ంచుకు": 3486,
  "इस्": 3487,
  "मिला": 3488,
  "నర్": 3489,
  "খবর": 3490,
  "संख्या": 3491,
  "సంవత్స": 3492,
  "मुताबिक": 3493,
  "आगे": 3494,
  "बड़ी": 3495,
  "प्रधानमंत्री": 3496,
  "ীরা": 3497,
  "खंड": 3498,
  "चित": 3499,
  "ంటున్నారు": 3500,
  "চাই": 3501,
  "చ్చి": 3502,
  "লীগ": 3503,
  "ঘটনা": 3504,
  "আরো": 3505,
  "ছাড়া": 3506,
  "बैंक": 3507,
  "పిల్": 3508,
  "రిగి": 3509,
  "াতা": 3510,
  "క్కి": 3511,
  "పాఠ": 3512,
  "చర్చ": 3513,
  "सुरक्षा": 3514,
  "చు": 3515,
  "কায়": 3516,
  "అంటే": 3517,
  "ஸ்ப": 3518,
  "యోజ": 3519,
  "मंदिर": 3520,
  "मद": 3521,
  "পদ": 3522,
  "পাওয়া": 3523,
  "িস্ট": 3524,
  "খেল": 3525,
  "আপনি": 3526,
  "ভূ": 3527,
  "উন": 3528,
  "కుల": 3529,
  "జో": 3530,
  "িনা": 3531,
  "at": 3532,
  "দী": 3533,
  "மேற்கொ": 3534,
  "బయట": 3535,
  "க்கோ": 3536,
  "সম্ম": 3537,
  "னித": 3538,
  "बढ़ा": 3539,
  "দক্ষ": 3540,
  "্যাস": 3541,
  "সো": 3542,
  "్రో": 3543,
  "ళి": 3544,
  "মৃত্যু": 3545,
  "আদাল": 3546,
  "संक्रम": 3547,
  "మర్శ": 3548,
  "मिली": 3549,
  "అయ్య": 3550,
  "விரு": 3551,
  "ఉత్": 3552,
  "வான": 3553,
  "மக்கள": 3554,
  "బ్యాం": 3555,
  "టీడీపీ": 3556,
  "కోవడం": 3557,
  "शेष": 3558,
  "ంటారు": 3559,
  "आदि": 3560,
  "பேச": 3561,
  "ஆண்ட": 3562,
  "ிருக்கும்": 3563,
  "வேறு": 3564,
  "কু": 3565,
  "হন": 3566,
  "అర": 3567,
  "மிகவும்": 3568,
  "जिन": 3569,
  "న్యూ": 3570,
  "சாய": 3571,
  "পাশ": 3572,
  "स्वास्थ्य": 3573,
  "డాది": 3574,
  "மாத": 3575,
  "ক্ট": 3576,
  "सच": 3577,
  "`": 3578,
  "స్టార్": 3579,
  "షల్": 3580,
  "गढ़": 3581,
  "यी": 3582,
  "মার্": 3583,
  "ந்தி": 3584,
  "নেত": 3585,
  "জীবন": 3586,
  "উত্তর": 3587,
  "ब्र": 3588,
  "यादव": 3589,
  "सदस": 3590,
  "ட்டம்": 3591,
  "ாண": 3592,
  "আক্রান্ত": 3593,
  "అమెరి": 3594,
  "సంఘ": 3595,
  "সম্পাদক": 3596,
  "மர": 3597,
  "दिख": 3598,
  "ృష్ణ": 3599,
  "அக": 3600,
  "ানোর": 3601,
  "हिंदी": 3602,
  "ম্যান": 3603,
  "குற்ற": 3604,
  "அணி": 3605,
  "ఉండే": 3606,
  "ఇద్ద": 3607,
  "শিক্ষা": 3608,
  "একই": 3609,
  "ायल": 3610,
  "গঞ্জ": 3611,
  "जीत": 3612,
  "జ్‌": 3613,
  "दूसरे": 3614,
  "వెళ్లి": 3615,
  "থান": 3616,
  "ப்பாக": 3617,
  "நிலைய": 3618,
  "వెల్లడి": 3619,
  "ार्थ": 3620,
  "பிறகு": 3621,
  "সির": 3622,
  "పాల": 3623,
  "জয়": 3624,
  "முடியும்": 3625,
  "बू": 3626,
  "হলো": 3627,
  "ঠিক": 3628,
  "এটা": 3629,
  "হওয়ার": 3630,
  "தாகவும்": 3631,
  "ায়ক": 3632,
  "செயல": 3633,
  "முன்": 3634,
  "ष्ठ": 3635,
  "আওয়ামী": 3636,
  "எம்": 3637,
  "న్నీ": 3638,
  "தேதி": 3639,
  "राब": 3640,
  "డ్డు": 3641,
  "ডিস": 3642,
  "శాతం": 3643,
  "শ্চ": 3644,
  "வச": 3645,
  "म्मी": 3646,
  "পরিস": 3647,
  "परीक्षा": 3648,
  "పరిస్థితి": 3649,
  "কার্য": 3650,
  "பல்": 3651,
  "ीय": 3652,
  "ுக்கும்": 3653,
  "শতা": 3654,
  "रहने": 3655,
  "పడి": 3656,
  "லிய": 3657,
  "అధ్యక్ష": 3658,
  "াক্ত": 3659,
  "উপজেলার": 3660,
  "ীল": 3661,
  "అర్": 3662,
  "ছেলে": 3663,
  "सौ": 3664,
  "వులు": 3665,
  "முய": 3666,
  "ாளி": 3667,
  "గ్గు": 3668,
  "அரசியல்": 3669,
  "আত": 3670,
  "নামে": 3671,
  "नौ": 3672,
  "తారు": 3673,
  "वहां": 3674,
  "्‍": 3675,
  "கலந்து": 3676,
  "কলেজ": 3677,
  "মাঝ": 3678,
  "কর্মকর্তা": 3679,
  "कुल": 3680,
  "जैसे": 3681,
  "पो": 3682,
  "వ్యవహ": 3683,
  "लड़": 3684,
  "సన": 3685,
  "वायर": 3686,
  "১৫": 3687,
  "ற்கான": 3688,
  "ీవు": 3689,
  "*": 3690,
  "పోలీసు": 3691,
  "C": 3692,
  "லோ": 3693,
  "ாடு": 3694,
  "நடத்த": 3695,
  "कोर्ट": 3696,
  "க்கிறார்": 3697,
  "லட்ச": 3698,
  "जि": 3699,
  "दर्शन": 3700,
  "মিল": 3701,
  "েনে": 3702,
  "వెంట": 3703,
  "ৃতি": 3704,
  "नए": 3705,
  "சமூ": 3706,
  "र्क": 3707,
  "মত": 3708,
  "உருவா": 3709,
  "வருகிறது": 3710,
  "ैंड": 3711,
  "विशेष": 3712,
  "அண": 3713,
  "जम": 3714,
  "শাহ": 3715,
  "ிருப்ப": 3716,
  "কেল": 3717,
  "লাগ": 3718,
  "விசார": 3719,
  "जगह": 3720,
  "ஃ": 3721,
  "ల్స్": 3722,
  "सूचना": 3723,
  "বহ": 3724,
  "आया": 3725,
  "াকার": 3726,
  "শিক্ষার্থী": 3727,
  "జర్": 3728,
  "ామని": 3729,
  "அனைத்து": 3730,
  "ट्रे": 3731,
  "எதிர்ப": 3732,
  "ऑफ": 3733,
  "শ্র": 3734,
  "ालय": 3735,
  "ள்ளன": 3736,
  "मही": 3737,
  "ধা": 3738,
  "చేప": 3739,
  "ముఖ": 3740,
  "பாட": 3741,
  "हन": 3742,
  "S": 3743,
  "एन": 3744,
  "జీవి": 3745,
  "ంధ్ర": 3746,
  "ற்றிய": 3747,
  "తెర": 3748,
  "பின்னர்": 3749,
  "|": 3750,
  "হাম": 3751,
  "ఇంటి": 3752,
  "वीड": 3753,
  "তুলে": 3754,
  "্যার": 3755,
  "చేస్తున్నారు": 3756,
  "উপস্থ": 3757,
  "அதை": 3758,
  "அவரது": 3759,
  "गुरु": 3760,
  "দেখে": 3761,
  "డై": 3762,
  "फैस": 3763,
  "দূ": 3764,
  "मारी": 3765,
  "తరువాత": 3766,
  "पं": 3767,
  "उम्मी": 3768,
  "লায়": 3769,
  "ॉक": 3770,
  "উপজেলা": 3771,
  "নির্বাচন": 3772,
  "பெண்": 3773,
  "प्रशासन": 3774,
  "ঙ্ক": 3775,
  "அதே": 3776,
  "रुपए": 3777,
  "A": 3778,
  "সেন": 3779,
  "ట్టుకు": 3780,
  "అలాగే": 3781,
  "आधार": 3782,
  "విశ": 3783,
  "उम्मीद": 3784,
  "সভাপতি": 3785,
  "ঙ্গল": 3786,
  "রোগ": 3787,
  "மையான": 3788,
  "ৃষ্": 3789,
  "ிட": 3790,
  "उसकी": 3791,
  "मौजूद": 3792,
  "కాగా": 3793,
  "শ্য": 3794,
  "సహ": 3795,
  "జె": 3796,
  "पत्": 3797,
  "த்தம்": 3798,
  "िये": 3799,
  "்ட்": 3800,
  "க்கில்": 3801,
  "సీపీ": 3802,
  "అభ్య": 3803,
  "ইউনিয়ন": 3804,
  "సూచ": 3805,
  "करे": 3806,
  "সিদ্ধ": 3807,
  "தற்கு": 3808,
  "सोम": 3809,
  "ల్లు": 3810,
  "విమర్శ": 3811,
  "அடுத்த": 3812,
  "निवासी": 3813,
  "ఎన్నికల": 3814,
  "कृ": 3815,
  "ல்கள்": 3816,
  "ন্দর": 3817,
  "যান": 3818,
  "தன்": 3819,
  "சிக": 3820,
  "ినీ": 3821,
  "விட்டு": 3822,
  "স্থানীয়": 3823,
  "ஸ்க": 3824,
  "முற": 3825,
  "বয়": 3826,
  "शि": 3827,
  "అయిన": 3828,
  "োয়া": 3829,
  "বাই": 3830,
  "பொறு": 3831,
  "विधान": 3832,
  "ूरत": 3833,
  "ुआ": 3834,
  "ফল": 3835,
  "తొలి": 3836,
  "मरीज": 3837,
  "ট্ট": 3838,
  "வட": 3839,
  "जाएगी": 3840,
  "மது": 3841,
  "న్ను": 3842,
  "లుగు": 3843,
  "हाथ": 3844,
  "ियन": 3845,
  "த்தது": 3846,
  "पूरा": 3847,
  "शर्मा": 3848,
  "రాజకీయ": 3849,
  "ரவ": 3850,
  "अलग": 3851,
  "इसलिए": 3852,
  "वाह": 3853,
  "ார்ப": 3854,
  "రగ": 3855,
  "इसकी": 3856,
  "মুক্তি": 3857,
  "జన్": 3858,
  "शल": 3859,
  "वीडियो": 3860,
  "க்த": 3861,
  "विरो": 3862,
  "ఉందని": 3863,
  "দন্ত": 3864,
  "రికి": 3865,
  "इसका": 3866,
  "ராட்சி": 3867,
  "அமைச்சர்": 3868,
  "ফলে": 3869,
  "व्या": 3870,
  "तब": 3871,
  "क्सी": 3872,
  "பிரத": 3873,
  "or": 3874,
  "ెనీ": 3875,
  "விவசாய": 3876,
  "তাহ": 3877,
  "मदद": 3878,
  "పాల్గొ": 3879,
  "వీడియో": 3880,
  "সংবাদ": 3881,
  "ఎంత": 3882,
  "మరింత": 3883,
  "ఎన్": 3884,
  "முழு": 3885,
  "প্রধানমন্ত্রী": 3886,
  "எஸ்": 3887,
  "உறுப்ப": 3888,
  "ியர்": 3889,
  "కొని": 3890,
  "என்பதை": 3891,
  "சென்று": 3892,
  "రీక్ష": 3893,
  "েরে": 3894,
  "निर्माण": 3895,
  "పిల్ల": 3896,
  "দ্বিত": 3897,
  "వ్యక్తం": 3898,
  "घोष": 3899,
  "ினி": 3900,
  "গুরু": 3901,
  "కమి": 3902,
  "నిక": 3903,
  "al": 3904,
  "ব্র": 3905,
  "কমি": 3906,
  "वेश": 3907,
  "িস্তান": 3908,
  "టే": 3909,
  "கைது": 3910,
  "ाप्त": 3911,
  "রেখে": 3912,
  "০": 3913,
  "क्योंकि": 3914,
  "তাল": 3915,
  "பெற்று": 3916,
  "ించడం": 3917,
  "প্রশ্ন": 3918,
  "చేరు": 3919,
  "পান": 3920,
  "গেল": 3921,
  "झे": 3922,
  "మొదటి": 3923,
  "ர்த்து": 3924,
  "கடை": 3925,
  "নারী": 3926,
  "தேவ": 3927,
  "వృద్ధి": 3928,
  "ஈடுப": 3929,
  "करेंगे": 3930,
  "मंगल": 3931,
  "ఉన్నారు": 3932,
  "పత్రి": 3933,
  "स्थिति": 3934,
  "মাল": 3935,
  "रन": 3936,
  "তায়": 3937,
  "ఆరోగ్య": 3938,
  "खान": 3939,
  "মোট": 3940,
  "र्य": 3941,
  "अफ": 3942,
  "सहित": 3943,
  "ரான": 3944,
  "நிய": 3945,
  "ऊ": 3946,
  "டியாக": 3947,
  "ఉంటే": 3948,
  "పవన్": 3949,
  "డుగు": 3950,
  "P": 3951,
  "ர்ம": 3952,
  "ின்றன": 3953,
  "রাষ্ট্র": 3954,
  "కంపెనీ": 3955,
  "ুগ": 3956,
  "ారె": 3957,
  "వారికి": 3958,
  "িণ": 3959,
  "কোনও": 3960,
  "रेल": 3961,
  "तन": 3962,
  "আগামী": 3963,
  "க்கா": 3964,
  "ண்ணி": 3965,
  "పోటీ": 3966,
  "అవసరం": 3967,
  "வாறு": 3968,
  "न्या": 3969,
  "এসব": 3970,
  "ளம்": 3971,
  "এলাকায়": 3972,
  "যখন": 3973,
  "सेवा": 3974,
  "கன்": 3975,
  "అమెరికా": 3976,
  "েস্ট": 3977,
  "பெண": 3978,
  "ంతి": 3979,
  "ழுவ": 3980,
  "புது": 3981,
  "మారి": 3982,
  "অফিস": 3983,
  "जल्": 3984,
  "విచ": 3985,
  "ধরন": 3986,
  "बाजार": 3987,
  "வின்": 3988,
  "িত্র": 3989,
  "దిక": 3990,
  "চা": 3991,
  "চেয়ার": 3992,
  "াপা": 3993,
  "சங்க": 3994,
  "నులు": 3995,
  "సొ": 3996,
  "ఉద": 3997,
  "స్థాయి": 3998,
  "अमेर": 3999,
  "লাম": 4000,
  "श्र": 4001,
  "बिहार": 4002,
  "ల్ని": 4003,
  "यान": 4004,
  "ांत": 4005,
  "பற்றி": 4006,
  "दल": 4007,
  "వివా": 4008,
  "প্রস্ত": 4009,
  "र्चा": 4010,
  "క్షి": 4011,
  "ৈতিক": 4012,
  "அனுமதி": 4013,
  "செல்": 4014,
  "....": 4015,
  "থাকে": 4016,
  "డికి": 4017,
  "சிறு": 4018,
  "విజయ": 4019,
  "समझ": 4020,
  "கிராம": 4021,
  "లేదని": 4022,
  "செல": 4023,
  "ினால்": 4024,
  "ட்டின்": 4025,
  "ंदर": 4026,
  "শুধু": 4027,
  "నలు": 4028,
  "ामीण": 4029,
  "பார்க்க": 4030,
  "लगे": 4031,
  "ंगा": 4032,
  "పతి": 4033,
  "స్క": 4034,
  "स्थान": 4035,
  "பல்வேறு": 4036,
  "ష్క": 4037,
  "ణాలు": 4038,
  "गिरफ्तार": 4039,
  "ெட்": 4040,
  "कल": 4041,
  "ছোট": 4042,
  "ఫోన్": 4043,
  "இதனால்": 4044,
  "स्या": 4045,
  "ంతరం": 4046,
  "शुक्र": 4047,
  "ক্ষেত্রে": 4048,
  "వివ": 4049,
  "पहुंचे": 4050,
  "உத்தர": 4051,
  "ஷ": 4052,
  "లె": 4053,
  "ढ": 4054,
  "ணைய": 4055,
  "சமூக": 4056,
  "ఆర్థ": 4057,
  "शिव": 4058,
  "భి": 4059,
  "১৮": 4060,
  "ব্যবস্থা": 4061,
  "वीर": 4062,
  "पाकिस्तान": 4063,
  "ग्रामीण": 4064,
  "R": 4065,
  "சார்": 4066,
  "मामला": 4067,
  "নির্দেশ": 4068,
  "দ্বিতীয়": 4069,
  "தியாக": 4070,
  "সিদ্ধান্ত": 4071,
  "[": 4072,
  "টিং": 4073,
  "తెలియ": 4074,
  "ैल": 4075,
  "িল্প": 4076,
  "కల్": 4077,
  "মিনি": 4078,
  "்து": 4079,
  "सड़क": 4080,
  "াক্ষ": 4081,
  "এরপর": 4082,
  "జూ": 4083,
  "சிர": 4084,
  "టై": 4085,
  "చూడ": 4086,
  "మాట": 4087,
  "বিজ্ঞ": 4088,
  "पे": 4089,
  "కళా": 4090,
  "வதற்கு": 4091,
  "పరీక్ష": 4092,
  "ূপ": 4093,
  "लेज": 4094,
  "लेने": 4095,
  "தேர்தல்": 4096,
  "शिकायत": 4097,
  "सोमवार": 4098,
  "फीस": 4099,
  "व्यक्ति": 4100,
  "विधायक": 4101,
  "స్టే": 4102,
  "যেতে": 4103,
  "ఎస్‌": 4104,
  "বৃহ": 4105,
  "াপ্ত": 4106,
  "நீதிமன்ற": 4107,
  "पहली": 4108,
  "उठा": 4109,
  "ఘటన": 4110,
  "ளவு": 4111,
  "சோ": 4112,
  "णी": 4113,
  "అభిమా": 4114,
  "্লেখ": 4115,
  "இதில்": 4116,
  "হাতে": 4117,
  "இருக்கிறது": 4118,
  "২০০": 4119,
  "पति": 4120,
  "দাঁ": 4121,
  "্রিয়": 4122,
  "एल": 4123,
  "ఇటీ": 4124,
  "বিচার": 4125,
  "উপর": 4126,
  "शत": 4127,
  "प्रदर्शन": 4128,
  "सीट": 4129,
  "াবে": 4130,
  "ఏడాది": 4131,
  "மீண்டும்": 4132,
  "தேச": 4133,
  "బ్బంది": 4134,
  "కారణంగా": 4135,
  "সামনে": 4136,
  "ব্যক্তি": 4137,
  "ங்களின்": 4138,
  "खरी": 4139,
  "உரி": 4140,
  "উল্লেখ": 4141,
  "ప్లా": 4142,
  "పాఠశాల": 4143,
  "বিএন": 4144,
  "रोक": 4145,
  "உள்ளிட்ட": 4146,
  "मां": 4147,
  "அதிகரி": 4148,
  "জানিয়েছেন": 4149,
  "আন্ত": 4150,
  "ালি": 4151,
  "पंचायत": 4152,
  "িশন": 4153,
  "సిద్ధ": 4154,
  "এতে": 4155,
  "ஆய்": 4156,
  "ఆర్థిక": 4157,
  "राष्ट्र": 4158,
  "సంఖ్య": 4159,
  "द्यालय": 4160,
  "நூ": 4161,
  "దో": 4162,
  "न्द्र": 4163,
  "হাসপাতালে": 4164,
  "শা": 4165,
  "కేసులు": 4166,
  "க்கல்": 4167,
  "প্রতিষ্ঠান": 4168,
  "शनि": 4169,
  "కేసీఆర్": 4170,
  "మాజీ": 4171,
  "நு": 4172,
  "खुद": 4173,
  "ேச": 4174,
  "ात": 4175,
  "పోయింది": 4176,
  "ప్రదేశ": 4177,
  "திரும": 4178,
  "காவ": 4179,
  "िति": 4180,
  "চেষ্টা": 4181,
  "అనేక": 4182,
  "స్తున్నాయి": 4183,
  "மறு": 4184,
  "కుమార్": 4185,
  "समाज": 4186,
  "সংখ্যা": 4187,
  "টাই": 4188,
  "வெற்றி": 4189,
  "प्रो": 4190,
  "नाथ": 4191,
  "ம்பு": 4192,
  "பட்ட": 4193,
  "চেয়ে": 4194,
  "উদ্ধ": 4195,
  "ঘোষণা": 4196,
  "துறை": 4197,
  "పనిచే": 4198,
  "दिव": 4199,
  "लगातार": 4200,
  "అక్క": 4201,
  "డని": 4202,
  "व्यवस्था": 4203,
  "সাই": 4204,
  "धि": 4205,
  "अर": 4206,
  "টু": 4207,
  "నుంది": 4208,
  "మరణ": 4209,
  "த்துடன்": 4210,
  "ுடைய": 4211,
  "पूछ": 4212,
  "শিশু": 4213,
  "యాల్": 4214,
  "প্রত": 4215,
  "পাঁচ": 4216,
  "वित": 4217,
  "அலுவ": 4218,
  "ধি": 4219,
  "নেতা": 4220,
  "ग्": 4221,
  "োজ": 4222,
  "வடி": 4223,
  "इट": 4224,
  "लगाया": 4225,
  "ওপর": 4226,
  "রাজ্য": 4227,
  "ডিও": 4228,
  "যাচ্ছে": 4229,
  "সরকারি": 4230,
  "விற": 4231,
  "ியுள்ளது": 4232,
  "ஆகும்": 4233,
  "ாகி": 4234,
  "জাম": 4235,
  "हत्या": 4236,
  "நாம்": 4237,
  "పర్": 4238,
  "சர்": 4239,
  "వో": 4240,
  "विधानसभा": 4241,
  "వాల": 4242,
  "ार्ड": 4243,
  "టివ్": 4244,
  "জানু": 4245,
  "सदस्य": 4246,
  "ేశారు": 4247,
  "জন্ম": 4248,
  "ప్రజలు": 4249,
  "மட்டுமே": 4250,
  "சிகி": 4251,
  "మాట్లాడుతూ": 4252,
  "हिस्": 4253,
  "மனித": 4254,
  "రాష్ట్రా": 4255,
  "পির": 4256,
  "माह": 4257,
  "बुध": 4258,
  "దగ్గ": 4259,
  "गांधी": 4260,
  "ఫలి": 4261,
  "நிறை": 4262,
  "ंटे": 4263,
  "শর": 4264,
  "ব্যাপ": 4265,
  "నమోదు": 4266,
  "நான": 4267,
  "யா": 4268,
  "ఆరోప": 4269,
  "மூன்று": 4270,
  "வழக்கு": 4271,
  "উঠে": 4272,
  "নিতে": 4273,
  "फर": 4274,
  "িয়ার": 4275,
  "দুল": 4276,
  "चुके": 4277,
  "தொழில்": 4278,
  "করি": 4279,
  "அடை": 4280,
  "ఉపయోగ": 4281,
  "క్షన్": 4282,
  "छो": 4283,
  "সকাল": 4284,
  "गम": 4285,
  "১৪": 4286,
  "হয়েছেন": 4287,
  "ஒன்று": 4288,
  "థ": 4289,
  "ందా": 4290,
  "युवक": 4291,
  "கட்ச": 4292,
  "డిగా": 4293,
  "हे": 4294,
  "ప్తంగా": 4295,
  "ইতি": 4296,
  "ஏற்படுத்த": 4297,
  "राष्ट्रीय": 4298,
  "खबर": 4299,
  "ম্ব": 4300,
  "ఇదే": 4301,
  "காரணமாக": 4302,
  "आस": 4303,
  "मि": 4304,
  "त्री": 4305,
  "समस्या": 4306,
  "తెలుస్తోంది": 4307,
  "ঐ": 4308,
  "ద్ది": 4309,
  "मंत्र": 4310,
  "সংগ": 4311,
  "ம்பெ": 4312,
  "मिक": 4313,
  "నిలి": 4314,
  "हूं": 4315,
  "es": 4316,
  "চ্ছেন": 4317,
  "తల్లి": 4318,
  "দক্ষিণ": 4319,
  "பை": 4320,
  "నేను": 4321,
  "ட்க": 4322,
  "கல்ல": 4323,
  "ंका": 4324,
  "ிரி": 4325,
  "করছেন": 4326,
  "থাকা": 4327,
  "னின்": 4328,
  "সবাই": 4329,
  "ন্য": 4330,
  "அப்ப": 4331,
  "जिसके": 4332,
  "మేర": 4333,
  "ल्ड": 4334,
  "বক্ত": 4335,
  "वाला": 4336,
  "వచ్చి": 4337,
  "రంగా": 4338,
  "అంతే": 4339,
  "ప్రకారం": 4340,
  "াগ": 4341,
  "तिक": 4342,
  "चलते": 4343,
  "க்கொண்ட": 4344,
  "নৈতিক": 4345,
  "जिससे": 4346,
  "ఉన్నా": 4347,
  "सर्": 4348,
  "করবে": 4349,
  "সুযোগ": 4350,
  "స్సు": 4351,
  "னே": 4352,
  "इक": 4353,
  "মাহ": 4354,
  "তর": 4355,
  "అభివృద్ధి": 4356,
  "விஷ": 4357,
  "गं": 4358,
  "काल": 4359,
  "ట్స్": 4360,
  "ార్డు": 4361,
  "াপন": 4362,
  "্মদ": 4363,
  "গান": 4364,
  "नर": 4365,
  "शुक्रवार": 4366,
  "न्यूज़": 4367,
  "உள்ளன": 4368,
  "হাত": 4369,
  "প্ট": 4370,
  "వచ్చింది": 4371,
  "M": 4372,
  "செலு": 4373,
  "ఆదేశ": 4374,
  "కొంత": 4375,
  "வைத்த": 4376,
  "রু": 4377,
  "উপস্থিত": 4378,
  "మతి": 4379,
  "ঘটে": 4380,
  "కత్వం": 4381,
  "पता": 4382,
  "सम्म": 4383,
  "ষে": 4384,
  "ర్చు": 4385,
  "মেয়ে": 4386,
  "ंबई": 4387,
  "చేయాలని": 4388,
  "యిన్": 4389,
  "लाई": 4390,
  "অন্ত": 4391,
  "லைய": 4392,
  "பகுதியில்": 4393,
  "వైసీపీ": 4394,
  "క్సి": 4395,
  "াকি": 4396,
  "ఆలో": 4397,
  "जल": 4398,
  "ளா": 4399,
  "ీవుడ్": 4400,
  "ংস": 4401,
  "ఆస": 4402,
  "पूरे": 4403,
  "यास": 4404,
  "బ్బు": 4405,
  "वाप": 4406,
  "িত্ত": 4407,
  "கண்ட": 4408,
  "शिक्षा": 4409,
  "बड़े": 4410,
  "श्य": 4411,
  "तरफ": 4412,
  "सुन": 4413,
  "তেই": 4414,
  "ஒவ்வ": 4415,
  "పట్ట": 4416,
  "்ப்பு": 4417,
  "জার": 4418,
  "పడ్డ": 4419,
  "పడ": 4420,
  "వలం": 4421,
  "োর্ট": 4422,
  "ভোট": 4423,
  "आत": 4424,
  "ారో": 4425,
  "শ্চিত": 4426,
  "ிலேயே": 4427,
  "থায়": 4428,
  "তাহলে": 4429,
  "কাম": 4430,
  "িসি": 4431,
  "महीने": 4432,
  "बिज": 4433,
  "বঙ্গ": 4434,
  "मंगलवार": 4435,
  "కలిగి": 4436,
  "হয়নি": 4437,
  "आदेश": 4438,
  "परेश": 4439,
  "্থিত": 4440,
  "யில": 4441,
  "मिलने": 4442,
  "দুপুর": 4443,
  "ஸ்ட்": 4444,
  "েন্স": 4445,
  "मंड": 4446,
  "গা": 4447,
  "కోర్టు": 4448,
  "లేకుండా": 4449,
  "शादी": 4450,
  "दारी": 4451,
  "பாதுகாப்பு": 4452,
  "జెక్": 4453,
  "শহর": 4454,
  "बुधवार": 4455,
  "నిర్ణయం": 4456,
  "లువ": 4457,
  "গ্রহণ": 4458,
  "पूर्": 4459,
  "ियान": 4460,
  "డె": 4461,
  "en": 4462,
  "ండ్‌": 4463,
  "இந்நிலையில்": 4464,
  "పింది": 4465,
  "আলোচ": 4466,
  "জায়": 4467,
  "ক্ষণ": 4468,
  "কন": 4469,
  "சுவ": 4470,
  "মাত্র": 4471,
  "ధిక": 4472,
  "মামলা": 4473,
  "கிறார்கள்": 4474,
  "కేవలం": 4475,
  "స్తామని": 4476,
  "यन": 4477,
  "மட்டும்": 4478,
  "செயல்ப": 4479,
  "वाहन": 4480,
  "নিহত": 4481,
  "जनता": 4482,
  "২৪": 4483,
  "প্রয়োজন": 4484,
  "ఎన్నికల్": 4485,
  "পরিস্থিত": 4486,
  "्यान": 4487,
  "குறித்த": 4488,
  "कराया": 4489,
  "राजनी": 4490,
  "উদ্ধার": 4491,
  "றைய": 4492,
  "ிலான": 4493,
  "எண்ண": 4494,
  "సంబంధించిన": 4495,
  "दूर": 4496,
  "வீர": 4497,
  "ওয়ে": 4498,
  "্লি": 4499,
  "পক্ষ": 4500,
  "త్వర": 4501,
  "বেক": 4502,
  "বুঝ": 4503,
  "राह": 4504,
  "లన": 4505,
  "ஜெய": 4506,
  "সিন": 4507,
  "নভ": 4508,
  "తమి": 4509,
  "ুই": 4510,
  "দিয়েছে": 4511,
  "ম্প": 4512,
  "స్వా": 4513,
  "क्रि": 4514,
  "हरा": 4515,
  "ডিসেম্বর": 4516,
  "দুর্": 4517,
  "కోట్ల": 4518,
  "விசாரணை": 4519,
  "दुकान": 4520,
  "গতকাল": 4521,
  "থেকেই": 4522,
  "నియ": 4523,
  "भे": 4524,
  "শতাংশ": 4525,
  "रविवार": 4526,
  "தவ": 4527,
  "బాటు": 4528,
  "যেন": 4529,
  "புக": 4530,
  "এখানে": 4531,
  "మవు": 4532,
  "उसने": 4533,
  "নিউ": 4534,
  "দশ": 4535,
  "बाल": 4536,
  "চৌ": 4537,
  "अभि": 4538,
  "పెళ్లి": 4539,
  "আফ": 4540,
  "माल": 4541,
  "रखा": 4542,
  "াতিক": 4543,
  "ালী": 4544,
  "విద్యార్థ": 4545,
  "গোল": 4546,
  "সার": 4547,
  "স্ম": 4548,
  "సంగతి": 4549,
  "ठन": 4550,
  "వస్తు": 4551,
  "प्रमुख": 4552,
  "వెంటనే": 4553,
  "ఎలాంటి": 4554,
  "ంగళ": 4555,
  "शनिवार": 4556,
  "క్యా": 4557,
  "ரூபாய்": 4558,
  "ிருக்கிறது": 4559,
  "லே": 4560,
  "বান": 4561,
  "బర్": 4562,
  "B": 4563,
  "दूसरी": 4564,
  "కీలక": 4565,
  "యుడు": 4566,
  "தயாரி": 4567,
  "இவ்": 4568,
  "বাড়ি": 4569,
  "எனவே": 4570,
  "ఆల": 4571,
  "னும்": 4572,
  "తుందని": 4573,
  "కనిపి": 4574,
  "प्रभाव": 4575,
  "সৌ": 4576,
  "নীতি": 4577,
  "ব্ল": 4578,
  "ౌన్": 4579,
  "ఆది": 4580,
  "ক্লা": 4581,
  "దాపు": 4582,
  "பிடி": 4583,
  "मुंबई": 4584,
  "बचा": 4585,
  "ர்ச்சி": 4586,
  "మానికి": 4587,
  "आरोपी": 4588,
  "বো": 4589,
  "चि": 4590,
  "அதில்": 4591,
  "নিশ্চিত": 4592,
  "दुनिया": 4593,
  "తాయి": 4594,
  "லுக்கு": 4595,
  "క్టర్": 4596,
  "విధంగా": 4597,
  "দায়িত্ব": 4598,
  "ைக்கு": 4599,
  "तरा": 4600,
  "வெளியே": 4601,
  "্যাম্প": 4602,
  "ங்கும்": 4603,
  "வேண்டிய": 4604,
  "চিত্র": 4605,
  "முயற்": 4606,
  "মিত": 4607,
  "டெ": 4608,
  "উচ্চ": 4609,
  "இரண்ட": 4610,
  "মঙ্গল": 4611,
  "আত্ম": 4612,
  "विरोध": 4613,
  "चाल": 4614,
  "ডা": 4615,
  "தேவை": 4616,
  "க்கப்பட்டது": 4617,
  "కాలు": 4618,
  "எடுக்க": 4619,
  "সচ": 4620,
  "बयान": 4621,
  "গুলি": 4622,
  "सके": 4623,
  "भि": 4624,
  "ీక": 4625,
  "बल": 4626,
  "அங்கு": 4627,
  "பள்ளி": 4628,
  "ந்தார்": 4629,
  "হে": 4630,
  "ందోళ": 4631,
  "డో": 4632,
  "बड़ा": 4633,
  "চো": 4634,
  "चुकी": 4635,
  "விதி": 4636,
  "खे": 4637,
  "২০২১": 4638,
  "మ్ము": 4639,
  "ఆంధ్ర": 4640,
  "விளையா": 4641,
  "गै": 4642,
  "প্রেস": 4643,
  "ेंड": 4644,
  "तम": 4645,
  "தவிர": 4646,
  "N": 4647,
  "পরীক্ষা": 4648,
  "முடிவு": 4649,
  "श्म": 4650,
  "इत": 4651,
  "২১": 4652,
  "দিয়েছেন": 4653,
  "ఉత్ప": 4654,
  "சிவ": 4655,
  "রায়": 4656,
  "இதன்": 4657,
  "நாய": 4658,
  "सिर्फ": 4659,
  "గర్": 4660,
  "রাপ": 4661,
  "ক্রমণ": 4662,
  "ప్రై": 4663,
  "ప్పటికీ": 4664,
  "সোম": 4665,
  "ஆர்": 4666,
  "চেয়ারম্যান": 4667,
  "ணுவ": 4668,
  "ஆயிர": 4669,
  "த்தால்": 4670,
  "्व": 4671,
  "చా": 4672,
  "र्ती": 4673,
  "ప్రముఖ": 4674,
  "सवाल": 4675,
  "ிகள்": 4676,
  "పరుగు": 4677,
  "వ్యాఖ్య": 4678,
  "பொருள": 4679,
  "সম্প্র": 4680,
  "ுள்ள": 4681,
  "குறிப்பிட": 4682,
  "চট্ট": 4683,
  "விமான": 4684,
  "தகவல்": 4685,
  "వ్యాప": 4686,
  "प्रे": 4687,
  "র্তি": 4688,
  "வல": 4689,
  "கேள்": 4690,
  "ఎంపీ": 4691,
  "जवा": 4692,
  "దాదాపు": 4693,
  "కంటే": 4694,
  "उपल": 4695,
  "সকল": 4696,
  "ప్రేక్ష": 4697,
  "ఇండియా": 4698,
  "घायल": 4699,
  "गि": 4700,
  "উঠ": 4701,
  "হী": 4702,
  "বিদ": 4703,
  "இருந்தது": 4704,
  "विड": 4705,
  "வதாக": 4706,
  "বী": 4707,
  "াপাশি": 4708,
  "జట్టు": 4709,
  "కాలం": 4710,
  "களையும்": 4711,
  "தொகுதி": 4712,
  "டா": 4713,
  "ந்துள்ளது": 4714,
  "వంత": 4715,
  "াধীন": 4716,
  "चान": 4717,
  "నాల": 4718,
  "लाल": 4719,
  "स्तर": 4720,
  "ভারতীয়": 4721,
  "ियम": 4722,
  "এছাড়া": 4723,
  "पक": 4724,
  "काश": 4725,
  "পাশাপাশি": 4726,
  "ఆసక్తి": 4727,
  "যারা": 4728,
  "த்துக்": 4729,
  "নিরাপ": 4730,
  "పల్లి": 4731,
  "స్పంది": 4732,
  "ின்றனர்": 4733,
  "जीवन": 4734,
  "ంచడం": 4735,
  "వార": 4736,
  "১৬": 4737,
  "স্কুল": 4738,
  "ঞ্চল": 4739,
  "நாள்": 4740,
  "సోషల్": 4741,
  "అక్కడ": 4742,
  "పెరుగు": 4743,
  "బాగా": 4744,
  "కోవాలని": 4745,
  "ఇంకా": 4746,
  "రాల": 4747,
  "থাকবে": 4748,
  "ెస్టు": 4749,
  "న్నాడు": 4750,
  "ক্ষা": 4751,
  "যুব": 4752,
  "ர்ச்ச": 4753,
  "যার": 4754,
  "పేర్కొన్నారు": 4755,
  "సౌకర్": 4756,
  "১৩": 4757,
  "மின்": 4758,
  "ாரம்": 4759,
  "షూ": 4760,
  "ంబర్": 4761,
  "உண்": 4762,
  "ুরি": 4763,
  "ন্স": 4764,
  "జరిగింది": 4765,
  "महिलाओं": 4766,
  "ডে": 4767,
  "पेश": 4768,
  "भूम": 4769,
  "అతి": 4770,
  "తక్కువ": 4771,
  "রকার": 4772,
  "सरकारी": 4773,
  "',": 4774,
  "তুল": 4775,
  "சத": 4776,
  "োভ": 4777,
  "जल्द": 4778,
  "व्याप": 4779,
  "నంద": 4780,
  "போட்ட": 4781,
  "T": 4782,
  "ెస్ట్": 4783,
  "বই": 4784,
  "দেয়া": 4785,
  "விஜ": 4786,
  "ாகும்": 4787,
  "குழு": 4788,
  "षा": 4789,
  "होंगे": 4790,
  "ৃষ": 4791,
  "తగ్గ": 4792,
  "நிர்வாக": 4793,
  "জানুয়ারি": 4794,
  "लाभ": 4795,
  "எப்படி": 4796,
  "அரசாங்க": 4797,
  "గాలు": 4798,
  "రోజుల": 4799,
  "ஒவ்வொரு": 4800,
  "ிட்டு": 4801,
  "বুধ": 4802,
  "అధికార": 4803,
  "వైపు": 4804,
  "ில்லை": 4805,
  "মার্চ": 4806,
  "భాగంగా": 4807,
  "செய்யப்பட்ட": 4808,
  "भीर": 4809,
  "நிர": 4810,
  "ধ্যায়": 4811,
  "कोश": 4812,
  "ப்பது": 4813,
  "నల్": 4814,
  "!": 4815,
  "நோய": 4816,
  "ఇచ్చిన": 4817,
  "प्रतिशत": 4818,
  "లక్షల": 4819,
  "पिता": 4820,
  "বিজে": 4821,
  "ইং": 4822,
  "ாவை": 4823,
  "లుపు": 4824,
  "চর": 4825,
  "உணவு": 4826,
  "ॉल": 4827,
  "हाई": 4828,
  "நடந்த": 4829,
  "তদন্ত": 4830,
  "నీటి": 4831,
  "సార్": 4832,
  "ாட்டு": 4833,
  "வாழ்": 4834,
  "पोस्ट": 4835,
  "చిన": 4836,
  "నిజ": 4837,
  "முன்ப": 4838,
  "বর্তী": 4839,
  "ద్యా": 4840,
  "ৃণ": 4841,
  "সময়ে": 4842,
  "পৃ": 4843,
  "সেপ্ট": 4844,
  "கோடி": 4845,
  "র্জাতিক": 4846,
  "ధు": 4847,
  "उपलब्": 4848,
  "கைய": 4849,
  "పోయిన": 4850,
  "নেওয়া": 4851,
  "र्ष": 4852,
  "సామా": 4853,
  "ెక్టర్": 4854,
  "নির": 4855,
  "నేతలు": 4856,
  "చర్యలు": 4857,
  "ंद्र": 4858,
  "சொன்ன": 4859,
  "போட்டி": 4860,
  "पूर्ण": 4861,
  "ग्राम": 4862,
  "ोरी": 4863,
  "తమిళ": 4864,
  "திரும்ப": 4865,
  "संघ": 4866,
  "போல": 4867,
  "கர": 4868,
  "প্রার্থী": 4869,
  "छोड़": 4870,
  "अभियान": 4871,
  "मुझे": 4872,
  "বায়": 4873,
  "க்கப்பட்டுள்ளது": 4874,
  "ங்கிர": 4875,
  "చట్ట": 4876,
  "?": 4877,
  "am": 4878,
  "వైరస్": 4879,
  "மருத்துவம": 4880,
  "తరలి": 4881,
  "িড": 4882,
  "బల": 4883,
  "স্পতি": 4884,
  "ప్రచారం": 4885,
  "্যাট": 4886,
  "ఇంత": 4887,
  "திரை": 4888,
  "तौर": 4889,
  "ளிடம்": 4890,
  "ప్రాజెక్": 4891,
  "ुट": 4892,
  "మొదల": 4893,
  "இந்தியா": 4894,
  "सांस": 4895,
  "வார்": 4896,
  "िकल": 4897,
  "ध्यान": 4898,
  "ప్టె": 4899,
  "ఆశ": 4900,
  "্যান্য": 4901,
  "ट्": 4902,
  "शाह": 4903,
  "ट्रेन": 4904,
  "பெற": 4905,
  "বুধবার": 4906,
  "అభ్యర్థ": 4907,
  "লেই": 4908,
  "ভাষ": 4909,
  "পড়া": 4910,
  "బ్లీ": 4911,
  "మార్కెట్": 4912,
  "োঁ": 4913,
  "ক্টো": 4914,
  "মতা": 4915,
  "राय": 4916,
  "আন্তর্জাতিক": 4917,
  "্তা": 4918,
  "ধুর": 4919,
  "तेज": 4920,
  "స్తాయి": 4921,
  "கண்டு": 4922,
  "পাকিস্তান": 4923,
  "কখন": 4924,
  "করেছিলেন": 4925,
  "অন্যান্য": 4926,
  "प्रभ": 4927,
  "ঘটনায়": 4928,
  "সোমবার": 4929,
  "কৃষ": 4930,
  "ஷ்ட": 4931,
  "দেওয়ার": 4932,
  "சிகிச்சை": 4933,
  "হাম্মদ": 4934,
  "मध्य": 4935,
  "డ్ర": 4936,
  "नल": 4937,
  "ట్టే": 4938,
  "एफ": 4939,
  "ாளு": 4940,
  "ఆందోళ": 4941,
  "ఇంటర్": 4942,
  "িয়ান": 4943,
  "వెంక": 4944,
  "மையில்": 4945,
  "னைய": 4946,
  "தமிழ்நா": 4947,
  "भग": 4948,
  "ালয়": 4949,
  "ెట్‌": 4950,
  "అమ్మ": 4951,
  "టర్‌": 4952,
  "ধর্ম": 4953,
  "लाइन": 4954,
  "এগ": 4955,
  "सोशल": 4956,
  "गेंद": 4957,
  "সেটা": 4958,
  "దొ": 4959,
  "அப்போது": 4960,
  "ப்பெ": 4961,
  "இறு": 4962,
  "னாதி": 4963,
  "ব্রু": 4964,
  "खास": 4965,
  "வைர": 4966,
  "স্পতিবার": 4967,
  "సమీప": 4968,
  "टेस्ट": 4969,
  "গুরুত্ব": 4970,
  "িফ": 4971,
  "য়র": 4972,
  "ஊழ": 4973,
  "చేస్తూ": 4974,
  "ஏற்பட்ட": 4975,
  "गंभीर": 4976,
  "నున్నారు": 4977,
  "க்கொள்ள": 4978,
  "শিল্প": 4979,
  "प्रयास": 4980,
  "ప్తి": 4981,
  "तस्": 4982,
  "অক্টো": 4983,
  "ఫ్యా": 4984,
  "ృత": 4985,
  "चीन": 4986,
  "বাজার": 4987,
  "নভেম্বর": 4988,
  "నాగ": 4989,
  "గతం": 4990,
  "र्च": 4991,
  "করবেন": 4992,
  "কুম": 4993,
  "క్ష్": 4994,
  "কর্তৃ": 4995,
  "இரா": 4996,
  "স্যা": 4997,
  "యల్": 4998,
  "கல்வி": 4999,
  "ప్రేమ": 5000,
  "নিবার": 5001,
  "பிரச்ச": 5002,
  "வகையில்": 5003,
  "యానికి": 5004,
  "चर्चा": 5005,
  "ప్రి": 5006,
  "முடியாது": 5007,
  "ल्प": 5008,
  "कभी": 5009,
  "कोशिश": 5010,
  "আবেদন": 5011,
  "தெரிவித்தார்": 5012,
  "கூறு": 5013,
  "விரும்ப": 5014,
  "தெரிவித்துள்ளார்": 5015,
  "িনী": 5016,
  "టీఆర్": 5017,
  "ரிச": 5018,
  "पट": 5019,
  "युवा": 5020,
  "যায়ী": 5021,
  "ஒருவர்": 5022,
  "जाना": 5023,
  "கேட்ட": 5024,
  "த்துறை": 5025,
  "బట్టి": 5026,
  "உட்ப": 5027,
  "অনুষ্ঠিত": 5028,
  "అందరి": 5029,
  "োয়": 5030,
  "ండగా": 5031,
  "విచారణ": 5032,
  "क्शन": 5033,
  "সম্ভব": 5034,
  "ించుకు": 5035,
  "उम": 5036,
  "विभि": 5037,
  "১৭": 5038,
  "संप": 5039,
  "প্রতিষ্ঠ": 5040,
  "భారత్": 5041,
  "நம்": 5042,
  "த்தனர்": 5043,
  "जरूरत": 5044,
  "সবচেয়ে": 5045,
  "డ్డా": 5046,
  "உடல்": 5047,
  "చుకు": 5048,
  "सचिव": 5049,
  "ప్రధాని": 5050,
  "মানে": 5051,
  "্টার": 5052,
  "ள்ளதாக": 5053,
  "ఎక్కువగా": 5054,
  "సినిమ": 5055,
  "ব্যাংক": 5056,
  ".\"": 5057,
  "ফেব্রু": 5058,
  "ఆలోచ": 5059,
  "হাই": 5060,
  "समेत": 5061,
  "எனக்கு": 5062,
  "ிடம்": 5063,
  "மாதம்": 5064,
  "விற்ப": 5065,
  "షం": 5066,
  "య్యాయి": 5067,
  "োর্ড": 5068,
  "నియర్": 5069,
  "বৃহস্পতিবার": 5070,
  "ఇలాంటి": 5071,
  "राशि": 5072,
  "ஆரம்பி": 5073,
  "রাতে": 5074,
  "कराने": 5075,
  "पत्नी": 5076,
  "கொடுத்த": 5077,
  "েলায়": 5078,
  "ఒకటి": 5079,
  "ారెడ్డి": 5080,
  "মঙ্গলবার": 5081,
  "हरी": 5082,
  "ক্রিকেট": 5083,
  "క్రమం": 5084,
  "చెల్లి": 5085,
  "চিন": 5086,
  "লেট": 5087,
  "ফুট": 5088,
  "मना": 5089,
  "ண்ட்": 5090,
  "ad": 5091,
  "दिखा": 5092,
  "িলা": 5093,
  "দীর্ঘ": 5094,
  "பெரும்ப": 5095,
  "పోయా": 5096,
  "प्राप्त": 5097,
  "్రమ": 5098,
  "బడిన": 5099,
  "টেস্ট": 5100,
  "इंडिया": 5101,
  "காங்கிர": 5102,
  "वेदन": 5103,
  "ूप": 5104,
  "మూవీ": 5105,
  "வீடு": 5106,
  "ఆఫ్": 5107,
  "মার্ক": 5108,
  "कत": 5109,
  "దృష్టి": 5110,
  "తిరే": 5111,
  "సాధారణ": 5112,
  "िज": 5113,
  "शव": 5114,
  "শুক্র": 5115,
  "క్రిక": 5116,
  "लगी": 5117,
  "ப்பிட்ட": 5118,
  "সেপ্টেম্বর": 5119,
  "పెట్టు": 5120,
  "ప్రభుత్వా": 5121,
  "చేశాడు": 5122,
  "பால": 5123,
  "இலங்கை": 5124,
  "अर्": 5125,
  "த்தையும்": 5126,
  "అనంతరం": 5127,
  "िली": 5128,
  "அங்க": 5129,
  "I": 5130,
  "আদালত": 5131,
  "భర్": 5132,
  "सामान": 5133,
  "ళ్లీ": 5134,
  "వేల": 5135,
  "மையாக": 5136,
  "षण": 5137,
  "சுக": 5138,
  "নিক": 5139,
  "ప్రయా": 5140,
  "డబ్బు": 5141,
  "రిక": 5142,
  "बनाया": 5143,
  "৩০": 5144,
  "వరకు": 5145,
  "बने": 5146,
  "অথ": 5147,
  "ందరు": 5148,
  "దగ్గర": 5149,
  "अंतर": 5150,
  "కళాశాల": 5151,
  "ব্দ": 5152,
  "கலை": 5153,
  "ெல்லாம்": 5154,
  "னுக்கு": 5155,
  "োদ": 5156,
  "जेपी": 5157,
  "నుక": 5158,
  "পূর্ণ": 5159,
  "కపోవడం": 5160,
  "నిర్మ": 5161,
  "ுக்கான": 5162,
  "పథ": 5163,
  "केवल": 5164,
  "लगभग": 5165,
  "எண்ணி": 5166,
  "करके": 5167,
  "ంద్రా": 5168,
  "াট": 5169,
  "జై": 5170,
  "కిత్స": 5171,
  "बिना": 5172,
  "आयोजित": 5173,
  "ையே": 5174,
  "बारिश": 5175,
  "পরিবর্ত": 5176,
  "అల": 5177,
  "দেখতে": 5178,
  "போலீசார்": 5179,
  "భావి": 5180,
  "খ্য": 5181,
  "களாக": 5182,
  "বাদিক": 5183,
  "সন্ত": 5184,
  "ஜனாதி": 5185,
  "நிறு": 5186,
  "తిరిగి": 5187,
  "অতি": 5188,
  "వరు": 5189,
  "కొచ్చ": 5190,
  "समर्थ": 5191,
  "పక్ష": 5192,
  "फैसला": 5193,
  "করুন": 5194,
  "பொலி": 5195,
  "కనిపించ": 5196,
  "फा": 5197,
  "నించారు": 5198,
  "डाल": 5199,
  "వ్యతిరే": 5200,
  "্টি": 5201,
  "మార": 5202,
  "்டர்": 5203,
  "தேர்வு": 5204,
  "தொழில": 5205,
  "ैक": 5206,
  "రువు": 5207,
  "கேள்வி": 5208,
  "मृत": 5209,
  "গবে": 5210,
  "শনিবার": 5211,
  "नियम": 5212,
  "ப்புகள்": 5213,
  "ুপ": 5214,
  "வாழ்க்க": 5215,
  "தண்ண": 5216,
  "பிரதமர்": 5217,
  "మళ్లీ": 5218,
  "ண்ப": 5219,
  "ওয়ায়": 5220,
  "दिनों": 5221,
  "হওয়া": 5222,
  "இன்னும்": 5223,
  "সমস্যা": 5224,
  "विभिन्न": 5225,
  "இப்போது": 5226,
  "ফের": 5227,
  "రైతు": 5228,
  "/": 5229,
  "జాతీయ": 5230,
  "అందుకే": 5231,
  "ভিডিও": 5232,
  "সী": 5233,
  "స్తో": 5234,
  "আলম": 5235,
  "অক্টোবর": 5236,
  "ட்டர்": 5237,
  "सफल": 5238,
  "बिजली": 5239,
  "इल": 5240,
  "ாளுமன்ற": 5241,
  "বক্তব্য": 5242,
  "विधा": 5243,
  "ెంబ్లీ": 5244,
  "षि": 5245,
  "వరణ": 5246,
  "চলচ্": 5247,
  "সাবেক": 5248,
  "பிரதேச": 5249,
  "ফিরে": 5250,
  "ாக்": 5251,
  "घंटे": 5252,
  "पक्ष": 5253,
  "యూని": 5254,
  "த்தக்க": 5255,
  "உயர்": 5256,
  "ఇటీవల": 5257,
  "్రియ": 5258,
  "रोड": 5259,
  "పర్య": 5260,
  "గల": 5261,
  "पहुंचा": 5262,
  "காய": 5263,
  "తేదీ": 5264,
  "लिखा": 5265,
  "दौ": 5266,
  "அட": 5267,
  "সাংবাদিক": 5268,
  "குடி": 5269,
  "இழ": 5270,
  "िटी": 5271,
  "மேல்": 5272,
  "కాకుండా": 5273,
  "అతని": 5274,
  "த்தா": 5275,
  "মৌ": 5276,
  "এত": 5277,
  "গাড়": 5278,
  "గుర్తు": 5279,
  "सात": 5280,
  "பார்": 5281,
  "முதல்வர்": 5282,
  "உற": 5283,
  "আন্দ": 5284,
  "कोविड": 5285,
  "उपलब्ध": 5286,
  "नोट": 5287,
  "డిమా": 5288,
  "ఆసు": 5289,
  "மூல": 5290,
  "கடி": 5291,
  "नंबर": 5292,
  "होना": 5293,
  "వెళ్ల": 5294,
  "तेमाल": 5295,
  "அதற்கு": 5296,
  "कॉलेज": 5297,
  "ేష్": 5298,
  "கன": 5299,
  "शुरुआ": 5300,
  "రెండో": 5301,
  "কাউ": 5302,
  "வாய்ப்பு": 5303,
  "স্কার": 5304,
  "इंटर": 5305,
  "అసెంబ్లీ": 5306,
  "ఆట": 5307,
  "হক": 5308,
  "टन": 5309,
  "ఇక్కడ": 5310,
  "விழ": 5311,
  "ஒரே": 5312,
  "वायरस": 5313,
  "இடம்பெ": 5314,
  "என்றார்": 5315,
  "ளு": 5316,
  "అంచ": 5317,
  "धन": 5318,
  "শুক্রবার": 5319,
  "্ধ": 5320,
  "ोह": 5321,
  "চট্টগ্রাম": 5322,
  "దర్శకత్వం": 5323,
  "కింద": 5324,
  "బాధ్య": 5325,
  "सीएम": 5326,
  "आयोजन": 5327,
  "భార్య": 5328,
  "মাঝে": 5329,
  "సమావేశం": 5330,
  "आद": 5331,
  "বঙ্গবন্ধ": 5332,
  "जवाब": 5333,
  "माध्य": 5334,
  "राहुल": 5335,
  "निगम": 5336,
  "ார்த்த": 5337,
  "আসে": 5338,
  "পালন": 5339,
  "लौ": 5340,
  "সার্": 5341,
  "छह": 5342,
  "অবশ্য": 5343,
  "ంతు": 5344,
  "టువంటి": 5345,
  "हमारे": 5346,
  "சரிய": 5347,
  "వివిధ": 5348,
  "कानून": 5349,
  "சார்ப": 5350,
  "িরা": 5351,
  "পু": 5352,
  "முழுவ": 5353,
  "রাজধান": 5354,
  "గౌ": 5355,
  "కొను": 5356,
  "టికి": 5357,
  "மேற்ப": 5358,
  "বৃদ্ধ": 5359,
  "நிகழ்": 5360,
  "टक": 5361,
  "বাবা": 5362,
  "चिक": 5363,
  "সম্পর্ক": 5364,
  "ెక్కి": 5365,
  "সত্য": 5366,
  "समिति": 5367,
  "শ্রে": 5368,
  "இதை": 5369,
  "இன்": 5370,
  "জল": 5371,
  "थीं": 5372,
  "यदि": 5373,
  "फीसदी": 5374,
  "வயது": 5375,
  "ஜ்": 5376,
  "ড়ক": 5377,
  "తున్నా": 5378,
  "వతి": 5379,
  "बनाए": 5380,
  "்கா": 5381,
  "মারা": 5382,
  "చోటు": 5383,
  "అర్థ": 5384,
  "ప్పుడ": 5385,
  "రూపొ": 5386,
  "ఇద్దరు": 5387,
  "పాయ": 5388,
  "చెప్పు": 5389,
  "முன்னாள்": 5390,
  "অভিনে": 5391,
  "ோதனை": 5392,
  "ஷன்": 5393,
  "ம்மா": 5394,
  "தொலை": 5395,
  "மனை": 5396,
  "బ్‌": 5397,
  "बीजेपी": 5398,
  "ప్రైవే": 5399,
  "उसका": 5400,
  "డైర": 5401,
  "गुरुवार": 5402,
  "ஊட": 5403,
  "பதிவு": 5404,
  "ఎవర": 5405,
  "துவ": 5406,
  "ালা": 5407,
  "শেষে": 5408,
  "भव": 5409,
  "গুলোর": 5410,
  "মাদ": 5411,
  "বন": 5412,
  "ఉంటాయి": 5413,
  "চি": 5414,
  "చికిత్స": 5415,
  "యంగా": 5416,
  "দাম": 5417,
  "इस्तेमाल": 5418,
  "পরিচালক": 5419,
  "విద్యా": 5420,
  "जेल": 5421,
  "बज": 5422,
  "রত": 5423,
  "करवा": 5424,
  "ांस": 5425,
  "டையே": 5426,
  "வாங்க": 5427,
  "ic": 5428,
  "क्रिकेट": 5429,
  "ஆன": 5430,
  "ప్రజా": 5431,
  "நடைபெற்ற": 5432,
  "్యు": 5433,
  "২৫": 5434,
  "ছাড়": 5435,
  "रिक": 5436,
  "गयी": 5437,
  "om": 5438,
  "िस्ट": 5439,
  "!!": 5440,
  "வருகின்றனர்": 5441,
  "সদর": 5442,
  "চৌধুর": 5443,
  "फोन": 5444,
  "ডেট": 5445,
  "சிறப்பு": 5446,
  "கருத்து": 5447,
  "शेयर": 5448,
  "कट": 5449,
  "তৃণ": 5450,
  "மாவட்டம்": 5451,
  "వ్యవసా": 5452,
  "্রেস": 5453,
  "সকালে": 5454,
  "হাসান": 5455,
  "வீட்டு": 5456,
  "অনুযায়ী": 5457,
  "ம்பர்": 5458,
  "भेज": 5459,
  "సంచ": 5460,
  "రామ": 5461,
  "পৌঁ": 5462,
  "বিমান": 5463,
  "विदेश": 5464,
  "परिजन": 5465,
  "खन": 5466,
  "ானது": 5467,
  "সাত": 5468,
  "हाय": 5469,
  "த்திற்க": 5470,
  "ঘর": 5471,
  "উদ্য": 5472,
  "லர்": 5473,
  "சன்": 5474,
  "వాహ": 5475,
  "పాట": 5476,
  "பயிற": 5477,
  "த்துள்ளது": 5478,
  "జిక": 5479,
  "தியை": 5480,
  "ప్రాంతం": 5481,
  "விலை": 5482,
  "संचाल": 5483,
  "যাত্র": 5484,
  "కాబట్టి": 5485,
  "चुका": 5486,
  "জাহ": 5487,
  "ীক": 5488,
  "गू": 5489,
  "தலைமை": 5490,
  "அலுவலக": 5491,
  "यात्रा": 5492,
  "বস": 5493,
  "सेना": 5494,
  "ఆందోళన": 5495,
  "साह": 5496,
  "পরিষ": 5497,
  "संय": 5498,
  "रखने": 5499,
  "ங்கில": 5500,
  "আটক": 5501,
  "உறுப்பின": 5502,
  "শ্ব": 5503,
  "ऐसी": 5504,
  "చైనా": 5505,
  "ঘণ": 5506,
  "அவர்கள": 5507,
  "फे": 5508,
  "হলেও": 5509,
  "படை": 5510,
  "জুলাই": 5511,
  "থমিক": 5512,
  "शो": 5513,
  "যাওয়ার": 5514,
  "உயிரி": 5515,
  "உறுதி": 5516,
  "మర్": 5517,
  "ங்களும்": 5518,
  "भर्ती": 5519,
  "अहम": 5520,
  "তন": 5521,
  "োপা": 5522,
  "ించు": 5523,
  "అతను": 5524,
  "बाज": 5525,
  "গার": 5526,
  "गल": 5527,
  "உதவி": 5528,
  "जिम": 5529,
  "রাখা": 5530,
  "लर": 5531,
  "बोर्ड": 5532,
  "सुविधा": 5533,
  "ట్రా": 5534,
  "धर्म": 5535,
  "అమలు": 5536,
  "पीछ": 5537,
  "ிருந்தது": 5538,
  "श्च": 5539,
  "্লে": 5540,
  "থাকতে": 5541,
  "పడ్డారు": 5542,
  "जमा": 5543,
  "াযোগ": 5544,
  "భావ": 5545,
  "ঈ": 5546,
  "ణు": 5547,
  "முதல": 5548,
  "அப": 5549,
  "ினும்": 5550,
  "মন্ত্রণ": 5551,
  "केंद": 5552,
  "ப்படை": 5553,
  "మ్మా": 5554,
  "ீர்கள்": 5555,
  "லின்": 5556,
  "সপ্ত": 5557,
  "కావడం": 5558,
  "बंधन": 5559,
  "సొంత": 5560,
  "ధానం": 5561,
  "ோக": 5562,
  "প্রাণ": 5563,
  "ीक": 5564,
  "జ్ఞ": 5565,
  "लिख": 5566,
  "தங்க": 5567,
  "তেন": 5568,
  "బడు": 5569,
  "ফর": 5570,
  "আয়": 5571,
  "যেমন": 5572,
  "ूरी": 5573,
  "இப்ப": 5574,
  "ীরে": 5575,
  "బ్ర": 5576,
  "ించాలని": 5577,
  "রাস্ত": 5578,
  "কলক": 5579,
  "ধার": 5580,
  "েমন": 5581,
  "শুভ": 5582,
  "स्‍": 5583,
  "కోవాలి": 5584,
  "ఆక": 5585,
  "স্বাধীন": 5586,
  "আপনা": 5587,
  "कार्यकर्": 5588,
  "జరగ": 5589,
  "হাসপাতাল": 5590,
  "কত": 5591,
  "ुड": 5592,
  "কেন্দ্রীয়": 5593,
  "சுகாதார": 5594,
  "मोह": 5595,
  "నాన్ని": 5596,
  "থানার": 5597,
  "मार्च": 5598,
  "संक्रमण": 5599,
  "সম্পর্": 5600,
  "தாக்கு": 5601,
  "প্রাথমিক": 5602,
  "এপ্র": 5603,
  "నిర్ణయి": 5604,
  "भाई": 5605,
  "ிக்": 5606,
  "ఆధార": 5607,
  "ंदा": 5608,
  "பெண்கள்": 5609,
  "বয়স": 5610,
  "రహ": 5611,
  "लक्ष": 5612,
  "াফ": 5613,
  "জেলার": 5614,
  "ఎన్న": 5615,
  "తెలిపింది": 5616,
  "র্ষণ": 5617,
  "াজিক": 5618,
  "ள்ளை": 5619,
  "ఆస్": 5620,
  "केंद्रीय": 5621,
  "্রম": 5622,
  "தள": 5623,
  "ध्यक्ष": 5624,
  "रिया": 5625,
  "ியுள்ளார்": 5626,
  "প্রশাসন": 5627,
  "காலை": 5628,
  "తగ్": 5629,
  "ভর্তি": 5630,
  "న్యాయ": 5631,
  "స్పష్టం": 5632,
  "లర్": 5633,
  "আট": 5634,
  "োনার": 5635,
  "लगाने": 5636,
  "ீர": 5637,
  "சம்": 5638,
  "सें": 5639,
  "ంజ": 5640,
  "பங்கு": 5641,
  "தடுப்ப": 5642,
  "నాలుగు": 5643,
  "దారు": 5644,
  "కావ": 5645,
  "ఆత్మ": 5646,
  "रेलवे": 5647,
  "बच्चे": 5648,
  "देर": 5649,
  "প্রস": 5650,
  "స్థానం": 5651,
  "सहयोग": 5652,
  "ஷ்ண": 5653,
  "ভে": 5654,
  "अति": 5655,
  "কিং": 5656,
  "ండ్ర": 5657,
  "আপডেট": 5658,
  "మద్ద": 5659,
  "চলছে": 5660,
  "তু": 5661,
  "इलाज": 5662,
  "రాజధా": 5663,
  "পৃথ": 5664,
  "స్టర్": 5665,
  "रोज": 5666,
  "আলী": 5667,
  "পায়": 5668,
  "र्जी": 5669,
  "ியும்": 5670,
  "ृह": 5671,
  "ஏற்க": 5672,
  "देखने": 5673,
  "ராய": 5674,
  "সারা": 5675,
  "చై": 5676,
  "িজ্ঞ": 5677,
  "న్స్‌": 5678,
  "क्षक": 5679,
  "দিব": 5680,
  "కొనుగో": 5681,
  "ார்க்க": 5682,
  "पड़ा": 5683,
  "త్యా": 5684,
  "আগস্ট": 5685,
  "ரிடம்": 5686,
  "నివా": 5687,
  "ైంది": 5688,
  "कीमत": 5689,
  "ஸ்ரீ": 5690,
  "య్యారు": 5691,
  "టానికి": 5692,
  "ிருக்கிற": 5693,
  "అధికారు": 5694,
  "అభిప్రా": 5695,
  "பார்த்து": 5696,
  "देखा": 5697,
  "এপ্রিল": 5698,
  "নানা": 5699,
  "பாடு": 5700,
  "ర్యాదు": 5701,
  "முயற்சி": 5702,
  "लब": 5703,
  "துணை": 5704,
  "ప్రొ": 5705,
  "కాం": 5706,
  "అవకాశ": 5707,
  "িয়ন": 5708,
  "উন্নয়ন": 5709,
  "ించడానికి": 5710,
  "रु": 5711,
  "जन्": 5712,
  "विवाद": 5713,
  "అధ్యక్షుడు": 5714,
  "বিত": 5715,
  "అనుమతి": 5716,
  "বেড়ে": 5717,
  "मेड": 5718,
  "সুপার": 5719,
  "கண்ண": 5720,
  "మాట్లాడ": 5721,
  "ட்டத்தில்": 5722,
  "ఆంధ్రప్రదేశ": 5723,
  "மல்": 5724,
  "యాల": 5725,
  "ప్రకటన": 5726,
  "বিস্ত": 5727,
  "্রুত": 5728,
  "আন্দোল": 5729,
  "க்கப்படும்": 5730,
  "அடிப்பட": 5731,
  "अद": 5732,
  "it": 5733,
  "ப்பின்": 5734,
  "புரம்": 5735,
  "తను": 5736,
  "করলে": 5737,
  "ங்கா": 5738,
  "ভাইরাস": 5739,
  "షూటింగ్": 5740,
  "सर्व": 5741,
  "পারবেন": 5742,
  "कार्यालय": 5743,
  "सप्": 5744,
  "वापस": 5745,
  "त्ता": 5746,
  "విమా": 5747,
  "ించాడు": 5748,
  "హీరోయిన్": 5749,
  "বিল": 5750,
  "আহমে": 5751,
  "రమైన": 5752,
  "ழ்ச்சி": 5753,
  "मुद्": 5754,
  "ब्ल": 5755,
  "्रम": 5756,
  "বলতে": 5757,
  "రిలీ": 5758,
  "గురు": 5759,
  "ஆசிர": 5760,
  "मार्ट": 5761,
  "एक्स": 5762,
  "गार": 5763,
  "సేవ": 5764,
  "অ্যা": 5765,
  "चिकित": 5766,
  "বাড়িতে": 5767,
  "ల్లా": 5768,
  "பரிச": 5769,
  "ज़": 5770,
  "आव": 5771,
  "విజయం": 5772,
  "ফেব্রুয়ারি": 5773,
  "థమిక": 5774,
  "ఇన్": 5775,
  "दम": 5776,
  "எல்": 5777,
  "एच": 5778,
  "డిని": 5779,
  "குடிய": 5780,
  "ణీ": 5781,
  "నియోజ": 5782,
  "னையில்": 5783,
  "सित": 5784,
  "तस्वीर": 5785,
  "திரைப்பட": 5786,
  "కార్యక్రమం": 5787,
  "तीस": 5788,
  "వివరి": 5789,
  "ఎవరి": 5790,
  "ஊராட்சி": 5791,
  "ఫిర్యాదు": 5792,
  "किंग": 5793,
  "নাই": 5794,
  "பிரப": 5795,
  "అడుగు": 5796,
  "మాన": 5797,
  "তৃণমূল": 5798,
  "இயக்கு": 5799,
  "ন্তব্য": 5800,
  "একটু": 5801,
  "দ্দ": 5802,
  "వాటిని": 5803,
  "ప్రవేశ": 5804,
  "বসে": 5805,
  "জর": 5806,
  "নেতৃত": 5807,
  "மண": 5808,
  "এলাকার": 5809,
  "पंजा": 5810,
  "பேர": 5811,
  "మృతి": 5812,
  "সংশ": 5813,
  "కోల్": 5814,
  "सांसद": 5815,
  "ामा": 5816,
  "తమైన": 5817,
  "ैंप": 5818,
  "ன்றி": 5819,
  "திகள்": 5820,
  "பல்க": 5821,
  "গু": 5822,
  "ব্যবস": 5823,
  "செயல்": 5824,
  "செய்யும்": 5825,
  "இன": 5826,
  "ডিয়": 5827,
  "చివరి": 5828,
  "னில்": 5829,
  "தீவிர": 5830,
  "నేందు": 5831,
  "এগিয়ে": 5832,
  "অভিয": 5833,
  "றையில்": 5834,
  "ল্যান্ড": 5835,
  "তারপর": 5836,
  "धर": 5837,
  "ியம்": 5838,
  "கொள": 5839,
  "மாதி": 5840,
  "ডিজ": 5841,
  "ండ్రి": 5842,
  "पीएम": 5843,
  "सीमा": 5844,
  "ర్ర": 5845,
  "வகை": 5846,
  "இத்த": 5847,
  "இங்கு": 5848,
  "कौ": 5849,
  "ஆய்வு": 5850,
  "నియోజక": 5851,
  "প্রতিনি": 5852,
  "திக": 5853,
  "फ्": 5854,
  "மக்": 5855,
  "ట్లుగా": 5856,
  "மையை": 5857,
  "बाजी": 5858,
  "పెరి": 5859,
  "ரிக்கை": 5860,
  "महारा": 5861,
  "আশা": 5862,
  "সমাজ": 5863,
  "निकल": 5864,
  "দ্রুত": 5865,
  "সুর": 5866,
  "న్నాయి": 5867,
  "যাওয়া": 5868,
  "अमेरिका": 5869,
  "கூறிய": 5870,
  "చేయడానికి": 5871,
  "అయినా": 5872,
  "সাহা": 5873,
  "க்கே": 5874,
  "हमें": 5875,
  "సిబ్బంది": 5876,
  "தொடர்பாக": 5877,
  "নম": 5878,
  "কাছ": 5879,
  "तरी": 5880,
  "నిల": 5881,
  "বিশ্বাস": 5882,
  "அவரை": 5883,
  "जिट": 5884,
  "ும்போது": 5885,
  "కష్ట": 5886,
  "दुर्": 5887,
  "ீடு": 5888,
  "ప్రాథమిక": 5889,
  "মর": 5890,
  "ूब": 5891,
  "जून": 5892,
  "बदल": 5893,
  "்களின்": 5894,
  "అద్": 5895,
  "পশ্চ": 5896,
  "यून": 5897,
  "ুস": 5898,
  "শী": 5899,
  "फोट": 5900,
  "st": 5901,
  "ఏం": 5902,
  "రారు": 5903,
  "বাঁ": 5904,
  "ాలయం": 5905,
  "য়োজ": 5906,
  "सम्मान": 5907,
  "বৈঠ": 5908,
  "श्मीर": 5909,
  "बल्कि": 5910,
  "देते": 5911,
  "స్తున్నా": 5912,
  "হিত": 5913,
  "মন্ত্রণালয়": 5914,
  "পত্র": 5915,
  "ష్య": 5916,
  "గిలి": 5917,
  "सहाय": 5918,
  "చర్": 5919,
  "বর্তমানে": 5920,
  "अप्र": 5921,
  "గాల": 5922,
  "ঙ্গা": 5923,
  "जें": 5924,
  "క్స్‌": 5925,
  "যোগাযোগ": 5926,
  "అందుబాటు": 5927,
  "అత్యంత": 5928,
  "জানিয়েছে": 5929,
  "கிழ": 5930,
  "వీరి": 5931,
  "িকল্প": 5932,
  "'।": 5933,
  "বাইরে": 5934,
  "ப்பத": 5935,
  "ఆహ": 5936,
  "মার্কিন": 5937,
  "মোহাম্মদ": 5938,
  "ডার": 5939,
  "প্রদান": 5940,
  "ोस": 5941,
  "पीड़": 5942,
  "யார": 5943,
  "আহত": 5944,
  "तय": 5945,
  "ग्री": 5946,
  "அர": 5947,
  "அடைய": 5948,
  "விரை": 5949,
  "விழு": 5950,
  "వీటి": 5951,
  "िकी": 5952,
  "ందన్నారు": 5953,
  "ानीय": 5954,
  "एक्ट": 5955,
  "ఉదయం": 5956,
  "नरेंद्र": 5957,
  "ெய்": 5958,
  "அவ்": 5959,
  "টন": 5960,
  "तला": 5961,
  "्ले": 5962,
  "िनि": 5963,
  "తెలుసు": 5964,
  "होकर": 5965,
  "ल्स": 5966,
  "পূর্ব": 5967,
  "லட்சம்": 5968,
  "हास": 5969,
  "कमी": 5970,
  "আব্দ": 5971,
  "தாவது": 5972,
  "అప్ప": 5973,
  "ंभ": 5974,
  "పైగా": 5975,
  "চাক": 5976,
  "பக்க": 5977,
  "अधिकारियों": 5978,
  "మైంది": 5979,
  "విషయాన్ని": 5980,
  "ॉप": 5981,
  "क्षित": 5982,
  "్యాణ్": 5983,
  "করোনাভাইরাস": 5984,
  "పట్టి": 5985,
  "ম্যাচে": 5986,
  "মুসল": 5987,
  "సోమ": 5988,
  "கால்": 5989,
  "वृ": 5990,
  "தடை": 5991,
  "পাশে": 5992,
  "வாக்கு": 5993,
  "ড়াই": 5994,
  "সংস্থা": 5995,
  "ন্দ্র": 5996,
  "లింగ్": 5997,
  "వాడ": 5998,
  "ైల్": 5999,
  "ব্রি": 6000,
  "চলচ্চিত্র": 6001,
  "সন্তান": 6002,
  "ஜன": 6003,
  "ிருந்தார்": 6004,
  "उत्पा": 6005,
  "ప్రజల": 6006,
  "ड्र": 6007,
  "ஜனாதிபதி": 6008,
  "ிர்": 6009,
  "పోరా": 6010,
  "చెప్పిన": 6011,
  "अंत": 6012,
  "ांड": 6013,
  "పంప": 6014,
  "देव": 6015,
  "ীতি": 6016,
  "রাজনৈতিক": 6017,
  "మోదీ": 6018,
  "கல்லூ": 6019,
  "மிட": 6020,
  "மடை": 6021,
  "द्योग": 6022,
  "अस": 6023,
  "మార్పు": 6024,
  "মিনিটে": 6025,
  "த்திலும்": 6026,
  "మ్యాచ్‌": 6027,
  "অবস্থায়": 6028,
  "হিসাবে": 6029,
  "प्रभारी": 6030,
  "ప్రాజెక్టు": 6031,
  "வரி": 6032,
  "आठ": 6033,
  "చీ": 6034,
  "ज्ञान": 6035,
  "आतंक": 6036,
  "కొనసాగు": 6037,
  "प्रकार": 6038,
  "यही": 6039,
  "சுற்று": 6040,
  "శివ": 6041,
  "కృష్ణ": 6042,
  "बाइल": 6043,
  "ఆసుపత్రి": 6044,
  "নিরাপত্ত": 6045,
  "जमीन": 6046,
  "தீர்": 6047,
  "வழக்க": 6048,
  "केस": 6049,
  "நேரம்": 6050,
  "ভায়": 6051,
  "ంధీ": 6052,
  "कर्मचार": 6053,
  "भारी": 6054,
  "ట్టారు": 6055,
  "तिम": 6056,
  "উট": 6057,
  "తప్పు": 6058,
  "বন্দ": 6059,
  "िशा": 6060,
  "తల": 6061,
  "মুক্তিয": 6062,
  "జారీ": 6063,
  "భు": 6064,
  "মানব": 6065,
  "চৌধুরী": 6066,
  "மாவட்டத்தில்": 6067,
  "स्थानीय": 6068,
  "శ్రీనివా": 6069,
  "கெ": 6070,
  "पहुंची": 6071,
  "మారింది": 6072,
  "खिल": 6073,
  "ফোন": 6074,
  "স্ত্রী": 6075,
  "অনুষ্ঠানে": 6076,
  "चर": 6077,
  "இள": 6078,
  "डॉक्टर": 6079,
  "అనుకు": 6080,
  "మాలు": 6081,
  "H": 6082,
  "తిని": 6083,
  "পোস্ট": 6084,
  "पीछे": 6085,
  "ফা": 6086,
  "நகர": 6087,
  "చేరి": 6088,
  "சரி": 6089,
  "తీర్": 6090,
  "బొ": 6091,
  "ன்க": 6092,
  "ப்ட": 6093,
  "ఎవ": 6094,
  "சாத": 6095,
  "கூறினார்": 6096,
  "ठी": 6097,
  "आवेदन": 6098,
  "আলোচনা": 6099,
  "यूपी": 6100,
  "महत्व": 6101,
  "பல்கலை": 6102,
  "काब": 6103,
  "కోరు": 6104,
  "நம்பி": 6105,
  "సృష్టి": 6106,
  "চিকিৎসা": 6107,
  "वीं": 6108,
  "লাভ": 6109,
  "சிறந்த": 6110,
  "शुरुआत": 6111,
  "গ্রেপ্ত": 6112,
  "నియోజకవర్": 6113,
  "வடிவ": 6114,
  "्ता": 6115,
  "माध्यम": 6116,
  "নির্মাণ": 6117,
  "దర్శకుడు": 6118,
  "నిర్వ": 6119,
  "মৃত্য": 6120,
  "కొందరు": 6121,
  "রাধ": 6122,
  "हासिल": 6123,
  "என்றால்": 6124,
  "తెరక": 6125,
  "टल": 6126,
  "మండలం": 6127,
  "என்கிற": 6128,
  "ूक": 6129,
  "நிதி": 6130,
  "களைக்": 6131,
  "অবস্থান": 6132,
  "खरीद": 6133,
  "சேர்த்து": 6134,
  "த்தும்": 6135,
  "కొనుగోలు": 6136,
  "వ్యవస్థ": 6137,
  "ందం": 6138,
  "झा": 6139,
  "இந்தப்": 6140,
  "நிறுவனம்": 6141,
  "పరిశీ": 6142,
  "वुड": 6143,
  "बच": 6144,
  "அதிகாரிகள்": 6145,
  "ప్రో": 6146,
  "संत": 6147,
  "পুরো": 6148,
  "கீழ்": 6149,
  "अवसर": 6150,
  "ంటుంది": 6151,
  "వారిని": 6152,
  "హైదరాబాద్‌": 6153,
  "बेहतर": 6154,
  "শীল": 6155,
  "షే": 6156,
  "ఇంట్": 6157,
  "மானது": 6158,
  "संगठन": 6159,
  "తాము": 6160,
  "డిమాండ్": 6161,
  "க்கெ": 6162,
  "्मे": 6163,
  "ప్రయత్ని": 6164,
  "২২": 6165,
  "அருகே": 6166,
  "साफ": 6167,
  "ুত": 6168,
  "సినిమాలు": 6169,
  "పురం": 6170,
  "అసలు": 6171,
  "ியார்": 6172,
  "சக": 6173,
  "வேண்டு": 6174,
  "আক": 6175,
  "నిర": 6176,
  "ముంబ": 6177,
  "देखते": 6178,
  "্টা": 6179,
  "विकेट": 6180,
  "न्याया": 6181,
  "অনুম": 6182,
  "घोषणा": 6183,
  "டியோ": 6184,
  "దాలు": 6185,
  "உற்ப": 6186,
  "நீர்": 6187,
  "அவருக்கு": 6188,
  "ফেস": 6189,
  "தங்கள்": 6190,
  "ாட்ட": 6191,
  "जागर": 6192,
  "முழுவதும்": 6193,
  "తిరు": 6194,
  "उच्च": 6195,
  "మోడీ": 6196,
  "नव": 6197,
  "ஞர்": 6198,
  "क्रिया": 6199,
  "এলাকা": 6200,
  "ప్రమాదం": 6201,
  "আরেক": 6202,
  "ఐదు": 6203,
  "भु": 6204,
  "एयर": 6205,
  "জানতে": 6206,
  "மேற்கொள்ள": 6207,
  "D": 6208,
  "తీసుకున్న": 6209,
  "मूल": 6210,
  "ఉత్పత్తి": 6211,
  "दिल": 6212,
  "ఎంప": 6213,
  "பத்தில்": 6214,
  "ব্যাপারে": 6215,
  "డమే": 6216,
  "மாகாண": 6217,
  "हमला": 6218,
  "மக": 6219,
  "জুন": 6220,
  "ছিলাম": 6221,
  "थाने": 6222,
  "बाइक": 6223,
  "২০১৯": 6224,
  "చేయి": 6225,
  "కోట్లు": 6226,
  "கொடுக்க": 6227,
  "நேரத்தில்": 6228,
  "வோ": 6229,
  "अंतिम": 6230,
  "অধ্যাপ": 6231,
  "সপ্তাহ": 6232,
  "প্রাপ্ত": 6233,
  "বিদ্যালয়": 6234,
  "స్టి": 6235,
  "সংগঠন": 6236,
  "சார": 6237,
  "ভো": 6238,
  "সামাজিক": 6239,
  "োয়ার": 6240,
  "ஆண்டில்": 6241,
  "ారాయ": 6242,
  "ఏమి": 6243,
  "இருக்கிற": 6244,
  "ంటో": 6245,
  "मिश": 6246,
  "வராக": 6247,
  "இடை": 6248,
  "नेताओं": 6249,
  "க்கப்படு": 6250,
  "विद्य": 6251,
  "రాత్రి": 6252,
  "मोबाइल": 6253,
  "మరోసారి": 6254,
  "मर": 6255,
  "ல்க": 6256,
  "ాలే": 6257,
  "श्यक": 6258,
  "मिन": 6259,
  "मार्ग": 6260,
  "మహా": 6261,
  "शराब": 6262,
  "মন্তব্য": 6263,
  "மார": 6264,
  "పెట్టి": 6265,
  "पाए": 6266,
  "ரல்": 6267,
  "ఎంపిక": 6268,
  "ஆதர": 6269,
  "పొంద": 6270,
  "স্ত্র": 6271,
  "गौर": 6272,
  "হি": 6273,
  "লিখে": 6274,
  "पंजाब": 6275,
  "G": 6276,
  "অভিনয়": 6277,
  "வாகன": 6278,
  "పూర్తిగా": 6279,
  "క్త": 6280,
  "கேட்டு": 6281,
  "बनी": 6282,
  "स्टे": 6283,
  "కాంగ్రె": 6284,
  "ழ்ச்ச": 6285,
  "খেলা": 6286,
  "र्या": 6287,
  "పక్క": 6288,
  "உயிரிழ": 6289,
  "కపోతే": 6290,
  "ிருஷ்ண": 6291,
  "বাস্ত": 6292,
  "డాక్టర్": 6293,
  "మర": 6294,
  "ত্রে": 6295,
  "கூடு": 6296,
  "ருக்கும்": 6297,
  "మెగా": 6298,
  "க்குள்": 6299,
  "प्रक्रिया": 6300,
  "టమి": 6301,
  "विचार": 6302,
  "ியான": 6303,
  "मंत्रालय": 6304,
  "కొద్ది": 6305,
  "ামা": 6306,
  "्यो": 6307,
  "ক্রিকে": 6308,
  "மைப்பு": 6309,
  "குறிப்பிட்ட": 6310,
  "ठीक": 6311,
  "காங்கிரஸ்": 6312,
  "প্রচার": 6313,
  "న్సి": 6314,
  "ோதும்": 6315,
  "সহযোগ": 6316,
  "கின்றது": 6317,
  "देवी": 6318,
  "्प": 6319,
  "मता": 6320,
  "రించారు": 6321,
  "తొల": 6322,
  "సైతం": 6323,
  "आपके": 6324,
  "নম্বর": 6325,
  "రాజధాని": 6326,
  "சேவை": 6327,
  "வருட": 6328,
  "পানি": 6329,
  "ெக": 6330,
  "मति": 6331,
  "धिकारी": 6332,
  "வர்களின்": 6333,
  "এখনও": 6334,
  "ிலோ": 6335,
  "அவற்ற": 6336,
  "க்கார": 6337,
  "మద్దతు": 6338,
  "ముగి": 6339,
  "অনলাই": 6340,
  "আহমেদ": 6341,
  "পরিকল্প": 6342,
  "লেখা": 6343,
  "रंग": 6344,
  "पेट": 6345,
  "ஆலோ": 6346,
  "గంటల": 6347,
  "ేందు": 6348,
  "রবি": 6349,
  "இளை": 6350,
  "రూపాయ": 6351,
  "ల్డ్": 6352,
  "কেও": 6353,
  "தொற்று": 6354,
  "ఎల్": 6355,
  "फाइ": 6356,
  "లేని": 6357,
  "যত": 6358,
  "संबंधित": 6359,
  "माना": 6360,
  "दीप": 6361,
  "যেখানে": 6362,
  "্যাব": 6363,
  "्रोल": 6364,
  "టర్ల": 6365,
  "ফেলে": 6366,
  "রিপ": 6367,
  "ఆఫీ": 6368,
  "ంచాడు": 6369,
  "அமைப்பு": 6370,
  "निकाल": 6371,
  "मश": 6372,
  "నాడు": 6373,
  "িক্ত": 6374,
  "గుర": 6375,
  "গল্প": 6376,
  "গ্রেপ্তার": 6377,
  "অধ্যাপক": 6378,
  "సంబంధించి": 6379,
  "गंज": 6380,
  "ील": 6381,
  "అంతర్": 6382,
  "সৃষ্": 6383,
  "नेट": 6384,
  "ार्म": 6385,
  "শুন": 6386,
  "संवाद": 6387,
  "খাবার": 6388,
  "आश": 6389,
  "पूजा": 6390,
  "রাখতে": 6391,
  "लिये": 6392,
  "ুখ": 6393,
  "ফতার": 6394,
  "சனை": 6395,
  "பிரச்": 6396,
  "लखन": 6397,
  "নিয়োগ": 6398,
  "টায়": 6399,
  "ின்ன": 6400,
  "প্রকল্প": 6401,
  "২০২০": 6402,
  "தொடங்க": 6403,
  "எதிராக": 6404,
  "நெரு": 6405,
  "প্রেম": 6406,
  "प्री": 6407,
  "उपयोग": 6408,
  "ఫోటో": 6409,
  "ंख": 6410,
  "மறை": 6411,
  "জিব": 6412,
  "आयोग": 6413,
  "విస్త": 6414,
  "आख": 6415,
  "ష్‌": 6416,
  "नागर": 6417,
  "কাজে": 6418,
  "ंडी": 6419,
  "राव": 6420,
  "காரணம்": 6421,
  "ष्ण": 6422,
  "कृषि": 6423,
  "जिसे": 6424,
  "वक्त": 6425,
  "குறிப்பிடத்தக்க": 6426,
  "విలువ": 6427,
  "াৎ": 6428,
  "क्ता": 6429,
  "செய்தி": 6430,
  "చేస్తే": 6431,
  "రావడం": 6432,
  "అంగ": 6433,
  "পথ": 6434,
  "వ్యాఖ్యలు": 6435,
  "த்திரி": 6436,
  "ামান": 6437,
  "హాజ": 6438,
  "அளவு": 6439,
  "নিয়ন্ত্রণ": 6440,
  "सैन": 6441,
  "এদি": 6442,
  "িনার": 6443,
  "থি": 6444,
  "কঠ": 6445,
  "வியா": 6446,
  "ণ্য": 6447,
  "ఫ్‌": 6448,
  "কমিটির": 6449,
  "சொந்த": 6450,
  "గ్రత్త": 6451,
  "अच्छा": 6452,
  "रै": 6453,
  "সমর্থ": 6454,
  "ুদ": 6455,
  "गुप": 6456,
  "వినియోగ": 6457,
  "హైకోర్టు": 6458,
  "ంచాలని": 6459,
  "राष्ट्रपति": 6460,
  "పోయారు": 6461,
  "சாமி": 6462,
  "সম্মেল": 6463,
  "இதற்கு": 6464,
  "लीवुड": 6465,
  "अगले": 6466,
  "निजी": 6467,
  "సాగు": 6468,
  "படம்": 6469,
  "তোম": 6470,
  "చెబుతున్నారు": 6471,
  "பெறு": 6472,
  "ভিত্ত": 6473,
  "ংগ": 6474,
  "बाव": 6475,
  "মহিলা": 6476,
  "ஞ்சி": 6477,
  "চলা": 6478,
  "టల్": 6479,
  "র্শন": 6480,
  "পরিবর্তন": 6481,
  "हाद": 6482,
  "जता": 6483,
  "साद": 6484,
  "র্শক": 6485,
  "వ్యాప్తంగా": 6486,
  "ணா": 6487,
  "लॉक": 6488,
  "நாங்கள்": 6489,
  "দ্ধা": 6490,
  "முதலீ": 6491,
  "রিক": 6492,
  "ఒకే": 6493,
  "வங்கி": 6494,
  "এসেছে": 6495,
  "কাপ": 6496,
  "பேசிய": 6497,
  "శరీ": 6498,
  "ஆகியவற்ற": 6499,
  "టక": 6500,
  "উইকেট": 6501,
  "ழமை": 6502,
  "ంప్": 6503,
  "সুন্দর": 6504,
  "कैसे": 6505,
  "সেনা": 6506,
  "தடுப்பூ": 6507,
  "వెల్లడించారు": 6508,
  "ঘটনার": 6509,
  "সাক্ষ": 6510,
  "केश": 6511,
  "రులు": 6512,
  "अपरा": 6513,
  "कंपन": 6514,
  "சொல்": 6515,
  "যুক্তরাষ্ট্র": 6516,
  "த்தல்": 6517,
  "గ్రామానికి": 6518,
  "भगवान": 6519,
  "ఫా": 6520,
  "சொல்லி": 6521,
  "கிடைக்கும்": 6522,
  "विद्यालय": 6523,
  "ুরুষ": 6524,
  "ியது": 6525,
  "ंगी": 6526,
  "স্বা": 6527,
  "கொடு": 6528,
  "বিরোধ": 6529,
  "शनल": 6530,
  "దీనికి": 6531,
  "ప్రదర్శ": 6532,
  "బౌ": 6533,
  "ার্ম": 6534,
  "বাজ": 6535,
  "अंदर": 6536,
  "பணம்": 6537,
  "பதவி": 6538,
  "ళ్ళు": 6539,
  "இப்படி": 6540,
  "వరుస": 6541,
  "மகி": 6542,
  "க்கவும்": 6543,
  "எதிர்க": 6544,
  "ఫే": 6545,
  "ன்மை": 6546,
  "जन्म": 6547,
  "కాని": 6548,
  "िक्ष": 6549,
  "కమిటీ": 6550,
  "दिस": 6551,
  "जरूरी": 6552,
  "হত্যা": 6553,
  "ாலி": 6554,
  "धिकार": 6555,
  "আছেন": 6556,
  "কর্তৃপক্ষ": 6557,
  "উদ্যোগ": 6558,
  "সিনেম": 6559,
  "ৃহ": 6560,
  "ालत": 6561,
  "మంగళ": 6562,
  "మారు": 6563,
  "le": 6564,
  "डाउन": 6565,
  "పర": 6566,
  "గెలి": 6567,
  "ప్రస": 6568,
  "அதிகார": 6569,
  "రించిన": 6570,
  "ক্তির": 6571,
  "కాలే": 6572,
  "मुकाब": 6573,
  "েনার": 6574,
  "निर्ण": 6575,
  "లాంటి": 6576,
  "నిర్వహి": 6577,
  "গম": 6578,
  "প্রত্য": 6579,
  "র্ধ": 6580,
  "బాధి": 6581,
  "जाम": 6582,
  "விஷய": 6583,
  "சார்பில்": 6584,
  "ेक": 6585,
  "तृ": 6586,
  "अधिकारिय": 6587,
  "ुओं": 6588,
  "আসাম": 6589,
  "ांति": 6590,
  "నంగా": 6591,
  "నమోద": 6592,
  "कार्ड": 6593,
  "దశ": 6594,
  "ஆட்ச": 6595,
  "বোর্ড": 6596,
  "चारी": 6597,
  "পারি": 6598,
  "ஆறு": 6599,
  "புற": 6600,
  "హన్": 6601,
  "విశాఖ": 6602,
  "ట్రో": 6603,
  "হীন": 6604,
  "వైఎస్": 6605,
  "మరోవైపు": 6606,
  "রেল": 6607,
  "বিপক্ষে": 6608,
  "যদিও": 6609,
  "అంతేకా": 6610,
  "ুয়া": 6611,
  "ர்த்தி": 6612,
  "ఇండ": 6613,
  "वरि": 6614,
  "দূর": 6615,
  "தரு": 6616,
  "প্রিয়": 6617,
  "बदला": 6618,
  "वैक्सी": 6619,
  "संभाव": 6620,
  "షో": 6621,
  "கிள": 6622,
  "सही": 6623,
  "त्ति": 6624,
  "आवश्यक": 6625,
  "ত্রী": 6626,
  "ताकि": 6627,
  "হারিয়ে": 6628,
  "যৌ": 6629,
  "২৩": 6630,
  "वत": 6631,
  "బై": 6632,
  "வரலா": 6633,
  "மாறு": 6634,
  "కారణం": 6635,
  "हिस्सा": 6636,
  "போட்டு": 6637,
  "போட்டிய": 6638,
  "গ্রহ": 6639,
  "నమ్మ": 6640,
  "स्ताव": 6641,
  "కోవచ్చు": 6642,
  "প্তর": 6643,
  "ధులు": 6644,
  "అలాంటి": 6645,
  "আন্দোলন": 6646,
  "అద్భు": 6647,
  ").": 6648,
  "পার্": 6649,
  "सूत्र": 6650,
  "பெயர்": 6651,
  "जनवरी": 6652,
  "शरी": 6653,
  "প্রকাশিত": 6654,
  "జాగ్రత్త": 6655,
  "ంటీ": 6656,
  "वादी": 6657,
  "శారు": 6658,
  "শ্রেণ": 6659,
  "ऑन": 6660,
  "..?": 6661,
  "ूबर": 6662,
  "লিখ": 6663,
  "থাকার": 6664,
  "सत": 6665,
  "অনুস": 6666,
  "బాధ": 6667,
  "రాజీ": 6668,
  "இல்லாத": 6669,
  "அதனால்": 6670,
  "తండ్రి": 6671,
  "సేన": 6672,
  "ராம": 6673,
  "సింగ్": 6674,
  "াসা": 6675,
  "வருக்கு": 6676,
  "க்கொண்டு": 6677,
  "আলা": 6678,
  "श्वास": 6679,
  "ఫె": 6680,
  "మన్నారు": 6681,
  "உள்ளனர்": 6682,
  "இடங்": 6683,
  "భారత్‌": 6684,
  "अदालत": 6685,
  "परेशान": 6686,
  "க்குப்": 6687,
  "বিন": 6688,
  "வார்கள்": 6689,
  "धे": 6690,
  "য়াল": 6691,
  "రుపు": 6692,
  "ப்பான": 6693,
  "நடந்து": 6694,
  "বাংলাদেশে": 6695,
  "க்கழக": 6696,
  "ఫై": 6697,
  "प्रस्ताव": 6698,
  "बंग": 6699,
  "வகு": 6700,
  "ஆட்சி": 6701,
  "তাঁরা": 6702,
  "लॉ": 6703,
  "களைப்": 6704,
  "बल्ले": 6705,
  "புத்த": 6706,
  "జీవితం": 6707,
  "ఆరోపణ": 6708,
  "दाय": 6709,
  "விளை": 6710,
  "িডেন্ট": 6711,
  "வின": 6712,
  "াসক": 6713,
  "ित्र": 6714,
  "హత్య": 6715,
  "களிலும்": 6716,
  "পুন": 6717,
  "వేదిక": 6718,
  "ొక": 6719,
  "க்கூடிய": 6720,
  "రుగా": 6721,
  "েন্ড": 6722,
  "பரு": 6723,
  "மழை": 6724,
  "போன": 6725,
  "బిల్": 6726,
  "நாத": 6727,
  "చార": 6728,
  "मुला": 6729,
  "అనుమా": 6730,
  "उम्मीदवार": 6731,
  "టాల": 6732,
  "தன்ன": 6733,
  "సినీ": 6734,
  "జరిగి": 6735,
  "टने": 6736,
  "বেস": 6737,
  "देकर": 6738,
  "बेहद": 6739,
  "లభ": 6740,
  "बावजूद": 6741,
  "जिम्मे": 6742,
  "గ్రామ": 6743,
  "न्हें": 6744,
  "నటు": 6745,
  "డవ": 6746,
  "পয়": 6747,
  "উদ্দিন": 6748,
  "దాడి": 6749,
  "पड़े": 6750,
  "लखनऊ": 6751,
  "সড়ক": 6752,
  "रल": 6753,
  "குறைந்த": 6754,
  "ఉద్యోగు": 6755,
  "சுமார்": 6756,
  "பற்றிய": 6757,
  "సహక": 6758,
  "োপাধ্যায়": 6759,
  "జం": 6760,
  "உரிமை": 6761,
  "মস": 6762,
  "க்கப்பட": 6763,
  "ప్రభావం": 6764,
  "ृति": 6765,
  "ரன்": 6766,
  "জানানো": 6767,
  "ாயம்": 6768,
  "రంగం": 6769,
  "கொடுத்து": 6770,
  "வேக": 6771,
  "ారాయణ": 6772,
  "శుక్ర": 6773,
  "குதி": 6774,
  "श्चिम": 6775,
  "ந்திய": 6776,
  "িনীর": 6777,
  "ట్వి": 6778,
  "వ్వు": 6779,
  "कारो": 6780,
  "ఆనంద": 6781,
  "প্রতিদিন": 6782,
  "तेजी": 6783,
  "ूह": 6784,
  "সাহায": 6785,
  "సౌకర్యం": 6786,
  "धानी": 6787,
  "नागरिक": 6788,
  "विजय": 6789,
  "संक्रमित": 6790,
  "వయ": 6791,
  "ட்கள்": 6792,
  "গেলে": 6793,
  "নেন": 6794,
  "ইতিহাস": 6795,
  "டீ": 6796,
  "সেল": 6797,
  "த்தின": 6798,
  "భవ": 6799,
  "ছয়": 6800,
  "நண்ப": 6801,
  "कदम": 6802,
  "செய்யப்பட்டு": 6803,
  "ইন্": 6804,
  "கொள்": 6805,
  "वरिष्ठ": 6806,
  "फ्र": 6807,
  "শান্ত": 6808,
  "రిలీజ్": 6809,
  "புரி": 6810,
  "াসে": 6811,
  "इलाके": 6812,
  "वें": 6813,
  "मई": 6814,
  "शिक्षक": 6815,
  "வுகள்": 6816,
  "मजबू": 6817,
  "ভুল": 6818,
  "বর্তমান": 6819,
  "నుకు": 6820,
  "फोटो": 6821,
  "হই": 6822,
  "অপর": 6823,
  "অন্যতম": 6824,
  "కోవడానికి": 6825,
  "ముఖ్యంగా": 6826,
  "सै": 6827,
  "प्रभावित": 6828,
  "வீட்டில்": 6829,
  "লাল": 6830,
  "तैयारी": 6831,
  "அளவில்": 6832,
  "அருக": 6833,
  "நான்கு": 6834,
  "அழு": 6835,
  "শ্রমিক": 6836,
  "ম্য": 6837,
  "లియా": 6838,
  "क्ल": 6839,
  "একা": 6840,
  "জানায়": 6841,
  "স্ট্র": 6842,
  "తది": 6843,
  "स्टेशन": 6844,
  "சீன": 6845,
  "ताह": 6846,
  "ఖ్యా": 6847,
  "ফেল": 6848,
  "போக்கு": 6849,
  "বিশ্বকাপ": 6850,
  "মুখে": 6851,
  "ప్పి": 6852,
  "டுப்பு": 6853,
  "இயக்க": 6854,
  "কিংবা": 6855,
  "मौसम": 6856,
  "পৌর": 6857,
  "কব": 6858,
  "ంట్‌": 6859,
  "कहीं": 6860,
  "मेरे": 6861,
  "अप्रैल": 6862,
  "दक्ष": 6863,
  "ন্ত্রীর": 6864,
  "पॉ": 6865,
  "গড়ে": 6866,
  "पन": 6867,
  "চিকিৎসক": 6868,
  "నిజా": 6869,
  "ியோ": 6870,
  "जुलाई": 6871,
  "ండే": 6872,
  "ஜோ": 6873,
  "ట్వీ": 6874,
  "ஏற்று": 6875,
  "নির্বাচনে": 6876,
  "वीट": 6877,
  "கோயில்": 6878,
  "खो": 6879,
  "ுத": 6880,
  "অনুষ্ঠান": 6881,
  "হত্য": 6882,
  "ুমি": 6883,
  "ोलन": 6884,
  "प्रकाश": 6885,
  "ফাঁ": 6886,
  "விற்பனை": 6887,
  "மன்ன": 6888,
  "தேர்தலில்": 6889,
  "आर्थ": 6890,
  "ప్రీ": 6891,
  "కాల్": 6892,
  "উন্ড": 6893,
  "ुकसान": 6894,
  "সংসদ": 6895,
  "स्थाप": 6896,
  "एड": 6897,
  "যুদ্ধ": 6898,
  "క్రమ": 6899,
  "నిమి": 6900,
  "हटा": 6901,
  "న్లు": 6902,
  "போக": 6903,
  "टिक": 6904,
  "பணிய": 6905,
  "ক্ল": 6906,
  "రణ్": 6907,
  "नया": 6908,
  "চান": 6909,
  "পক্ষে": 6910,
  "ফিক": 6911,
  "పట్టు": 6912,
  "செயலாளர்": 6913,
  "खत्म": 6914,
  "हान": 6915,
  "யோ": 6916,
  "েন্দ্র": 6917,
  "చేసుకున్న": 6918,
  "সিরিজ": 6919,
  "য়েল": 6920,
  "মোব": 6921,
  "ক্ষতি": 6922,
  "हॉ": 6923,
  "కింగ్": 6924,
  "పుణ": 6925,
  "காலத்தில்": 6926,
  "नुकसान": 6927,
  "లూ": 6928,
  "கடு": 6929,
  "স্বপ": 6930,
  "உச்ச": 6931,
  "বিস্তার": 6932,
  "ियल": 6933,
  "மொழி": 6934,
  "రాహు": 6935,
  "வதை": 6936,
  "స్ట్రే": 6937,
  "அனுப்ப": 6938,
  "கேர": 6939,
  "లేద": 6940,
  "अगस्त": 6941,
  "পরিচিত": 6942,
  "తాలు": 6943,
  "పడిన": 6944,
  "বঙ্গবন্ধু": 6945,
  "ফ্র": 6946,
  "పాజి": 6947,
  "த்தைச்": 6948,
  "లోను": 6949,
  "গুরুত্বপূর্ণ": 6950,
  "కేట": 6951,
  "రావ": 6952,
  "எது": 6953,
  "வைரஸ்": 6954,
  "समा": 6955,
  "মহান": 6956,
  "இடம்": 6957,
  "பீ": 6958,
  "িয়াল": 6959,
  "বন্ধু": 6960,
  "ব্যাট": 6961,
  "বাসী": 6962,
  "அச": 6963,
  "मामल": 6964,
  "শ্রী": 6965,
  "எப்ப": 6966,
  "பொருளாதார": 6967,
  "ఎయి": 6968,
  "সবার": 6969,
  "యోగం": 6970,
  "విడ్": 6971,
  "ur": 6972,
  "ফি": 6973,
  "ட்டா": 6974,
  "గాంధీ": 6975,
  "ந்துள்ள": 6976,
  "்டு": 6977,
  "প্রেসিডেন্ট": 6978,
  "फ़": 6979,
  "ুরে": 6980,
  "లేక": 6981,
  "க்கிர": 6982,
  "దె": 6983,
  "ান্ড": 6984,
  "ஆப": 6985,
  "लागू": 6986,
  "దులు": 6987,
  "த்தைப்": 6988,
  "ఉండటం": 6989,
  "दोप": 6990,
  "ంటా": 6991,
  "राजस्थान": 6992,
  "पहचान": 6993,
  "ாகு": 6994,
  "পথে": 6995,
  "రూపొంది": 6996,
  ")": 6997,
  "ष्ट्र": 6998,
  "निर्णय": 6999,
  "పాకి": 7000,
  "కార్యకర్": 7001,
  "సోమవారం": 7002,
  "ఎత్తు": 7003,
  "সংক্রমণ": 7004,
  "সচিব": 7005,
  "సామాజిక": 7006,
  "ிலுள்ள": 7007,
  "బంగ": 7008,
  "il": 7009,
  "গিয়েছে": 7010,
  "సభ్యులు": 7011,
  "ార్‌": 7012,
  "रहेगा": 7013,
  "ாளர்கள": 7014,
  "जुड़े": 7015,
  "?\"": 7016,
  "एगा": 7017,
  "ইম": 7018,
  "ன்னு": 7019,
  "लोकसभा": 7020,
  "సంవత్సరం": 7021,
  "శ్చ": 7022,
  "மண்ட": 7023,
  "जाएंगे": 7024,
  "आंद": 7025,
  "৫০": 7026,
  "পরিস্থিতি": 7027,
  "র্ড": 7028,
  "আয়োজন": 7029,
  "చేసేందు": 7030,
  "নৌ": 7031,
  "சூழ": 7032,
  "वोट": 7033,
  "উদ্ব": 7034,
  "কমিশন": 7035,
  "ఆగ": 7036,
  "মাসে": 7037,
  "বিএনপি": 7038,
  "রূপ": 7039,
  "মালিক": 7040,
  "पस": 7041,
  "সাড়ে": 7042,
  "গ্রেফতার": 7043,
  "गति": 7044,
  "நாட்டு": 7045,
  "এফ": 7046,
  "ছেড়ে": 7047,
  "मेडिकल": 7048,
  "இன்ற": 7049,
  "বিয়ে": 7050,
  "বিজেপি": 7051,
  "வந்தது": 7052,
  "घा": 7053,
  "கழி": 7054,
  "পুরস্কার": 7055,
  "আগেই": 7056,
  "ఔ": 7057,
  "प्रतिनि": 7058,
  "ఎన్నో": 7059,
  "ారట": 7060,
  "యడం": 7061,
  "శ్వ": 7062,
  "అమ్మా": 7063,
  "প্রত্যা": 7064,
  "সর্বো": 7065,
  "விட்டது": 7066,
  "खी": 7067,
  "ூன்": 7068,
  "आर्थिक": 7069,
  "টিভ": 7070,
  "द्धि": 7071,
  "భద్ర": 7072,
  "আধ": 7073,
  "కమ": 7074,
  "వారు": 7075,
  "கட்டி": 7076,
  "बेटी": 7077,
  "ष्टि": 7078,
  "उल्": 7079,
  "परिव": 7080,
  "மாகும்": 7081,
  "र्ग": 7082,
  "క్షే": 7083,
  "గతి": 7084,
  "ன்கள்": 7085,
  "నింది": 7086,
  "ఇచ్చారు": 7087,
  "लू": 7088,
  "पाया": 7089,
  "समर्थन": 7090,
  "ठा": 7091,
  "నడు": 7092,
  "వాయి": 7093,
  "ండె": 7094,
  "শীর্ষ": 7095,
  "సీనియర్": 7096,
  "পৃথিব": 7097,
  "கொலை": 7098,
  "चुन": 7099,
  "స్త్ర": 7100,
  "तु": 7101,
  "శుక్రవారం": 7102,
  "ch": 7103,
  "మహేష్": 7104,
  "ौल": 7105,
  "రద్దు": 7106,
  "ंसा": 7107,
  "రైల్": 7108,
  "প্রভাব": 7109,
  "উপল": 7110,
  "స్వీ": 7111,
  "అధికారం": 7112,
  "సర్క": 7113,
  "পশ্চিম": 7114,
  "রাহ": 7115,
  "তিরিক্ত": 7116,
  "कर्मचारी": 7117,
  "ওয়েব": 7118,
  "இதனை": 7119,
  "சென்ன": 7120,
  "எல்லாம்": 7121,
  "த்தான": 7122,
  "శక్తి": 7123,
  "న్యం": 7124,
  "డర్": 7125,
  "பிரபல": 7126,
  "অধিকার": 7127,
  "সংঘ": 7128,
  "কোম্প": 7129,
  "ఫర్": 7130,
  "টিয়ে": 7131,
  "విశ్వ": 7132,
  "भू": 7133,
  "நீண்ட": 7134,
  "మంత్ర": 7135,
  "வுடன்": 7136,
  "মাঠে": 7137,
  "అనేది": 7138,
  "சர": 7139,
  "তারি": 7140,
  "সুবি": 7141,
  "निश": 7142,
  "अच्छी": 7143,
  "কার্যক্রম": 7144,
  "ப்பே": 7145,
  "ారాన్ని": 7146,
  "বিজ্ঞান": 7147,
  "క్స": 7148,
  "అక్కడి": 7149,
  "இரவு": 7150,
  "தீர்மான": 7151,
  "रज": 7152,
  "এল": 7153,
  "पुत्र": 7154,
  "వ్యాక్సి": 7155,
  "ந்த்": 7156,
  "পর্যা": 7157,
  "होते": 7158,
  "అధినే": 7159,
  "ఆప": 7160,
  "ప్రయోజ": 7161,
  "கட்டுப்பா": 7162,
  "टीका": 7163,
  "করছি": 7164,
  "హెచ్చ": 7165,
  "पश्चिम": 7166,
  "టరీ": 7167,
  "ित्य": 7168,
  "పరిధి": 7169,
  "চাপ": 7170,
  "శని": 7171,
  "न्द": 7172,
  "కన": 7173,
  "வதேச": 7174,
  "பயிற்சி": 7175,
  "el": 7176,
  "সিক": 7177,
  "సహాయ": 7178,
  "சிறிய": 7179,
  "ేఖ": 7180,
  "ट्वीट": 7181,
  "ইন্টার": 7182,
  "అప్పటి": 7183,
  "नात": 7184,
  "స్నే": 7185,
  "बॉलीवुड": 7186,
  "எண்ணிக்கை": 7187,
  "রক্ত": 7188,
  "పంపి": 7189,
  "फ्ट": 7190,
  "కేంద్రా": 7191,
  "ఫు": 7192,
  "तत्": 7193,
  "ధ్యా": 7194,
  "கண்டுபி": 7195,
  "மொத்த": 7196,
  "பல்கலைக்கழக": 7197,
  "খুল": 7198,
  "রোব": 7199,
  "সাজ": 7200,
  "स्वी": 7201,
  "நோய்": 7202,
  "ৌশ": 7203,
  "డ్జ": 7204,
  "ைச்": 7205,
  "गृह": 7206,
  "இவ்வாறு": 7207,
  "க்தி": 7208,
  "কর্মসূ": 7209,
  "সত": 7210,
  "పాజిటివ్": 7211,
  "అంటున్నారు": 7212,
  "हरिया": 7213,
  "அழக": 7214,
  "टै": 7215,
  "చేస్తుంది": 7216,
  "విదేశ": 7217,
  "గ్రీ": 7218,
  "इंत": 7219,
  "అడి": 7220,
  "িকায়": 7221,
  "ொட": 7222,
  "ীকার": 7223,
  "वार्ड": 7224,
  "ण्ड": 7225,
  "அவசிய": 7226,
  "समी": 7227,
  "లక్ష్": 7228,
  "অভিযান": 7229,
  "ূর": 7230,
  "ోర్": 7231,
  "తుల్": 7232,
  "ப்பூர்": 7233,
  "பயணி": 7234,
  "వది": 7235,
  "క్రీ": 7236,
  "লক্ষ্য": 7237,
  "దారి": 7238,
  "రవి": 7239,
  "இந்தியாவில்": 7240,
  "भेजा": 7241,
  "जरिए": 7242,
  "ச்சே": 7243,
  "నరే": 7244,
  "வரின்": 7245,
  "দিনে": 7246,
  "दिसंबर": 7247,
  "देना": 7248,
  "अभिने": 7249,
  "ஏற்பட்டு": 7250,
  "பாதிப்பு": 7251,
  "प्रसाद": 7252,
  "िसर": 7253,
  "াম্প": 7254,
  "রম": 7255,
  "ஒது": 7256,
  "சேர்க்க": 7257,
  "రిత్ర": 7258,
  "ष्य": 7259,
  "दक्षि": 7260,
  "ேக": 7261,
  "मं": 7262,
  "ற்றா": 7263,
  "চোখ": 7264,
  "वर्ग": 7265,
  "দ্বারা": 7266,
  "एंगे": 7267,
  "ాలంటే": 7268,
  "చూసి": 7269,
  "प्रवेश": 7270,
  "ఉండాలి": 7271,
  "ंता": 7272,
  "ভিড": 7273,
  "সূত্র": 7274,
  "గొప్ప": 7275,
  "స్టా": 7276,
  "্রিয়া": 7277,
  "আল্লাহ": 7278,
  "বিব": 7279,
  "চায়": 7280,
  "F": 7281,
  "তৃত": 7282,
  "दावा": 7283,
  "టెస్టు": 7284,
  "ंव": 7285,
  "ஆகியோர்": 7286,
  "लॉकडाउन": 7287,
  "षद": 7288,
  "দৃ": 7289,
  "సూపర్": 7290,
  "இதுவரை": 7291,
  "தடுப்பூசி": 7292,
  "భం": 7293,
  "লী": 7294,
  "లిక": 7295,
  "मॉ": 7296,
  "నియా": 7297,
  "ఎదురు": 7298,
  "తెచ్చ": 7299,
  "সর্বোচ্চ": 7300,
  "दोपहर": 7301,
  "அன்று": 7302,
  "తిక": 7303,
  "ற்றம்": 7304,
  "থাকেন": 7305,
  "জো": 7306,
  "াতার": 7307,
  "పరిశ్రమ": 7308,
  "पढ़ें": 7309,
  "যুগ": 7310,
  "किस": 7311,
  "शुभ": 7312,
  "पहला": 7313,
  "மல்ல": 7314,
  "সিং": 7315,
  "మొదలు": 7316,
  "इड": 7317,
  "তাম": 7318,
  "వ్‌": 7319,
  "டியே": 7320,
  "భర్త": 7321,
  "களுடன்": 7322,
  "పరిష్క": 7323,
  "పాద": 7324,
  "పరిచ": 7325,
  "ఎన్టీఆర్": 7326,
  "ed": 7327,
  "பங்கே": 7328,
  "య్‌": 7329,
  "হলেন": 7330,
  "गये": 7331,
  "ेशा": 7332,
  "াধিক": 7333,
  "ஞ்சு": 7334,
  "எனவும்": 7335,
  "சர்வதேச": 7336,
  "పరిశీలి": 7337,
  "రియా": 7338,
  "तेल": 7339,
  "াকায়": 7340,
  "த்தைக்": 7341,
  "தமிழகத்தில்": 7342,
  "র্গ": 7343,
  "চ্ছা": 7344,
  "ఇబ్బ": 7345,
  "জনপ্রিয়": 7346,
  "உடன": 7347,
  "చింది": 7348,
  "ரெ": 7349,
  "வித": 7350,
  "ைகள்": 7351,
  "আসা": 7352,
  "?'": 7353,
  "েজ": 7354,
  "நல": 7355,
  "கிடைக்க": 7356,
  "ক্ষেপ": 7357,
  "బుధ": 7358,
  "ूर्ति": 7359,
  "धो": 7360,
  "বিএনপির": 7361,
  "ஆயிரம்": 7362,
  "स्कार": 7363,
  "ர்களிடம்": 7364,
  "असल": 7365,
  "సంతో": 7366,
  "सितंबर": 7367,
  "యస్": 7368,
  "য়োগ": 7369,
  "राहत": 7370,
  "తెలుసుకు": 7371,
  "అవకాశాలు": 7372,
  "யூ": 7373,
  "చేరుకు": 7374,
  "भो": 7375,
  "மேற்பட்ட": 7376,
  "అండ్": 7377,
  "কর্মী": 7378,
  "आंदोलन": 7379,
  "অতিরিক্ত": 7380,
  "దిశ": 7381,
  "కౌ": 7382,
  "సుమ": 7383,
  "বদ": 7384,
  "वंबर": 7385,
  "খুঁ": 7386,
  "ஆரம்ப": 7387,
  "টেক": 7388,
  "প্রযুক্ত": 7389,
  "நாடாளுமன்ற": 7390,
  "உங்": 7391,
  "राजनीतिक": 7392,
  "মৃত্যুর": 7393,
  "மாதிரி": 7394,
  "కంట": 7395,
  "வைய": 7396,
  "तंत्र": 7397,
  "বৃষ্": 7398,
  "মূল্য": 7399,
  "பொதும": 7400,
  "নাক্ত": 7401,
  "தண்ணீர்": 7402,
  "টেল": 7403,
  "ுக்காக": 7404,
  "गण": 7405,
  "ందులు": 7406,
  "নেমে": 7407,
  "--": 7408,
  "फिलहाल": 7409,
  "ాయ": 7410,
  "উৎপ": 7411,
  "కనీ": 7412,
  "चीत": 7413,
  "तोड़": 7414,
  "సెల": 7415,
  "மருந்து": 7416,
  "থানায়": 7417,
  "অ্যান্ড": 7418,
  "இல்லாமல்": 7419,
  "ীপ": 7420,
  "श्चित": 7421,
  "இணைய": 7422,
  "బాలీవుడ్": 7423,
  "மேல": 7424,
  "चरण": 7425,
  "কোচ": 7426,
  "பிரதி": 7427,
  "তৃতীয়": 7428,
  "வேண்ட": 7429,
  "పది": 7430,
  "व्यापार": 7431,
  "ியர்கள்": 7432,
  "ভাবিক": 7433,
  "ாலை": 7434,
  "মিশ": 7435,
  "চালিয়ে": 7436,
  "ঙ্কা": 7437,
  "இனி": 7438,
  "సరఫ": 7439,
  "খু": 7440,
  "न्ना": 7441,
  "যাতে": 7442,
  "హింద": 7443,
  "நடந்தது": 7444,
  "নজর": 7445,
  "नवंबर": 7446,
  "किल": 7447,
  "बातचीत": 7448,
  "దీనిపై": 7449,
  "தனியார்": 7450,
  "పేట": 7451,
  "्तान": 7452,
  "తోనే": 7453,
  "రికార్డు": 7454,
  ".'": 7455,
  "फाय": 7456,
  "ఉంటుందని": 7457,
  "वर्षीय": 7458,
  "చేస్తు": 7459,
  "మందికి": 7460,
  "నిబంధ": 7461,
  "ఖర్చు": 7462,
  "खिलाड़ी": 7463,
  "श्रद्ध": 7464,
  "குறிப்பிடத்தக்கது": 7465,
  "दरअसल": 7466,
  "தொகை": 7467,
  "అడ్డు": 7468,
  "வட்ட": 7469,
  "आन": 7470,
  "াস্ট": 7471,
  "ாரிக்க": 7472,
  "২০১৬": 7473,
  "పదవి": 7474,
  "నెలకొ": 7475,
  "கீழ": 7476,
  "மாலை": 7477,
  "கூடிய": 7478,
  "వుల": 7479,
  "তাতে": 7480,
  "সহায়": 7481,
  "যোগ্য": 7482,
  "తయ": 7483,
  "வியல்": 7484,
  "நிறைவே": 7485,
  "రోడ్డు": 7486,
  "దుపు": 7487,
  "బృ": 7488,
  "ில்லி": 7489,
  "ভুক্ত": 7490,
  "बेटे": 7491,
  "లిం": 7492,
  "కుమ": 7493,
  "నివే": 7494,
  "வதால்": 7495,
  "दिखाई": 7496,
  "भूमिका": 7497,
  "শত": 7498,
  "పౌ": 7499,
  "स्ती": 7500,
  "গঠন": 7501,
  "ধারা": 7502,
  "தொடர்பான": 7503,
  "ర్యం": 7504,
  "்கிறது": 7505,
  "जवान": 7506,
  "মামলার": 7507,
  "కట్ట": 7508,
  "অল": 7509,
  "পুরে": 7510,
  "L": 7511,
  "২৬": 7512,
  "চুক্ত": 7513,
  "खूब": 7514,
  "मुक": 7515,
  "ஏன்": 7516,
  "்த்து": 7517,
  "दिवस": 7518,
  "मिलेगा": 7519,
  "విమర్శలు": 7520,
  "মুখ্য": 7521,
  "সৈ": 7522,
  "भीड़": 7523,
  "हमले": 7524,
  "மனைவி": 7525,
  "சன": 7526,
  "রোধ": 7527,
  "as": 7528,
  "ఆంధ్రప్రదేశ్": 7529,
  "ীদ": 7530,
  "ించేందు": 7531,
  "নিউজ": 7532,
  "ఉపా": 7533,
  "सप्ताह": 7534,
  "చని": 7535,
  "अग्र": 7536,
  "విభ": 7537,
  "नेतृ": 7538,
  "दाता": 7539,
  "ஜெ": 7540,
  "ंघ": 7541,
  "சதவீ": 7542,
  "రోజుల్": 7543,
  "১৯৯": 7544,
  "ஒப்ப": 7545,
  "সম্প্রতি": 7546,
  "দাঁড়িয়ে": 7547,
  "బుల్": 7548,
  "স্ট্রেল": 7549,
  "இல்": 7550,
  "शासन": 7551,
  "টিকা": 7552,
  "చరిత్ర": 7553,
  "ামে": 7554,
  "ியுள்ள": 7555,
  "उम्र": 7556,
  "শব্দ": 7557,
  "হামলা": 7558,
  "సుప్రీ": 7559,
  "खुला": 7560,
  "ముగ్గు": 7561,
  "సిరీ": 7562,
  "வாங்கி": 7563,
  "কৃত": 7564,
  "संयुक्त": 7565,
  "చిరం": 7566,
  "மனு": 7567,
  "సీసీ": 7568,
  "ப்படுகின்றன": 7569,
  "किलो": 7570,
  "வேட்ப": 7571,
  "மக்களின்": 7572,
  "ప్రకటించారు": 7573,
  "োলার": 7574,
  "गुज": 7575,
  "ष्ट्रीय": 7576,
  "ंकी": 7577,
  "दस": 7578,
  "గురువారం": 7579,
  "ఏళ్ల": 7580,
  "িশোর": 7581,
  "పాటి": 7582,
  "খাদ": 7583,
  "அவை": 7584,
  "பிறந்த": 7585,
  "ிற்": 7586,
  "ऑनलाइन": 7587,
  "म्मू": 7588,
  "கொள்க": 7589,
  "োলা": 7590,
  "मैंने": 7591,
  "संजय": 7592,
  "పరుగులు": 7593,
  "పలువు": 7594,
  "రైల్వే": 7595,
  "১৯৭": 7596,
  "র্ন": 7597,
  "दवा": 7598,
  "మంగళవారం": 7599,
  "ప్పుడూ": 7600,
  "என்னும்": 7601,
  "মিন": 7602,
  "కూడ": 7603,
  "पार्": 7604,
  "అంచనా": 7605,
  "(\"": 7606,
  "రేషన్": 7607,
  "হাজ": 7608,
  "तिहास": 7609,
  "க்கப்படுகிறது": 7610,
  "ुन": 7611,
  "নদ": 7612,
  "নাগর": 7613,
  "এক্স": 7614,
  "చేతి": 7615,
  "चिका": 7616,
  "वाही": 7617,
  "షణ": 7618,
  "चोरी": 7619,
  "फरवरी": 7620,
  "బ్లి": 7621,
  "बोल": 7622,
  "তরুণ": 7623,
  "খার": 7624,
  "দিক": 7625,
  "পুরুষ": 7626,
  "నష్ట": 7627,
  "सामना": 7628,
  "সেরা": 7629,
  "விடுதலை": 7630,
  "लगाए": 7631,
  "క్రితం": 7632,
  "ప్తు": 7633,
  "মসজি": 7634,
  "అమ్మాయి": 7635,
  "জড়": 7636,
  "\",": 7637,
  "దెబ్బ": 7638,
  "ப்பாளர்": 7639,
  "ফিল": 7640,
  "వేడు": 7641,
  "ऋ": 7642,
  "போராட்ட": 7643,
  "দর্শন": 7644,
  "हिंद": 7645,
  "িনায়ক": 7646,
  "করেছিল": 7647,
  "కేటాయి": 7648,
  "is": 7649,
  "পরিমাণ": 7650,
  "అంతా": 7651,
  "ఎందుకంటే": 7652,
  "র্বা": 7653,
  "নব": 7654,
  "அனுப": 7655,
  "టీఆర్ఎస్": 7656,
  "मिनट": 7657,
  "சமீ": 7658,
  "निवेश": 7659,
  "రాజు": 7660,
  "ప్రక్రియ": 7661,
  "ప్రాంతాల్": 7662,
  "காவல": 7663,
  "किसानों": 7664,
  "ష్ట్ర": 7665,
  "बनने": 7666,
  "আহ্ব": 7667,
  "వాస్త": 7668,
  "সন": 7669,
  "इंद": 7670,
  "থমে": 7671,
  "আদালতে": 7672,
  "उत्तरा": 7673,
  "ॉर्ड": 7674,
  "மோடி": 7675,
  "प्ले": 7676,
  "உண்டு": 7677,
  "नेतृत्व": 7678,
  "చిరంజీవి": 7679,
  "खराब": 7680,
  "பணியா": 7681,
  "కింది": 7682,
  "করোনার": 7683,
  "ఉద్ద": 7684,
  "పైబడిన": 7685,
  "డ్రై": 7686,
  "করলেন": 7687,
  "కరణ": 7688,
  "परिषद": 7689,
  "சம்பவ": 7690,
  "పనులు": 7691,
  "ूड": 7692,
  "అప్పుడు": 7693,
  "த்துள்ளார்": 7694,
  "কংগ": 7695,
  "వరకూ": 7696,
  "ப்படுத்து": 7697,
  "াতন": 7698,
  "तरीके": 7699,
  "తీసుకో": 7700,
  "செயற்ப": 7701,
  "ங்களுக்கு": 7702,
  "బుధవారం": 7703,
  "করেছি": 7704,
  "విశే": 7705,
  "মোবাইল": 7706,
  "ధ్యం": 7707,
  "মায়": 7708,
  "అర్థం": 7709,
  "संस": 7710,
  "বিক্ষ": 7711,
  "నాయకులు": 7712,
  "కొడు": 7713,
  "ఆదా": 7714,
  "ामद": 7715,
  "অ্যাপ": 7716,
  "ஈடுபட்ட": 7717,
  "స్థానిక": 7718,
  "பரவ": 7719,
  "शरीर": 7720,
  "পড়ুন": 7721,
  "ிருக்கிறார்": 7722,
  "ములు": 7723,
  "వెన": 7724,
  "ষ্কার": 7725,
  "புகை": 7726,
  "அதிகம்": 7727,
  "कही": 7728,
  "ఆదివారం": 7729,
  "ఫ్ర": 7730,
  "వస్తే": 7731,
  "ভীর": 7732,
  "जम्मू": 7733,
  "ओवर": 7734,
  "विष": 7735,
  "టర్లు": 7736,
  "సుప్రీం": 7737,
  "उंड": 7738,
  "অথবা": 7739,
  "ఇంగ్": 7740,
  "నటించిన": 7741,
  "అధినేత": 7742,
  "অপরাধ": 7743,
  "నగరం": 7744,
  "லையில்": 7745,
  "অস্ট্রেল": 7746,
  "ंकर": 7747,
  "পঞ্চ": 7748,
  "भवन": 7749,
  "ில்லிய": 7750,
  "ையடுத்து": 7751,
  "ানির": 7752,
  "याचिका": 7753,
  "ప్రైవేటు": 7754,
  "ড্র": 7755,
  "బడ్జ": 7756,
  "চালু": 7757,
  "ডিয়া": 7758,
  "संभावना": 7759,
  "త్మక": 7760,
  "எடுத்த": 7761,
  "हरियाणा": 7762,
  "தொடர்பு": 7763,
  "ঘরে": 7764,
  "উচিত": 7765,
  "ప్రపంచం": 7766,
  "அவர்களின்": 7767,
  "திட": 7768,
  "मुश्": 7769,
  "नो": 7770,
  "रीब": 7771,
  "சின்ன": 7772,
  "দেব": 7773,
  "आवा": 7774,
  "নেয়": 7775,
  "অবস্থা": 7776,
  "िग": 7777,
  "పోస్ట్": 7778,
  "ంబా": 7779,
  "लाह": 7780,
  "थमिक": 7781,
  "బే": 7782,
  "ஸ்வர": 7783,
  "பெண்ண": 7784,
  "தேவையான": 7785,
  "পদে": 7786,
  "মেন্ট": 7787,
  "कपूर": 7788,
  "లవ": 7789,
  "எல்லா": 7790,
  "गुप्ता": 7791,
  "মাহমু": 7792,
  "মেডি": 7793,
  "రచ": 7794,
  "গায়": 7795,
  "পেশ": 7796,
  "ஏற்படும்": 7797,
  "స్పష్ట": 7798,
  "ச்சர்": 7799,
  "కాస్త": 7800,
  "ান্স": 7801,
  "தோல்": 7802,
  "ঘাত": 7803,
  "अश": 7804,
  "েনি": 7805,
  "வாத": 7806,
  "क्टूबर": 7807,
  "ஐந்து": 7808,
  "अंक": 7809,
  "াণ": 7810,
  "ன்ட்": 7811,
  "మొత్త": 7812,
  "िक्": 7813,
  "పొందు": 7814,
  "సంగీ": 7815,
  "মন্ত্রীর": 7816,
  "ছড়িয়ে": 7817,
  "சட்டமன்ற": 7818,
  "டங்கு": 7819,
  "பின்ன": 7820,
  "োধন": 7821,
  "नदी": 7822,
  "బోర్": 7823,
  "బ్రా": 7824,
  "আমের": 7825,
  "দ্দিন": 7826,
  "आंक": 7827,
  "बिल": 7828,
  "ক্লাব": 7829,
  "असर": 7830,
  "கிலோ": 7831,
  "सुप्री": 7832,
  "అదన": 7833,
  "சுத": 7834,
  "బ్లా": 7835,
  "ரயில்": 7836,
  "নাগরিক": 7837,
  "வரது": 7838,
  "చెన్న": 7839,
  "ैया": 7840,
  "িরে": 7841,
  "ுங்கள்": 7842,
  "পরিবেশ": 7843,
  "महामारी": 7844,
  "త్రిక": 7845,
  "விஜய": 7846,
  "হিন্দ": 7847,
  "न्‍": 7848,
  "पूछता": 7849,
  "ew": 7850,
  "টো": 7851,
  "ঋ": 7852,
  "अर्थ": 7853,
  "শনাক্ত": 7854,
  "प्राथमिक": 7855,
  "త్వ": 7856,
  "అందరూ": 7857,
  "ानि": 7858,
  "জম": 7859,
  "ఛా": 7860,
  "்தான்": 7861,
  "ব্যবস্থ": 7862,
  "निरी": 7863,
  "రావతి": 7864,
  "मैदान": 7865,
  "শার": 7866,
  "ওর": 7867,
  "हमेशा": 7868,
  "அப்படி": 7869,
  "அதிகமாக": 7870,
  "साय": 7871,
  "पोर्ट": 7872,
  "হয়তো": 7873,
  "ஃப": 7874,
  "స్ట్రీ": 7875,
  "క్షలు": 7876,
  "కోహ్": 7877,
  "स्ट्रे": 7878,
  "கேட்க": 7879,
  "अक्टूबर": 7880,
  "இருந்தால்": 7881,
  "ందరి": 7882,
  "போல்": 7883,
  "இயற்க": 7884,
  "ధం": 7885,
  "மலை": 7886,
  "నై": 7887,
  "২০১৮": 7888,
  "విరా": 7889,
  "মুহ": 7890,
  "மதுரை": 7891,
  "ापन": 7892,
  "২৭": 7893,
  "దర్శి": 7894,
  "பம்": 7895,
  "మండి": 7896,
  "বোঝ": 7897,
  "बच्चों": 7898,
  "ఆడ": 7899,
  "ियोग": 7900,
  "একাধিক": 7901,
  "வருமான": 7902,
  "வியை": 7903,
  "ாலையில்": 7904,
  "छात्रा": 7905,
  "ol": 7906,
  "জ্জ": 7907,
  "ాలపై": 7908,
  "दिला": 7909,
  "টাকার": 7910,
  "বহু": 7911,
  "ప్యా": 7912,
  "গাড়ি": 7913,
  "कित": 7914,
  "करेगा": 7915,
  "పార్ల": 7916,
  "সাহায্য": 7917,
  "அடிப்படையில்": 7918,
  "त्त": 7919,
  "রোববার": 7920,
  "పారి": 7921,
  "ফার": 7922,
  "ారిటీ": 7923,
  "২৮": 7924,
  "ख़": 7925,
  "পেতে": 7926,
  "ஆணைய": 7927,
  "கூறி": 7928,
  "சிறி": 7929,
  "மோச": 7930,
  "জাতি": 7931,
  "இணைந்து": 7932,
  "বাব": 7933,
  "দৈ": 7934,
  "ంచుకో": 7935,
  "पूछताछ": 7936,
  "আব্দুল": 7937,
  "কোর্": 7938,
  "्यु": 7939,
  "బోతున్న": 7940,
  "डल": 7941,
  "রী": 7942,
  "ళీ": 7943,
  "ुल्": 7944,
  "పడింది": 7945,
  "செலுத்த": 7946,
  "அணு": 7947,
  "ক্যা": 7948,
  "ప్రశ్న": 7949,
  "चले": 7950,
  "సాయ": 7951,
  "सुधार": 7952,
  "దక్షి": 7953,
  "அரசின்": 7954,
  "ড়ায়": 7955,
  "एसपी": 7956,
  "उद्": 7957,
  "విభా": 7958,
  "స్వామి": 7959,
  "पालन": 7960,
  "పించారు": 7961,
  "మనం": 7962,
  "లేఖ": 7963,
  "फॉ": 7964,
  "পাঠানো": 7965,
  "நீதிபதி": 7966,
  "జనీ": 7967,
  "வணி": 7968,
  "ూర్తి": 7969,
  "பிரச்னை": 7970,
  "ங்களையும்": 7971,
  "ैध": 7972,
  "াকিব": 7973,
  "அபி": 7974,
  "தற்காக": 7975,
  "తీరు": 7976,
  "ौती": 7977,
  "सजा": 7978,
  "விப": 7979,
  "जाकर": 7980,
  "அடையாள": 7981,
  "अली": 7982,
  "সংগ্রহ": 7983,
  "ব্যবসায়ী": 7984,
  "ড়ার": 7985,
  "महत्वपूर्ण": 7986,
  "య్యే": 7987,
  "आत्म": 7988,
  "శనివారం": 7989,
  "ांक": 7990,
  "నిర్మాత": 7991,
  "গ্ন": 7992,
  "దాం": 7993,
  "उसी": 7994,
  "ల్లోకి": 7995,
  "லலி": 7996,
  "समु": 7997,
  "నడి": 7998,
  "ভয়": 7999,
  "कले": 8000,
  "களால்": 8001,
  "முன்பு": 8002,
  "స్తున్నాడు": 8003,
  "மேம்ப": 8004,
  "வெளியிட்டு": 8005,
  "మిగిలి": 8006,
  "महाराष्ट्र": 8007,
  "ఆరు": 8008,
  "আবদুল": 8009,
  "அண்ண": 8010,
  "సన్ని": 8011,
  "ோட": 8012,
  "চাঁ": 8013,
  "রেক": 8014,
  "इतना": 8015,
  "রয়েছেন": 8016,
  "நப": 8017,
  "అడ": 8018,
  "తావరణ": 8019,
  "स्थल": 8020,
  "హామీ": 8021,
  "র্ঘট": 8022,
  "ரையா": 8023,
  "অর্জন": 8024,
  "பாதிக்கப்பட்ட": 8025,
  "சாப்பி": 8026,
  "இடத்தில்": 8027,
  "िद": 8028,
  "உள": 8029,
  "இதே": 8030,
  "म्प": 8031,
  "ন্দে": 8032,
  "நாக": 8033,
  "అవి": 8034,
  "நடத்தி": 8035,
  "सेंटर": 8036,
  "வலியு": 8037,
  "র্য": 8038,
  "बीआई": 8039,
  "্লিষ্ট": 8040,
  "पौ": 8041,
  "চীন": 8042,
  "மூன்ற": 8043,
  "न्याय": 8044,
  "మార్చి": 8045,
  "राजनीति": 8046,
  "టెక్": 8047,
  "कला": 8048,
  "குரு": 8049,
  "নির্বাহী": 8050,
  "எளி": 8051,
  "मतदान": 8052,
  "कश्मीर": 8053,
  "అమరావతి": 8054,
  "ணு": 8055,
  "ఆత్మహ": 8056,
  "बंगाल": 8057,
  "वैक्सीन": 8058,
  "বিনি": 8059,
  "సంప్ర": 8060,
  "ப்த": 8061,
  "వ్యవసాయ": 8062,
  "ion": 8063,
  "ধরা": 8064,
  "হাসিনা": 8065,
  "चंद्र": 8066,
  "রাজধানীর": 8067,
  "কংগ্রেস": 8068,
  "கட்சியின்": 8069,
  "ర్ట్": 8070,
  "यानी": 8071,
  "ரசிக": 8072,
  "बरामद": 8073,
  "విక్ర": 8074,
  "বিদেশ": 8075,
  "கொஞ்ச": 8076,
  "एंड": 8077,
  "अपराध": 8078,
  "విద్యుత్": 8079,
  "অসু": 8080,
  "హీరోగా": 8081,
  "ன்ஸ்": 8082,
  "ইউর": 8083,
  "গোপ": 8084,
  "প্রথমে": 8085,
  "ంత్రం": 8086,
  "ంచడానికి": 8087,
  "राजधानी": 8088,
  "िब": 8089,
  "ाइम": 8090,
  "संब": 8091,
  "দর": 8092,
  "ইনি": 8093,
  "ডেস": 8094,
  "कराई": 8095,
  "ভূম": 8096,
  "కెప్టె": 8097,
  "राने": 8098,
  "கத": 8099,
  "రహదారి": 8100,
  "সমা": 8101,
  "दिशा": 8102,
  "కరమైన": 8103,
  "தொடர்பில்": 8104,
  "ay": 8105,
  "జమా": 8106,
  "మాస్": 8107,
  "সন্": 8108,
  "जरी": 8109,
  "తెరకెక్కి": 8110,
  "ఎక్క": 8111,
  "వాతావరణ": 8112,
  "्यार": 8113,
  "న్‌ను": 8114,
  "সীমান": 8115,
  "দোক": 8116,
  "గవర్": 8117,
  "చేయాలి": 8118,
  "்க்": 8119,
  "అక్": 8120,
  "வலியுறு": 8121,
  "উদ্দেশ": 8122,
  "মামলায়": 8123,
  "ஃப்": 8124,
  "ణంగా": 8125,
  "தியான": 8126,
  "अवैध": 8127,
  "হুম": 8128,
  "बदलाव": 8129,
  "मुश्किल": 8130,
  "தெளி": 8131,
  "ময়": 8132,
  "मंडल": 8133,
  "நடிகர்": 8134,
  "ఇండి": 8135,
  "దర్యా": 8136,
  "শেয়ার": 8137,
  "సూర్": 8138,
  "పోస్టు": 8139,
  "स्ट्रेलिया": 8140,
  "ச்சுவ": 8141,
  "নাথ": 8142,
  "চ্ছি": 8143,
  "त्मक": 8144,
  "রকারি": 8145,
  "प्ल": 8146,
  "বিধ": 8147,
  "డైరెక్టర్": 8148,
  "W": 8149,
  "టీసీ": 8150,
  "अंग": 8151,
  "পরিকল্পনা": 8152,
  "नीचे": 8153,
  "मल": 8154,
  "দিবস": 8155,
  "ముంబై": 8156,
  "বিধান": 8157,
  "இறுதி": 8158,
  "త్యం": 8159,
  "ாச": 8160,
  "নিরাপত্তা": 8161,
  "কিশোর": 8162,
  "ஆன்": 8163,
  "ఉండగా": 8164,
  "এখনো": 8165,
  "विश्वविद्यालय": 8166,
  "ंटी": 8167,
  "েন্দ": 8168,
  "गाय": 8169,
  "ోధ": 8170,
  "মেনে": 8171,
  "ஊர": 8172,
  "దిరి": 8173,
  "फसल": 8174,
  "শিব": 8175,
  "கதை": 8176,
  "অধিনায়ক": 8177,
  "সুস্থ": 8178,
  "செய்தனர்": 8179,
  "पसंद": 8180,
  "्‍य": 8181,
  "సంత": 8182,
  "இந்தக்": 8183,
  "చేస": 8184,
  "তোমার": 8185,
  "వార్తలు": 8186,
  "थि": 8187,
  "শরীর": 8188,
  "కిలో": 8189,
  "முதலில்": 8190,
  "ఎదుర్కొ": 8191,
  "இராணுவ": 8192,
  "তুমি": 8193,
  "নেওয়ার": 8194,
  "गौ": 8195,
  "साब": 8196,
  "సామ": 8197,
  "কুমার": 8198,
  "প্রবেশ": 8199,
  "দুপুরে": 8200,
  "गोली": 8201,
  "ங்களாக": 8202,
  "सुनवाई": 8203,
  "সূত্রে": 8204,
  "প্রতিবাদ": 8205,
  "ఇష్ట": 8206,
  "டியில்": 8207,
  "செல்லும்": 8208,
  "ప్రయత్నం": 8209,
  "ঙ্গি": 8210,
  "অধিদ": 8211,
  "মেডিকেল": 8212,
  "నాల్": 8213,
  "పోష": 8214,
  "நாட்டின்": 8215,
  "ड्ड": 8216,
  "धरी": 8217,
  "భవి": 8218,
  "ండర్": 8219,
  "गलत": 8220,
  "ফুল": 8221,
  "বর্ণ": 8222,
  "మణ": 8223,
  "ருடன்": 8224,
  "தேர்ந்த": 8225,
  "உப": 8226,
  "गर्": 8227,
  "రామ్": 8228,
  "ఈరోజు": 8229,
  "उससे": 8230,
  "কম্প": 8231,
  "पीड़ित": 8232,
  "त्स": 8233,
  "సెక": 8234,
  "வதற்கான": 8235,
  "दक्षिण": 8236,
  "కళ్యాణ్": 8237,
  "করোন": 8238,
  "చదు": 8239,
  "வியாப": 8240,
  "கூடாது": 8241,
  "రుగ": 8242,
  "जेंसी": 8243,
  "விரி": 8244,
  "िक्र": 8245,
  "హాలు": 8246,
  "్యంగా": 8247,
  "னிய": 8248,
  "वेब": 8249,
  "नीय": 8250,
  "బడింది": 8251,
  "கண்கா": 8252,
  "ஞ": 8253,
  "ప్లే": 8254,
  "আগ্র": 8255,
  "கோரிக்கை": 8256,
  "টিশ": 8257,
  "িন্দা": 8258,
  "পরবর্তী": 8259,
  "बर्": 8260,
  "రుల": 8261,
  "அன்ப": 8262,
  "বুক": 8263,
  "करेगी": 8264,
  "ஸார்": 8265,
  "পণ্য": 8266,
  "ొచ్చు": 8267,
  "গ্রুপ": 8268,
  "অফিসার": 8269,
  "సమస్యలు": 8270,
  "কালে": 8271,
  "బస్సు": 8272,
  "స్తున్నారని": 8273,
  "উৎস": 8274,
  "காட்ட": 8275,
  "तह": 8276,
  "देशक": 8277,
  "నానికి": 8278,
  "గ్రహం": 8279,
  "తోపాటు": 8280,
  "యిన": 8281,
  "আলো": 8282,
  "প্রতিনিধি": 8283,
  "প্রতিবেদন": 8284,
  "ஊடக": 8285,
  "ற்கும்": 8286,
  "முறையில்": 8287,
  "వ్యాఖ్యా": 8288,
  "னாக": 8289,
  "चालक": 8290,
  "विषय": 8291,
  "కాదని": 8292,
  "అభిమాను": 8293,
  "েক্ষ": 8294,
  "விவகார": 8295,
  "தாய": 8296,
  "திகதி": 8297,
  "விருது": 8298,
  "శీ": 8299,
  "ুজ্জ": 8300,
  "జరుగుతున్న": 8301,
  "E": 8302,
  "ందనే": 8303,
  "భూమి": 8304,
  "ியுடன்": 8305,
  "సూచించారు": 8306,
  "பண்ண": 8307,
  "த்திலிருந்து": 8308,
  "লড়াই": 8309,
  "हित": 8310,
  "ஓர்": 8311,
  "सवार": 8312,
  "রোগী": 8313,
  "விடும்": 8314,
  "போக்குவர": 8315,
  "దర్యాప్తు": 8316,
  "ும்பு": 8317,
  "বাকি": 8318,
  "வரவே": 8319,
  "ఉద్దేశ": 8320,
  "বিজয়": 8321,
  "जिल": 8322,
  "உற்பத்தி": 8323,
  "வங்க": 8324,
  "జరిగే": 8325,
  "యితే": 8326,
  "కుటుంబం": 8327,
  "ॉय": 8328,
  "घोषित": 8329,
  "ఆలోచన": 8330,
  "প্রস্তাব": 8331,
  "थो": 8332,
  "மத": 8333,
  "காட்சி": 8334,
  "कब्": 8335,
  "থাকলে": 8336,
  "హిట్": 8337,
  "ందర్": 8338,
  "ায়ার": 8339,
  "ক্যাম্প": 8340,
  "माता": 8341,
  "प्रदान": 8342,
  "రోడ్": 8343,
  "অবস্থিত": 8344,
  "कात": 8345,
  "নাকি": 8346,
  "முன்னெ": 8347,
  "ికా": 8348,
  "இடம்பெற்ற": 8349,
  "ধে": 8350,
  "অঞ্চল": 8351,
  "ப்பிர": 8352,
  "வெள்ள": 8353,
  "जैसी": 8354,
  "ডাক": 8355,
  "கல்லூரி": 8356,
  "गठ": 8357,
  "हालत": 8358,
  "संस्थान": 8359,
  "கவன": 8360,
  "জনগণ": 8361,
  "తొలగ": 8362,
  "ళం": 8363,
  "शान": 8364,
  "घु": 8365,
  "ऊपर": 8366,
  "কালীন": 8367,
  "छोटे": 8368,
  "बीते": 8369,
  "সংস্ক": 8370,
  "ড়াতে": 8371,
  "తీవ్రంగా": 8372,
  "उट": 8373,
  "புகார்": 8374,
  "పించింది": 8375,
  "வோம்": 8376,
  "షనల్": 8377,
  "दबा": 8378,
  "बिक": 8379,
  "குண": 8380,
  "நுட்ப": 8381,
  "বিক্রি": 8382,
  "వివరాలు": 8383,
  "ாளராக": 8384,
  "বিস্তারিত": 8385,
  "सूची": 8386,
  "மாணவர்கள்": 8387,
  "குள": 8388,
  "కలు": 8389,
  "ங்கை": 8390,
  "ఎక్కడ": 8391,
  "పలువురు": 8392,
  "হোক": 8393,
  "সর্বশেষ": 8394,
  "தேர்ந்தெ": 8395,
  "বাণ": 8396,
  "ஜெயலலி": 8397,
  "வைத்திய": 8398,
  "எதிர்ப்பு": 8399,
  "స్తున్నట్లు": 8400,
  "डाय": 8401,
  "टिकट": 8402,
  "வளர்ச்சி": 8403,
  "মুজিব": 8404,
  "అంతర్జాతీయ": 8405,
  "శేఖ": 8406,
  "కొండ": 8407,
  "खर्च": 8408,
  "పట్ల": 8409,
  "అంశం": 8410,
  "लें": 8411,
  "ர்ப்பு": 8412,
  "সংশ্লিষ্ট": 8413,
  "िटे": 8414,
  "আয়োজ": 8415,
  "సాద్": 8416,
  "उनसे": 8417,
  "चन": 8418,
  "शक": 8419,
  "ঙে": 8420,
  "చేస్తా": 8421,
  "ఒప్ప": 8422,
  "এদিন": 8423,
  "ওয়ার্ড": 8424,
  "ాల్సిన": 8425,
  "కార్యాలయం": 8426,
  "लंब": 8427,
  "அரசிய": 8428,
  "வீடியோ": 8429,
  "ఫొ": 8430,
  "আসছে": 8431,
  "स्टर": 8432,
  "வாய்": 8433,
  "দুর্ঘট": 8434,
  "প্রতিযোগ": 8435,
  "ান্তর": 8436,
  "র্বে": 8437,
  "रिश्": 8438,
  "வ்வளவு": 8439,
  "িতার": 8440,
  "স্থানে": 8441,
  "हमारी": 8442,
  "పేర్కొంది": 8443,
  "బిల్లు": 8444,
  "রাজনীতি": 8445,
  "दोन": 8446,
  "దండ్ర": 8447,
  "வதற்காக": 8448,
  "ప్రతిని": 8449,
  "ப்பம்": 8450,
  "্না": 8451,
  "க்ஸ்": 8452,
  "োষ": 8453,
  "కొర": 8454,
  "चौधरी": 8455,
  "প্রমাণ": 8456,
  "বৃদ্ধি": 8457,
  "திருமணம்": 8458,
  "খর": 8459,
  "உட்பட": 8460,
  "స్మార్": 8461,
  "বিক্ষোভ": 8462,
  "ఎన్నికలు": 8463,
  "इंग": 8464,
  "पकड़": 8465,
  "योगी": 8466,
  "..!": 8467,
  "পরিচালনা": 8468,
  "ికే": 8469,
  "ఎవరు": 8470,
  "காட்டு": 8471,
  "நிகழ்ச்சி": 8472,
  "सन": 8473,
  "లియన్": 8474,
  "ঢাকার": 8475,
  "ॉन": 8476,
  "স্বামী": 8477,
  "కృ": 8478,
  "শিকার": 8479,
  "et": 8480,
  "আসলে": 8481,
  "విశ్": 8482,
  "திட்டம்": 8483,
  "திருமண": 8484,
  "ணும்": 8485,
  "অনুর": 8486,
  "रिली": 8487,
  "கோயில": 8488,
  "விளையாட்டு": 8489,
  "পাস": 8490,
  "వంద": 8491,
  "கிறேன்": 8492,
  "ஆராய": 8493,
  "হওয়ায়": 8494,
  "తగ్గి": 8495,
  "ir": 8496,
  "স্বপ্ন": 8497,
  "সহকারী": 8498,
  "నాథ": 8499,
  "కోరారు": 8500,
  "உடை": 8501,
  "వెంకట": 8502,
  "प्रेम": 8503,
  "রবিবার": 8504,
  "பாகி": 8505,
  "त्ती": 8506,
  "आसपास": 8507,
  "அறிய": 8508,
  "ఆస్పత్రి": 8509,
  "மருத்துவமனை": 8510,
  "ঠি": 8511,
  "ारोह": 8512,
  "ాలనే": 8513,
  "গুলোতে": 8514,
  "ంగి": 8515,
  "ப்புற": 8516,
  "ডেস্ক": 8517,
  "స్టేషన్": 8518,
  "ூரில்": 8519,
  "పాల్గొన్నారు": 8520,
  "मजबूत": 8521,
  "ేశ్": 8522,
  "మొబ": 8523,
  "স্বাভাবিক": 8524,
  "శాసన": 8525,
  "கிறோம்": 8526,
  "परिसर": 8527,
  "वायरल": 8528,
  "ైన్": 8529,
  "గాల్": 8530,
  "ఆటో": 8531,
  "सामान्य": 8532,
  "ప్రకటించింది": 8533,
  "अमित": 8534,
  "भुगत": 8535,
  "আসন": 8536,
  "बजट": 8537,
  "বাক": 8538,
  "ప్రారంభం": 8539,
  "ोजन": 8540,
  "अपील": 8541,
  "திமுக": 8542,
  "స్‌ను": 8543,
  "அவன்": 8544,
  "అనుభ": 8545,
  "বেগম": 8546,
  "காவல்": 8547,
  "পদ্ধ": 8548,
  "পরাম": 8549,
  "పార్టీకి": 8550,
  "सिर": 8551,
  "জায়গা": 8552,
  "ఠా": 8553,
  "एक्सप": 8554,
  "माश": 8555,
  "জিন": 8556,
  "படு": 8557,
  "सत्र": 8558,
  "கடன்": 8559,
  "தண்ட": 8560,
  "পয়েন্ট": 8561,
  "মহাস": 8562,
  "করণ": 8563,
  "జాబి": 8564,
  "రాహుల్": 8565,
  "নো": 8566,
  "২০১৭": 8567,
  "இருக்கு": 8568,
  "న్స": 8569,
  "हमने": 8570,
  "நியமி": 8571,
  "उपा": 8572,
  "নগর": 8573,
  "ாளைய": 8574,
  "టెలి": 8575,
  "తల్లిదండ్ర": 8576,
  "গ্রামে": 8577,
  "పించిన": 8578,
  "अनुमति": 8579,
  "आरोपित": 8580,
  "యిల్": 8581,
  "ছবির": 8582,
  "కార్యదర్శి": 8583,
  "அற": 8584,
  "समारोह": 8585,
  "ும": 8586,
  "চনা": 8587,
  "అనుకూ": 8588,
  "யார்": 8589,
  "ंडा": 8590,
  "எரி": 8591,
  "க்கையில்": 8592,
  "నామా": 8593,
  "போய்": 8594,
  "सुप्रीम": 8595,
  "భవిష్య": 8596,
  "சம்பவம்": 8597,
  "முடியாத": 8598,
  "ாரா": 8599,
  "V": 8600,
  "ிலை": 8601,
  "ండీ": 8602,
  "ముల": 8603,
  "தெரிவித்த": 8604,
  "न्यायालय": 8605,
  "ாமி": 8606,
  "ধারণা": 8607,
  "అవుతుంది": 8608,
  "नियर": 8609,
  "কমে": 8610,
  "தட": 8611,
  "మహారా": 8612,
  "பிரிவு": 8613,
  "টেড": 8614,
  "புல": 8615,
  "சிலர்": 8616,
  "उत्तराखंड": 8617,
  "झार": 8618,
  "पदा": 8619,
  "ஆளு": 8620,
  "আর্থ": 8621,
  "कारोबार": 8622,
  "গাঁ": 8623,
  "భక్": 8624,
  "तलाश": 8625,
  "মেয়র": 8626,
  "পর্যায়ে": 8627,
  "అభ్యర్థి": 8628,
  "அறிவு": 8629,
  "వన": 8630,
  "विपक्ष": 8631,
  "চুর": 8632,
  "পাই": 8633,
  "ভেত": 8634,
  "ఉగ్ర": 8635,
  "জমা": 8636,
  "ক্ষমতা": 8637,
  "లాక్": 8638,
  "গেছেন": 8639,
  "ূলক": 8640,
  "ாலின்": 8641,
  "स्ते": 8642,
  "உயிர": 8643,
  "ing": 8644,
  "वरण": 8645,
  "இந்து": 8646,
  "ల్లె": 8647,
  "போய": 8648,
  "వినిపి": 8649,
  "জায়গায়": 8650,
  "பதில்": 8651,
  "লক": 8652,
  "आपकी": 8653,
  "কখনো": 8654,
  "ছাত্রলীগ": 8655,
  "क्कर": 8656,
  "হাল": 8657,
  "us": 8658,
  "என்பதால்": 8659,
  "எனும்": 8660,
  "்துறை": 8661,
  "னவே": 8662,
  "ূর্ত": 8663,
  "स्तव": 8664,
  "ियार": 8665,
  "வசி": 8666,
  "খালে": 8667,
  "২৯": 8668,
  "డిగ్రీ": 8669,
  "க்கலாம்": 8670,
  "தவற": 8671,
  "ఫొటో": 8672,
  "నిర్వహించ": 8673,
  "్యూటీ": 8674,
  "ங்களிலும்": 8675,
  "ரத்தில்": 8676,
  "ிறு": 8677,
  "త్రు": 8678,
  "মাধ্যম": 8679,
  "சுதந்திர": 8680,
  "गर्म": 8681,
  "पर्या": 8682,
  "సంఘటన": 8683,
  "বিদ্যু": 8684,
  "ஒப்பந்த": 8685,
  "்த்": 8686,
  "ఓపె": 8687,
  "যুবক": 8688,
  "బిగ్": 8689,
  "ఇంటికి": 8690,
  "?''": 8691,
  "டே": 8692,
  "क्‍": 8693,
  "उद": 8694,
  "শির": 8695,
  "అరు": 8696,
  "డ్యూ": 8697,
  "ஸ்தான": 8698,
  "भोपाल": 8699,
  "తీసుకె": 8700,
  "வாதி": 8701,
  "య్యాడు": 8702,
  "குறிப்பாக": 8703,
  "একদিন": 8704,
  "கூட்டணி": 8705,
  "పడే": 8706,
  "మినే": 8707,
  "লাশ": 8708,
  "ఎంట": 8709,
  "டெல்ல": 8710,
  "அழைத்து": 8711,
  "வெளியிட": 8712,
  "পরীক্ষার": 8713,
  "থেকে": 8714,
  "றவு": 8715,
  "அரை": 8716,
  "सुना": 8717,
  "ट्ट": 8718,
  "డౌన్": 8719,
  "స్కూ": 8720,
  "অস্ত্র": 8721,
  "टो": 8722,
  "रोग": 8723,
  "அக்க": 8724,
  "்களும்": 8725,
  "జనసేన": 8726,
  "సరఫరా": 8727,
  "तमान": 8728,
  "ப்பர்": 8729,
  "সংক": 8730,
  "నివేదిక": 8731,
  "వస్తుంది": 8732,
  "వచ్చాయి": 8733,
  "मौका": 8734,
  "ধর্ষণ": 8735,
  "இவை": 8736,
  "বাড়ির": 8737,
  "मुलाकात": 8738,
  "ఆత్మహత్య": 8739,
  "ఒత్తి": 8740,
  "णाम": 8741,
  "நம்ப": 8742,
  "அம்மா": 8743,
  "পড়েছে": 8744,
  "கார்": 8745,
  "মুসলিম": 8746,
  "చెన్నై": 8747,
  "భారీగా": 8748,
  "उपस्थित": 8749,
  "దానికి": 8750,
  "ুজ্জামান": 8751,
  "মনোন": 8752,
  "रक्षा": 8753,
  "டல்": 8754,
  "న్నది": 8755,
  "K": 8756,
  "సరైన": 8757,
  "அழி": 8758,
  "ஒளி": 8759,
  "ఐపీ": 8760,
  "स्मार्ट": 8761,
  "களுக்கும்": 8762,
  "నిర్మాణం": 8763,
  "্নে": 8764,
  "সভায়": 8765,
  "सीरीज": 8766,
  "நடத்திய": 8767,
  "గుర్తింపు": 8768,
  "পিছ": 8769,
  "सफाई": 8770,
  "वित्त": 8771,
  "िक्स": 8772,
  "খারাপ": 8773,
  "వాన్ని": 8774,
  "వెలుగు": 8775,
  "নির্বাচিত": 8776,
  "ஆவ": 8777,
  "ர்களும்": 8778,
  "কাঁ": 8779,
  "कार्यकर्ताओं": 8780,
  "पर्य": 8781,
  "'-": 8782,
  "ভবন": 8783,
  "सुनी": 8784,
  "विस्त": 8785,
  "மாட்ட": 8786,
  "నిపుణ": 8787,
  "நாட்": 8788,
  "উৎপাদ": 8789,
  "స్తుందని": 8790,
  "বাদী": 8791,
  "తున్నారని": 8792,
  "ஆண": 8793,
  "మద్య": 8794,
  "स्ल": 8795,
  "చారు": 8796,
  "పరిమి": 8797,
  "ఇండస్ట్రీ": 8798,
  "Re": 8799,
  "ராணுவ": 8800,
  "অনলাইন": 8801,
  "பட்டிய": 8802,
  "পরিচয়": 8803,
  "வர்த்த": 8804,
  "ప్రతిపక్ష": 8805,
  "ুদ্র": 8806,
  "షాలు": 8807,
  "नियंत्र": 8808,
  "पत्रकार": 8809,
  "ர்ட": 8810,
  "గమని": 8811,
  "అభిమానులు": 8812,
  "ంచేందు": 8813,
  "அறிக்கை": 8814,
  "டாக": 8815,
  "తగిన": 8816,
  "தியின்": 8817,
  "జనవరి": 8818,
  "இசை": 8819,
  "আসতে": 8820,
  "చేర": 8821,
  "लगाई": 8822,
  "அத்த": 8823,
  "யு": 8824,
  "नौकरी": 8825,
  "రోజులు": 8826,
  "जित": 8827,
  "ప్పుడే": 8828,
  "रखी": 8829,
  "వెనుక": 8830,
  "चयन": 8831,
  "வெளியிட்ட": 8832,
  "ट्रै": 8833,
  "தலைமைய": 8834,
  "ষেধ": 8835,
  "చ్ఛ": 8836,
  "র‌": 8837,
  "క్ల": 8838,
  "शांति": 8839,
  "অনেকেই": 8840,
  "পাওয়ার": 8841,
  "ఆరోపించారు": 8842,
  "ట్టింది": 8843,
  "బీఐ": 8844,
  "థి": 8845,
  "மக்கு": 8846,
  "విజయవాడ": 8847,
  "फ्ल": 8848,
  "মাই": 8849,
  "দুজন": 8850,
  "மகன்": 8851,
  "রেকর্ড": 8852,
  "ధో": 8853,
  "పను": 8854,
  "నిర్వహించారు": 8855,
  "அதனை": 8856,
  "उद्योग": 8857,
  "குதியில்": 8858,
  ".''": 8859,
  "गुजरात": 8860,
  "அடுத்து": 8861,
  "নিজস্ব": 8862,
  "োদন": 8863,
  "జయ": 8864,
  "जोर": 8865,
  "ఏదో": 8866,
  "जाये": 8867,
  "விமர்": 8868,
  "বছরে": 8869,
  "గూ": 8870,
  "গুলির": 8871,
  "ஆற்ற": 8872,
  "வணிக": 8873,
  "చెయ్య": 8874,
  "న్సీ": 8875,
  "ंदगी": 8876,
  "நகர்": 8877,
  "నరేంద్ర": 8878,
  "কার্যাল": 8879,
  "மணிக்கு": 8880,
  "कोह": 8881,
  "আসামি": 8882,
  "प्रयोग": 8883,
  "కార్మి": 8884,
  "தொழில்நுட்ப": 8885,
  "ৃত্ত": 8886,
  "कुर": 8887,
  "உறுப்பினர்": 8888,
  "प्रशिक्ष": 8889,
  "फैसले": 8890,
  "அந்தப்": 8891,
  "మెంటు": 8892,
  "अतिरिक": 8893,
  "இந்தியாவின்": 8894,
  "्रेट": 8895,
  "রকম": 8896,
  "ర్‌ను": 8897,
  "জোর": 8898,
  "र्न": 8899,
  "ఖాతా": 8900,
  "ரியில்": 8901,
  "ডিজিট": 8902,
  "দরকার": 8903,
  "ఏప్రి": 8904,
  "మహమ్మ": 8905,
  "ரசு": 8906,
  "சப": 8907,
  "तत्काल": 8908,
  "అద": 8909,
  "्वर": 8910,
  "తెలుగుదేశం": 8911,
  "र्गत": 8912,
  "कप्तान": 8913,
  "িজ্য": 8914,
  "బహు": 8915,
  "ங்கம்": 8916,
  "వేగ": 8917,
  "బ్రి": 8918,
  "अमेरिकी": 8919,
  "वाना": 8920,
  "तीश": 8921,
  "ভাবেই": 8922,
  "জেনার": 8923,
  "व्यक्त": 8924,
  "ডেল": 8925,
  "నిరా": 8926,
  "க்கூட": 8927,
  "టాలీవుడ్": 8928,
  "খেলে": 8929,
  "টুই": 8930,
  "క్కలు": 8931,
  "िरी": 8932,
  "முஸ்": 8933,
  "వాయిదా": 8934,
  "রাম": 8935,
  "बढ़ाने": 8936,
  "చక్క": 8937,
  "সফ": 8938,
  "பற": 8939,
  "মাদক": 8940,
  "২০১৫": 8941,
  "காலம்": 8942,
  "కుటుంబా": 8943,
  "सिल": 8944,
  "బాగు": 8945,
  "அடிக்க": 8946,
  "ইংল্যান্ড": 8947,
  "্রিম": 8948,
  "விண்ண": 8949,
  "ரொ": 8950,
  "ండటం": 8951,
  "सिद्ध": 8952,
  "அதிபர்": 8953,
  "తనను": 8954,
  "ফুটবল": 8955,
  "कृत": 8956,
  "সঙ্গ": 8957,
  "సాయి": 8958,
  "विद्यार्थ": 8959,
  "একে": 8960,
  "বাল": 8961,
  "ప్లాన్": 8962,
  "ৃতিক": 8963,
  "శ్చి": 8964,
  "दोस्त": 8965,
  "వని": 8966,
  "মন্দ": 8967,
  "முன்னே": 8968,
  "రైతులు": 8969,
  "పాయి": 8970,
  "কেবল": 8971,
  "ஆலோசனை": 8972,
  "போலீஸ்": 8973,
  "దైన": 8974,
  "లికి": 8975,
  "तारी": 8976,
  "लक्ष्य": 8977,
  "కోహ్లీ": 8978,
  "எச்ச": 8979,
  "तैनात": 8980,
  "వస్తున్న": 8981,
  "ाजिक": 8982,
  "சோதனை": 8983,
  "వ్యాపార": 8984,
  "सफलता": 8985,
  "অন্যদি": 8986,
  "సంఘం": 8987,
  "పోలీస్": 8988,
  "খল": 8989,
  "ப்பதி": 8990,
  "उत्स": 8991,
  "পারবে": 8992,
  "গৃহ": 8993,
  "కన్న": 8994,
  "ভালোবাস": 8995,
  "ప్రశ్నించారు": 8996,
  "पल": 8997,
  "सीसी": 8998,
  "కదా": 8999,
  "प्ला": 9000,
  "గ్గా": 9001,
  "உடனடியாக": 9002,
  "দলে": 9003,
  "ায়ন": 9004,
  "இருந்தாலும்": 9005,
  "மாற": 9006,
  "వాల్సిన": 9007,
  "கிழக்கு": 9008,
  "குறு": 9009,
  "ప్రకా": 9010,
  "সফল": 9011,
  "అప్": 9012,
  "கூறியுள்ளார்": 9013,
  "पीट": 9014,
  "अतिरिक्त": 9015,
  "చేస్తోంది": 9016,
  "బాధ్యత": 9017,
  "ఇన్‌": 9018,
  "సంక్షే": 9019,
  "రల్": 9020,
  "कोल": 9021,
  "प्रिय": 9022,
  "మ్స్": 9023,
  "రింగ్": 9024,
  "వ్యూ": 9025,
  "நர்": 9026,
  "வலை": 9027,
  "निभा": 9028,
  "లేకపో": 9029,
  "ేశ్వ": 9030,
  "ণা": 9031,
  "గిరి": 9032,
  "चार्य": 9033,
  "లైన్": 9034,
  "ఉత్తర": 9035,
  "எங்கள்": 9036,
  "வருகிறார்": 9037,
  "இவரது": 9038,
  "உருவாக": 9039,
  "యండి": 9040,
  "आयु": 9041,
  "ஐக்கிய": 9042,
  "इंग्ल": 9043,
  "id": 9044,
  "యోగి": 9045,
  "গাছ": 9046,
  "मुकाबले": 9047,
  "सुपर": 9048,
  "ोधित": 9049,
  "తిరుగు": 9050,
  "பள்ள": 9051,
  "ार्ज": 9052,
  "లోపు": 9053,
  "ற்றும்": 9054,
  "தாக்கல்": 9055,
  "సలు": 9056,
  "தந்த": 9057,
  "படத்தில்": 9058,
  "রুল": 9059,
  "இரண்டாவது": 9060,
  "ரியா": 9061,
  "சாலை": 9062,
  "నిన్న": 9063,
  "ोप": 9064,
  "वेज": 9065,
  "সাব": 9066,
  "प्रतियोग": 9067,
  "ஹி": 9068,
  "खोल": 9069,
  "t": 9070,
  "আগুন": 9071,
  "एसडी": 9072,
  "పెరిగి": 9073,
  "అదుపు": 9074,
  "ঘটন": 9075,
  "ফেসবুক": 9076,
  "परेशानी": 9077,
  "కనీసం": 9078,
  "విజయ్": 9079,
  "झारखंड": 9080,
  "ంగం": 9081,
  "మృ": 9082,
  "பயண": 9083,
  "పబ్లి": 9084,
  "్రాంతి": 9085,
  "ఏర్పా": 9086,
  "తమిళనాడు": 9087,
  "प्रत्या": 9088,
  "వివరా": 9089,
  "সিলেট": 9090,
  "রং": 9091,
  "గారు": 9092,
  "सोच": 9093,
  "सलाह": 9094,
  "সম্মান": 9095,
  "కొత్తగా": 9096,
  "ாவும்": 9097,
  "దాడు": 9098,
  "থাকায়": 9099,
  "సాయంత్రం": 9100,
  "సమర్": 9101,
  "ভর": 9102,
  "m": 9103,
  "জীবী": 9104,
  "लाइ": 9105,
  "न्होंने": 9106,
  "নর": 9107,
  "పూజ": 9108,
  "তন্ত্র": 9109,
  "సభ్యు": 9110,
  "வருக்கும்": 9111,
  "রাখার": 9112,
  "ராஜ்": 9113,
  "ুকু": 9114,
  "ুতি": 9115,
  "टीवी": 9116,
  "పథకం": 9117,
  "खुश": 9118,
  "साबित": 9119,
  "வேல": 9120,
  "வழக்கில்": 9121,
  "ঐতি": 9122,
  "పడ్డా": 9123,
  "নিয়মিত": 9124,
  "্টায়": 9125,
  "अखिल": 9126,
  "बदमाश": 9127,
  "सलमान": 9128,
  "చదువు": 9129,
  "पेट्रोल": 9130,
  "మ్మి": 9131,
  "టైటి": 9132,
  "बनाकर": 9133,
  "सील": 9134,
  "मजदूर": 9135,
  "ஓய்": 9136,
  "మేము": 9137,
  "ணியில்": 9138,
  "সমস্ত": 9139,
  "ప్రాధా": 9140,
  "মাছ": 9141,
  "समूह": 9142,
  "రానికి": 9143,
  "நிறைய": 9144,
  "్యాన్ని": 9145,
  "আবু": 9146,
  "पैसे": 9147,
  "ప్రేక్షకు": 9148,
  "সন্ধ": 9149,
  "పంపిణీ": 9150,
  "অংশগ্রহণ": 9151,
  "কান": 9152,
  "డిసె": 9153,
  "திருவ": 9154,
  "খুবই": 9155,
  "ఆధారంగా": 9156,
  "స్తారని": 9157,
  "ధీ": 9158,
  "ஸ்திர": 9159,
  "हादसे": 9160,
  "वर्तमान": 9161,
  "ीत": 9162,
  "उत": 9163,
  "புதி": 9164,
  "సిం": 9165,
  "জ্ব": 9166,
  "পছ": 9167,
  "৪০": 9168,
  "ক্য": 9169,
  "परिणाम": 9170,
  "धारा": 9171,
  "…": 9172,
  "कीय": 9173,
  "சேர்ந்தவர்": 9174,
  "பால்": 9175,
  "நாட்டில்": 9176,
  "షె": 9177,
  "தையும்": 9178,
  "ডিজিটাল": 9179,
  "ய்ய": 9180,
  "``": 9181,
  "ভাঙ": 9182,
  "শক্ত": 9183,
  "नारा": 9184,
  "बनाई": 9185,
  "கண்டி": 9186,
  "వాలు": 9187,
  "சினி": 9188,
  "রাজশাহ": 9189,
  "োমি": 9190,
  "நாயக": 9191,
  "క్లి": 9192,
  "సాం": 9193,
  "గౌర": 9194,
  "जमकर": 9195,
  "మూడో": 9196,
  "மாணவர்": 9197,
  "జరుగుతోంది": 9198,
  "குழந்தைகள்": 9199,
  "ల్లే": 9200,
  "గాయ": 9201,
  "मुकद": 9202,
  "বাতি": 9203,
  "विमान": 9204,
  "பொருட்கள்": 9205,
  "मुह": 9206,
  "ইত্যা": 9207,
  "రకాల": 9208,
  "তালিকা": 9209,
  "பேரும்": 9210,
  "चिकित्स": 9211,
  "స్పె": 9212,
  "सुरक्षित": 9213,
  "సన్": 9214,
  "बेच": 9215,
  "பலர்": 9216,
  "చెంద": 9217,
  "పరిశోధ": 9218,
  "থাৎ": 9219,
  "வினர்": 9220,
  "తుడు": 9221,
  "அறிமுக": 9222,
  "ழுது": 9223,
  "ட்சிய": 9224,
  "மருத்துவமனையில்": 9225,
  "চলতি": 9226,
  "মিনিট": 9227,
  "జరుపు": 9228,
  "ఇబ్బంది": 9229,
  "बुला": 9230,
  "मकान": 9231,
  "్యాల": 9232,
  "দ্যালয়ে": 9233,
  "ఆరోపణలు": 9234,
  "খাদ্য": 9235,
  "ট্রেন": 9236,
  "చ్చితంగా": 9237,
  "அமைந்துள்ளது": 9238,
  "అమి": 9239,
  "সঠিক": 9240,
  "ভারতে": 9241,
  "ड़ों": 9242,
  "என்னை": 9243,
  "উপলক্ষে": 9244,
  "নিয়েছে": 9245,
  "పాడు": 9246,
  "సేక": 9247,
  "ஆகியோ": 9248,
  "இறை": 9249,
  "জেনারেল": 9250,
  "নির্য": 9251,
  "সম্ভাব": 9252,
  "తీసుకుని": 9253,
  "యుద్ధ": 9254,
  "বেসরকারি": 9255,
  "పోయే": 9256,
  "ப்பாட்ட": 9257,
  "डिग्री": 9258,
  "మ్యాచ్": 9259,
  "జెపి": 9260,
  "எடு": 9261,
  "নিম": 9262,
  "চিন্তা": 9263,
  "భయ": 9264,
  "సము": 9265,
  "্যাশন": 9266,
  "चुना": 9267,
  "পাবেন": 9268,
  "எழுதிய": 9269,
  "৩১": 9270,
  "దారులు": 9271,
  "संपर्क": 9272,
  "সান": 9273,
  "ంగు": 9274,
  "మేనే": 9275,
  "ठाकुर": 9276,
  "த்தன": 9277,
  "రాయ": 9278,
  "संस्था": 9279,
  "নেতৃত্ব": 9280,
  "कमे": 9281,
  "चौक": 9282,
  "வலி": 9283,
  "আলাদা": 9284,
  "அரி": 9285,
  "ஓட்டு": 9286,
  "త్తా": 9287,
  "যাত্রী": 9288,
  "आइ": 9289,
  "जाय": 9290,
  "পৌঁছ": 9291,
  "বৈঠক": 9292,
  "నెలల": 9293,
  "చిత్రాన్ని": 9294,
  "কিল": 9295,
  "पटना": 9296,
  "கவி": 9297,
  "இளைஞ": 9298,
  "விழா": 9299,
  "చూసిన": 9300,
  "कर्मचारिय": 9301,
  "प्रव": 9302,
  "লকডা": 9303,
  "்ச்ச": 9304,
  "आईपी": 9305,
  "దిగు": 9306,
  "ట్విట్ట": 9307,
  "ప్రశ్ని": 9308,
  "সরব": 9309,
  "ఓడి": 9310,
  "ट्रक": 9311,
  "శుభ": 9312,
  "দিষ্ট": 9313,
  "বিবে": 9314,
  "மருத்து": 9315,
  "కల్పించ": 9316,
  "ষ": 9317,
  "சிறுவ": 9318,
  "நவ": 9319,
  "खुल": 9320,
  "కార్యక్రమా": 9321,
  "స్ట్‌": 9322,
  "నగర్": 9323,
  "దావరి": 9324,
  "लेट": 9325,
  "সভাপ": 9326,
  "বরা": 9327,
  "దరు": 9328,
  "হান": 9329,
  "దేవ": 9330,
  "একবার": 9331,
  "పర్యటన": 9332,
  "शील": 9333,
  "నీరు": 9334,
  "কলকাতা": 9335,
  "किश": 9336,
  "பறி": 9337,
  "্কা": 9338,
  "हथ": 9339,
  "தாய்": 9340,
  "సింగ": 9341,
  "োঁজ": 9342,
  "సాయం": 9343,
  "உள்": 9344,
  "పిటి": 9345,
  "எதிர்": 9346,
  "ীপুর": 9347,
  "ভেঙে": 9348,
  "ंडल": 9349,
  "ிகா": 9350,
  "पटेल": 9351,
  "కారు": 9352,
  "స్పీ": 9353,
  "कमेटी": 9354,
  "मिलकर": 9355,
  "খেলোয়া": 9356,
  "অভিযোগে": 9357,
  "ఆవి": 9358,
  "ஓட்ட": 9359,
  "కెమె": 9360,
  "वनी": 9361,
  "గాయి": 9362,
  "నేడు": 9363,
  "కెట్లు": 9364,
  "చేసుకుంది": 9365,
  "ाइल": 9366,
  "పండు": 9367,
  "মাহমুদ": 9368,
  "முரு": 9369,
  "నిరసన": 9370,
  "స్నేహి": 9371,
  "ার্স": 9372,
  "సంబంధం": 9373,
  "भवि": 9374,
  "పంట": 9375,
  "श्रे": 9376,
  "ுவது": 9377,
  "परिय": 9378,
  "শো": 9379,
  "बिग": 9380,
  "पैदा": 9381,
  "্যান্স": 9382,
  "दूसरा": 9383,
  "িক্যাল": 9384,
  "অত": 9385,
  "த்துல": 9386,
  "ర్‌గా": 9387,
  "వెళ్ళ": 9388,
  "ভূমিকা": 9389,
  "థియే": 9390,
  "p": 9391,
  "చేయవచ్చు": 9392,
  "ன்த": 9393,
  "వార్త": 9394,
  "शानदार": 9395,
  "కార్డు": 9396,
  "ెక్ట్": 9397,
  "न्स": 9398,
  "দিলেন": 9399,
  "ట్వీట్": 9400,
  "ముగ్గురు": 9401,
  "యింది": 9402,
  "సారిగా": 9403,
  "క్రికెట్": 9404,
  "ప్రస్తుత": 9405,
  "కను": 9406,
  "চার্য": 9407,
  "த்தைத்": 9408,
  "இவற்ற": 9409,
  "பட்ச": 9410,
  "ঘোষ": 9411,
  "किये": 9412,
  "அவ்வ": 9413,
  "ிறது": 9414,
  "டுகிறது": 9415,
  "थम": 9416,
  "మరికొ": 9417,
  "আক্রমণ": 9418,
  "கூட்டம்": 9419,
  "శిక్షణ": 9420,
  "பஞ்ச": 9421,
  "েরিয়ে": 9422,
  "বিতরণ": 9423,
  "శరీరం": 9424,
  "తికి": 9425,
  "্যানেল": 9426,
  "स्पष्ट": 9427,
  "ென்ற": 9428,
  "ঘুম": 9429,
  "ஏற்பாடு": 9430,
  "»": 9431,
  "तहसील": 9432,
  "கிருஷ்ண": 9433,
  "প্রযুক্তি": 9434,
  "!''": 9435,
  "যাই": 9436,
  "టీవీ": 9437,
  "ডলার": 9438,
  "परियोजना": 9439,
  "వివరించారు": 9440,
  "దృ": 9441,
  "లభి": 9442,
  "्टर": 9443,
  "कोत": 9444,
  "த்துப்": 9445,
  "ওঠ": 9446,
  "ఓవర్": 9447,
  "ধীন": 9448,
  "পদ্ধতি": 9449,
  "धम": 9450,
  "పర్యా": 9451,
  "मानस": 9452,
  "सामाजिक": 9453,
  "నింగ్": 9454,
  "దక్కి": 9455,
  "भुगतान": 9456,
  "চ্যাম্প": 9457,
  "புகைப்பட": 9458,
  "క్ట": 9459,
  "హార": 9460,
  "জড়িত": 9461,
  "அதன்ப": 9462,
  "रान": 9463,
  "ரூபாய": 9464,
  "ట్రై": 9465,
  "ন্ত্রাস": 9466,
  "క్‌డ": 9467,
  "संकट": 9468,
  "িভ": 9469,
  "அம்ப": 9470,
  "লিখেছেন": 9471,
  "लड़की": 9472,
  "কিনা": 9473,
  "గాలి": 9474,
  "గణ": 9475,
  "ண்டை": 9476,
  "আসার": 9477,
  "অর্থাৎ": 9478,
  "্রয়": 9479,
  "புர": 9480,
  "বর্ষ": 9481,
  "బిజెపి": 9482,
  "भूमि": 9483,
  "ீன்": 9484,
  "ఆటగా": 9485,
  "ெல்": 9486,
  "পৌঁছে": 9487,
  "அருகில்": 9488,
  "হাঁ": 9489,
  "வசதி": 9490,
  "కూతు": 9491,
  "நிறுவனங்கள்": 9492,
  "పున": 9493,
  "মাথায়": 9494,
  "ஏற்கனவே": 9495,
  "టీమి": 9496,
  "அனைவரும்": 9497,
  "வருகின்றன": 9498,
  "எங்க": 9499,
  "s": 9500,
  "ினம்": 9501,
  "विंद": 9502,
  "பேசி": 9503,
  "దైనా": 9504,
  "మల": 9505,
  "ফোর": 9506,
  "निर्धार": 9507,
  "वां": 9508,
  "ऑस्ट्रेलिया": 9509,
  "ॉट": 9510,
  "ত্ত্ব": 9511,
  "చేస్తారు": 9512,
  "জিয়া": 9513,
  "పూర్త": 9514,
  "தலைமையில்": 9515,
  "ர்ட்": 9516,
  "िफ": 9517,
  "ళిక": 9518,
  "दर्श": 9519,
  "రావు": 9520,
  "அரசாங்கம்": 9521,
  "వైరల్": 9522,
  "నిర్మి": 9523,
  "పరీక్షలు": 9524,
  "খেলোয়াড়": 9525,
  "कारा": 9526,
  "சுய": 9527,
  "पांडे": 9528,
  "போட்டியில்": 9529,
  "్రీన్": 9530,
  "ews": 9531,
  "ம்மன்": 9532,
  "ব্যাপক": 9533,
  "स्त्र": 9534,
  "வைக்க": 9535,
  "ఉంటారు": 9536,
  "ிக்க": 9537,
  "শহীদ": 9538,
  "హ్యా": 9539,
  "கழக": 9540,
  "পরামর্শ": 9541,
  "তেমন": 9542,
  "ఒకరు": 9543,
  "అల్లు": 9544,
  "வேண்டாம்": 9545,
  "সমাল": 9546,
  "लै": 9547,
  "தயார": 9548,
  "বুঝতে": 9549,
  "ঘটনাস্থ": 9550,
  "मीटर": 9551,
  "దాన్ని": 9552,
  "मिलेगी": 9553,
  "रिकॉर्ड": 9554,
  "காத": 9555,
  "কিছুটা": 9556,
  "అయింది": 9557,
  "मेरी": 9558,
  "সুবিধা": 9559,
  "ভাষা": 9560,
  "শুনে": 9561,
  "గుండె": 9562,
  "बारी": 9563,
  "প্রয়োজনীয়": 9564,
  "தமிழ்நாடு": 9565,
  "होता": 9566,
  "ছিলো": 9567,
  "বিরোধী": 9568,
  "c": 9569,
  "्मी": 9570,
  "বহন": 9571,
  "సమీపం": 9572,
  "भविष्य": 9573,
  "సాధారణంగా": 9574,
  "ালেন": 9575,
  "గ్యా": 9576,
  "সীমান্ত": 9577,
  "னோ": 9578,
  "ானி": 9579,
  "यात्र": 9580,
  "रहेगी": 9581,
  "েতন": 9582,
  "ரஜ": 9583,
  "ங்களைப்": 9584,
  "பங்க": 9585,
  "ওপ": 9586,
  "గులు": 9587,
  "పాత": 9588,
  "களைத்": 9589,
  "సెప్టె": 9590,
  "అధికారి": 9591,
  "রির": 9592,
  "సార్లు": 9593,
  "কাউন্স": 9594,
  "ेंडर": 9595,
  "অন্তর্": 9596,
  "গবেষণা": 9597,
  "বাজারে": 9598,
  "అటు": 9599,
  "बिल्": 9600,
  "వాడు": 9601,
  "বলছেন": 9602,
  "नार": 9603,
  "சென்னையில்": 9604,
  "ஆல": 9605,
  "ট্রাম্প": 9606,
  "उंट": 9607,
  "ందన్న": 9608,
  "विरा": 9609,
  "ారే": 9610,
  "చొ": 9611,
  "তাদের": 9612,
  "মূলত": 9613,
  "ట్నం": 9614,
  "जैन": 9615,
  "সেবা": 9616,
  "பொருள்": 9617,
  "పన": 9618,
  "িমি": 9619,
  "లాల": 9620,
  "খরচ": 9621,
  "போட": 9622,
  "অবশ্যই": 9623,
  "গাজ": 9624,
  "িশনার": 9625,
  "మొదలైన": 9626,
  "పుట్టిన": 9627,
  "तभी": 9628,
  "পেরে": 9629,
  "জিজ্ঞ": 9630,
  "বললেন": 9631,
  "வாழ்க்கை": 9632,
  "रोकने": 9633,
  "పిన": 9634,
  "நிமிட": 9635,
  "కారం": 9636,
  "रिलीज": 9637,
  "ாடி": 9638,
  "হঠ": 9639,
  "डिप": 9640,
  "सिटी": 9641,
  "मिश्रा": 9642,
  "க்கிழமை": 9643,
  "செய்தார்": 9644,
  "கொண்டிருந்த": 9645,
  "ஆள": 9646,
  "কেলে": 9647,
  "সহজ": 9648,
  "అక్టో": 9649,
  "কারে": 9650,
  "చూపించ": 9651,
  "ఆస్ట్రే": 9652,
  "సర్వే": 9653,
  "ன்னி": 9654,
  "కార్పొ": 9655,
  "குந்த": 9656,
  "বিপর": 9657,
  "O": 9658,
  "प्रबंधन": 9659,
  "టీమిండియా": 9660,
  "அளவுக்கு": 9661,
  "উজ": 9662,
  "த்துள்ள": 9663,
  "வெற்ற": 9664,
  "అత్యధిక": 9665,
  "புரிந்து": 9666,
  "तलब": 9667,
  "చెప్పింది": 9668,
  "রক্ষ": 9669,
  "ாட": 9670,
  "ாலான": 9671,
  "వేత్త": 9672,
  "టాక్": 9673,
  "சிக்க": 9674,
  "இருப்பது": 9675,
  "ov": 9676,
  "১৯৮": 9677,
  "মান্ড": 9678,
  "இவர்கள்": 9679,
  "हरे": 9680,
  "ப்பிய": 9681,
  "పెట్టుకు": 9682,
  "িক্স": 9683,
  "னியா": 9684,
  "तकनी": 9685,
  "த்தே": 9686,
  "నియోజకవర్గం": 9687,
  "আও": 9688,
  "జన్‌": 9689,
  "আনন্দ": 9690,
  "இந்தத்": 9691,
  "প্লা": 9692,
  "অভিনেত্রী": 9693,
  "ట్టుగా": 9694,
  "ন্থ": 9695,
  "িত্বে": 9696,
  "பரிசோதனை": 9697,
  "நடு": 9698,
  "பரபர": 9699,
  "వయసు": 9700,
  "போக்குவரத்து": 9701,
  "தெரிவித்துள்ளது": 9702,
  "ఇత": 9703,
  "విధా": 9704,
  "াত্ম": 9705,
  "దీన్ని": 9706,
  "நடைமுறை": 9707,
  "চু": 9708,
  "উঠেছে": 9709,
  "பரிந்து": 9710,
  "రాజీనామా": 9711,
  "पाठ": 9712,
  "ப்பும்": 9713,
  "ంద్": 9714,
  "ফাইন": 9715,
  "నటుడు": 9716,
  "அதிமுக": 9717,
  "రూపం": 9718,
  "সতর্ক": 9719,
  "சம்பந்த": 9720,
  "వ్యాక్సిన్": 9721,
  "అధి": 9722,
  "लं": 9723,
  "ার্ট": 9724,
  "বাস্তবায়": 9725,
  "োদ্ধা": 9726,
  "వసూ": 9727,
  "त्तीस": 9728,
  "সমিত": 9729,
  "মহাম": 9730,
  "ఇచ్చే": 9731,
  "னார்": 9732,
  "வால்": 9733,
  "खेत": 9734,
  "অনি": 9735,
  "చ్చిన": 9736,
  "নেয়া": 9737,
  "విధానం": 9738,
  "டுகள்": 9739,
  "స్తోందని": 9740,
  "तुल": 9741,
  "প্ল": 9742,
  "அறு": 9743,
  "आवास": 9744,
  "మొబైల్": 9745,
  "म्मद": 9746,
  "ot": 9747,
  "கிரி": 9748,
  "பழைய": 9749,
  "ப்பட்டுள்ள": 9750,
  "ியே": 9751,
  "பயன்படுத்து": 9752,
  "బాద్‌": 9753,
  "चानक": 9754,
  "కుమారు": 9755,
  "ুরা": 9756,
  "डर": 9757,
  "ायण": 9758,
  "चंद": 9759,
  "জমি": 9760,
  "ஸி": 9761,
  "தாம": 9762,
  "চ্ছিল": 9763,
  "உண்ட": 9764,
  "வீட்ட": 9765,
  "த்தினர்": 9766,
  "స్థాన్": 9767,
  "মিয়া": 9768,
  "முஸ்லி": 9769,
  "రాష్ట్రాల్": 9770,
  "చట్టం": 9771,
  "वृद्धि": 9772,
  "అరెస్టు": 9773,
  "అవార్డు": 9774,
  "re": 9775,
  "यं": 9776,
  "விசாரி": 9777,
  "న్‌గా": 9778,
  "জারি": 9779,
  "নাস": 9780,
  "ఆకర్": 9781,
  "अचानक": 9782,
  "கண்காணி": 9783,
  "িয়াম": 9784,
  "আসবে": 9785,
  "সন্ত্রাস": 9786,
  "ంచాలి": 9787,
  "उपाय": 9788,
  "குளி": 9789,
  "நன்ற": 9790,
  "நடக்க": 9791,
  "అధికారిక": 9792,
  "जोड़": 9793,
  "মডেল": 9794,
  "முக்கியமான": 9795,
  "আকাশ": 9796,
  "কষ্ট": 9797,
  "போராட்டம்": 9798,
  "কৃষক": 9799,
  "చేసుకో": 9800,
  "పిల్లలు": 9801,
  "कड़ी": 9802,
  "దాఖ": 9803,
  "యాద": 9804,
  "లాండ్": 9805,
  "বিয়": 9806,
  "அம்": 9807,
  "ఖాస్తు": 9808,
  "விட்டார்": 9809,
  "డప": 9810,
  "াসহ": 9811,
  "హించ": 9812,
  "স্থার": 9813,
  "'.": 9814,
  "ভিস": 9815,
  "ణ్య": 9816,
  "ஆங்கில": 9817,
  "কাউন্সিল": 9818,
  "விரைவில்": 9819,
  "ழிப்பு": 9820,
  "நோக்கி": 9821,
  "চক": 9822,
  "ఏక": 9823,
  "கருத": 9824,
  "மேற்கு": 9825,
  "வடக்கு": 9826,
  "ెంట్": 9827,
  "मारपीट": 9828,
  "తీర్పు": 9829,
  "বিজ্ঞপ্ত": 9830,
  "బూ": 9831,
  "ানী": 9832,
  "బహి": 9833,
  "స్థాని": 9834,
  "மான்": 9835,
  "पुरु": 9836,
  "শাস্ত": 9837,
  "ণে": 9838,
  "సంచలన": 9839,
  "পদক্ষেপ": 9840,
  "ছর": 9841,
  "துடு": 9842,
  "వంతంగా": 9843,
  "जिसका": 9844,
  "जिसकी": 9845,
  "చేపట్ట": 9846,
  "పెట్రో": 9847,
  "சேர்ந்து": 9848,
  "जिटिव": 9849,
  "पारी": 9850,
  "देखकर": 9851,
  "ரக": 9852,
  "অগ্র": 9853,
  "ப்பட்டன": 9854,
  "పైన": 9855,
  "మరొక": 9856,
  "अच्छे": 9857,
  "கணி": 9858,
  "বিষ্য": 9859,
  "ாதாரண": 9860,
  "অভিজ্ঞ": 9861,
  "ில்லியன்": 9862,
  "ఇబ్బందులు": 9863,
  "దర": 9864,
  "सपा": 9865,
  "வெளியாக": 9866,
  "ప్రేక్షకుల": 9867,
  "হাট": 9868,
  "ில்ல": 9869,
  "ঝুঁ": 9870,
  "கண்": 9871,
  "ంటాయి": 9872,
  "న్సిప": 9873,
  "আফ্র": 9874,
  "বাধ্য": 9875,
  "ఆఫీసు": 9876,
  "మహారాష్ట్ర": 9877,
  "ந்தர": 9878,
  "ताप": 9879,
  "ర్ఘ": 9880,
  "தமது": 9881,
  "జైలు": 9882,
  "మందు": 9883,
  "டித்து": 9884,
  "చైర్మ": 9885,
  "এছাড়াও": 9886,
  "கூட்டு": 9887,
  "ওঠে": 9888,
  "பாஜ": 9889,
  "রোহি": 9890,
  "कोच": 9891,
  "কৃষি": 9892,
  "సంపాద": 9893,
  "ূহ": 9894,
  "বাহিনী": 9895,
  "సిటీ": 9896,
  "अफसर": 9897,
  "ஏற்ற": 9898,
  "सत्ता": 9899,
  "বাণিজ্য": 9900,
  "ோதைய": 9901,
  "मगर": 9902,
  "கவு": 9903,
  "ग्राह": 9904,
  "फरार": 9905,
  "నిర్ధ": 9906,
  "இருவரும்": 9907,
  "केशन": 9908,
  "रहेंगे": 9909,
  "মধ্যেই": 9910,
  "্ষিক": 9911,
  "तिव": 9912,
  "এনে": 9913,
  "வெங்க": 9914,
  "अजय": 9915,
  "ভ্যাক": 9916,
  "పరిచయం": 9917,
  "ఉన్నట్లు": 9918,
  "छत्तीस": 9919,
  "ிரா": 9920,
  "க்கண": 9921,
  "সহায়তা": 9922,
  "விவசாயி": 9923,
  "ইয়": 9924,
  "ra": 9925,
  "మైనా": 9926,
  "మహిళా": 9927,
  "న్యూఢిల్లీ": 9928,
  "ैंस": 9929,
  "गाड़ी": 9930,
  "சூழ்": 9931,
  "కుని": 9932,
  "हल्": 9933,
  "ఇచ్చింది": 9934,
  "குற்றச்ச": 9935,
  "విడి": 9936,
  "ின்றது": 9937,
  "অন্তত": 9938,
  "আনা": 9939,
  "గడి": 9940,
  "বাতিল": 9941,
  "तिवारी": 9942,
  "ஆட்ட": 9943,
  "தாக்குதல்": 9944,
  "సర్వీ": 9945,
  "उत्पाद": 9946,
  "మహమ్మారి": 9947,
  "गोल": 9948,
  "আসেন": 9949,
  "खड़े": 9950,
  "పోవడం": 9951,
  "వ్యతిరేకంగా": 9952,
  "लगने": 9953,
  "நபர்": 9954,
  "আর্থিক": 9955,
  "నున్నట్లు": 9956,
  "इंग्लैंड": 9957,
  "శ్మీ": 9958,
  "పాలన": 9959,
  "లాక్‌డ": 9960,
  "संर": 9961,
  "சபை": 9962,
  "इंतजार": 9963,
  "விவசாயிகள்": 9964,
  "पुरुष": 9965,
  "எதிரான": 9966,
  "কয়েকজন": 9967,
  "িউড": 9968,
  "టిఫ": 9969,
  "అఖ": 9970,
  "ங்கியது": 9971,
  "প্রতিবেদ": 9972,
  "சல்": 9973,
  "্রাম": 9974,
  "खाने": 9975,
  "मुद्दे": 9976,
  "মানসিক": 9977,
  "डीएम": 9978,
  "జాబితా": 9979,
  "আপন": 9980,
  "கைப்ப": 9981,
  "வதில்லை": 9982,
  "ভবিষ্য": 9983,
  "সমালোচ": 9984,
  "र्जा": 9985,
  "இஸ்": 9986,
  "বাঁচ": 9987,
  "தார": 9988,
  "्याण": 9989,
  "ారనే": 9990,
  "ేశ్వర": 9991,
  "ইংরে": 9992,
  "హరణ": 9993,
  "साइ": 9994,
  "தொடர்": 9995,
  "আহ্বান": 9996,
  "அமைந்துள்ள": 9997,
  "কঠিন": 9998,
  "వేయ": 9999,
  "াতায়": 10000,
  "దరఖాస్తు": 10001,
  "चढ़": 10002,
  "एगी": 10003,
  "कौन": 10004,
  "వికెట్": 10005,
  ">": 10006,
  "ुल्क": 10007,
  "मृतक": 10008,
  "కాంగ్రెస్‌": 10009,
  ".)": 10010,
  "మెంట్‌": 10011,
  "शौ": 10012,
  "பயங்க": 10013,
  "বাঙ": 10014,
  "অতিথি": 10015,
  "బోర్డు": 10016,
  "केन्द्र": 10017,
  "கவனி": 10018,
  "நாளை": 10019,
  "బంధు": 10020,
  "ந்தனர்": 10021,
  "உல": 10022,
  "খুন": 10023,
  "எனக்": 10024,
  "వేసి": 10025,
  "டர்": 10026,
  "ডিট": 10027,
  "గట్టి": 10028,
  "டியும்": 10029,
  "తయారీ": 10030,
  "க்கால": 10031,
  "हालात": 10032,
  "साइट": 10033,
  "எவ்": 10034,
  "ార్జు": 10035,
  "ஷா": 10036,
  "అందరికీ": 10037,
  "वर्मा": 10038,
  "কার্যকর": 10039,
  "ఆమో": 10040,
  "ருடைய": 10041,
  "করোনায়": 10042,
  "দুঃ": 10043,
  "కాన్": 10044,
  "गौरतलब": 10045,
  "अशोक": 10046,
  "షేర్": 10047,
  "পেয়েছে": 10048,
  "ভোগ": 10049,
  "வீன": 10050,
  "কাট": 10051,
  "చూస్తే": 10052,
  "তাপ": 10053,
  "আফগান": 10054,
  "অস্ব": 10055,
  "नोटिस": 10056,
  "एजेंसी": 10057,
  "ையோ": 10058,
  "ध्या": 10059,
  "िड": 10060,
  "েরও": 10061,
  "U": 10062,
  "శ్ర": 10063,
  "दोष": 10064,
  "வதில்": 10065,
  "கேரள": 10066,
  "నర": 10067,
  "రవా": 10068,
  "শিয়া": 10069,
  "ওয়ান": 10070,
  "নিয়েছেন": 10071,
  "ందట": 10072,
  "తేలి": 10073,
  "ஒழு": 10074,
  "स्लिम": 10075,
  "தில்லை": 10076,
  "సహాయం": 10077,
  "ారానికి": 10078,
  "క్వ": 10079,
  "కెరీ": 10080,
  "சட்டம்": 10081,
  "அமெரிக்கா": 10082,
  "प्रता": 10083,
  "অধিদপ্তর": 10084,
  "।''": 10085,
  "மற": 10086,
  "భే": 10087,
  "सकते": 10088,
  "যায়নি": 10089,
  "అప": 10090,
  "উন্ট": 10091,
  "अग्रवाल": 10092,
  "డుపు": 10093,
  "ডেম": 10094,
  "नीति": 10095,
  "छत्तीसगढ़": 10096,
  "लगाकर": 10097,
  "குழுவ": 10098,
  "ाब": 10099,
  "போர்": 10100,
  "পেয়েছেন": 10101,
  "నికే": 10102,
  "హన": 10103,
  "విన": 10104,
  "గురి": 10105,
  "கொழ": 10106,
  "ইত্যাদি": 10107,
  "வாடிக்க": 10108,
  "कैम": 10109,
  "জিতে": 10110,
  "জরুরি": 10111,
  "எதிர்பார்க்க": 10112,
  "चिंता": 10113,
  "देंगे": 10114,
  "அவசியம்": 10115,
  "ையைப்": 10116,
  "వ్యాధి": 10117,
  "సల": 10118,
  "வரைய": 10119,
  "ఎవరూ": 10120,
  "రస్క": 10121,
  "சரியான": 10122,
  "అయ్యింది": 10123,
  "ेंज": 10124,
  "ాయని": 10125,
  "নদী": 10126,
  "ব্যাপার": 10127,
  "क्सर": 10128,
  "আরব": 10129,
  "பாத": 10130,
  "నాయుడు": 10131,
  "யாழ": 10132,
  "দোকান": 10133,
  "জেলায়": 10134,
  "ঘণ্টায়": 10135,
  "యాం": 10136,
  "அழ": 10137,
  "பாக": 10138,
  "प्रचार": 10139,
  "நீதிமன்றம்": 10140,
  "करनी": 10141,
  "থানা": 10142,
  "াঙ্গ": 10143,
  "लौट": 10144,
  "பொதுவாக": 10145,
  "েরি": 10146,
  "দেবে": 10147,
  "జగన్‌": 10148,
  "तमाम": 10149,
  "వంతమైన": 10150,
  "శాం": 10151,
  "ధర్": 10152,
  "গভীর": 10153,
  "कोहली": 10154,
  "రించింది": 10155,
  "दाम": 10156,
  "చూపి": 10157,
  "స్టో": 10158,
  "చేయాల్": 10159,
  "ব্যক্তিগত": 10160,
  "మన్": 10161,
  "ত্তি": 10162,
  "অভিযুক্ত": 10163,
  "ारंभ": 10164,
  "चौहान": 10165,
  "প্রশিক্ষ": 10166,
  "েনা": 10167,
  "েম্ব": 10168,
  "தங்கள": 10169,
  "खुलासा": 10170,
  "வழியாக": 10171,
  "இடையே": 10172,
  "அதாவது": 10173,
  "త్వరలోనే": 10174,
  "লাগে": 10175,
  "மாறி": 10176,
  "பின்ப": 10177,
  "युवाओं": 10178,
  "అయ్యారు": 10179,
  "ட்ரோ": 10180,
  "ட்ஸ்": 10181,
  "మోడ": 10182,
  "जरूर": 10183,
  "प्रतिबंध": 10184,
  "ఎల": 10185,
  "சமய": 10186,
  "ఏకంగా": 10187,
  "సంవత్సరాల": 10188,
  "వర్తి": 10189,
  "বাসায়": 10190,
  "சமீபத்தில்": 10191,
  "সেন্ট": 10192,
  "আহম": 10193,
  "்க்கு": 10194,
  "ঙ্খ": 10195,
  "ఆస్ట్రేలియా": 10196,
  "वही": 10197,
  "నలుగు": 10198,
  "హౌ": 10199,
  "পেল": 10200,
  "लंबे": 10201,
  "ছবিতে": 10202,
  "ముందే": 10203,
  "నవం": 10204,
  "निदेशक": 10205,
  "అంశా": 10206,
  "ప్రత్యేకంగా": 10207,
  "சார்ந்த": 10208,
  "চিব": 10209,
  "నిర్వహించిన": 10210,
  "তেল": 10211,
  "அவள்": 10212,
  "కోట్": 10213,
  "நிச்ச": 10214,
  "›": 10215,
  "எழுதி": 10216,
  "দেশটির": 10217,
  "பயன்படுத்தி": 10218,
  "सख": 10219,
  "பக்த": 10220,
  "होटल": 10221,
  "হাইক": 10222,
  "লোকজন": 10223,
  "un": 10224,
  "ఎన్‌": 10225,
  "పద్ధ": 10226,
  "స్తాడు": 10227,
  "দর্শক": 10228,
  "मास्क": 10229,
  "ইল": 10230,
  "মাঠ": 10231,
  "நிறுத்த": 10232,
  "கிட": 10233,
  "मशीन": 10234,
  "பிள்ளை": 10235,
  "আর্": 10236,
  "पहुंचने": 10237,
  "ఉండి": 10238,
  "తేడా": 10239,
  "தாகும்": 10240,
  "అర్జు": 10241,
  "ఆమెను": 10242,
  "భో": 10243,
  "జర": 10244,
  "కేసీఆర్‌": 10245,
  "ஏன": 10246,
  "ार्व": 10247,
  "உள்ளார்": 10248,
  "ুধ": 10249,
  "पहल": 10250,
  "ంట్లు": 10251,
  "ராஜப": 10252,
  "కున్నారు": 10253,
  "రక్షణ": 10254,
  "মোকা": 10255,
  "తేల్": 10256,
  "ঞ্জে": 10257,
  "लाने": 10258,
  "तीसरे": 10259,
  "வாக்க": 10260,
  "ப்பதற்கு": 10261,
  "ாந்து": 10262,
  "খুলে": 10263,
  "பேரு": 10264,
  "পরিষদ": 10265,
  "निर": 10266,
  "তারকা": 10267,
  "স্বাধীনতা": 10268,
  "ag": 10269,
  "ఇన్ని": 10270,
  "கோவில்": 10271,
  "পল": 10272,
  "ளைப்": 10273,
  "बाकी": 10274,
  "டிப்பு": 10275,
  "ஜூ": 10276,
  "కోలు": 10277,
  "చేయాల": 10278,
  "ఉగ్రవా": 10279,
  "హాజర": 10280,
  "லாத": 10281,
  "পরিণ": 10282,
  "ধিক": 10283,
  "िवार": 10284,
  "এমনকি": 10285,
  "பத்திரி": 10286,
  "स्टार": 10287,
  "ঢাকায়": 10288,
  "দফ": 10289,
  "கோவை": 10290,
  "வெப்ப": 10291,
  "ఇవ్వాలని": 10292,
  "हीद": 10293,
  "వీర": 10294,
  "अनिल": 10295,
  "పడుతుంది": 10296,
  "সম্মেলনে": 10297,
  "ఎల్‌": 10298,
  "ஊர்": 10299,
  "పరిణా": 10300,
  "హోం": 10301,
  "রানে": 10302,
  "ప్రణా": 10303,
  "এসসি": 10304,
  "खिलाड़": 10305,
  "ஏற்பட": 10306,
  "ஒன்றை": 10307,
  "పవ": 10308,
  "ద్దని": 10309,
  "நிறுவனத்தின்": 10310,
  "డిపి": 10311,
  "ోత్స": 10312,
  "মিথ": 10313,
  "्रीन": 10314,
  "ధరలు": 10315,
  "కునే": 10316,
  "பிள": 10317,
  "முடிந்த": 10318,
  "రాష్ట్రాల": 10319,
  "கொல்ல": 10320,
  "फल": 10321,
  "హ్వా": 10322,
  "இங்கில": 10323,
  "প্রধানমন্ত্রীর": 10324,
  "కిలోమీ": 10325,
  "மதிப்பு": 10326,
  "பேருக்கு": 10327,
  "इतिहास": 10328,
  "నియంత్ర": 10329,
  "கம்ப": 10330,
  "उसमें": 10331,
  "स्थापित": 10332,
  "पैर": 10333,
  "శర్మ": 10334,
  "సురే": 10335,
  "జరుగుతుంది": 10336,
  "డాల": 10337,
  "భాష": 10338,
  "సత్య": 10339,
  "गरीब": 10340,
  "పరిగ": 10341,
  "వర్మ": 10342,
  "শীত": 10343,
  "সংঘর্ষ": 10344,
  "துடுப்பாட்ட": 10345,
  "वाने": 10346,
  "தோன்ற": 10347,
  "బ్రవరి": 10348,
  "కామెంట్": 10349,
  "ண்மை": 10350,
  "చంప": 10351,
  "ఇక్క": 10352,
  "ఏదైనా": 10353,
  "డ్స్": 10354,
  "ాల్సి": 10355,
  "সমস্য": 10356,
  "హోదా": 10357,
  "হুল": 10358,
  "জীবনে": 10359,
  "தடுப்பு": 10360,
  "మౌ": 10361,
  "दृ": 10362,
  "হতো": 10363,
  "వలన": 10364,
  "వాళ్లు": 10365,
  "টিক": 10366,
  "సంస్థలు": 10367,
  "্বাস": 10368,
  "থাকলেও": 10369,
  "ভ্যাকসিন": 10370,
  "खर": 10371,
  "াসরি": 10372,
  "किर": 10373,
  "ৃদ": 10374,
  "ஈடுபட்டு": 10375,
  "பிரச்சினை": 10376,
  "जिम्मेदारी": 10377,
  "हण": 10378,
  "ेड़": 10379,
  "ित्व": 10380,
  "द्दी": 10381,
  "सोन": 10382,
  "লকডাউন": 10383,
  "प्रियंका": 10384,
  "लु": 10385,
  "संभ": 10386,
  "पाई": 10387,
  "ఇవి": 10388,
  "মতে": 10389,
  "उपचार": 10390,
  "নিন": 10391,
  "வார்த்த": 10392,
  "வேளை": 10393,
  "உண்மை": 10394,
  "সিনেমা": 10395,
  "நெருக்க": 10396,
  "ीव": 10397,
  "వానికి": 10398,
  "स्वयं": 10399,
  "शाला": 10400,
  "য়েত": 10401,
  "ेश्वर": 10402,
  "চাকরি": 10403,
  "சந்தேக": 10404,
  "প্রতিরোধ": 10405,
  "ঠিত": 10406,
  "బోయే": 10407,
  "அலை": 10408,
  "వేదికగా": 10409,
  "ారిన": 10410,
  "হেল": 10411,
  "పోలి": 10412,
  "সেখান": 10413,
  "వంట": 10414,
  "మిగిలిన": 10415,
  "মজ": 10416,
  "ஜெயலலிதா": 10417,
  "డితే": 10418,
  "மாகக்": 10419,
  "அச்ச": 10420,
  "செலவு": 10421,
  "ేశాడు": 10422,
  "தேடி": 10423,
  "সরাসরি": 10424,
  "ிடு": 10425,
  "గెలు": 10426,
  "அந்தக்": 10427,
  "இதையடுத்து": 10428,
  "రవాణా": 10429,
  "প্রস্তুতি": 10430,
  "वधान": 10431,
  "ளவில்": 10432,
  "நுழை": 10433,
  "ప్రభుత్వానికి": 10434,
  "दाबाद": 10435,
  "्सा": 10436,
  "జనా": 10437,
  "गंगा": 10438,
  "फायदा": 10439,
  "தன்னை": 10440,
  "रोजगार": 10441,
  "மன்": 10442,
  "गुर": 10443,
  "খ্যাত": 10444,
  "రిజర్": 10445,
  "प्रत्य": 10446,
  "समाप्त": 10447,
  "பாலியல்": 10448,
  "பரிந்துரை": 10449,
  "পেছ": 10450,
  "पार्ट": 10451,
  "నిబంధన": 10452,
  "భారతీయ": 10453,
  "செய்வது": 10454,
  "ప్రయాణి": 10455,
  "ul": 10456,
  "रखे": 10457,
  "रैली": 10458,
  "কেমন": 10459,
  "কোভিড": 10460,
  "পড়তে": 10461,
  "எண்ணெய்": 10462,
  "সভার": 10463,
  "কিছুই": 10464,
  "ఇచ్చి": 10465,
  "ఇదిలా": 10466,
  "মুহূর্ত": 10467,
  "सैनिक": 10468,
  "புத்தக": 10469,
  "मुस्लिम": 10470,
  "నివ": 10471,
  "అభిన": 10472,
  "খেলার": 10473,
  "নিয়ম": 10474,
  "மல": 10475,
  "நடிகை": 10476,
  "అంగీక": 10477,
  "తీసుకున్నారు": 10478,
  "ிகை": 10479,
  "োরেশন": 10480,
  "வகி": 10481,
  "கவர்": 10482,
  "కున్నాడు": 10483,
  "पॉजिटिव": 10484,
  "বিদ্যুৎ": 10485,
  "कक्षा": 10486,
  "సబ్": 10487,
  "सहायता": 10488,
  "নেতৃত্বে": 10489,
  "अंतरराष्ट्रीय": 10490,
  "क्षमता": 10491,
  "নীতির": 10492,
  "நம்பிக்கை": 10493,
  "ాలీ": 10494,
  "ুনিক": 10495,
  "బ్యాంక్": 10496,
  "ஜா": 10497,
  "కవి": 10498,
  "ంటూరు": 10499,
  "্টর": 10500,
  "১০০": 10501,
  "రంగు": 10502,
  "రాలే": 10503,
  "চাইলে": 10504,
  "िनी": 10505,
  "হঠাৎ": 10506,
  "प्यार": 10507,
  "நினைவு": 10508,
  "மிருந்து": 10509,
  "स्वागत": 10510,
  "ঘন": 10511,
  "வண்ண": 10512,
  "ம்பர": 10513,
  "कल्याण": 10514,
  "মাধ্যমিক": 10515,
  "లక్షణాలు": 10516,
  "ஷி": 10517,
  "দখল": 10518,
  "सहायक": 10519,
  "জঙ্গি": 10520,
  "సిద్ధం": 10521,
  "वालों": 10522,
  "বাসিন্দা": 10523,
  "জানি": 10524,
  "ाले": 10525,
  "ంతం": 10526,
  "होम": 10527,
  "লিগ": 10528,
  "அனுப்பி": 10529,
  "্যালে": 10530,
  "బడ్జెట్": 10531,
  "విక": 10532,
  "খাত": 10533,
  "शहीद": 10534,
  "எனது": 10535,
  "तीनों": 10536,
  "অ্যাড": 10537,
  "ப்படுத்தி": 10538,
  "সম্পূর্ণ": 10539,
  "মুখ্যমন্ত্রী": 10540,
  "ভিত্তিতে": 10541,
  "कार्यकर्ता": 10542,
  "आनंद": 10543,
  "मंडी": 10544,
  "బెంగళ": 10545,
  "தயாரிக்க": 10546,
  "নাটক": 10547,
  "పెడు": 10548,
  "पत": 10549,
  "ியூ": 10550,
  "কথ": 10551,
  "ரால்": 10552,
  "নাজ": 10553,
  "చేశా": 10554,
  "नु": 10555,
  "జన్మ": 10556,
  "చెప్పాడు": 10557,
  "బడ": 10558,
  "वेबसाइट": 10559,
  "ారోగ": 10560,
  "दबाव": 10561,
  "పశ్చి": 10562,
  "ायी": 10563,
  "మంగా": 10564,
  "তারিখ": 10565,
  "সংক্রান্ত": 10566,
  "தென்": 10567,
  "దిన": 10568,
  "ప్రతీ": 10569,
  "निर्धारित": 10570,
  "లోప": 10571,
  "বলেও": 10572,
  "அப்பா": 10573,
  "చౌ": 10574,
  "త్రా": 10575,
  "కృషి": 10576,
  "निरीक्षण": 10577,
  "వేసిన": 10578,
  "రియ": 10579,
  "க்கர்": 10580,
  "অ্যাস": 10581,
  "अंतर्गत": 10582,
  "कमल": 10583,
  "சக்தி": 10584,
  "குழந்த": 10585,
  "আনু": 10586,
  "படத்தின்": 10587,
  "हाईकोर्ट": 10588,
  "ায়ণ": 10589,
  "పోతుంది": 10590,
  "टीकाकरण": 10591,
  "ান্দ": 10592,
  "জনক": 10593,
  "ార్జున": 10594,
  "உங்கள": 10595,
  "संवाददाता": 10596,
  "াপনা": 10597,
  "ியன்": 10598,
  "ద్దీ": 10599,
  "कोतवाली": 10600,
  "स्टम": 10601,
  "করেই": 10602,
  "ভারপ্রাপ্ত": 10603,
  "বীর": 10604,
  "একমাত্র": 10605,
  "বুল": 10606,
  "চূ": 10607,
  "দশমিক": 10608,
  "ণ্": 10609,
  "तुर": 10610,
  "लूट": 10611,
  "উপা": 10612,
  "सर्वे": 10613,
  "नही": 10614,
  "காத்த": 10615,
  "হিন্দু": 10616,
  "বন্ধন": 10617,
  "্যাগ": 10618,
  "प्रथम": 10619,
  "బాలిక": 10620,
  "ங்களில்": 10621,
  "வந்தார்": 10622,
  "प्रतियोगिता": 10623,
  "ణాటక": 10624,
  "दूरी": 10625,
  "கிரிக்க": 10626,
  "চক্র": 10627,
  "గానికి": 10628,
  "మున్సిప": 10629,
  "डॉलर": 10630,
  "पढ़ाई": 10631,
  "করতেন": 10632,
  "মনো": 10633,
  "నాయకు": 10634,
  "वती": 10635,
  "नाराज": 10636,
  "वैसे": 10637,
  "விவர": 10638,
  "पुरा": 10639,
  "बैठे": 10640,
  "రేవం": 10641,
  "অসুস্থ": 10642,
  "কেটে": 10643,
  "ையைக்": 10644,
  "हाउस": 10645,
  "्रिय": 10646,
  "अरब": 10647,
  "తోందని": 10648,
  "బృందం": 10649,
  "হ্ন": 10650,
  "ালো": 10651,
  "மரண": 10652,
  "ఇరు": 10653,
  "संभव": 10654,
  "মমতা": 10655,
  "বিশেষজ্ঞ": 10656,
  "অত্য": 10657,
  "అతడి": 10658,
  "திட்டமி": 10659,
  "అభిప్రాయ": 10660,
  "कू": 10661,
  "अय": 10662,
  "টিভি": 10663,
  "ঘুরে": 10664,
  "বলছে": 10665,
  "आतंकी": 10666,
  "విమర్శించారు": 10667,
  "చ్చని": 10668,
  "भाषा": 10669,
  "గర్భ": 10670,
  "మనసు": 10671,
  "தற்கொ": 10672,
  "बीमारी": 10673,
  "অভিনেতা": 10674,
  "बल्लेबाज": 10675,
  "নুর": 10676,
  "অধ্য": 10677,
  "வகுப்பு": 10678,
  "प्रतिनिधि": 10679,
  "আচ": 10680,
  "गैस": 10681,
  "सब्": 10682,
  "పన్ను": 10683,
  "बीमार": 10684,
  "शूट": 10685,
  "্যাপী": 10686,
  "వాల్సి": 10687,
  "বজ": 10688,
  "రాజ్": 10689,
  "అడ్": 10690,
  "সেনাবাহ": 10691,
  "నియమ": 10692,
  "கொஞ்சம்": 10693,
  "इलाक": 10694,
  "দৈনিক": 10695,
  "রোহিঙ্গা": 10696,
  "மைச்சர்": 10697,
  "ంభ": 10698,
  "గ్‌": 10699,
  "సెట్": 10700,
  "అత్యా": 10701,
  "নির্যাতন": 10702,
  "সাহ": 10703,
  "விஜய்": 10704,
  "కఠ": 10705,
  "இங்கே": 10706,
  "பெரும்பாலான": 10707,
  "पड़ी": 10708,
  "अक्ष": 10709,
  "মাথা": 10710,
  "ভিন্ন": 10711,
  "আইনজীবী": 10712,
  "आखिर": 10713,
  "நியூ": 10714,
  "सार्व": 10715,
  "খুঁজে": 10716,
  "বিভাগে": 10717,
  "வர்த்தக": 10718,
  "उड़": 10719,
  "ஒலி": 10720,
  "சகோத": 10721,
  "బాస్": 10722,
  "नेशनल": 10723,
  "\")": 10724,
  "বেগ": 10725,
  "ার্জ": 10726,
  "యాక్": 10727,
  "லான": 10728,
  "అంతేకాదు": 10729,
  "রাস্তা": 10730,
  "ாளையம்": 10731,
  "হর": 10732,
  "దేవి": 10733,
  "கலா": 10734,
  "লেখক": 10735,
  "धु": 10736,
  "గతా": 10737,
  "सप": 10738,
  "भ्र": 10739,
  "గ్రూ": 10740,
  "শক্তি": 10741,
  "সম্ভাবনা": 10742,
  "సార": 10743,
  "బంగారం": 10744,
  "ీయ": 10745,
  "করল": 10746,
  "সফর": 10747,
  "संबोधित": 10748,
  "मुख्यालय": 10749,
  "मैन": 10750,
  "తప్పని": 10751,
  "েক্ষা": 10752,
  "বেশির": 10753,
  "గుంటూరు": 10754,
  "చేశారని": 10755,
  "కామె": 10756,
  "चिकित्सा": 10757,
  "வாடிக்கைய": 10758,
  "ट्वि": 10759,
  "ौन": 10760,
  "ఫిబ్రవరి": 10761,
  "விட்": 10762,
  "पुन": 10763,
  "ধন্য": 10764,
  "సంస్క": 10765,
  "ఇంటర్న": 10766,
  "వాస": 10767,
  "দিচ্ছে": 10768,
  "கர்நாட": 10769,
  "తున్నాడు": 10770,
  "చేసుకుని": 10771,
  "இருப்பினும்": 10772,
  "শহরে": 10773,
  "కృష్": 10774,
  "ैर": 10775,
  "திலும்": 10776,
  "கொண்டுவ": 10777,
  "রাখেন": 10778,
  "మద్యం": 10779,
  "బెంగళూరు": 10780,
  "ష్ణ": 10781,
  "நகை": 10782,
  "స్వామ": 10783,
  "மட்ட": 10784,
  "ுமா": 10785,
  "்டோ": 10786,
  "রিপোর্ট": 10787,
  "వ్యాప్తి": 10788,
  "द्द": 10789,
  "संसद": 10790,
  "పొడి": 10791,
  "চুক্তি": 10792,
  "ఎప్పటి": 10793,
  "বাহিনীর": 10794,
  "কিলোমি": 10795,
  "हाँ": 10796,
  "வடை": 10797,
  "மாகவும்": 10798,
  "कलेक्टर": 10799,
  "अमर": 10800,
  "পাহ": 10801,
  "నాని": 10802,
  "कहानी": 10803,
  "తగ్గు": 10804,
  "ట్రంప్": 10805,
  "ండ్ల": 10806,
  "পাড়া": 10807,
  "मंजू": 10808,
  "वेद": 10809,
  "హ్మ": 10810,
  "Read": 10811,
  "যাব": 10812,
  "నిద్ర": 10813,
  "उत्पादन": 10814,
  "வாய்ப்ப": 10815,
  "కర్ణాటక": 10816,
  "ఉచి": 10817,
  "முதலீடு": 10818,
  "বোল": 10819,
  "పదార్థ": 10820,
  "బ్యాంకు": 10821,
  "দেয়ার": 10822,
  "உரிமைய": 10823,
  "நாட்கள்": 10824,
  "রাট": 10825,
  "సెల్": 10826,
  "জাতির": 10827,
  "ఎప్పుడూ": 10828,
  "বোন": 10829,
  "తాన్ని": 10830,
  "ह्": 10831,
  "க்கப்பட்டுள்ள": 10832,
  "ల్లం": 10833,
  "इले": 10834,
  "निप": 10835,
  "উৎপাদন": 10836,
  "रेड": 10837,
  "ఆగ్రహం": 10838,
  "வைத்": 10839,
  "बचाव": 10840,
  "हिमा": 10841,
  "పోయాడు": 10842,
  "எதுவும்": 10843,
  "ంక్": 10844,
  "షన్స్": 10845,
  "इंदौर": 10846,
  "आदित्य": 10847,
  "ంపులు": 10848,
  "दब": 10849,
  "अका": 10850,
  "చిరు": 10851,
  "றையினர்": 10852,
  "कील": 10853,
  "జయ్": 10854,
  "िवर्स": 10855,
  "ব্যর্থ": 10856,
  "হামলার": 10857,
  "विश्वास": 10858,
  "உட்க": 10859,
  "తదిత": 10860,
  "రళ": 10861,
  "मंच": 10862,
  "जागरूक": 10863,
  "చెప్పి": 10864,
  "க்குழு": 10865,
  "इनमें": 10866,
  "కేసుల": 10867,
  "সার্ভিস": 10868,
  "চোখে": 10869,
  "ఏప్రిల్": 10870,
  "నిపుణులు": 10871,
  "ముందుగా": 10872,
  "తీసుకోవాలని": 10873,
  "ழ்த்த": 10874,
  "ఉన్నాయని": 10875,
  "কমপ": 10876,
  "खाली": 10877,
  "ృప్తి": 10878,
  "কোথা": 10879,
  "షు": 10880,
  "बीर": 10881,
  "গতি": 10882,
  "கழு": 10883,
  "हिन्": 10884,
  "ట్యా": 10885,
  "ஆர்வ": 10886,
  "কর্মসূচি": 10887,
  "வான்": 10888,
  "ইউরোপ": 10889,
  "ிருந்தனர்": 10890,
  "ర్స్": 10891,
  "உரிய": 10892,
  "పంజా": 10893,
  "देशों": 10894,
  "வழங்கு": 10895,
  "நாடுகள்": 10896,
  "யாழ்ப்ப": 10897,
  "జ్య": 10898,
  "पर्व": 10899,
  "नेस": 10900,
  "মুনা": 10901,
  "కలిపి": 10902,
  "நூற்றா": 10903,
  "ఎఫ్": 10904,
  "ক্তার": 10905,
  "இருந்தார்": 10906,
  "করব": 10907,
  "తిన": 10908,
  "ின்று": 10909,
  "పరిస్థితులు": 10910,
  "ंजन": 10911,
  "चोट": 10912,
  "आपका": 10913,
  "இருப்பதாக": 10914,
  "তী": 10915,
  "எட": 10916,
  "తానికి": 10917,
  "ఉండాలని": 10918,
  "शिप": 10919,
  "जनिक": 10920,
  "াপ্র": 10921,
  "यक": 10922,
  "காந்தி": 10923,
  "తరలించారు": 10924,
  "రగా": 10925,
  "పుడు": 10926,
  "திருத்த": 10927,
  "कमा": 10928,
  "বন্দ্য": 10929,
  "பெரும்பாலும்": 10930,
  "ent": 10931,
  "বরং": 10932,
  "సచి": 10933,
  "बाबा": 10934,
  "होती": 10935,
  "ర్చుకు": 10936,
  "పబ్లిక్": 10937,
  "గలి": 10938,
  "పురు": 10939,
  "అగ్ర": 10940,
  "মহানগর": 10941,
  "হত্যার": 10942,
  "িনে": 10943,
  "ांच": 10944,
  "தடுக்க": 10945,
  "బ్లాక్": 10946,
  "அபிவிரு": 10947,
  "தற்கொலை": 10948,
  "ஹெ": 10949,
  "आउट": 10950,
  "িতায়": 10951,
  "सकता": 10952,
  "பொலிஸ்": 10953,
  "পর্ব": 10954,
  "వ్యవహరి": 10955,
  "ప్రాణాలు": 10956,
  "ங்களைக்": 10957,
  "நடைபெற்றது": 10958,
  "सूस": 10959,
  "విషయ": 10960,
  "யாரும்": 10961,
  "வித்திய": 10962,
  "एक्सप्रेस": 10963,
  "ன்கு": 10964,
  "ప్రయత్నాలు": 10965,
  "విద్యార్థులు": 10966,
  "য়ান": 10967,
  "ளைக்": 10968,
  "गैर": 10969,
  "কার্ড": 10970,
  "భాగం": 10971,
  "கவனம்": 10972,
  "కొనసాగ": 10973,
  "చేసినట్లు": 10974,
  "di": 10975,
  "স্ন": 10976,
  "ிற்று": 10977,
  "ভূত": 10978,
  "రాల్": 10979,
  "பிரா": 10980,
  "மும்ப": 10981,
  "प्रशिक्षण": 10982,
  "శ్రీనివాస్": 10983,
  "সত্যি": 10984,
  "ఇంట": 10985,
  "ডায়": 10986,
  "तापमान": 10987,
  "্সি": 10988,
  "ర్ల": 10989,
  "চারী": 10990,
  "पाने": 10991,
  "मालिक": 10992,
  "খেলতে": 10993,
  "వాళ్ల": 10994,
  "ఒత్తిడి": 10995,
  "हल": 10996,
  "ro": 10997,
  "देन": 10998,
  "ভারে": 10999,
  "য়াদ": 11000,
  "క్కా": 11001,
  "मुकदमा": 11002,
  "புலி": 11003,
  "కురి": 11004,
  "रजिस्ट": 11005,
  "সম্পন্ন": 11006,
  "மொத்தம்": 11007,
  "தகவல்கள்": 11008,
  "ওষ": 11009,
  "కస్ట": 11010,
  "शक्ति": 11011,
  "ক্যাম": 11012,
  "ప్రణాళిక": 11013,
  "அந்": 11014,
  "বেলা": 11015,
  "সক্ষ": 11016,
  "২০১৪": 11017,
  "సంక్షేమ": 11018,
  "रेट": 11019,
  "रखें": 11020,
  "২০১৩": 11021,
  "దేశా": 11022,
  "హాన్ని": 11023,
  "তাক": 11024,
  "లక్షలు": 11025,
  "लेख": 11026,
  "টিম": 11027,
  "రించే": 11028,
  "ஆதரவு": 11029,
  "ধ্ব": 11030,
  "सेक्टर": 11031,
  "దరి": 11032,
  "रहें": 11033,
  "అవసరమైన": 11034,
  "వెల్లడించింది": 11035,
  "ல்கள": 11036,
  "সৌদি": 11037,
  "উদ্বোধন": 11038,
  "ेद": 11039,
  "வன": 11040,
  "लैंड": 11041,
  "ఆడి": 11042,
  "కరంగా": 11043,
  "பேரா": 11044,
  "హార్": 11045,
  "িয়ায়": 11046,
  "ஒப்பு": 11047,
  "పులు": 11048,
  "కఠిన": 11049,
  "ఖాళీ": 11050,
  "లంక": 11051,
  "োনাল": 11052,
  "డ్డీ": 11053,
  "ரிப்பு": 11054,
  "विस्तार": 11055,
  "গড়": 11056,
  "চলাচল": 11057,
  "ঘটেছে": 11058,
  "கடும்": 11059,
  "কম্পিউ": 11060,
  "దేశవ్యాప్తంగా": 11061,
  "নীয়": 11062,
  "বদ্ধ": 11063,
  "गईं": 11064,
  "वेतन": 11065,
  "নিচে": 11066,
  "பிரதம": 11067,
  "आदमी": 11068,
  "ఉదా": 11069,
  "दर्जन": 11070,
  "টিটি": 11071,
  "డింగ్": 11072,
  "నర్‌": 11073,
  "த்துவம்": 11074,
  "த்திரம்": 11075,
  "వెళ్లే": 11076,
  "వ్యవహారం": 11077,
  "పరిస్థితుల్": 11078,
  "ன்னா": 11079,
  "अधी": 11080,
  "জ্ঞান": 11081,
  "चली": 11082,
  "लेना": 11083,
  "தேர்": 11084,
  "గ్రే": 11085,
  "த்திரை": 11086,
  "অনুমতি": 11087,
  "చూడాలి": 11088,
  "మార్గం": 11089,
  "চতু": 11090,
  "হৃদ": 11091,
  "ग्रामीणों": 11092,
  "पढ़े": 11093,
  "க்கூடாது": 11094,
  "అరెస్ట్": 11095,
  "ওয়েবসাই": 11096,
  "জরি": 11097,
  "ఆయా": 11098,
  "మరీ": 11099,
  "हिंसा": 11100,
  "సుల": 11101,
  "உருவாக்க": 11102,
  "குறிப்பிட்டு": 11103,
  "வேன்": 11104,
  "ங்கிணை": 11105,
  "प्लान": 11106,
  "অব্যা": 11107,
  "పుస్త": 11108,
  "நல்லது": 11109,
  "सार्वजनिक": 11110,
  "కలిగిన": 11111,
  "పెద్దగా": 11112,
  "మాట్లాడారు": 11113,
  "यात": 11114,
  "ందన": 11115,
  "मनी": 11116,
  "కోవిడ్": 11117,
  "কখনও": 11118,
  "ড়ান্ত": 11119,
  "संघर्ष": 11120,
  "শাক": 11121,
  "రోహి": 11122,
  "ঞ্চলে": 11123,
  "ব্রিটিশ": 11124,
  "बचाने": 11125,
  "మంత్రులు": 11126,
  "দেহ": 11127,
  "सुख": 11128,
  "பழனி": 11129,
  "రెడీ": 11130,
  "ఓటు": 11131,
  "சிறை": 11132,
  "தெரு": 11133,
  "संचालन": 11134,
  "বন্দ্যোপাধ্যায়": 11135,
  "ష్టా": 11136,
  "নিষ": 11137,
  "ఫైన": 11138,
  "বিকাল": 11139,
  "డబ్బులు": 11140,
  "फाइनल": 11141,
  "చుట్ట": 11142,
  "த்திட்ட": 11143,
  "সরবরাহ": 11144,
  "వరుసగా": 11145,
  "தெரிவிக்க": 11146,
  "्यता": 11147,
  "জাল": 11148,
  "ప్రశం": 11149,
  "கூறப்படுகிறது": 11150,
  "बहु": 11151,
  "সভাপত": 11152,
  "प्रत्येक": 11153,
  "ஹா": 11154,
  "ொருள்": 11155,
  "అన్నాడు": 11156,
  "పెట్టిన": 11157,
  "ినా": 11158,
  "ரிமை": 11159,
  "অথচ": 11160,
  "శాస్త్ర": 11161,
  "ற்ச": 11162,
  "ৃদ্ধ": 11163,
  "तुरंत": 11164,
  "நாட்கள": 11165,
  "எனினும்": 11166,
  "চালক": 11167,
  "াদার": 11168,
  "కుంటున్న": 11169,
  "மத்தியில்": 11170,
  "చిత్రానికి": 11171,
  "்ச்சி": 11172,
  "্যান্ট": 11173,
  "சுற்றி": 11174,
  "বিতর্ক": 11175,
  "किलोमीटर": 11176,
  "लाब": 11177,
  "கமி": 11178,
  "கற்ப": 11179,
  "பாஜக": 11180,
  "पुराने": 11181,
  "ముఖ్యమైన": 11182,
  "மேற்கொண்ட": 11183,
  "সমন": 11184,
  "चीनी": 11185,
  "িয়েছে": 11186,
  "ந்திரன்": 11187,
  "ప్రమాద": 11188,
  "অত্যন্ত": 11189,
  "நிறைவேற்ற": 11190,
  "ঋণ": 11191,
  "కథనం": 11192,
  "কামাল": 11193,
  "పశ్చిమ": 11194,
  "ंची": 11195,
  "রেজ": 11196,
  "முகம்": 11197,
  "উৎসব": 11198,
  "মাদ্র": 11199,
  "హక్కు": 11200,
  "श्न": 11201,
  "महास": 11202,
  "মিলে": 11203,
  "ఇటీవ": 11204,
  "என்பவர்": 11205,
  "யி": 11206,
  "மம்": 11207,
  "তৎ": 11208,
  "கும்ப": 11209,
  "చ్చే": 11210,
  "అప్ర": 11211,
  "పక్కన": 11212,
  "वाय": 11213,
  "हवा": 11214,
  "ఇవ్వడం": 11215,
  "సమాధానం": 11216,
  "ంటోంది": 11217,
  "தொற்ற": 11218,
  "ுவதற்கு": 11219,
  "पुष्टि": 11220,
  "వేళ": 11221,
  "ారన్నారు": 11222,
  "এটি": 11223,
  "ac": 11224,
  "యన్స్": 11225,
  "পরিবহন": 11226,
  "பிரே": 11227,
  "బరువు": 11228,
  "ব্যবসা": 11229,
  "వృత్తి": 11230,
  "அதிகமான": 11231,
  "वस्था": 11232,
  "पैसा": 11233,
  "చాలామంది": 11234,
  "नियंत्रण": 11235,
  "ठे": 11236,
  "सीटों": 11237,
  "मोहम्मद": 11238,
  "ோட்ட": 11239,
  "ల్ప": 11240,
  "பராம": 11241,
  "கூடுதல்": 11242,
  "கொண்டுள்ளது": 11243,
  "आल": 11244,
  "जला": 11245,
  "নদীর": 11246,
  "্যাশনাল": 11247,
  "వాదన": 11248,
  "ৌশল": 11249,
  "திக்க": 11250,
  "ீட்டு": 11251,
  "वितरण": 11252,
  "ধন্যবাদ": 11253,
  "షాక్": 11254,
  "বিশাল": 11255,
  "కన్నా": 11256,
  "ஒருங்கிணை": 11257,
  "বেল": 11258,
  "িমা": 11259,
  "ছাড়াও": 11260,
  "வட்டார": 11261,
  "ఘన": 11262,
  "ల్సీ": 11263,
  "மக்க": 11264,
  "চ্যাম্পিয়ন": 11265,
  "పిల్లల": 11266,
  "बहन": 11267,
  "এমপি": 11268,
  "చరణ్": 11269,
  "विवाह": 11270,
  "இயற்கை": 11271,
  "সন্ধ্যা": 11272,
  "చెప్పుకొచ్చ": 11273,
  "आजा": 11274,
  "జీవ": 11275,
  "रास्ते": 11276,
  "মোঃ": 11277,
  "দীর্ঘদিন": 11278,
  "చేసుకున్నారు": 11279,
  "नेश": 11280,
  "युवती": 11281,
  "றது": 11282,
  "शिकार": 11283,
  "কাঠ": 11284,
  "శిక్ష": 11285,
  "কমিশনার": 11286,
  "அதிகரித்து": 11287,
  "নির্ম": 11288,
  "அளித்த": 11289,
  "र्प": 11290,
  "నొ": 11291,
  "మిన": 11292,
  "विराट": 11293,
  "நன்றாக": 11294,
  "शीर्ष": 11295,
  "மற்றொரு": 11296,
  "డిజ": 11297,
  "విరు": 11298,
  "ப்படுத்தும்": 11299,
  "কবি": 11300,
  "ভাস": 11301,
  "విప": 11302,
  "విశేషం": 11303,
  "பொதுமக்கள்": 11304,
  "మండిపడ్డారు": 11305,
  "विर": 11306,
  "ఆగస్టు": 11307,
  "স্বীকার": 11308,
  "న్నే": 11309,
  "चलने": 11310,
  "ப்பாடு": 11311,
  "పోయాయి": 11312,
  "वानी": 11313,
  "छाप": 11314,
  "భయం": 11315,
  "ফলা": 11316,
  "सूत्रों": 11317,
  "यम": 11318,
  "ీర్": 11319,
  "க்குத்": 11320,
  "ட்டார்": 11321,
  "इनके": 11322,
  "నల్ల": 11323,
  "భేటీ": 11324,
  "पुरस्कार": 11325,
  "आखिरी": 11326,
  "தீர்வு": 11327,
  "చెప్పడం": 11328,
  "ொன்ற": 11329,
  "ाइड": 11330,
  "విల": 11331,
  "जताई": 11332,
  "যেকোন": 11333,
  "దూరంగా": 11334,
  "తనం": 11335,
  "सीबीआई": 11336,
  "సందర్శ": 11337,
  "కెప్టెన్": 11338,
  "వల్": 11339,
  "चोर": 11340,
  "ஸ்திரே": 11341,
  "राजेश": 11342,
  "খালেদা": 11343,
  "নেট": 11344,
  "পাবে": 11345,
  "இரண்டாம்": 11346,
  "ুলত": 11347,
  "లైన": 11348,
  "হো": 11349,
  "छूट": 11350,
  "चीज": 11351,
  "করায়": 11352,
  "குற்றம்": 11353,
  "టన్": 11354,
  "चां": 11355,
  "पंजी": 11356,
  "সম্যান": 11357,
  "தொழிற": 11358,
  "ంటున్నా": 11359,
  "सक्रिय": 11360,
  "हिमाचल": 11361,
  "িল্যান্ড": 11362,
  "प्रवक्ता": 11363,
  "জির": 11364,
  "ওষুধ": 11365,
  "కాన్ని": 11366,
  "கிட்ட": 11367,
  "వేసుకు": 11368,
  "लॉन्": 11369,
  "படைய": 11370,
  "பண்ட": 11371,
  "కేరళ": 11372,
  "தந்தை": 11373,
  "বারে": 11374,
  "హద్దు": 11375,
  "உப்பு": 11376,
  "புள்ளி": 11377,
  "ெழு": 11378,
  "কারো": 11379,
  "ప్రభాస్": 11380,
  "ந்தா": 11381,
  "बहा": 11382,
  "क्सीजन": 11383,
  "பார்ப்ப": 11384,
  "చేస్తామని": 11385,
  "ैट": 11386,
  "ఫల": 11387,
  "ంచ్": 11388,
  "रावट": 11389,
  "உதவ": 11390,
  "सुनि": 11391,
  "মন্ত্র": 11392,
  "समीक्षा": 11393,
  "மட்டுமல்ல": 11394,
  "பருவ": 11395,
  "నాటి": 11396,
  "শিয়ার": 11397,
  "మహిళలు": 11398,
  "বনে": 11399,
  "াইট": 11400,
  "పడుతున్న": 11401,
  "यल": 11402,
  "দাস": 11403,
  "১৯৬": 11404,
  "எத்த": 11405,
  "వెళ్లిన": 11406,
  "கித": 11407,
  "தல": 11408,
  "নিষেধ": 11409,
  "শ্রীল": 11410,
  "மூத்த": 11411,
  "தொடங்கி": 11412,
  "ut": 11413,
  "সমাধান": 11414,
  "మాన్": 11415,
  "पूछा": 11416,
  "ক্ষম": 11417,
  "மேற்க": 11418,
  "ஏற்பட்டது": 11419,
  "ైలి": 11420,
  "ఐటీ": 11421,
  "महसूस": 11422,
  "నున్నాయి": 11423,
  "প্রত্যেক": 11424,
  "மீன": 11425,
  "আদেশ": 11426,
  "প্রণ": 11427,
  "সৈয়": 11428,
  "గవర్నర్": 11429,
  "সাহিত": 11430,
  "నామినే": 11431,
  "कठ": 11432,
  "শাম": 11433,
  "పట్నం": 11434,
  "எல்லை": 11435,
  "సంతోష": 11436,
  "ప్రస్తా": 11437,
  "ெனில்": 11438,
  "सूर्य": 11439,
  "गिरावट": 11440,
  "தினமும்": 11441,
  "లేకపోవడం": 11442,
  "ামেন্ট": 11443,
  "योजनाओं": 11444,
  "మ్యూ": 11445,
  "சதவீத": 11446,
  "துப்பா": 11447,
  "ஆசிரியர்": 11448,
  "எப்போதும்": 11449,
  "পছন্দ": 11450,
  "రాజ్య": 11451,
  "ফু": 11452,
  "ஆரோ": 11453,
  "विदेशी": 11454,
  "తిరుపతి": 11455,
  "आशंका": 11456,
  "ोधन": 11457,
  "నాగార్జున": 11458,
  "आंख": 11459,
  "మిగతా": 11460,
  "সংস্থার": 11461,
  "পরীক্ষায়": 11462,
  "ইঞ্জ": 11463,
  "రేపు": 11464,
  "অনুরোধ": 11465,
  "ஆண்டுகள்": 11466,
  "த்துக்கும்": 11467,
  "డ్రా": 11468,
  "சந்திர": 11469,
  "பலரும்": 11470,
  "போதும்": 11471,
  "బాధితు": 11472,
  "எதிர்க்க": 11473,
  "మార్పులు": 11474,
  "্বল": 11475,
  "தமிழர்": 11476,
  "மதிப்ப": 11477,
  "म्बर": 11478,
  "அலங்க": 11479,
  "কোম্পানি": 11480,
  "हथियार": 11481,
  "নীল": 11482,
  "কবির": 11483,
  "माहौल": 11484,
  "प्रबंध": 11485,
  "மாற்று": 11486,
  "্প্র": 11487,
  "बाग": 11488,
  "இருக்கலாம்": 11489,
  "काउ": 11490,
  "িনিয়র": 11491,
  "க்கொள்": 11492,
  "प्रेर": 11493,
  "ப்படவில்லை": 11494,
  "्राम": 11495,
  "घाट": 11496,
  "எழுத": 11497,
  "నెటి": 11498,
  "னையை": 11499,
  "నూతన": 11500,
  "সন্দে": 11501,
  "நிகழ்வு": 11502,
  "्रह": 11503,
  "गोर": 11504,
  "जागरण": 11505,
  "युद्ध": 11506,
  "পরিশ": 11507,
  "फायर": 11508,
  "हिस्से": 11509,
  "తీసుకొచ్చ": 11510,
  "रासत": 11511,
  "জার্ম": 11512,
  "పోలింగ్": 11513,
  "వర్గాలు": 11514,
  "அடிப்படை": 11515,
  "రాజకీయాల్": 11516,
  "कब": 11517,
  "অবৈ": 11518,
  "দ্য": 11519,
  "ट्रांस": 11520,
  "ியுள்ளனர்": 11521,
  "ிலி": 11522,
  "తాడు": 11523,
  "రిని": 11524,
  "சர்க்க": 11525,
  "జూనియర్": 11526,
  "భారతదేశం": 11527,
  ")-": 11528,
  "తారా": 11529,
  "এরই": 11530,
  "স্থাপন": 11531,
  "াইভ": 11532,
  "పూర్‌": 11533,
  "जूदा": 11534,
  "োয়েন": 11535,
  "ெக்டர்": 11536,
  "చ్చారు": 11537,
  "प्रखंड": 11538,
  "बिक्री": 11539,
  "ব্যক্ত": 11540,
  "ఇండియన్": 11541,
  "সাকিব": 11542,
  "ब्द": 11543,
  "যিনি": 11544,
  "క్రే": 11545,
  "వాణి": 11546,
  "সচেতন": 11547,
  "ఆహ్వా": 11548,
  "িও": 11549,
  "कैं": 11550,
  "ার্থীর": 11551,
  "কেন্দ": 11552,
  "సరిహద్దు": 11553,
  "ఎమ్మెల్సీ": 11554,
  "సుప్రీంకోర్టు": 11555,
  "াক্তন": 11556,
  "ఉండడం": 11557,
  "পাহাড়": 11558,
  "కార్యకర్త": 11559,
  "சில்": 11560,
  "ట్యూ": 11561,
  "త్రీ": 11562,
  "बढ़ने": 11563,
  "मेरा": 11564,
  "গোটা": 11565,
  "বিষয়ক": 11566,
  "றுத்த": 11567,
  "அடிக்கடி": 11568,
  "రోజులుగా": 11569,
  "য়নে": 11570,
  "गुण": 11571,
  "ग्रुप": 11572,
  "সমন্ব": 11573,
  "চূড়ান্ত": 11574,
  "நகரில்": 11575,
  "படிக்க": 11576,
  "చెప్పే": 11577,
  "ిత": 11578,
  "లాభ": 11579,
  "রক্ষা": 11580,
  "!'": 11581,
  "दात": 11582,
  "ूनी": 11583,
  "బరి": 11584,
  "বাধা": 11585,
  "క్రికె": 11586,
  "ఇప్పటికీ": 11587,
  "ेंशन": 11588,
  "উপজেলায়": 11589,
  "த்ய": 11590,
  "মুক্তিযোদ্ধা": 11591,
  "রস": 11592,
  "लड़क": 11593,
  "వరద": 11594,
  "बोले": 11595,
  "কোথায়": 11596,
  "সম্মেলন": 11597,
  "கடவு": 11598,
  "தற்கான": 11599,
  "களுக்கான": 11600,
  "நீதிமன்றத்தில்": 11601,
  "ांसी": 11602,
  "పవర్": 11603,
  "कर्मचारियों": 11604,
  "னான": 11605,
  "हिस": 11606,
  "నిషే": 11607,
  "जिन्हें": 11608,
  "ట్స్‌": 11609,
  "పెంచు": 11610,
  "इन्हें": 11611,
  "టిడిపి": 11612,
  "टिप": 11613,
  "स्ट्री": 11614,
  "ఎత్తున": 11615,
  "பார்வைய": 11616,
  "खतरा": 11617,
  "দূরে": 11618,
  "महिलाएं": 11619,
  "కేటీఆర్": 11620,
  "தயாரிப்பு": 11621,
  "छुट": 11622,
  "ধীরে": 11623,
  "தாக்குத": 11624,
  "மிகப்பெ": 11625,
  "ஸ்டாலின்": 11626,
  "அளவ": 11627,
  "ఆశ్చ": 11628,
  "ల్యా": 11629,
  "ামত": 11630,
  "నుంచే": 11631,
  "करता": 11632,
  "నష్టం": 11633,
  "దీనిని": 11634,
  "कथ": 11635,
  "চলেছে": 11636,
  "मू": 11637,
  "ఆఫర్": 11638,
  "दुर्घटना": 11639,
  "প্রক্রিয়া": 11640,
  "ফ্ল": 11641,
  "డికల్": 11642,
  "పోయినా": 11643,
  "இன்றைய": 11644,
  "మాధ్య": 11645,
  "నిర్వహణ": 11646,
  "మధ్యా": 11647,
  "हिरासत": 11648,
  "ద్రా": 11649,
  "खाते": 11650,
  "मौजूदा": 11651,
  "జంట": 11652,
  "స్తులు": 11653,
  "পোশাক": 11654,
  "సముద్ర": 11655,
  "ట్విట్టర్": 11656,
  "ఘా": 11657,
  "रीन": 11658,
  "ুতে": 11659,
  "కథా": 11660,
  "उनको": 11661,
  "তালিকায়": 11662,
  "వైద్యులు": 11663,
  "హరీ": 11664,
  "दर्द": 11665,
  "అవసర": 11666,
  "मनाया": 11667,
  "দলীয়": 11668,
  "सुनिश्चित": 11669,
  "াজন": 11670,
  "த்தொ": 11671,
  "নিয়া": 11672,
  "விடம்": 11673,
  "News": 11674,
  "లెక్క": 11675,
  "निशाना": 11676,
  "टका": 11677,
  "ాయతీ": 11678,
  "அவசர": 11679,
  "विल": 11680,
  "ிருப்பது": 11681,
  "எதிர்கால": 11682,
  "నాట": 11683,
  "ব্যাপী": 11684,
  "গ্যাস": 11685,
  "মুক্ত": 11686,
  "ஒன்றிய": 11687,
  "सौं": 11688,
  "राजा": 11689,
  "ఈసారి": 11690,
  "వైయస్": 11691,
  "अखिलेश": 11692,
  "सारे": 11693,
  "আমির": 11694,
  "பேசு": 11695,
  "चेता": 11696,
  "தள்ள": 11697,
  "লেগে": 11698,
  "பாராளுமன்ற": 11699,
  "அபிவிருத்தி": 11700,
  "সোশ": 11701,
  "తరహా": 11702,
  "அவள": 11703,
  "நமது": 11704,
  "కమిష": 11705,
  "జీవిత": 11706,
  "தெரிவித்தனர்": 11707,
  "दुष्": 11708,
  "టార్": 11709,
  "কুমিল": 11710,
  "স্মৃতি": 11711,
  "రక": 11712,
  "भीतर": 11713,
  "ग्राहक": 11714,
  "খি": 11715,
  "ஞ்": 11716,
  "ஏப்": 11717,
  "आपूर्ति": 11718,
  "রাজশাহী": 11719,
  "সদস্যরা": 11720,
  "వరం": 11721,
  "షన్లు": 11722,
  "सकेंगे": 11723,
  "ఆర్టీసీ": 11724,
  "க்கத்தில்": 11725,
  "প্রশিক্ষণ": 11726,
  "हड़": 11727,
  "रिट": 11728,
  "ంగ్స్": 11729,
  "স্টে": 11730,
  "ரையில்": 11731,
  "స్తాన్": 11732,
  "விருப்ப": 11733,
  "প্রাক্তন": 11734,
  "మార్చ": 11735,
  "खाना": 11736,
  "ఖాన్": 11737,
  "స్తానని": 11738,
  "!\"": 11739,
  "্ণ": 11740,
  "அணை": 11741,
  "கடல்": 11742,
  "టాప్": 11743,
  "పార్టీలు": 11744,
  "বাহী": 11745,
  "इन्": 11746,
  "घरे": 11747,
  "গ্রস্ত": 11748,
  "గ్రామా": 11749,
  "ఎప్పుడు": 11750,
  "చేపట్టిన": 11751,
  "र्तन": 11752,
  "মুক্তিযুদ্ধ": 11753,
  "গ্রাহ": 11754,
  "மீதான": 11755,
  "నారాయణ": 11756,
  "अभिय": 11757,
  "দিলে": 11758,
  "హాట్": 11759,
  "বিজেপির": 11760,
  "வழங்கும்": 11761,
  "लोनी": 11762,
  "ద్ధా": 11763,
  "మృత": 11764,
  "মেয়": 11765,
  "रिश्ते": 11766,
  "எவ்வளவு": 11767,
  "முறையாக": 11768,
  "மிய": 11769,
  "सुल": 11770,
  "மடைந்த": 11771,
  "समुदाय": 11772,
  "ীব্র": 11773,
  "আবুল": 11774,
  "நெடு": 11775,
  "ఉదాహరణ": 11776,
  "నాటికి": 11777,
  "விட்டால்": 11778,
  "ব্যক্তির": 11779,
  "ेलन": 11780,
  "काता": 11781,
  "ఫ్ట్": 11782,
  "চুল": 11783,
  "ూర్పు": 11784,
  "প্রয": 11785,
  "నేరుగా": 11786,
  "परिजनों": 11787,
  "स्वीकार": 11788,
  "ेक्ट": 11789,
  "শারীর": 11790,
  "கருணா": 11791,
  "ম্যানে": 11792,
  "ఆరోగ్యం": 11793,
  "নির্দিষ্ট": 11794,
  "గీ": 11795,
  "मनोज": 11796,
  "বার্তা": 11797,
  "ধানে": 11798,
  "शाय": 11799,
  "অঙ্গ": 11800,
  "ண்டில்": 11801,
  "মুম্ব": 11802,
  "பெயரில்": 11803,
  "ৃতির": 11804,
  "্যারি": 11805,
  "मानव": 11806,
  "सुनील": 11807,
  "వ్యక్తిగత": 11808,
  "आकर": 11809,
  "వచ్చారు": 11810,
  "সমর্থন": 11811,
  "సాధించిన": 11812,
  "షీ": 11813,
  "முதன்": 11814,
  "நடத்து": 11815,
  "সিনিয়র": 11816,
  "नम": 11817,
  "ఏడు": 11818,
  "অবৈধ": 11819,
  "అదనపు": 11820,
  "यूनिवर्स": 11821,
  "#": 11822,
  "व्": 11823,
  "ருமான": 11824,
  "धमकी": 11825,
  "স্টেশন": 11826,
  "পৃথিবীর": 11827,
  "विशेषज्ञ": 11828,
  "ग्ध": 11829,
  "ீஸ்": 11830,
  "মির": 11831,
  "திடீர": 11832,
  "হেত": 11833,
  "য়াজ": 11834,
  "চ্যানেল": 11835,
  "ুরুর": 11836,
  "ডাক্ত": 11837,
  "ఉత్తమ": 11838,
  "ियत": 11839,
  "ஜே": 11840,
  "உரையா": 11841,
  "পারেননি": 11842,
  "कॉल": 11843,
  "सम्": 11844,
  "वकील": 11845,
  "బిజీ": 11846,
  "రక్త": 11847,
  "மின்றி": 11848,
  "দারুণ": 11849,
  "iv": 11850,
  "బారిన": 11851,
  "మంచిది": 11852,
  "చేరింది": 11853,
  "গ্রি": 11854,
  "ிருக்கிறார்கள்": 11855,
  "বাগ": 11856,
  "ঘণ্টা": 11857,
  "వేగంగా": 11858,
  "अधीक्षक": 11859,
  "సినిమాల్": 11860,
  "কোর": 11861,
  "ையால்": 11862,
  "టింగ్‌": 11863,
  "দাবিতে": 11864,
  "ఎవరైనా": 11865,
  "ধারাবাহ": 11866,
  "అద్భుతమైన": 11867,
  "இருப்பதால்": 11868,
  "ராத": 11869,
  "श्वर": 11870,
  "घुस": 11871,
  "जुड़ी": 11872,
  "निर्वा": 11873,
  "দপুর": 11874,
  "हिंदू": 11875,
  "சாதாரண": 11876,
  "गेट": 11877,
  "గమన": 11878,
  "मैने": 11879,
  "তোমা": 11880,
  "இடைய": 11881,
  "వేడుక": 11882,
  "जिन्होंने": 11883,
  "யான": 11884,
  "ఆన్‌": 11885,
  "చూపు": 11886,
  "வையில்": 11887,
  "రించడం": 11888,
  "संस्क": 11889,
  "প্রতিক": 11890,
  "విభాగం": 11891,
  "భవిష్యత్తు": 11892,
  "இன்னொரு": 11893,
  "ীনে": 11894,
  "లాలు": 11895,
  "বাচ্চ": 11896,
  "சூரிய": 11897,
  "పించి": 11898,
  "க்குச்": 11899,
  "நடக்கும்": 11900,
  "प्रत्याशी": 11901,
  "খোলা": 11902,
  "బలి": 11903,
  "भरो": 11904,
  "লাইন": 11905,
  "జూన్": 11906,
  "समझौ": 11907,
  "ट्विटर": 11908,
  "విద్యార్థు": 11909,
  "नक": 11910,
  "ாட்சி": 11911,
  "২০১১": 11912,
  "छात्रों": 11913,
  "िएशन": 11914,
  "জাপ": 11915,
  "மிர": 11916,
  "তীব্র": 11917,
  "ఒక్కో": 11918,
  "பகுதியை": 11919,
  "वापसी": 11920,
  "्यूटी": 11921,
  "ఫ్రె": 11922,
  "மேற்கொண்டு": 11923,
  "नाग": 11924,
  "களைச்": 11925,
  "ార్హం": 11926,
  "দুর্ব": 11927,
  "అయ్యే": 11928,
  "न्‍ह": 11929,
  "্রেট": 11930,
  "আঘাত": 11931,
  "டாக்டர்": 11932,
  "నిందితు": 11933,
  "मित": 11934,
  "लपुर": 11935,
  "டித்த": 11936,
  "দেখার": 11937,
  "नग": 11938,
  "রঙ": 11939,
  "ౌన్‌": 11940,
  "সাফল": 11941,
  "संदेश": 11942,
  "వ్యాఖ్యానించారు": 11943,
  "আইস": 11944,
  "অনুমোদন": 11945,
  "ৃঙ্খ": 11946,
  "हंग": 11947,
  "খাল": 11948,
  "इतनी": 11949,
  "గోదావరి": 11950,
  "ত্তর": 11951,
  "্রিক": 11952,
  "तनाव": 11953,
  "தவிர்க்க": 11954,
  "েরই": 11955,
  "উভয়": 11956,
  "উর": 11957,
  "ষ্ঠানিক": 11958,
  "मिस": 11959,
  "சியில்": 11960,
  "முன்னர்": 11961,
  "తెలియజే": 11962,
  "ప్రాధాన్య": 11963,
  "नाक": 11964,
  "अत": 11965,
  "शै": 11966,
  "सेल": 11967,
  "এইচ": 11968,
  "হাজির": 11969,
  "कां": 11970,
  "మానవ": 11971,
  "र्डर": 11972,
  "నిక్": 11973,
  "उतर": 11974,
  "ஆடை": 11975,
  "ముస్": 11976,
  "అవినీ": 11977,
  "ுள்ளார்": 11978,
  "గమనార్హం": 11979,
  "घरेलू": 11980,
  "सिस्टम": 11981,
  "பெற்றோ": 11982,
  "বিচারপতি": 11983,
  "সহজে": 11984,
  "అక్రమ": 11985,
  "ন্দ্ব": 11986,
  "ভেবে": 11987,
  "শরীরে": 11988,
  "బడుతుంది": 11989,
  "বেতন": 11990,
  "దాఖలు": 11991,
  "అనుకున్న": 11992,
  "எங்": 11993,
  "ల్‌గా": 11994,
  "ఆహార": 11995,
  "मात्रा": 11996,
  "জেনে": 11997,
  "পূরণ": 11998,
  "टैक्स": 11999,
  "बच्ची": 12000,
  "কোথাও": 12001,
  "ఇంజనీ": 12002,
  "மார்ச்": 12003,
  "গেম": 12004,
  "পেট": 12005,
  "বিকেলে": 12006,
  "விளக்க": 12007,
  "కృష్ణా": 12008,
  "লক্ষ্যে": 12009,
  "చోటుచేసుకు": 12010,
  "ाइवे": 12011,
  "హ్నం": 12012,
  "కెమెరా": 12013,
  "షెడ్యూ": 12014,
  "அவருடைய": 12015,
  "ఫలితాలు": 12016,
  "স্পষ্ট": 12017,
  "టైటిల్": 12018,
  "உட்பட்ட": 12019,
  "ஸில்": 12020,
  "ளிக்க": 12021,
  "फर्जी": 12022,
  "మిలీ": 12023,
  "நாளில்": 12024,
  "த்திற்கும்": 12025,
  "మాల": 12026,
  "এজ": 12027,
  "जैसा": 12028,
  "भोजन": 12029,
  "ार्मिक": 12030,
  "రైతుల": 12031,
  "రూపాయల": 12032,
  "श्रद्धाल": 12033,
  "অস": 12034,
  "ஆவண": 12035,
  "క్సెస్": 12036,
  "ভাড়া": 12037,
  "ఆహారం": 12038,
  "రొ": 12039,
  "கும்": 12040,
  "मंजूरी": 12041,
  "యూనిట్": 12042,
  "रम": 12043,
  "प्रस्त": 12044,
  "একাডেম": 12045,
  "பணிகள்": 12046,
  "యులు": 12047,
  "কঠোর": 12048,
  "कोलकाता": 12049,
  "అతడు": 12050,
  "ुण": 12051,
  "बारा": 12052,
  "பஸ்": 12053,
  "అవగా": 12054,
  "কোর্ট": 12055,
  "విషయా": 12056,
  "హిందీ": 12057,
  "সামরিক": 12058,
  "నిర్మాణ": 12059,
  "నిజానికి": 12060,
  "ఔష": 12061,
  "সুন": 12062,
  "శ్రే": 12063,
  "புதுட": 12064,
  "சொத்து": 12065,
  "ఆకట్టుకు": 12066,
  "ப்பட்டுள்ளன": 12067,
  "ற்கால": 12068,
  "इंजी": 12069,
  "जरीवाल": 12070,
  "ஆகியவை": 12071,
  "धार्मिक": 12072,
  "கீழே": 12073,
  "শারীরিক": 12074,
  "ங்கல்": 12075,
  "మనిషి": 12076,
  "పరుగుల": 12077,
  "শিক্ষার্থীরা": 12078,
  "్వర్యం": 12079,
  "చేయండి": 12080,
  "చేస్తున్నారని": 12081,
  "యన్‌": 12082,
  "अफग": 12083,
  "थर": 12084,
  "অ্য": 12085,
  "जाते": 12086,
  "வழங்கி": 12087,
  "छि": 12088,
  "मास": 12089,
  "नीतीश": 12090,
  "स्वच्छ": 12091,
  "இலக்கிய": 12092,
  "ఘు": 12093,
  "চাহ": 12094,
  "কেন্দ্রে": 12095,
  "மொழ": 12096,
  "యాత్ర": 12097,
  "रोहित": 12098,
  "ஆவார்": 12099,
  "चुनौती": 12100,
  "संबंधी": 12101,
  "ించవచ్చు": 12102,
  "செய்யப்பட்டது": 12103,
  "கடற்ப": 12104,
  "நிதிய": 12105,
  "প্রস্তুত": 12106,
  "রাস্তায়": 12107,
  "గుర్తించారు": 12108,
  "దుర్": 12109,
  "ுள்": 12110,
  "దళి": 12111,
  "কবিতা": 12112,
  "খেয়ে": 12113,
  "சாத்திய": 12114,
  "হৃত": 12115,
  "సహజ": 12116,
  "రౌ": 12117,
  "বরিশ": 12118,
  "எமது": 12119,
  "पुरी": 12120,
  "आयुक्त": 12121,
  "யல்": 12122,
  "வக": 12123,
  "चैन": 12124,
  "హెచ్‌": 12125,
  "ంజ్": 12126,
  "பொலிஸார்": 12127,
  "தலாக": 12128,
  "అక్ష": 12129,
  "आगामी": 12130,
  "শ্বর": 12131,
  "ममता": 12132,
  "लापर": 12133,
  "शिविर": 12134,
  "సీజన్": 12135,
  "స్వయంగా": 12136,
  "पहन": 12137,
  "சதவி": 12138,
  "मार्टम": 12139,
  "বয়সী": 12140,
  "పిలుపు": 12141,
  "సామర్థ": 12142,
  "క్య": 12143,
  "চিহ্ন": 12144,
  "সিরাজ": 12145,
  "దానం": 12146,
  "सां": 12147,
  "చీఫ్": 12148,
  "பயணம்": 12149,
  "తూర్పు": 12150,
  "িগ": 12151,
  "గూడ": 12152,
  "తాను": 12153,
  "বিস": 12154,
  "राकेश": 12155,
  "విశ్లే": 12156,
  "ிருந்தால்": 12157,
  "తెచ్చుకు": 12158,
  "b": 12159,
  "லூர்": 12160,
  "మనో": 12161,
  "நிகழ்ச்ச": 12162,
  "ప్రకటించిన": 12163,
  "మను": 12164,
  "ऑफिस": 12165,
  "చ్చింది": 12166,
  "పిక్": 12167,
  "অ্যাল": 12168,
  "ఫస్ట్": 12169,
  "రేటు": 12170,
  "தலைவர்கள்": 12171,
  "ంస": 12172,
  "রাজ্যে": 12173,
  "केजरीवाल": 12174,
  "రిన": 12175,
  "অ্যান": 12176,
  "ভাষায়": 12177,
  "பேச்சு": 12178,
  "টিল": 12179,
  "ంచండి": 12180,
  "उठाया": 12181,
  "ট্রাক": 12182,
  "எல்லோ": 12183,
  "అన్నీ": 12184,
  "आवाज": 12185,
  "दीपक": 12186,
  "দাঁড়": 12187,
  "পারেনি": 12188,
  "and": 12189,
  "অশ": 12190,
  "గొడవ": 12191,
  "यात्रिय": 12192,
  "పంచాయతీ": 12193,
  "ప్రసాద్": 12194,
  "ेंट्स": 12195,
  "ார்கள": 12196,
  "మూర్తి": 12197,
  "अध्यक्षता": 12198,
  "০০০": 12199,
  "होनी": 12200,
  "సిద్ద": 12201,
  "ప్రదర్శన": 12202,
[...]
